<unk>	0
<s>	0
</s>	0
▁the	-3.01931
.	-3.16895
▁a	-3.69588
▁and	-3.74568
▁of	-3.85424
▁to	-3.92458
s	-3.96255
'	-4.00237
▁is	-4.17016
▁it	-4.236
▁i	-4.28948
▁in	-4.2932
▁this	-4.46605
▁that	-4.55087
▁was	-4.92231
▁movie	-4.97017
-	-5.01331
▁for	-5.03977
t	-5.05142
▁with	-5.05995
▁as	-5.09068
▁but	-5.09839
▁film	-5.10307
▁you	-5.25406
▁	-5.2559
▁on	-5.2962
▁(	-5.39019
▁not	-5.41029
▁are	-5.44817
▁he	-5.47948
▁have	-5.48683
▁be	-5.5012
▁his	-5.50361
▁one	-5.50421
)	-5.63029
▁all	-5.66037
▁they	-5.72083
▁at	-5.72473
▁by	-5.73754
▁an	-5.75192
▁so	-5.78848
▁who	-5.8065
▁like	-5.81135
▁from	-5.82593
▁there	-5.91204
▁just	-5.94689
▁about	-5.97809
▁her	-5.98569
▁out	-5.98701
▁or	-5.98842
▁if	-5.99246
▁has	-6.01668
▁what	-6.04897
▁some	-6.06689
▁good	-6.08299
!	-6.10899
▁can	-6.11861
?	-6.13072
▁very	-6.17158
▁more	-6.18259
▁when	-6.19701
▁she	-6.24509
▁my	-6.25669
▁no	-6.27804
▁time	-6.27906
▁up	-6.28904
▁would	-6.2993
▁even	-6.31163
ing	-6.34484
▁see	-6.34517
▁really	-6.34642
▁story	-6.35124
▁me	-6.35303
▁only	-6.3723
▁their	-6.40315
▁had	-6.41073
▁were	-6.44776
▁which	-6.46152
▁well	-6.46193
▁we	-6.46314
▁-	-6.52619
▁much	-6.54589
▁than	-6.56082
▁do	-6.56405
...	-6.56545
▁bad	-6.56549
▁get	-6.56616
▁great	-6.57395
▁other	-6.59087
▁people	-6.59098
▁will	-6.59977
▁been	-6.60479
▁don	-6.60978
▁also	-6.64181
▁how	-6.64183
▁first	-6.64472
▁because	-6.64525
d	-6.65175
:	-6.65336
▁into	-6.6613
▁most	-6.67054
▁him	-6.69239
▁make	-6.71537
▁made	-6.72266
▁way	-6.74278
▁could	-6.75685
▁then	-6.76632
▁too	-6.78002
▁them	-6.80139
▁any	-6.80176
▁think	-6.80503
ed	-6.8256
▁watch	-6.82779
m	-6.82788
▁after	-6.83274
▁characters	-6.84915
▁movies	-6.86535
▁character	-6.86612
▁seen	-6.88285
▁plot	-6.90037
▁love	-6.90545
▁many	-6.91204
▁acting	-6.91523
▁show	-6.92061
▁two	-6.92693
▁being	-6.94356
ly	-6.9442
▁never	-6.95186
▁'	-6.95225
▁know	-6.95336
▁best	-6.95479
▁over	-6.96026
▁did	-6.96771
▁little	-6.97657
▁life	-6.981
▁ever	-6.99237
▁where	-6.99653
▁films	-7.00865
▁its	-7.02165
▁your	-7.03707
▁better	-7.04157
ve	-7.04394
▁man	-7.06015
▁off	-7.06504
▁does	-7.07201
▁end	-7.07662
▁say	-7.09909
re	-7.11597
▁still	-7.11628
▁here	-7.12093
▁scene	-7.1308
).	-7.14514
▁these	-7.15998
▁go	-7.1662
▁why	-7.18357
▁scenes	-7.1908
▁while	-7.20968
▁should	-7.21039
▁something	-7.21188
▁back	-7.23382
▁such	-7.24636
▁through	-7.24827
▁thing	-7.25478
▁watching	-7.25735
▁real	-7.2649
▁those	-7.27925
▁funny	-7.30234
▁actors	-7.30692
▁didn	-7.31283
▁now	-7.31428
▁doesn	-7.31962
▁years	-7.3449
the	-7.35377
/	-7.35661
▁work	-7.36291
i	-7.3676
▁lot	-7.36952
▁look	-7.37034
▁find	-7.37481
▁actually	-7.376
▁director	-7.38174
▁another	-7.3853
▁nothing	-7.38722
▁before	-7.39232
▁though	-7.39255
▁new	-7.39266
▁old	-7.39274
▁going	-7.40739
y	-7.41109
a	-7.41169
▁same	-7.4143
▁every	-7.41936
▁few	-7.42269
▁part	-7.42794
▁big	-7.42873
▁makes	-7.43225
▁cast	-7.45609
▁again	-7.46099
▁want	-7.47463
▁world	-7.49208
▁pretty	-7.4965
▁horror	-7.52053
▁down	-7.52142
▁quite	-7.5221
ll	-7.53166
▁us	-7.53297
▁thought	-7.53861
▁got	-7.54431
▁young	-7.54596
▁things	-7.54834
▁take	-7.55886
and	-7.55974
▁give	-7.56377
▁fact	-7.56565
▁around	-7.5662
▁long	-7.57338
e	-7.57501
▁enough	-7.57881
▁seems	-7.58261
▁however	-7.58819
▁saw	-7.6076
▁must	-7.62015
▁comedy	-7.62542
▁music	-7.62718
▁right	-7.62745
▁may	-7.62991
▁action	-7.63606
▁own	-7.63844
▁both	-7.63891
▁come	-7.64725
▁role	-7.6498
▁between	-7.65077
▁original	-7.65457
▁guy	-7.65631
▁always	-7.66181
▁isn	-7.66314
▁series	-7.66421
▁interesting	-7.66605
▁without	-7.67311
▁&	-7.67358
▁script	-7.68005
▁far	-7.68053
▁whole	-7.68234
▁bit	-7.68976
▁least	-7.69319
▁almost	-7.69525
▁point	-7.69705
▁done	-7.70221
▁feel	-7.7105
▁times	-7.71246
▁minutes	-7.72781
▁family	-7.72903
▁last	-7.73171
▁gets	-7.73549
▁am	-7.74212
▁might	-7.74725
▁anything	-7.75585
▁since	-7.77061
▁kind	-7.772
▁fun	-7.77586
▁performance	-7.77935
▁tv	-7.78329
▁girl	-7.79097
▁worst	-7.79675
▁probably	-7.80304
▁anyone	-7.80971
▁away	-7.82354
▁hard	-7.82658
▁sure	-7.82744
▁found	-7.83918
▁dvd	-7.85133
▁woman	-7.85471
▁believe	-7.86079
▁each	-7.86751
in	-7.8703
▁yet	-7.8705
▁day	-7.87293
▁rather	-7.87475
▁making	-7.88627
▁book	-7.91363
▁worth	-7.92215
▁put	-7.92337
▁our	-7.92447
▁trying	-7.92494
▁ending	-7.92617
▁course	-7.92745
▁having	-7.92864
▁screen	-7.93774
▁let	-7.94162
▁set	-7.94217
--	-7.94553
▁everything	-7.9462
▁actor	-7.95243
▁watched	-7.95385
▁goes	-7.95787
▁sense	-7.96245
▁different	-7.96489
▁played	-7.96869
▁place	-7.9689
▁money	-7.96987
▁reason	-7.9719
▁job	-7.97559
▁main	-7.97567
▁play	-7.9778
▁someone	-7.97844
▁wasn	-7.98318
▁three	-7.98671
▁looking	-7.98836
▁maybe	-7.98998
▁true	-7.99329
▁everyone	-7.99674
▁effects	-8.00007
▁comes	-8.00269
▁especially	-8.00379
▁once	-8.00468
▁shows	-8.01779
▁high	-8.01835
▁although	-8.01848
▁together	-8.02232
▁special	-8.0344
▁war	-8.04603
▁fan	-8.0481
▁seem	-8.04976
▁plays	-8.05075
▁looks	-8.05144
er	-8.0516
▁black	-8.05226
▁half	-8.05319
▁beautiful	-8.05567
▁audience	-8.0582
▁excellent	-8.05823
▁night	-8.0603
▁instead	-8.06139
▁said	-8.06406
▁seeing	-8.06511
▁american	-8.06548
▁2	-8.06745
▁during	-8.07791
▁idea	-8.07983
▁version	-8.08131
▁left	-8.09191
▁later	-8.09748
▁mind	-8.10251
▁else	-8.11198
▁short	-8.11258
(	-8.1142
▁john	-8.12026
▁takes	-8.12158
▁shot	-8.12305
▁year	-8.12479
▁death	-8.12945
▁wife	-8.13193
▁himself	-8.13648
▁poor	-8.13749
▁nice	-8.1416
▁house	-8.14274
▁father	-8.14884
▁read	-8.15051
▁enjoy	-8.1518
▁star	-8.15662
▁second	-8.15813
▁home	-8.16133
▁along	-8.16443
▁completely	-8.16748
▁boring	-8.16963
▁low	-8.17661
▁simply	-8.18548
▁10	-8.18922
▁used	-8.19012
▁men	-8.19874
▁kids	-8.20057
▁classic	-8.20219
▁help	-8.20262
▁hollywood	-8.20529
▁stupid	-8.20592
▁line	-8.20847
▁need	-8.2104
▁recommend	-8.21118
▁wrong	-8.21275
▁friends	-8.21676
▁try	-8.21786
or	-8.21995
it	-8.2257
▁either	-8.22878
▁school	-8.23109
▁rest	-8.23321
▁production	-8.23353
▁camera	-8.2405
▁women	-8.24073
▁dead	-8.24263
▁less	-8.24275
▁use	-8.24336
▁full	-8.24723
▁start	-8.24831
▁couple	-8.25101
▁mean	-8.25242
▁truly	-8.25595
▁given	-8.26177
▁remember	-8.26354
▁awful	-8.26481
▁performances	-8.26614
▁video	-8.26682
▁terrible	-8.2673
▁understand	-8.26945
▁tell	-8.27038
▁top	-8.27094
▁--	-8.27231
▁sex	-8.27792
▁next	-8.27943
▁until	-8.27952
▁budget	-8.28781
▁came	-8.29296
o	-8.29412
▁won	-8.29973
▁keep	-8.307
▁getting	-8.30817
▁wonderful	-8.30877
▁b	-8.3128
▁episode	-8.31397
▁person	-8.31869
▁sound	-8.32219
▁head	-8.3298
▁mother	-8.33081
▁moments	-8.33356
▁laugh	-8.33689
▁definitely	-8.33999
▁small	-8.3405
▁name	-8.34376
n	-8.35121
▁piece	-8.35128
▁dialogue	-8.35155
▁itself	-8.35429
▁perfect	-8.35959
▁face	-8.36543
▁human	-8.36959
▁couldn	-8.37054
▁playing	-8.37308
▁absolutely	-8.37652
▁boy	-8.37852
▁children	-8.3792
▁perhaps	-8.38151
▁waste	-8.38337
▁live	-8.3848
▁doing	-8.38507
▁title	-8.3897
▁went	-8.39283
▁entertaining	-8.39653
▁worse	-8.3974
▁stars	-8.39853
▁early	-8.39905
▁hope	-8.39953
▁lines	-8.40058
▁friend	-8.40103
▁cinema	-8.40145
▁case	-8.40259
▁liked	-8.40373
▁often	-8.40431
▁loved	-8.40536
▁picture	-8.41971
▁sort	-8.42197
▁under	-8.42706
▁certainly	-8.42872
▁style	-8.43284
▁felt	-8.44093
▁overall	-8.44449
▁finally	-8.44521
▁gives	-8.45149
▁3	-8.4568
▁supposed	-8.45744
▁dark	-8.45769
▁written	-8.45779
▁beginning	-8.45918
▁direction	-8.45952
▁several	-8.4615
▁mr	-8.46163
▁lost	-8.4623
▁humor	-8.46527
▁become	-8.4666
▁problem	-8.46725
▁care	-8.46915
▁entire	-8.47208
▁drama	-8.47723
▁game	-8.48291
▁lead	-8.48372
▁others	-8.48706
▁totally	-8.48769
▁white	-8.4905
▁guys	-8.49211
▁based	-8.49242
▁seemed	-8.49245
▁guess	-8.4967
▁oh	-8.50115
▁yes	-8.50836
▁turn	-8.50933
▁car	-8.51163
▁evil	-8.51533
▁fans	-8.52384
▁example	-8.52715
▁wanted	-8.5273
▁flick	-8.52783
▁horrible	-8.52917
▁lives	-8.53954
▁heart	-8.5402
▁against	-8.54158
▁son	-8.54484
▁throughout	-8.54731
▁quality	-8.55011
▁killer	-8.55121
▁fine	-8.55148
▁amazing	-8.55151
▁already	-8.55333
▁final	-8.55506
▁called	-8.55519
▁today	-8.55526
▁writing	-8.5602
▁side	-8.56561
▁1	-8.57211
▁history	-8.57429
▁unfortunately	-8.57534
▁enjoyed	-8.57584
▁despite	-8.57613
▁able	-8.57914
▁favorite	-8.58211
▁re	-8.58629
as	-8.58937
▁kid	-8.59294
▁close	-8.59385
▁days	-8.59456
▁run	-8.59632
▁gave	-8.5969
▁past	-8.59731
▁expect	-8.59756
▁art	-8.59763
▁town	-8.59821
▁act	-8.60444
▁stuff	-8.60806
▁becomes	-8.60928
▁god	-8.61131
▁child	-8.61238
▁matter	-8.61306
▁viewer	-8.61349
▁kill	-8.61908
▁etc	-8.62087
th	-8.62849
▁brilliant	-8.62864
▁michael	-8.62958
r	-8.6322
▁tries	-8.63228
▁genre	-8.63787
but	-8.64295
▁hand	-8.64561
▁myself	-8.65402
▁wants	-8.65639
▁slow	-8.65723
▁late	-8.66122
▁actress	-8.67036
▁highly	-8.67092
▁eyes	-8.67297
▁behind	-8.67379
▁girls	-8.67571
▁parts	-8.6767
▁city	-8.67686
▁thinking	-8.67712
▁anyway	-8.67855
▁un	-8.67918
▁turns	-8.67947
▁decent	-8.68152
▁group	-8.68585
▁soon	-8.68628
▁strong	-8.68695
▁works	-8.68759
▁killed	-8.69026
▁sometimes	-8.69059
▁directed	-8.69215
▁themselves	-8.69248
▁obviously	-8.70031
▁feeling	-8.70116
▁blood	-8.70121
▁hour	-8.7034
▁heard	-8.70345
es	-8.7039
man	-8.70519
▁voice	-8.70562
▁daughter	-8.70804
▁fight	-8.70939
▁crap	-8.7094
▁experience	-8.70976
on	-8.71308
g	-8.71486
▁self	-8.71568
▁took	-8.72193
▁type	-8.72457
▁cool	-8.72482
▁)	-8.72502
▁happen	-8.72782
▁wonder	-8.7303
▁starts	-8.73176
▁murder	-8.73187
▁hilarious	-8.73774
▁chance	-8.73898
▁score	-8.73919
▁hit	-8.73965
▁ok	-8.73969
▁happens	-8.74513
▁coming	-8.74631
▁wouldn	-8.74655
▁stop	-8.74794
▁lack	-8.75019
▁hell	-8.75082
▁extremely	-8.75277
▁looked	-8.75627
▁involved	-8.75673
▁leave	-8.75678
▁simple	-8.75686
▁please	-8.7598
▁stories	-8.7613
▁told	-8.76329
▁moment	-8.76361
▁save	-8.76413
al	-8.76427
up	-8.76563
▁ago	-8.76973
▁brother	-8.77041
▁violence	-8.77174
!!	-8.77531
k	-8.77655
▁song	-8.77659
▁happened	-8.78017
▁cannot	-8.78356
▁writer	-8.78633
▁attempt	-8.78756
▁complete	-8.78767
to	-8.78922
▁huge	-8.79345
▁wish	-8.7944
▁obvious	-8.79627
▁gore	-8.79635
▁sad	-8.80013
▁serious	-8.80155
▁living	-8.80159
▁police	-8.80244
▁age	-8.80458
▁seriously	-8.80857
▁husband	-8.81045
▁de	-8.81127
▁interest	-8.81252
▁cut	-8.81355
c	-8.81713
▁yourself	-8.81842
▁roles	-8.81869
▁cinematography	-8.81951
▁jokes	-8.82253
▁shown	-8.82773
▁annoying	-8.83081
▁talent	-8.83091
▁career	-8.83212
▁released	-8.83288
▁...	-8.83675
▁except	-8.83694
▁taken	-8.83704
▁hero	-8.83811
▁opinion	-8.83902
▁david	-8.83983
▁english	-8.84174
ness	-8.84566
▁documentary	-8.84584
▁call	-8.84828
▁number	-8.85005
▁none	-8.85075
▁relationship	-8.85235
▁known	-8.85325
▁ridiculous	-8.85542
▁particularly	-8.85588
▁alone	-8.85664
▁hours	-8.85691
▁light	-8.85865
▁usually	-8.85876
▁disappointed	-8.86004
▁view	-8.86034
▁saying	-8.86098
▁order	-8.86148
▁across	-8.8618
▁exactly	-8.86245
▁rating	-8.86264
▁reality	-8.86375
▁says	-8.8647
▁word	-8.86774
▁robert	-8.87211
▁usual	-8.87289
▁started	-8.87412
▁cheap	-8.87561
▁james	-8.8758
▁female	-8.87648
▁possible	-8.87862
▁scary	-8.88272
▁major	-8.88377
▁change	-8.88665
▁silly	-8.88732
▁ten	-8.88847
▁non	-8.89033
▁opening	-8.89044
▁country	-8.89147
▁attention	-8.892
▁running	-8.89332
▁body	-8.89393
▁knew	-8.89553
▁middle	-8.89674
▁beyond	-8.89914
▁power	-8.90484
▁jack	-8.90655
▁strange	-8.90854
▁level	-8.90985
▁miss	-8.91121
▁among	-8.91246
▁four	-8.9135
▁television	-8.91539
▁somewhat	-8.91852
▁happy	-8.92223
▁important	-8.92241
▁4	-8.92249
▁5	-8.92255
▁novel	-8.92338
▁single	-8.92513
▁turned	-8.92513
▁musical	-8.92537
ther	-8.92771
▁due	-8.92773
▁o	-8.92777
▁local	-8.92811
▁taking	-8.92966
▁shots	-8.93069
like	-8.9314
▁basically	-8.9325
▁dialog	-8.93447
▁modern	-8.93449
▁words	-8.93728
▁add	-8.93829
▁predictable	-8.94116
▁room	-8.9413
▁near	-8.94136
which	-8.9446
▁talking	-8.9486
▁earth	-8.9526
!!!	-8.95371
▁fast	-8.95396
▁soundtrack	-8.9549
▁whose	-8.95788
▁king	-8.95828
▁dull	-8.96055
▁clich	-8.96318
▁enjoyable	-8.96389
fi	-8.96423
▁mostly	-8.96602
▁french	-8.96686
▁subject	-8.96979
▁review	-8.97036
▁entertainment	-8.97147
▁episodes	-8.97469
▁die	-8.9747
▁clearly	-8.97813
▁british	-8.97919
▁hate	-8.97992
▁20	-8.98121
▁haven	-8.98137
*	-8.98287
▁aren	-8.98342
▁future	-8.98499
▁talk	-8.98529
▁apparently	-8.98548
▁problems	-8.98561
▁team	-8.98587
▁eye	-8.98594
▁romantic	-8.98628
▁thriller	-8.98671
▁sequel	-8.98682
▁straight	-8.98923
▁comic	-8.98939
▁events	-8.99575
▁upon	-8.99586
▁including	-8.99986
▁message	-9.0002
▁storyline	-9.00058
▁songs	-9.00068
▁space	-9.00269
▁*	-9.00411
▁bring	-9.00454
▁surprised	-9.00641
▁mention	-9.01079
▁above	-9.01265
▁bunch	-9.01528
▁ends	-9.01644
▁theater	-9.01715
▁monster	-9.01727
▁supporting	-9.01887
▁similar	-9.02102
▁moving	-9.02239
▁five	-9.02385
▁buy	-9.02625
▁dr	-9.02678
who	-9.02991
▁clear	-9.03047
▁sequence	-9.03094
▁sister	-9.03243
▁easily	-9.03425
▁whe	-9.03442
▁fall	-9.03618
▁doubt	-9.0366
▁rent	-9.03769
▁rock	-9.03956
▁stand	-9.04012
▁avoid	-9.04201
▁suspense	-9.04428
▁stay	-9.04487
▁george	-9.04665
▁effort	-9.0476
▁giving	-9.0494
!)	-9.05064
▁tried	-9.05081
▁parents	-9.05233
▁easy	-9.05566
▁certain	-9.056
▁falls	-9.05751
▁release	-9.05789
▁tells	-9.05815
▁dog	-9.06061
▁oscar	-9.06264
▁theme	-9.06611
▁finds	-9.06612
▁viewing	-9.06618
▁fantastic	-9.06669
▁check	-9.06699
▁showing	-9.06702
▁comments	-9.06745
▁sit	-9.06845
▁lady	-9.06911
▁kept	-9.07033
▁deal	-9.07347
▁imagine	-9.07623
▁material	-9.08023
▁tale	-9.08447
l	-9.08504
an	-9.08517
▁class	-9.08541
▁sets	-9.08615
▁editing	-9.08627
▁sorry	-9.08934
▁greatest	-9.09002
▁realistic	-9.09056
▁decided	-9.09125
▁feature	-9.0926
▁filmed	-9.0927
▁working	-9.09474
▁follow	-9.09703
▁gone	-9.0973
▁typical	-9.09967
▁needs	-9.10003
▁appears	-9.10098
▁move	-9.10413
▁red	-9.10474
▁believable	-9.10642
▁knows	-9.10734
▁within	-9.10853
▁hear	-9.10952
▁mystery	-9.1102
▁lots	-9.11084
▁wait	-9.11167
▁okay	-9.11247
▁hot	-9.11379
▁famous	-9.11383
▁forget	-9.11384
▁weak	-9.1148
▁animation	-9.11622
▁lame	-9.11703
▁f	-9.11703
he	-9.11754
▁reviews	-9.11788
▁general	-9.11803
▁premise	-9.11843
▁crime	-9.1194
▁doctor	-9.12086
▁using	-9.12552
▁nearly	-9.12982
▁period	-9.13003
▁named	-9.13015
▁actual	-9.13285
▁viewers	-9.13329
▁elements	-9.13649
▁imdb	-9.13856
▁peter	-9.13909
▁surprise	-9.14412
▁gay	-9.14649
▁d	-9.1472
▁season	-9.14822
▁shame	-9.14924
▁average	-9.15007
▁brought	-9.15058
▁co	-9.15345
▁somehow	-9.15349
▁richard	-9.15589
▁atmosphere	-9.15599
▁deep	-9.15758
▁learn	-9.15783
▁poorly	-9.15786
▁america	-9.15871
▁sci	-9.16087
▁open	-9.16169
▁dance	-9.16763
▁spend	-9.1682
▁figure	-9.16934
▁expected	-9.17029
▁la	-9.17035
▁box	-9.1762
▁york	-9.17816
▁killing	-9.18007
▁herself	-9.18035
▁romance	-9.18107
▁leads	-9.18269
▁paul	-9.1831
▁truth	-9.18325
▁comment	-9.18444
▁means	-9.18791
▁weird	-9.19047
▁air	-9.19049
▁situation	-9.1915
▁sequences	-9.19198
▁crew	-9.19372
▁third	-9.19611
▁reading	-9.19877
▁write	-9.20119
▁particular	-9.20236
▁c	-9.20291
p	-9.20316
▁cheesy	-9.20579
▁minute	-9.20615
▁form	-9.20765
▁street	-9.20794
▁superb	-9.20803
▁free	-9.20862
▁begins	-9.20963
ers	-9.21072
▁western	-9.21215
this	-9.21264
▁points	-9.21373
▁pay	-9.21843
▁difficult	-9.21976
▁feels	-9.22406
▁male	-9.22414
▁became	-9.2254
▁cop	-9.22786
▁dumb	-9.2304
▁society	-9.23125
▁masterpiece	-9.2322
▁begin	-9.23269
▁otherwise	-9.23399
▁copy	-9.23498
▁interested	-9.23698
▁whatever	-9.23761
▁eventually	-9.23796
▁lee	-9.23913
▁dream	-9.23913
▁footage	-9.23952
▁indeed	-9.24047
▁potential	-9.24122
▁possibly	-9.24223
▁mess	-9.24345
▁meet	-9.24367
▁19	-9.2461
▁disney	-9.24714
▁island	-9.24717
▁needed	-9.24768
▁boys	-9.24783
▁forced	-9.24978
▁total	-9.25011
▁sexual	-9.254
▁!	-9.25483
▁question	-9.25486
▁beauty	-9.25559
▁water	-9.25584
▁stage	-9.25623
▁joke	-9.25686
▁nor	-9.25686
▁screenplay	-9.25795
▁effect	-9.25795
▁memorable	-9.25897
▁fire	-9.25957
▁badly	-9.26477
▁emotional	-9.26503
▁previous	-9.26917
▁result	-9.26989
▁incredibly	-9.27028
▁credits	-9.27127
▁plus	-9.27225
not	-9.27357
▁features	-9.2738
▁realize	-9.27462
▁laughs	-9.27519
▁plain	-9.27715
of	-9.27969
▁admit	-9.27972
▁cover	-9.2804
▁personal	-9.28225
▁leaves	-9.28292
▁note	-9.28347
▁agree	-9.28378
▁forward	-9.28499
▁background	-9.28618
▁bill	-9.28647
▁perfectly	-9.28649
▁front	-9.28673
▁ways	-9.28678
▁baby	-9.28773
▁acted	-9.28783
▁nature	-9.2916
▁crazy	-9.29298
▁setting	-9.29374
if	-9.2945
▁development	-9.29512
▁plenty	-9.29557
for	-9.29987
▁meets	-9.30056
▁creepy	-9.301
▁unless	-9.30154
▁directing	-9.3038
▁cat	-9.30422
▁hands	-9.30452
▁quickly	-9.30497
en	-9.30537
▁rich	-9.30624
▁mark	-9.30834
▁u	-9.31046
▁worked	-9.3111
▁unique	-9.31141
▁wasted	-9.31531
▁battle	-9.31722
▁keeps	-9.31839
▁girlfriend	-9.31924
so	-9.31966
▁inside	-9.32117
▁break	-9.32207
est	-9.32228
0	-9.32242
▁business	-9.32576
▁earlier	-9.32702
▁japanese	-9.32714
▁fairly	-9.32777
▁ask	-9.32864
▁gun	-9.32898
▁older	-9.32929
▁spent	-9.32983
▁appear	-9.33105
no	-9.33215
▁towards	-9.33241
▁sounds	-9.33324
▁large	-9.3345
▁powerful	-9.33551
▁cute	-9.33781
▁writers	-9.33792
▁expecting	-9.33988
out	-9.34054
▁deserves	-9.34184
▁following	-9.34307
▁dramatic	-9.34399
?)	-9.3447
▁portrayed	-9.3451
▁leading	-9.34877
le	-9.34894
▁fails	-9.35047
▁cartoon	-9.35087
▁twist	-9.35149
▁laughing	-9.35499
▁van	-9.35577
▁flat	-9.35792
▁recently	-9.35845
▁various	-9.36428
▁italian	-9.36438
▁clever	-9.36705
▁era	-9.36771
▁odd	-9.36921
▁talented	-9.37106
▁t	-9.37135
▁pace	-9.37164
▁zombie	-9.37342
▁german	-9.37362
▁present	-9.37528
▁caught	-9.37573
▁remake	-9.37638
▁mad	-9.37702
▁secret	-9.37711
▁joe	-9.37781
▁apart	-9.37924
▁hair	-9.38097
▁brings	-9.38118
▁missing	-9.38144
▁band	-9.38201
▁villain	-9.38238
▁super	-9.38371
▁create	-9.38561
▁success	-9.38581
▁pure	-9.38658
is	-9.38754
▁nudity	-9.39034
▁fighting	-9.39301
h	-9.39316
▁focus	-9.39602
▁list	-9.39654
▁hardly	-9.39682
▁store	-9.39689
▁incredible	-9.39921
▁party	-9.39978
▁public	-9.40057
▁ex	-9.40059
▁hold	-9.40128
▁tom	-9.40138
▁return	-9.4037
▁meant	-9.40397
▁manages	-9.40564
▁brain	-9.4057
1	-9.40654
▁reasons	-9.40735
▁ended	-9.40848
▁train	-9.40941
▁sweet	-9.41112
▁missed	-9.41171
▁casting	-9.41248
▁whom	-9.41607
▁fantasy	-9.4161
f	-9.41636
▁escape	-9.41753
▁appreciate	-9.41763
▁political	-9.41926
▁unlike	-9.41944
▁value	-9.42016
▁william	-9.42078
▁married	-9.42316
▁bored	-9.42342
▁g	-9.42368
▁anti	-9.4246
▁waiting	-9.42472
▁outside	-9.42477
▁visual	-9.42521
▁telling	-9.42585
▁members	-9.43135
one	-9.43359
▁attempts	-9.43363
▁college	-9.43515
▁cold	-9.43644
▁speak	-9.4386
3	-9.44086
▁science	-9.44138
▁rate	-9.44173
▁company	-9.44228
▁sick	-9.4445
▁trouble	-9.44451
▁8	-9.44475
▁channel	-9.44488
▁30	-9.44585
▁state	-9.44774
▁fit	-9.44813
▁credit	-9.45229
▁scott	-9.45243
??	-9.45329
b	-9.45382
▁created	-9.45402
▁recommended	-9.45426
▁considering	-9.45439
▁portrayal	-9.45754
▁further	-9.45773
▁familiar	-9.45777
at	-9.45787
▁christmas	-9.45884
▁office	-9.45906
▁match	-9.45993
▁slightly	-9.46019
▁wrote	-9.4602
▁common	-9.46097
▁filmmakers	-9.46117
gest	-9.46141
▁sadly	-9.4619
▁tension	-9.46282
▁convincing	-9.46417
▁consider	-9.46843
▁sub	-9.46924
▁fake	-9.47136
▁choice	-9.47362
▁died	-9.4738
▁directors	-9.47453
▁amount	-9.47469
▁language	-9.47477
▁p	-9.47501
▁dancing	-9.47796
▁awesome	-9.47895
▁trash	-9.4798
▁project	-9.48012
▁fear	-9.48162
▁ideas	-9.48221
▁intelligent	-9.48331
▁pathetic	-9.48525
▁produced	-9.48635
▁popular	-9.48738
▁master	-9.48768
▁7	-9.48918
▁century	-9.48977
time	-9.49047
▁amusing	-9.49079
▁camp	-9.49168
▁concept	-9.49315
▁exciting	-9.49387
▁gang	-9.49547
▁bizarre	-9.49602
▁garbage	-9.49709
▁neither	-9.49932
▁mentioned	-9.50012
▁compared	-9.50019
▁pointless	-9.50171
▁basic	-9.50415
▁ben	-9.50431
▁social	-9.50742
▁glad	-9.50796
▁force	-9.50957
▁pick	-9.51352
▁decide	-9.51436
▁former	-9.51452
▁studio	-9.51503
▁positive	-9.51554
▁spirit	-9.51778
▁alive	-9.51783
▁impressive	-9.51794
▁younger	-9.52034
▁decides	-9.52034
▁entirely	-9.52173
▁win	-9.52226
▁solid	-9.52453
▁follows	-9.52468
▁situations	-9.52539
▁walk	-9.52579
▁violent	-9.52597
▁producers	-9.52657
▁respect	-9.52686
▁post	-9.52923
▁humour	-9.53014
▁15	-9.53139
▁r	-9.53233
▁road	-9.53288
▁track	-9.53428
ie	-9.53489
able	-9.53744
▁cause	-9.53756
be	-9.53902
▁filled	-9.53918
▁drug	-9.53958
▁honest	-9.53987
▁moves	-9.54019
with	-9.54039
w	-9.54113
ic	-9.54351
▁week	-9.54465
▁bought	-9.54481
....	-9.545
v	-9.54541
▁brothers	-9.54552
▁disturbing	-9.54609
▁successful	-9.54619
▁depth	-9.5477
▁recent	-9.54841
▁park	-9.55088
▁remind	-9.55308
▁cult	-9.55432
▁e	-9.55455
▁accent	-9.55457
▁chemistry	-9.55623
▁vampire	-9.55822
▁control	-9.55924
▁shoot	-9.55951
▁images	-9.56041
▁weren	-9.56079
▁showed	-9.56104
▁appeal	-9.56152
▁bother	-9.56193
▁jane	-9.56216
▁fair	-9.56404
▁conclusion	-9.56497
▁genius	-9.56538
▁values	-9.56654
▁yeah	-9.5672
▁bar	-9.56764
▁longer	-9.56781
▁ultimately	-9.56828
▁suddenly	-9.5683
▁adult	-9.5687
▁tough	-9.56991
▁trip	-9.57025
▁culture	-9.57235
▁alien	-9.57372
▁sam	-9.57451
▁impossible	-9.57489
▁changed	-9.57511
ting	-9.5771
▁revenge	-9.57727
▁j	-9.57769
▁prison	-9.57807
▁l	-9.57865
▁barely	-9.57992
▁west	-9.58001
▁taste	-9.58247
▁south	-9.58346
▁mood	-9.58473
▁failed	-9.58723
▁uses	-9.59072
▁dad	-9.59078
▁effective	-9.59152
▁explain	-9.59216
▁somewhere	-9.59322
▁shooting	-9.59446
▁touch	-9.59519
▁honestly	-9.59605
▁chase	-9.59692
▁adventure	-9.59721
▁questions	-9.59769
▁starring	-9.59776
▁90	-9.5984
▁added	-9.59905
movie	-9.59962
▁stunning	-9.59972
▁kills	-9.59986
▁singing	-9.60078
that	-9.60137
▁stick	-9.60323
▁wild	-9.60343
▁pass	-9.60434
▁fiction	-9.60483
▁considered	-9.6082
▁bed	-9.60862
▁journey	-9.6118
▁meaning	-9.61304
▁sexy	-9.61426
▁edge	-9.61434
▁aside	-9.6155
▁?	-9.6166
▁involving	-9.61678
▁80'	-9.61728
▁silent	-9.61943
▁personally	-9.61947
by	-9.62017
▁pre	-9.62082
▁computer	-9.62105
▁frank	-9.6217
▁smart	-9.62184
▁charming	-9.62316
▁twists	-9.62325
▁jim	-9.62375
▁blue	-9.62381
▁green	-9.62402
▁leaving	-9.62539
▁available	-9.62778
▁bottom	-9.62914
▁scenery	-9.62943
▁9	-9.63163
▁sitting	-9.63292
▁nobody	-9.63296
▁tone	-9.63358
▁army	-9.63431
▁government	-9.63777
▁normal	-9.63832
▁soul	-9.63915
you	-9.63969
▁immediately	-9.64031
▁catch	-9.64177
▁100	-9.64223
▁slasher	-9.64267
▁london	-9.64277
▁standard	-9.6428
▁issues	-9.64562
▁purpose	-9.64619
▁aspect	-9.64639
▁surprisingly	-9.64726
▁beautifully	-9.64739
▁opera	-9.64984
▁photography	-9.65035
▁mary	-9.65074
▁jones	-9.65086
▁ray	-9.65254
▁terrific	-9.65528
▁thanks	-9.65668
▁heavy	-9.65933
▁planet	-9.66026
▁rare	-9.66086
▁laughable	-9.66193
▁ghost	-9.66242
▁magic	-9.66287
▁subtle	-9.66304
▁everybody	-9.6631
▁charles	-9.66329
▁nowhere	-9.66372
▁law	-9.66389
▁appearance	-9.66446
▁disappointing	-9.66627
▁soldiers	-9.66632
▁impression	-9.66848
▁ride	-9.67018
▁throw	-9.67045
▁plan	-9.67308
▁comedies	-9.67334
▁lovely	-9.67445
▁adaptation	-9.67496
▁thank	-9.67499
▁land	-9.67512
▁touching	-9.67513
▁ability	-9.67531
▁books	-9.67573
▁date	-9.67677
▁door	-9.67752
▁innocent	-9.67881
▁festival	-9.67889
▁wow	-9.68042
▁giant	-9.68199
▁unbelievable	-9.68232
▁suppose	-9.68233
▁animated	-9.6826
▁generally	-9.68401
▁spoilers	-9.6848
▁managed	-9.68607
▁naked	-9.68653
ish	-9.68785
▁painful	-9.69199
▁presence	-9.69281
▁excuse	-9.69502
▁victim	-9.69505
▁finish	-9.69507
▁cry	-9.69539
▁outstanding	-9.6957
▁remains	-9.69629
▁club	-9.69754
▁award	-9.69794
▁cinematic	-9.69811
▁utterly	-9.69871
▁terms	-9.69999
▁complex	-9.70207
▁narrative	-9.70208
▁likely	-9.70267
▁loud	-9.70523
▁smith	-9.70666
▁drive	-9.70804
▁thrown	-9.709
▁disappointment	-9.70976
▁details	-9.71277
▁costumes	-9.71351
▁indian	-9.71382
▁literally	-9.71474
off	-9.7148
▁k	-9.71509
▁double	-9.71598
▁al	-9.71706
▁boyfriend	-9.71976
even	-9.71977
▁80	-9.72367
▁building	-9.72369
▁detective	-9.72379
▁runs	-9.72404
▁support	-9.72446
▁pain	-9.72493
well	-9.72528
▁emotions	-9.72568
▁charm	-9.72617
▁teen	-9.72624
▁hurt	-9.72632
▁grade	-9.72783
▁student	-9.728
▁pictures	-9.72823
▁knowing	-9.72869
▁summer	-9.72921
▁expectations	-9.72921
▁natural	-9.73031
▁10.	-9.7308
▁mistake	-9.73305
▁historical	-9.73374
▁climax	-9.73455
▁producer	-9.73561
▁charlie	-9.73886
▁tired	-9.73887
▁minor	-9.73894
▁hoping	-9.73902
▁martin	-9.74018
▁zombies	-9.7412
▁hospital	-9.7414
▁attack	-9.74145
▁constantly	-9.7421
▁ship	-9.74271
▁intended	-9.74295
▁sent	-9.743
▁laughed	-9.74309
▁walking	-9.7465
▁military	-9.74724
▁mysterious	-9.74749
▁ed	-9.74969
making	-9.74977
▁h	-9.75192
▁fascinating	-9.75259
▁boss	-9.75273
▁makers	-9.75281
▁emotion	-9.75503
▁color	-9.75774
▁fell	-9.75807
▁bruce	-9.75856
▁contains	-9.75877
▁chris	-9.75956
▁audiences	-9.76208
▁forever	-9.76241
▁confusing	-9.76383
▁changes	-9.76418
▁folks	-9.76495
▁slowly	-9.76533
▁presented	-9.76543
▁race	-9.7674
▁brief	-9.76876
▁mom	-9.76906
▁notice	-9.76963
▁steve	-9.77116
▁suggest	-9.77174
▁gem	-9.77199
▁harry	-9.77262
▁bond	-9.7735
▁paris	-9.77513
▁manner	-9.77555
▁content	-9.77603
▁exception	-9.7762
▁shocking	-9.77851
▁shock	-9.77851
▁grace	-9.77909
▁equally	-9.7799
budget	-9.78039
ian	-9.78068
▁stands	-9.78257
▁compelling	-9.78387
ra	-9.7839
2	-9.78599
ion	-9.78654
▁collection	-9.78675
▁offer	-9.78811
▁pull	-9.78974
▁fresh	-9.7899
▁central	-9.79115
▁names	-9.7947
▁hey	-9.7954
▁detail	-9.79593
▁fully	-9.79623
us	-9.79711
▁thus	-9.79726
▁critics	-9.79772
▁students	-9.79825
▁justice	-9.79873
▁surely	-9.79958
▁direct	-9.79974
▁happening	-9.80079
▁rated	-9.80141
there	-9.80175
▁pop	-9.80242
z	-9.80314
▁ahead	-9.80357
less	-9.8041
▁six	-9.80723
▁tony	-9.80741
▁rip	-9.80867
▁impact	-9.80888
▁besides	-9.80961
▁wood	-9.80995
▁aspects	-9.8103
▁stewart	-9.8104
▁opportunity	-9.81315
▁beat	-9.81326
▁agent	-9.81368
▁sea	-9.81475
▁include	-9.81525
▁ground	-9.81717
▁feelings	-9.8176
▁funniest	-9.81773
▁confused	-9.81789
▁pieces	-9.81966
▁hitchcock	-9.82062
ies	-9.82092
▁million	-9.82152
▁mix	-9.82256
▁spot	-9.82269
▁trailer	-9.82274
▁likable	-9.82374
▁mainly	-9.82411
▁affair	-9.82413
▁image	-9.82434
▁rented	-9.8245
▁gorgeous	-9.82512
▁industry	-9.82514
▁location	-9.82598
▁impressed	-9.82692
▁step	-9.8272
▁jean	-9.83102
▁batman	-9.83145
▁holes	-9.83148
▁themes	-9.83238
▁50	-9.83288
▁radio	-9.83346
▁twice	-9.83585
▁motion	-9.83598
▁finding	-9.83653
▁answer	-9.8398
old	-9.83991
▁porn	-9.84086
▁wondering	-9.84256
▁lover	-9.84291
▁paid	-9.8466
▁extra	-9.84746
▁anymore	-9.84837
▁:	-9.84861
▁dreams	-9.84897
▁russian	-9.85081
▁mediocre	-9.85109
▁quick	-9.85233
▁lived	-9.85262
▁difference	-9.8537
▁billy	-9.85405
▁suicide	-9.85428
▁m	-9.85432
▁reminded	-9.85566
▁appeared	-9.85596
▁sleep	-9.85601
▁serial	-9.85719
▁marriage	-9.85841
▁developed	-9.85851
▁creative	-9.85944
▁acts	-9.85996
▁plane	-9.85999
▁ms	-9.86
▁damn	-9.86111
▁share	-9.86214
▁drawn	-9.86253
▁lighting	-9.86371
▁random	-9.86392
4	-9.86438
▁places	-9.86447
all	-9.86491
▁flicks	-9.86526
▁key	-9.86623
na	-9.86699
▁forgotten	-9.86836
▁hasn	-9.8685
▁falling	-9.87064
▁church	-9.87121
▁extreme	-9.87342
ist	-9.87391
▁scientist	-9.87456
▁speaking	-9.87466
▁attractive	-9.87615
▁sat	-9.87714
▁drugs	-9.8773
▁machine	-9.87784
▁delivers	-9.87875
▁accident	-9.87918
▁stuck	-9.87924
▁ugly	-9.87936
▁intense	-9.87992
▁treat	-9.88263
▁torture	-9.88272
▁relationships	-9.88298
▁hotel	-9.88411
▁disaster	-9.88416
▁puts	-9.88464
com	-9.88554
▁wall	-9.88763
▁christopher	-9.88773
she	-9.88784
▁x	-9.88787
▁lacks	-9.88872
ity	-9.89019
▁tragic	-9.89049
ch	-9.89066
▁adults	-9.8909
co	-9.89161
▁latter	-9.89202
▁information	-9.89202
▁fellow	-9.89356
▁imagination	-9.89378
▁compare	-9.89425
▁absolute	-9.89428
▁putting	-9.89449
▁wooden	-9.89538
▁cops	-9.89546
▁grand	-9.89557
▁fashion	-9.89613
▁moral	-9.8962
▁process	-9.89658
▁dies	-9.89679
▁creature	-9.89763
▁captain	-9.89864
▁tend	-9.89887
▁mid	-9.8997
▁deliver	-9.9005
▁flaws	-9.9008
▁negative	-9.90114
▁count	-9.90128
▁gold	-9.90196
▁ready	-9.90201
▁lose	-9.90257
▁shouldn	-9.90543
▁soldier	-9.90583
▁allowed	-9.90612
▁animals	-9.9062
▁struggle	-9.90724
▁theatre	-9.90732
▁w	-9.90795
▁mouth	-9.90834
▁born	-9.90835
▁kelly	-9.90843
▁approach	-9.90847
▁spoiler	-9.90938
▁phone	-9.90965
▁teenage	-9.91004
▁noir	-9.9106
▁addition	-9.91093
do	-9.91142
▁system	-9.91221
▁adds	-9.91254
▁fox	-9.91263
▁fat	-9.91338
▁cgi	-9.91514
son	-9.91661
▁victims	-9.91706
▁horse	-9.91861
▁brown	-9.91882
▁teacher	-9.91914
▁supposedly	-9.91919
▁element	-9.92062
▁seven	-9.9213
▁picked	-9.92138
▁whatsoever	-9.92141
▁angry	-9.92141
▁becoming	-9.92258
▁describe	-9.92266
▁dirty	-9.92341
▁therefore	-9.92648
▁soft	-9.92715
▁worthy	-9.92718
el	-9.92792
▁cross	-9.92866
▁childhood	-9.92974
▁actresses	-9.93089
▁member	-9.93109
▁thoroughly	-9.93315
▁faces	-9.93402
▁listen	-9.93446
▁zero	-9.93509
▁offers	-9.93519
▁pleasure	-9.93593
▁christian	-9.93638
▁seemingly	-9.9366
▁jackson	-9.93669
▁standards	-9.93836
▁station	-9.93836
▁blame	-9.93859
▁epic	-9.93958
▁criminal	-9.94121
▁filming	-9.94356
▁moved	-9.94448
&	-9.94475
▁carry	-9.94504
▁moon	-9.9451
▁queen	-9.94512
▁search	-9.94514
▁mine	-9.94681
▁area	-9.94708
▁followed	-9.94742
▁personality	-9.94837
▁wind	-9.94843
▁sucks	-9.94872
▁afraid	-9.9501
▁passion	-9.95133
▁favourite	-9.95139
▁commentary	-9.95174
▁nasty	-9.95183
▁stock	-9.95186
▁judge	-9.95195
▁martial	-9.95355
▁deserve	-9.95366
▁led	-9.95442
▁current	-9.95471
▁sight	-9.95713
▁lies	-9.95726
▁intriguing	-9.95857
▁watchable	-9.95863
▁woods	-9.95886
▁onto	-9.9593
they	-9.95937
▁proves	-9.96051
▁70	-9.9611
▁stone	-9.96126
▁professional	-9.96126
▁design	-9.96222
▁independent	-9.96306
▁helped	-9.96312
▁memory	-9.96544
▁suspect	-9.96626
▁vs	-9.96686
▁tim	-9.96756
▁redeeming	-9.96766
▁turning	-9.96779
▁news	-9.96958
▁games	-9.97015
go	-9.97042
▁clothes	-9.97067
▁jason	-9.97119
▁comedic	-9.97424
▁ryan	-9.97458
▁jr	-9.9747
▁energy	-9.97597
▁tears	-9.97749
u	-9.97764
▁pair	-9.97765
▁anybody	-9.97775
▁continue	-9.97841
▁inspired	-9.97843
▁desert	-9.97939
▁jerry	-9.9796
▁joy	-9.9799
▁willing	-9.98019
▁helps	-9.98088
▁henry	-9.98152
▁provides	-9.98386
▁12	-9.98415
▁animal	-9.98534
▁uncle	-9.98581
▁price	-9.98644
▁accept	-9.98761
x	-9.98817
▁tragedy	-9.98821
▁soap	-9.98849
▁apartment	-9.98862
▁rarely	-9.98956
year	-9.9906
▁artistic	-9.99208
▁superior	-9.99216
▁mike	-9.99221
ation	-9.99229
▁realized	-9.99326
▁asked	-9.99446
ha	-9.99452
▁dying	-9.99534
▁40	-9.99537
▁murders	-9.99646
▁absurd	-9.99702
▁70'	-9.99827
de	-9.99898
▁food	-9.99927
▁wanting	-9.99936
▁anywhere	-9.99939
▁kevin	-9.99944
▁physical	-9.99979
▁witch	-10
▁twenty	-10.0008
▁trust	-10.0011
▁draw	-10.0061
▁lord	-10.0085
▁provide	-10.0087
▁delightful	-10.0089
la	-10.0111
▁surprising	-10.0124
▁held	-10.013
▁brutal	-10.0142
▁states	-10.0146
▁intelligence	-10.0152
▁bloody	-10.0176
te	-10.0189
j	-10.0198
especially	-10.0201
▁artist	-10.0201
▁devil	-10.0202
▁flying	-10.0221
▁loose	-10.0225
▁thin	-10.0236
▁build	-10.025
see	-10.0251
▁returns	-10.0254
▁vhs	-10.0263
▁began	-10.0271
▁shop	-10.0285
▁board	-10.0303
▁accurate	-10.0307
▁wearing	-10.0313
▁stephen	-10.0321
ling	-10.0323
▁filmmaker	-10.0327
▁thinks	-10.0333
▁moore	-10.0336
▁dangerous	-10.0344
▁13	-10.0352
▁hidden	-10.0355
▁skip	-10.0359
▁unknown	-10.0367
▁wonderfully	-10.0372
▁shakespeare	-10.0373
▁thomas	-10.0377
▁pacing	-10.0391
director	-10.0395
▁boat	-10.0398
▁below	-10.0421
▁memories	-10.0428
▁opposite	-10.0447
▁necessary	-10.0448
ism	-10.046
▁rubbish	-10.0466
▁gags	-10.0473
life	-10.0476
▁rape	-10.0476
▁bob	-10.0492
▁friendship	-10.0502
▁floor	-10.0512
▁anne	-10.0519
▁roll	-10.0524
▁allen	-10.0525
▁deeply	-10.0527
▁ice	-10.0529
▁loves	-10.0529
▁player	-10.0531
▁numbers	-10.0537
▁page	-10.0539
▁buddy	-10.0544
▁chinese	-10.0562
▁unusual	-10.0569
▁understanding	-10.057
▁scared	-10.0573
▁allow	-10.0577
▁1950	-10.058
▁noticed	-10.0596
▁arts	-10.0597
▁eddie	-10.0601
▁lets	-10.0615
ment	-10.0616
▁field	-10.0616
▁generation	-10.0616
▁1970	-10.0618
▁americans	-10.0626
▁religious	-10.0629
▁wide	-10.0643
▁hated	-10.0645
▁williams	-10.0646
▁engaging	-10.0656
▁johnny	-10.0659
▁tape	-10.0662
▁ball	-10.0666
▁somebody	-10.0678
▁president	-10.0695
although	-10.0701
▁seconds	-10.0707
▁****	-10.0711
▁st	-10.0713
▁curious	-10.0713
▁cable	-10.0718
▁limited	-10.0719
▁fame	-10.0735
▁danny	-10.0737
▁ii	-10.074
▁destroy	-10.0768
▁academy	-10.0771
▁smile	-10.0774
▁introduced	-10.0777
▁con	-10.0797
▁explanation	-10.0833
▁jump	-10.0836
▁locations	-10.0841
whilst	-10.0849
▁river	-10.0855
▁apparent	-10.0858
▁nicely	-10.0859
what	-10.0871
▁holds	-10.0874
we	-10.0884
▁remarkable	-10.0888
▁arthur	-10.0891
▁comparison	-10.0893
▁learned	-10.0896
.....	-10.0897
▁technical	-10.0898
▁singer	-10.09
▁heaven	-10.0904
▁warning	-10.091
▁leader	-10.091
▁manage	-10.0912
▁n	-10.0916
▁officer	-10.0927
▁record	-10.0934
▁favor	-10.0935
▁normally	-10.0942
▁finished	-10.0943
▁range	-10.0948
▁monsters	-10.0952
▁desperate	-10.0957
men	-10.096
▁months	-10.0964
▁unnecessary	-10.0966
top	-10.097
▁recall	-10.0976
▁bland	-10.0977
▁captured	-10.0979
▁le	-10.0984
▁dealing	-10.0998
▁kick	-10.1004
▁starting	-10.1005
▁davis	-10.1007
▁priest	-10.1013
▁discover	-10.1019
▁ford	-10.1019
▁lynch	-10.1026
▁witty	-10.1027
▁village	-10.1029
▁magnificent	-10.1036
▁mental	-10.1037
▁conflict	-10.1047
▁alan	-10.105
▁ring	-10.1052
▁includes	-10.106
▁advice	-10.1065
▁morning	-10.1085
▁crappy	-10.1086
▁taylor	-10.1087
▁media	-10.1092
▁heroine	-10.1092
my	-10.1112
▁cash	-10.1126
▁driving	-10.1127
▁references	-10.1133
▁exist	-10.1149
▁hall	-10.115
▁heroes	-10.1155
▁knowledge	-10.1165
▁responsible	-10.1166
played	-10.1168
▁vision	-10.1168
▁vote	-10.1169
▁players	-10.1176
▁constant	-10.1176
▁pilot	-10.1179
▁survive	-10.1184
ally	-10.1192
▁nick	-10.1193
▁sing	-10.1196
▁mixed	-10.1202
▁fail	-10.1211
▁howard	-10.1212
em	-10.1213
▁par	-10.1218
rely	-10.1219
▁saving	-10.1229
▁lacking	-10.1235
▁quiet	-10.1237
▁asks	-10.1237
▁connection	-10.1239
▁partner	-10.1244
▁hadn	-10.1256
▁issue	-10.1257
▁behavior	-10.1258
▁trek	-10.1267
▁bigger	-10.1269
▁length	-10.1279
▁loving	-10.1285
▁community	-10.1287
▁ordinary	-10.1289
▁robin	-10.1293
▁national	-10.1297
▁fate	-10.1309
▁creating	-10.1309
▁growing	-10.1326
▁castle	-10.133
▁kinda	-10.1332
▁owner	-10.1342
▁mission	-10.1346
▁wayne	-10.1347
▁speed	-10.1349
▁suit	-10.1389
▁terribly	-10.139
▁private	-10.1411
▁clean	-10.1412
▁deserved	-10.142
▁genuine	-10.1421
▁window	-10.1427
▁legend	-10.1428
▁gotten	-10.1433
▁humanity	-10.1434
▁sucked	-10.144
▁treated	-10.1445
▁explained	-10.1451
▁lovers	-10.1452
▁alex	-10.1454
▁eat	-10.1457
▁nonsense	-10.1457
though	-10.1458
▁humorous	-10.1465
▁program	-10.1469
▁finest	-10.1479
▁prove	-10.1479
▁brian	-10.148
▁calls	-10.1483
▁sean	-10.1489
▁irritating	-10.1493
▁england	-10.1494
▁drunk	-10.1494
▁murdered	-10.1496
ma	-10.1502
▁wars	-10.1503
▁sign	-10.1509
▁faith	-10.1513
▁dan	-10.1516
▁relate	-10.152
▁capture	-10.1521
don	-10.1536
▁golden	-10.1539
▁utter	-10.1541
▁gary	-10.1541
▁keeping	-10.1544
▁international	-10.1557
▁north	-10.1567
▁luck	-10.1577
▁unfunny	-10.1577
▁dreadful	-10.1589
▁bits	-10.1589
▁cost	-10.1595
good	-10.1597
▁wise	-10.1601
▁bright	-10.1608
▁mere	-10.1613
▁max	-10.1623
▁realism	-10.163
▁empty	-10.164
▁whenever	-10.1647
▁according	-10.1655
▁frankly	-10.1659
ton	-10.167
▁powers	-10.1675
▁bank	-10.1676
▁grow	-10.168
▁author	-10.1686
▁desire	-10.1692
▁scream	-10.17
▁wedding	-10.1706
▁ran	-10.1725
▁hunter	-10.1733
▁sees	-10.1739
▁fly	-10.1742
▁crowd	-10.176
▁satire	-10.1768
▁winning	-10.1779
▁commercial	-10.1783
▁numerous	-10.1789
▁protagonist	-10.1792
▁blind	-10.1794
▁youth	-10.1796
▁efforts	-10.1799
▁event	-10.18
▁dressed	-10.18
▁lesson	-10.1804
▁consist	-10.1812
▁france	-10.1818
▁pulled	-10.1826
▁debut	-10.1828
▁regular	-10.1847
▁seat	-10.1852
▁reviewers	-10.1858
▁european	-10.1861
▁originally	-10.1869
▁fill	-10.1869
▁included	-10.1872
▁broken	-10.1877
▁corny	-10.1879
0'	-10.1882
ne	-10.1883
▁mini	-10.1895
▁dated	-10.19
▁instance	-10.1901
▁texas	-10.1919
▁skills	-10.192
▁gangster	-10.1926
▁foreign	-10.1937
▁joan	-10.1946
ry	-10.1957
▁heck	-10.1958
▁visit	-10.1961
▁higher	-10.1969
▁occasionally	-10.197
▁teenagers	-10.1973
▁stereotypes	-10.1977
▁finale	-10.1977
▁site	-10.1977
▁portray	-10.1984
▁practical	-10.1984
▁bomb	-10.1984
ter	-10.1995
▁sheer	-10.1996
looking	-10.1999
▁/	-10.2004
▁travel	-10.2009
▁loss	-10.201
▁chick	-10.2014
▁remembered	-10.2017
▁gory	-10.2017
▁unrealistic	-10.2027
▁universal	-10.2028
ri	-10.203
▁psycho	-10.2031
▁actions	-10.2036
▁screaming	-10.2046
▁formula	-10.2048
▁pretentious	-10.2049
▁se	-10.2057
▁insane	-10.2062
▁psychological	-10.2063
▁develop	-10.2073
▁disgusting	-10.2076
▁study	-10.2079
line	-10.208
▁african	-10.208
▁steal	-10.2099
▁grown	-10.21
▁round	-10.2101
▁concerned	-10.2102
▁paper	-10.2104
▁shallow	-10.2114
▁guns	-10.2117
un	-10.2119
▁terror	-10.2121
▁saved	-10.2127
▁context	-10.2138
▁spanish	-10.2139
▁lucky	-10.2149
▁fights	-10.2149
▁australian	-10.2151
▁discovered	-10.2152
▁sell	-10.2153
▁18	-10.2158
▁ill	-10.216
▁fault	-10.2164
▁cameo	-10.2165
▁essentially	-10.2165
▁parody	-10.2167
▁blonde	-10.2171
▁nightmare	-10.2172
▁flesh	-10.2173
il	-10.2181
▁combination	-10.2182
▁awkward	-10.2194
▁ha	-10.2194
▁heads	-10.2196
▁aware	-10.22
▁naturally	-10.2202
▁featuring	-10.2208
▁ladies	-10.2227
▁football	-10.2229
▁teenager	-10.2243
▁adam	-10.2253
▁dick	-10.2254
▁frame	-10.2256
▁lewis	-10.2257
▁hits	-10.2257
▁feet	-10.2257
▁reaction	-10.2263
▁villains	-10.2264
▁perform	-10.2266
▁evidence	-10.2273
▁hitler	-10.2274
▁skin	-10.2276
!!!!	-10.2277
▁wit	-10.2285
▁deals	-10.2289
▁spectacular	-10.2308
!).	-10.2315
▁model	-10.2316
▁underrated	-10.2319
▁miles	-10.2321
▁rental	-10.2324
▁eric	-10.2327
▁vampires	-10.2328
▁unexpected	-10.233
▁sheriff	-10.234
▁grew	-10.2341
▁tedious	-10.2341
▁talents	-10.2342
▁received	-10.2347
▁ann	-10.2349
▁choose	-10.2354
5	-10.2354
land	-10.236
▁rob	-10.2364
▁fu	-10.2364
▁sake	-10.2367
ous	-10.2379
▁cars	-10.2381
▁drag	-10.2384
▁douglas	-10.2386
▁contain	-10.239
▁test	-10.2393
▁contrived	-10.2409
▁per	-10.2411
▁toward	-10.2415
▁attitude	-10.2423
▁steven	-10.243
▁angel	-10.2432
▁display	-10.244
▁decade	-10.244
▁gonna	-10.2454
▁genuinely	-10.2465
▁fred	-10.2466
▁gross	-10.2466
▁strength	-10.247
▁sun	-10.2474
▁seagal	-10.2478
▁chan	-10.2478
▁anthony	-10.248
▁asian	-10.2483
▁perspective	-10.2493
▁failure	-10.2493
▁join	-10.2498
▁hunt	-10.2503
▁alice	-10.2504
▁laughter	-10.2504
▁individual	-10.2507
just	-10.2512
▁forces	-10.2531
▁reach	-10.2539
▁network	-10.254
▁results	-10.2545
▁bbc	-10.2546
rs	-10.256
▁revealed	-10.2577
age	-10.2594
▁overly	-10.2598
▁promise	-10.2599
▁edited	-10.26
▁send	-10.2605
▁correct	-10.2614
▁jimmy	-10.2618
her	-10.2629
▁fish	-10.2629
▁ultimate	-10.2632
▁europe	-10.2637
▁julie	-10.2637
▁keaton	-10.264
▁beach	-10.2641
star	-10.2645
▁11	-10.2651
▁involves	-10.2653
▁decision	-10.2659
▁turkey	-10.2663
▁jennifer	-10.2669
▁cuts	-10.2679
▁candy	-10.2683
▁handsome	-10.2687
▁jesus	-10.2687
▁blow	-10.2689
ley	-10.2692
▁logic	-10.2707
▁hopes	-10.272
▁cage	-10.272
▁product	-10.2732
▁native	-10.2732
▁sharp	-10.274
▁reviewer	-10.2743
▁visually	-10.2755
▁graphic	-10.2755
▁japan	-10.2756
▁breaks	-10.2764
▁hill	-10.2767
▁described	-10.2774
▁spoil	-10.278
▁flashbacks	-10.2782
▁jeff	-10.2786
▁assume	-10.2789
▁visuals	-10.2799
▁families	-10.2803
▁provided	-10.2803
▁costs	-10.2804
▁existence	-10.2805
▁hang	-10.2818
▁freedom	-10.2827
▁humans	-10.2828
▁meanwhile	-10.2829
▁mrs	-10.2838
▁center	-10.2843
ce	-10.2844
▁lousy	-10.2851
▁relief	-10.2852
▁unable	-10.2854
▁executed	-10.2855
▁crash	-10.287
ul	-10.287
▁depressing	-10.2876
▁streets	-10.2884
▁matt	-10.2888
▁dry	-10.2891
lo	-10.2893
7	-10.2902
▁warm	-10.2912
▁gratuitous	-10.2923
▁).	-10.293
▁pity	-10.2933
???	-10.2935
▁horribly	-10.2947
▁treatment	-10.2947
▁chief	-10.2948
▁gordon	-10.2949
▁met	-10.2952
▁eating	-10.2956
ar	-10.2957
▁lake	-10.2957
▁delivered	-10.2987
▁gene	-10.2988
▁prince	-10.2994
▁rise	-10.3002
▁bear	-10.3002
▁creatures	-10.3013
▁sympathetic	-10.302
▁halloween	-10.3022
▁amateurish	-10.3037
▁ho	-10.3041
▁walked	-10.3043
▁meeting	-10.3047
▁recognize	-10.3057
▁continues	-10.3064
▁clue	-10.3064
▁capable	-10.3068
▁kong	-10.3068
▁larry	-10.307
▁brilliantly	-10.3072
▁ruin	-10.308
▁rescue	-10.3084
▁excited	-10.3093
▁built	-10.3094
▁endless	-10.3097
▁rules	-10.3101
▁driver	-10.3101
▁foot	-10.3104
▁mask	-10.3114
▁viewed	-10.3114
▁levels	-10.3129
▁embarrassing	-10.3134
▁***	-10.3137
▁identity	-10.3141
▁strongly	-10.3141
▁rose	-10.3145
over	-10.3146
▁aliens	-10.3147
▁robot	-10.3155
8	-10.3162
▁refreshing	-10.3167
▁till	-10.3168
▁barbara	-10.3172
▁regard	-10.3176
screen	-10.3185
▁fool	-10.3189
▁court	-10.3193
▁entertained	-10.3199
▁discovers	-10.3204
▁surreal	-10.3211
▁twisted	-10.3219
▁tiny	-10.3219
ia	-10.3227
▁bringing	-10.3231
nd	-10.3233
▁louis	-10.3234
ized	-10.3237
▁mountain	-10.3239
▁religion	-10.3241
▁promising	-10.3242
▁sudden	-10.3255
▁10/10	-10.3258
▁bodies	-10.3267
▁insult	-10.3269
▁remain	-10.327
▁subtitles	-10.3283
▁exploitation	-10.3292
▁surface	-10.3315
▁chaplin	-10.3315
▁slapstick	-10.3315
▁stopped	-10.3315
▁evening	-10.332
▁bo	-10.3321
▁theaters	-10.3322
▁hearing	-10.3324
▁standing	-10.3336
▁scare	-10.3337
▁research	-10.3341
▁jackie	-10.3346
▁lesbian	-10.3351
▁prime	-10.3355
▁pile	-10.3372
▁dollars	-10.3376
▁harris	-10.3388
▁substance	-10.339
▁ages	-10.3395
▁cares	-10.3396
▁semi	-10.3396
▁costume	-10.3401
ey	-10.3405
▁proved	-10.3405
▁portrays	-10.3407
▁majority	-10.3417
▁produce	-10.3436
▁shocked	-10.3437
▁target	-10.3442
▁dubbed	-10.3446
▁service	-10.3453
▁steals	-10.3455
▁rough	-10.3456
▁ancient	-10.3466
▁saturday	-10.3466
▁kung	-10.3467
▁enemy	-10.3467
▁pleasant	-10.3481
▁loses	-10.3484
▁morgan	-10.3487
▁sky	-10.3503
▁enter	-10.3506
▁uk	-10.3513
▁sisters	-10.3513
da	-10.3519
ro	-10.3523
▁asking	-10.3525
▁routine	-10.353
▁prefer	-10.353
▁germany	-10.3532
▁proper	-10.3533
▁regret	-10.3551
▁jungle	-10.3554
▁appealing	-10.3555
▁truck	-10.3569
▁haunting	-10.3572
▁root	-10.3582
▁qualities	-10.3593
▁hopefully	-10.3599
▁portraying	-10.3614
▁speech	-10.3616
▁circumstances	-10.3618
▁core	-10.3621
▁sequels	-10.3623
▁hat	-10.3628
▁ruined	-10.363
▁traditional	-10.3638
▁types	-10.3642
▁sports	-10.3651
▁scale	-10.3654
▁asleep	-10.3661
▁nevertheless	-10.367
▁awards	-10.3671
**	-10.3672
▁emotionally	-10.3674
▁amateur	-10.3684
▁painfully	-10.3689
▁table	-10.3697
▁vehicle	-10.3714
▁demon	-10.3719
▁universe	-10.3722
▁highlight	-10.3737
?!	-10.3738
▁idiot	-10.3741
▁drop	-10.3743
▁lower	-10.3745
▁werewolf	-10.375
▁classics	-10.3771
▁suck	-10.3774
▁professor	-10.3776
▁friday	-10.3776
▁naive	-10.38
▁peace	-10.3802
▁cartoons	-10.3808
▁grave	-10.3816
▁ignore	-10.3818
▁junk	-10.3825
▁propaganda	-10.3828
▁market	-10.3828
▁teens	-10.3829
▁creates	-10.3842
▁contrast	-10.3844
▁dean	-10.3845
▁passed	-10.385
▁caused	-10.3857
▁rain	-10.3858
▁kate	-10.3865
▁weeks	-10.3872
▁suffering	-10.3873
ine	-10.3877
▁losing	-10.3892
▁source	-10.3901
▁nominated	-10.3912
▁extras	-10.3915
▁knock	-10.392
ta	-10.3928
▁2.	-10.393
▁simon	-10.3931
▁worthwhile	-10.3934
▁chosen	-10.3937
9	-10.3948
▁theatrical	-10.395
▁satisfying	-10.3967
▁experienced	-10.3976
▁eight	-10.3983
▁washington	-10.3986
▁sympathy	-10.3986
side	-10.3989
▁east	-10.3992
▁hide	-10.3994
▁marry	-10.3995
▁makeup	-10.4003
▁albert	-10.4016
▁united	-10.402
▁factor	-10.4025
▁edward	-10.4039
▁urban	-10.4041
▁suspenseful	-10.4043
▁tight	-10.4054
▁roger	-10.4059
▁department	-10.4064
▁holmes	-10.4067
▁tarzan	-10.4068
▁angles	-10.4079
▁training	-10.4087
▁canadian	-10.4092
▁broadway	-10.4095
▁bus	-10.4098
▁encounter	-10.4108
▁safe	-10.4115
▁veteran	-10.4119
▁excitement	-10.412
▁technology	-10.4121
ge	-10.4123
▁1.	-10.4123
▁joseph	-10.4124
▁guilty	-10.4124
▁path	-10.4128
▁mob	-10.413
▁abuse	-10.4133
▁contemporary	-10.4147
▁depicted	-10.415
▁winner	-10.4152
▁opens	-10.4161
▁mst	-10.4165
▁cruel	-10.4165
▁darkness	-10.4186
▁wear	-10.4187
▁unfortunate	-10.4192
▁appropriate	-10.4195
▁committed	-10.4204
▁talks	-10.4231
▁virtually	-10.4233
▁dennis	-10.4235
▁irish	-10.4241
▁figured	-10.4248
▁anime	-10.4256
▁false	-10.4257
▁weekend	-10.4257
▁mexican	-10.4257
▁jail	-10.4259
▁dogs	-10.4261
made	-10.4271
▁wolf	-10.4272
▁grant	-10.4281
▁exact	-10.4284
▁segment	-10.4286
▁crying	-10.4293
▁influence	-10.43
um	-10.4301
ur	-10.4303
▁conversation	-10.4314
▁roy	-10.4318
▁parker	-10.4322
▁welcome	-10.4327
work	-10.4337
american	-10.4346
▁lane	-10.4348
▁account	-10.4353
▁renting	-10.4355
ga	-10.4356
▁offensive	-10.4358
▁bothered	-10.4366
▁melodrama	-10.4368
▁russell	-10.4368
▁spoof	-10.4371
some	-10.4375
▁kim	-10.4395
▁1980	-10.4406
▁treasure	-10.4409
▁praise	-10.4412
▁patient	-10.4417
▁print	-10.4421
▁allows	-10.4423
▁dude	-10.4428
▁claim	-10.443
▁fits	-10.4435
▁performed	-10.4436
▁interview	-10.4449
▁continuity	-10.4451
▁haunted	-10.4453
▁commit	-10.4454
▁cutting	-10.446
▁anger	-10.4462
▁harsh	-10.4467
▁structure	-10.4467
▁calling	-10.4469
▁convince	-10.4471
▁concern	-10.4474
▁anna	-10.4477
▁wilson	-10.4478
▁drew	-10.4478
▁jewish	-10.4478
▁patrick	-10.4482
▁previously	-10.4483
▁obsessed	-10.4485
▁danger	-10.4485
▁degree	-10.4485
▁latest	-10.4485
▁bore	-10.4486
▁atrocious	-10.4506
▁anderson	-10.4507
▁supernatural	-10.4507
▁murphy	-10.4508
▁believed	-10.451
▁sir	-10.4511
mo	-10.4522
▁v	-10.4529
▁pro	-10.4538
▁execution	-10.4546
▁gas	-10.4558
▁variety	-10.4564
▁wake	-10.4564
▁witness	-10.4565
▁largely	-10.4566
▁johnson	-10.4568
▁studios	-10.4569
bad	-10.4578
▁california	-10.4588
▁chose	-10.4589
▁flight	-10.4589
▁indie	-10.4593
▁arm	-10.4597
rd	-10.4613
▁featured	-10.4613
▁fare	-10.4618
▁extraordinary	-10.4619
▁summary	-10.4619
▁vietnam	-10.4622
▁captures	-10.4622
▁experiment	-10.4626
▁nurse	-10.4627
▁reporter	-10.463
▁movement	-10.4631
▁da	-10.4644
▁ted	-10.4646
▁reputation	-10.4648
▁category	-10.4649
▁inner	-10.4658
▁brooks	-10.467
▁walks	-10.4677
▁frightening	-10.4679
▁demons	-10.4688
▁cell	-10.469
▁speaks	-10.4693
▁proud	-10.4697
am	-10.4698
▁unlikely	-10.4704
▁touches	-10.4709
▁donald	-10.4711
▁voices	-10.4715
▁granted	-10.4717
▁san	-10.4717
▁25	-10.4717
▁shut	-10.4721
▁accents	-10.4721
▁santa	-10.4729
▁forgettable	-10.4734
▁raw	-10.4741
▁punch	-10.4747
▁forest	-10.4758
▁holding	-10.476
▁eastwood	-10.4763
▁ludicrous	-10.4763
▁suffers	-10.4765
▁china	-10.4766
▁deadly	-10.4766
▁sensitive	-10.4771
▁remotely	-10.4772
▁stereotypical	-10.4784
▁india	-10.4786
▁daniel	-10.4791
▁profound	-10.4792
▁massacre	-10.4792
▁birth	-10.4794
▁elizabeth	-10.4796
▁amazingly	-10.48
▁belief	-10.4804
▁blockbuster	-10.4805
▁code	-10.4808
▁breath	-10.4809
▁hanging	-10.4813
including	-10.4826
▁shadow	-10.4832
▁bat	-10.4832
▁handled	-10.4837
▁usa	-10.4841
▁screening	-10.4842
▁vacation	-10.485
▁accidentally	-10.4852
▁insight	-10.486
▁reveal	-10.4865
▁curse	-10.4866
▁quirky	-10.488
▁kiss	-10.4882
▁crude	-10.4901
▁security	-10.4909
▁league	-10.4909
▁forgot	-10.4918
mi	-10.4938
▁politics	-10.4948
▁breaking	-10.4949
***	-10.4953
se	-10.4957
▁plans	-10.4958
▁fulci	-10.4967
▁erotic	-10.4971
▁required	-10.4973
▁prior	-10.4995
▁gritty	-10.4998
▁everywhere	-10.5001
▁term	-10.5005
▁expression	-10.5006
▁host	-10.5006
▁paced	-10.501
▁whoever	-10.5012
▁scenario	-10.5013
▁alright	-10.5026
▁trilogy	-10.5027
▁section	-10.5046
▁lifetime	-10.5052
▁stranger	-10.5052
▁amazed	-10.5059
▁learns	-10.5073
▁z	-10.5076
▁tree	-10.5077
▁africa	-10.5083
ka	-10.5087
▁mainstream	-10.5088
▁covered	-10.5096
▁initial	-10.5106
con	-10.5107
▁inept	-10.5114
▁chuck	-10.5115
▁concert	-10.5115
▁narration	-10.5115
▁rule	-10.5116
▁southern	-10.5118
war	-10.5119
▁base	-10.5124
▁mc	-10.5128
day	-10.5129
▁repeated	-10.5145
▁dracula	-10.5147
per	-10.5151
▁beast	-10.5158
▁sword	-10.5165
▁massive	-10.5166
▁baseball	-10.5175
▁funnier	-10.5176
▁stolen	-10.5177
▁focused	-10.5181
▁sum	-10.5183
▁kane	-10.5183
▁format	-10.5184
▁depiction	-10.5195
▁**	-10.5198
rate	-10.5201
▁stomach	-10.5205
▁hood	-10.521
▁julia	-10.522
▁warn	-10.5221
ary	-10.5222
▁statement	-10.5227
house	-10.5228
▁surprises	-10.5233
▁multiple	-10.5235
▁cheese	-10.5237
▁listening	-10.5237
▁experiences	-10.524
▁susan	-10.5241
▁abandoned	-10.5241
▁westerns	-10.5244
▁killers	-10.5245
▁destroyed	-10.5252
▁stayed	-10.5253
▁ron	-10.5253
▁directly	-10.5255
▁seasons	-10.5261
▁trapped	-10.5266
▁uninteresting	-10.5266
▁teeth	-10.5266
▁sunday	-10.5266
▁afternoon	-10.5267
ler	-10.5272
▁mildly	-10.5272
▁prepared	-10.5273
▁combined	-10.5276
▁warned	-10.5278
▁mature	-10.5283
▁buying	-10.5284
▁occasional	-10.5287
ant	-10.5288
▁adventures	-10.529
▁mickey	-10.53
▁convinced	-10.531
▁task	-10.5318
▁interviews	-10.532
his	-10.5321
▁express	-10.5326
▁blah	-10.5329
▁blown	-10.5333
▁en	-10.5335
▁entertain	-10.5347
▁matters	-10.537
▁spy	-10.5373
▁campy	-10.5374
▁seek	-10.5383
▁dozen	-10.5388
▁luke	-10.5392
▁flash	-10.5396
▁originality	-10.5397
▁pretend	-10.5401
me	-10.5411
▁obnoxious	-10.542
▁underground	-10.542
ful	-10.5423
ier	-10.5427
▁separate	-10.5429
▁closer	-10.5431
▁environment	-10.5447
▁carpenter	-10.545
▁columbo	-10.5451
▁rolling	-10.5451
▁lie	-10.5453
▁tommy	-10.5453
oh	-10.5457
▁metal	-10.5458
▁bag	-10.5475
▁hire	-10.5476
▁goofy	-10.5482
▁walter	-10.5483
▁protect	-10.549
▁risk	-10.5501
▁favorites	-10.5502
▁mistakes	-10.5507
▁flashback	-10.5508
▁hip	-10.5529
▁skill	-10.553
▁paint	-10.5533
▁snow	-10.5535
▁presents	-10.5536
way	-10.5537
▁magical	-10.5538
▁mel	-10.5542
▁heavily	-10.5543
▁understood	-10.5543
▁weapons	-10.5545
▁complicated	-10.5546
▁changing	-10.5551
ty	-10.5553
▁downright	-10.5576
▁focuses	-10.558
▁nazi	-10.558
▁suffer	-10.5581
dimensional	-10.5584
▁via	-10.5586
▁unconvincing	-10.5596
▁remote	-10.5596
▁claims	-10.5599
▁imagery	-10.5606
▁guide	-10.5614
from	-10.562
▁flow	-10.562
▁victor	-10.5634
▁rival	-10.5637
▁buck	-10.5637
▁legendary	-10.5637
▁halfway	-10.564
ups	-10.5647
▁murderer	-10.5655
▁balance	-10.5657
▁disagree	-10.5667
▁paying	-10.5673
▁hal	-10.5678
▁deeper	-10.5681
▁roberts	-10.569
▁driven	-10.5691
down	-10.5697
▁nonetheless	-10.57
▁facial	-10.57
▁guest	-10.5702
▁pet	-10.5704
▁status	-10.5705
▁position	-10.5705
relatively	-10.571
▁hired	-10.5713
▁brave	-10.5717
tv	-10.5719
▁critical	-10.5725
▁device	-10.5734
▁pulls	-10.5734
▁sitcom	-10.5734
▁plague	-10.575
▁struggling	-10.5765
▁lawyer	-10.5765
▁ocean	-10.5765
▁civil	-10.5766
▁mass	-10.5766
▁forth	-10.5772
▁cooper	-10.5772
▁row	-10.5775
▁ma	-10.5783
▁gruesome	-10.5786
▁tour	-10.5786
▁choices	-10.5793
▁hoffman	-10.5796
▁fbi	-10.5796
▁timing	-10.5799
▁miller	-10.58
▁ya	-10.5802
▁farm	-10.5803
▁handle	-10.5803
back	-10.5807
▁scares	-10.5815
▁honor	-10.5818
ner	-10.5825
▁closing	-10.5828
▁assistant	-10.5829
▁contact	-10.583
▁nude	-10.583
▁hole	-10.583
▁:)	-10.5831
▁serve	-10.5832
▁tear	-10.5845
▁appreciated	-10.5845
▁theory	-10.5853
▁sh	-10.5857
▁internet	-10.586
▁dress	-10.5863
▁raised	-10.5871
yes	-10.5882
▁racist	-10.5893
▁sarah	-10.5897
▁colors	-10.5908
▁decades	-10.5911
▁drink	-10.5914
▁spin	-10.592
▁li	-10.5927
▁14	-10.5939
▁mindless	-10.594
▁touched	-10.5954
▁serves	-10.5954
▁helen	-10.5955
▁dinner	-10.5957
▁spite	-10.5958
▁thankfully	-10.5964
ho	-10.5968
▁technically	-10.5974
▁pat	-10.5978
▁pregnant	-10.5989
▁blair	-10.5991
▁criticism	-10.5995
▁upset	-10.5997
▁fourth	-10.5999
▁inspiration	-10.6008
▁placed	-10.601
):	-10.6011
▁silver	-10.6021
▁throwing	-10.6034
▁greater	-10.6037
▁passing	-10.6037
▁silence	-10.604
▁designed	-10.6046
▁charge	-10.6048
▁offered	-10.6048
▁comical	-10.6053
▁freddy	-10.6057
▁wwii	-10.6059
▁description	-10.606
▁everyday	-10.6061
▁text	-10.6064
▁desperately	-10.6071
▁effectively	-10.6081
▁daily	-10.6089
▁storm	-10.6091
▁lonely	-10.6095
▁carried	-10.6096
▁comedian	-10.6097
▁warner	-10.61
▁revolution	-10.6102
▁tongue	-10.6105
▁pie	-10.6114
▁nuclear	-10.6123
▁stupidity	-10.6126
▁laura	-10.6131
▁delivery	-10.6133
▁drinking	-10.6141
when	-10.6143
▁believes	-10.6144
▁17	-10.6146
▁introduction	-10.6154
▁princess	-10.6157
▁learning	-10.6163
called	-10.6165
▁woody	-10.6168
john	-10.6168
▁prevent	-10.6176
▁rush	-10.618
▁dear	-10.619
▁lights	-10.6192
hearted	-10.6194
▁guard	-10.6194
▁starred	-10.6195
▁disbelief	-10.622
▁wanna	-10.6222
▁reminiscen	-10.6226
▁superman	-10.6226
▁beloved	-10.6227
▁sin	-10.6229
▁coach	-10.6236
▁fabulous	-10.6245
▁achieve	-10.6251
▁explains	-10.6252
▁hong	-10.6254
▁quest	-10.6259
▁succeeds	-10.6263
▁screenwriter	-10.6272
▁arms	-10.6281
▁ashamed	-10.6287
▁plastic	-10.6288
▁hint	-10.6292
▁barry	-10.6293
▁trick	-10.6299
▁8/10	-10.63
▁adding	-10.6301
▁expressions	-10.6302
▁delight	-10.6304
▁bound	-10.6307
▁solve	-10.631
ba	-10.6317
▁clark	-10.6318
▁greek	-10.6321
▁bollywood	-10.6322
▁karen	-10.6325
▁sleeping	-10.6326
except	-10.6336
▁pitt	-10.6341
▁sides	-10.6341
▁connect	-10.6347
▁arrives	-10.6352
▁4/10	-10.6352
▁multi	-10.6354
▁medical	-10.6356
▁betty	-10.6369
▁na	-10.6417
▁storytelling	-10.6427
▁topic	-10.6427
▁realizes	-10.644
▁dislike	-10.6445
rated	-10.6446
style	-10.645
▁manager	-10.6452
▁200	-10.6454
▁mgm	-10.6459
▁catherine	-10.6462
▁tune	-10.6466
▁intellectual	-10.6467
▁tense	-10.647
▁dragon	-10.6477
how	-10.6486
▁cultural	-10.6487
▁versions	-10.6492
▁stan	-10.6495
▁retarded	-10.6496
▁oliver	-10.6496
▁cousin	-10.6509
▁extent	-10.6525
▁racism	-10.6525
▁presentation	-10.6528
▁related	-10.6529
characterization	-10.653
ca	-10.6531
▁mentally	-10.6542
▁monkey	-10.6544
▁broke	-10.6544
can	-10.655
▁sinatra	-10.6561
▁soviet	-10.6563
par	-10.6573
▁weight	-10.6589
▁basis	-10.6595
▁lazy	-10.6595
▁entry	-10.6595
▁angle	-10.6595
▁shape	-10.66
after	-10.6603
lin	-10.6606
led	-10.6608
▁shark	-10.6609
class	-10.6609
▁dollar	-10.6617
▁7/10	-10.6617
▁exceptional	-10.6624
▁necessarily	-10.6629
▁pacino	-10.6629
▁gripping	-10.6629
▁dare	-10.663
▁stanwyck	-10.663
▁glass	-10.6632
▁overcome	-10.6632
▁italy	-10.6634
▁caine	-10.6634
▁madness	-10.6635
▁artists	-10.6644
ke	-10.6648
▁significant	-10.6654
ni	-10.6655
▁faithful	-10.6657
▁breathtaking	-10.6664
▁graphics	-10.6666
▁embarrassed	-10.6666
▁wins	-10.6667
▁jerk	-10.667
▁zone	-10.667
▁flaw	-10.6671
▁union	-10.6673
▁gain	-10.6674
▁cant	-10.6687
▁advantage	-10.6699
▁authentic	-10.6701
▁corrupt	-10.6701
▁enjoying	-10.6707
law	-10.6708
▁sold	-10.6711
▁initially	-10.6712
▁served	-10.6716
▁cowboy	-10.6721
▁revolves	-10.6724
▁letter	-10.6728
▁striking	-10.6734
▁foster	-10.6736
▁sutherland	-10.6736
▁credible	-10.6736
▁rings	-10.6739
▁mirror	-10.6745
▁flawed	-10.6745
▁reference	-10.6746
▁caring	-10.6747
▁jon	-10.6749
▁throws	-10.676
▁gag	-10.6768
▁countries	-10.677
▁bergman	-10.677
ah	-10.6774
▁properly	-10.6783
▁plots	-10.6786
▁walker	-10.679
▁chain	-10.6792
▁helping	-10.6802
▁horrific	-10.6804
▁bugs	-10.6804
▁lloyd	-10.6807
▁attempting	-10.6815
▁shower	-10.6817
▁reveals	-10.6823
▁lion	-10.6826
▁object	-10.6826
▁bush	-10.6828
▁stylish	-10.6831
▁el	-10.684
▁franchise	-10.684
▁credibility	-10.6841
▁1940	-10.6841
▁fictional	-10.6851
▁ironic	-10.6854
▁jay	-10.6856
▁pool	-10.6857
▁hundred	-10.6866
▁brand	-10.687
▁australia	-10.687
▁stunt	-10.687
▁grim	-10.687
▁hardy	-10.6875
▁matrix	-10.6878
▁aunt	-10.6885
▁bridge	-10.689
▁minds	-10.6891
▁inter	-10.6894
▁strangely	-10.6897
▁accepted	-10.6898
▁ninja	-10.6901
▁causes	-10.6906
▁bitter	-10.6909
▁purely	-10.6911
▁sinister	-10.6911
▁attraction	-10.6912
▁obsession	-10.6913
▁specific	-10.6913
▁nine	-10.6917
▁guessing	-10.6926
▁fairy	-10.693
▁chair	-10.6937
▁useless	-10.6938
▁carries	-10.6939
▁2)	-10.6947
▁innocence	-10.6947
▁repeat	-10.6948
▁sleazy	-10.6948
▁confusion	-10.6948
▁nowadays	-10.6949
▁pg	-10.6961
▁answers	-10.6963
▁succeed	-10.6981
▁controversial	-10.6984
▁happiness	-10.6984
▁burton	-10.6985
▁views	-10.6987
▁thousands	-10.6988
▁blade	-10.6992
▁sorts	-10.6993
▁stunts	-10.6995
▁burns	-10.6997
▁slight	-10.7011
▁convey	-10.7017
▁wears	-10.7019
▁lovable	-10.702
▁ratings	-10.7021
▁determined	-10.7026
▁criminals	-10.7028
▁challenge	-10.7029
▁nation	-10.704
▁lessons	-10.7051
▁clips	-10.7052
▁idiotic	-10.7056
▁cynical	-10.7058
▁notable	-10.7058
▁cook	-10.7065
di	-10.7066
▁angels	-10.7067
written	-10.7072
▁interpretation	-10.7083
▁attacked	-10.7084
▁thief	-10.7092
▁argue	-10.7092
▁chilling	-10.7092
▁marie	-10.7104
▁settings	-10.711
▁stays	-10.7112
▁poignant	-10.7119
▁los	-10.712
▁holiday	-10.712
▁boredom	-10.713
les	-10.713
▁che	-10.7133
▁lay	-10.7141
▁bare	-10.7141
▁nose	-10.7147
▁combine	-10.7152
iness	-10.7156
▁creation	-10.716
▁ultra	-10.7165
▁searching	-10.7168
▁lisa	-10.7172
very	-10.7174
▁welles	-10.7179
▁equal	-10.7189
▁push	-10.7209
▁oz	-10.7225
▁rank	-10.7234
▁opened	-10.7254
▁expert	-10.7262
▁thousand	-10.7273
▁flynn	-10.7278
▁wealthy	-10.728
▁michelle	-10.7282
▁vincent	-10.7282
▁hooked	-10.7285
▁cave	-10.7298
▁condition	-10.73
▁raise	-10.7312
▁dig	-10.7313
▁hbo	-10.7316
▁cameron	-10.7316
▁proof	-10.7321
▁facts	-10.7322
▁meaningful	-10.7324
▁oil	-10.733
ive	-10.7335
▁atmospheric	-10.735
▁exercise	-10.735
▁toilet	-10.7351
▁tribute	-10.7352
▁freeman	-10.7358
▁struggles	-10.7374
▁tradition	-10.7382
▁trail	-10.7384
▁weapon	-10.7387
▁1990	-10.7391
▁smoke	-10.7391
▁regardless	-10.7391
▁fallen	-10.7393
▁aired	-10.7402
▁worry	-10.7408
▁quote	-10.7414
ize	-10.7417
▁ripped	-10.7426
▁philip	-10.7429
▁bobby	-10.743
▁laid	-10.743
also	-10.744
ated	-10.7446
▁alas	-10.745
▁stiff	-10.7463
▁tarantino	-10.7464
▁homage	-10.7466
▁jamie	-10.7468
▁fortunately	-10.7469
der	-10.7471
ol	-10.7486
▁attacks	-10.7491
▁examples	-10.7497
▁kennedy	-10.7501
▁matthau	-10.7502
▁mexico	-10.7503
▁sexuality	-10.7506
▁string	-10.7508
▁spoken	-10.751
film	-10.7514
▁thoughts	-10.7516
▁resort	-10.7517
▁exists	-10.7519
▁steam	-10.7523
▁marvelous	-10.7531
▁technique	-10.7539
▁khan	-10.7541
▁replaced	-10.7547
▁perfection	-10.7553
▁checking	-10.7558
▁deaths	-10.756
▁stealing	-10.7573
▁christ	-10.7576
▁restaurant	-10.7578
▁burn	-10.7579
▁nancy	-10.758
▁rachel	-10.7581
▁figures	-10.759
▁productions	-10.7611
▁intensity	-10.7615
▁competition	-10.7615
▁carrying	-10.7617
▁dawn	-10.762
▁drives	-10.7623
mon	-10.7623
▁dave	-10.7631
▁sings	-10.7633
▁admire	-10.7639
▁shines	-10.764
▁meat	-10.7642
▁britain	-10.7654
▁uninspired	-10.7654
▁trial	-10.7657
▁sentimental	-10.7658
▁lacked	-10.7658
▁bird	-10.7665
▁greatly	-10.7675
▁shorts	-10.7675
▁colour	-10.7692
▁bible	-10.7694
▁jessica	-10.7696
▁neighbor	-10.7697
▁month	-10.77
▁reynolds	-10.7701
▁picks	-10.7702
▁thrilling	-10.7708
▁snakes	-10.7719
▁upper	-10.7721
▁web	-10.7721
▁ghosts	-10.7723
▁competent	-10.7723
▁courage	-10.7731
▁miserably	-10.7731
▁thirty	-10.7731
▁invisible	-10.7733
▁grey	-10.7733
▁ken	-10.7735
▁mouse	-10.7739
▁surrounding	-10.774
action	-10.7741
▁consequences	-10.7749
▁miscast	-10.7753
▁blend	-10.7756
horror	-10.7757
▁needless	-10.7757
▁cure	-10.7767
▁wicked	-10.777
▁seeking	-10.7774
▁sally	-10.7776
▁instantly	-10.7777
▁brad	-10.7777
▁wave	-10.7783
▁suffered	-10.7784
hard	-10.7784
▁satan	-10.7788
▁jo	-10.7792
known	-10.7795
▁escapes	-10.7808
▁mummy	-10.7809
▁whereas	-10.7818
▁gotta	-10.7821
▁heist	-10.7823
▁attempted	-10.7826
▁andy	-10.7835
too	-10.7836
dy	-10.784
▁friendly	-10.7843
▁intent	-10.7849
▁enjoyment	-10.7854
▁mo	-10.7855
▁colorful	-10.7858
▁troubled	-10.786
et	-10.7871
▁ka	-10.7885
▁size	-10.7887
▁birthday	-10.7888
▁catholic	-10.7889
▁arnold	-10.789
▁owen	-10.7892
▁lying	-10.7892
▁frequently	-10.7894
▁von	-10.7902
▁tales	-10.7907
▁neat	-10.7921
▁uncomfortable	-10.7927
▁unforgettable	-10.7928
▁melodramatic	-10.7928
▁midnight	-10.793
▁beer	-10.793
▁liberal	-10.7931
▁busy	-10.7937
▁shy	-10.7943
▁ham	-10.7949
▁intentions	-10.7951
▁millions	-10.7954
▁bucks	-10.7955
bo	-10.796
▁pan	-10.7961
end	-10.7962
▁appearing	-10.7964
iest	-10.7965
▁neighborhood	-10.7967
▁lesser	-10.7968
▁notch	-10.7972
series	-10.7975
▁teach	-10.7984
▁3/10	-10.7985
▁riding	-10.7992
▁pack	-10.8001
▁annoyed	-10.801
▁chasing	-10.801
▁novels	-10.801
gi	-10.8016
▁stretch	-10.8016
▁performers	-10.8036
▁techniques	-10.8046
▁notorious	-10.8047
▁pulp	-10.8049
▁hiding	-10.8049
▁relie	-10.8052
▁magazine	-10.8056
fu	-10.8068
▁rid	-10.8077
▁imaginative	-10.8078
▁outrageous	-10.8079
bu	-10.8082
something	-10.8084
▁navy	-10.8089
where	-10.8094
vi	-10.8103
▁burt	-10.8105
▁3.	-10.8109
▁andrews	-10.8109
?).	-10.8112
▁maker	-10.8113
ring	-10.812
▁glimpse	-10.8125
▁connery	-10.8128
▁personalities	-10.8128
▁knife	-10.8129
▁acceptable	-10.8129
▁45	-10.8129
▁basement	-10.8132
▁fortune	-10.8138
▁90'	-10.814
▁trap	-10.814
▁hundreds	-10.8141
▁tied	-10.8144
fest	-10.8146
▁belongs	-10.8146
ted	-10.8152
▁craft	-10.8157
▁essential	-10.8162
▁protagonists	-10.8162
▁press	-10.8163
▁trade	-10.8166
▁kidnapped	-10.8168
▁scientists	-10.8169
▁frankenstein	-10.8169
▁adapted	-10.8175
▁spending	-10.8179
▁1/10	-10.8183
maybe	-10.8196
izing	-10.8202
▁tea	-10.8203
▁investigation	-10.8209
▁library	-10.8209
▁jonathan	-10.8211
▁card	-10.822
▁forgive	-10.8221
▁su	-10.8221
▁merit	-10.8227
▁dancer	-10.8237
▁successfully	-10.8244
▁torn	-10.8248
nt	-10.8249
▁spiritual	-10.8249
▁ensemble	-10.8249
▁powell	-10.825
▁mitchell	-10.825
▁legs	-10.8251
▁pitch	-10.8255
▁closely	-10.8257
▁aged	-10.8259
▁bull	-10.8261
▁lou	-10.8262
▁connected	-10.8263
▁finger	-10.8271
▁physically	-10.8271
▁crafted	-10.8273
▁horrendous	-10.8281
▁drags	-10.8283
▁happily	-10.829
▁cardboard	-10.829
▁korean	-10.8293
▁holly	-10.8296
▁broadcast	-10.8297
▁farce	-10.83
▁strip	-10.8309
▁loser	-10.8314
ities	-10.832
more	-10.8321
▁cringe	-10.8322
▁curiosity	-10.8331
▁ourselves	-10.8331
▁gray	-10.8337
...)	-10.8342
▁border	-10.8348
▁identify	-10.8355
▁lab	-10.8356
▁broad	-10.8356
▁hammer	-10.8365
▁piano	-10.8373
▁trite	-10.8375
▁guts	-10.8376
▁blows	-10.8377
▁tall	-10.8385
▁intention	-10.8389
▁benefit	-10.839
▁incident	-10.839
why	-10.8391
▁jumps	-10.8402
▁baker	-10.8412
▁split	-10.8414
▁sidney	-10.8414
▁dragged	-10.8414
▁laurel	-10.8416
▁lugosi	-10.8417
▁beating	-10.8417
▁dubbing	-10.8417
▁irony	-10.842
▁struck	-10.8421
▁steps	-10.8442
▁coast	-10.8452
▁glory	-10.8456
▁dealt	-10.8458
▁outer	-10.8464
▁2000	-10.8464
▁mi	-10.847
▁critic	-10.8476
▁bride	-10.8478
▁roman	-10.8482
▁corner	-10.8482
▁minimal	-10.8485
▁hype	-10.8486
▁concerns	-10.8489
▁appearances	-10.8491
▁fianc	-10.8494
▁health	-10.8494
▁eve	-10.8497
▁nelson	-10.8498
▁repetitive	-10.8498
▁eerie	-10.8498
▁emily	-10.8502
▁freak	-10.8503
▁ward	-10.8503
▁relative	-10.8505
▁24	-10.851
▁virgin	-10.851
▁typically	-10.8514
▁stole	-10.8538
▁di	-10.8539
▁afford	-10.854
▁gothic	-10.8541
▁clint	-10.8541
▁cried	-10.8541
spoilers	-10.8542
▁portrait	-10.8559
▁load	-10.8562
▁swear	-10.8565
▁talked	-10.8568
▁punk	-10.8571
▁chases	-10.8576
▁incoherent	-10.8586
▁1)	-10.8588
▁appalling	-10.8615
▁4.	-10.8623
▁essence	-10.8624
▁redemption	-10.8624
▁inspector	-10.8626
▁hills	-10.8626
▁titles	-10.8629
▁sexually	-10.863
▁sends	-10.8632
▁rushed	-10.8638
▁cameos	-10.865
▁tons	-10.8659
▁poster	-10.8661
▁heat	-10.8666
▁breasts	-10.8666
▁kudos	-10.8667
▁elsewhere	-10.867
ja	-10.8671
▁established	-10.868
▁persona	-10.8681
▁faced	-10.8688
▁1930	-10.87
▁endearing	-10.8702
type	-10.8704
▁bin	-10.8708
▁charisma	-10.871
▁relevant	-10.871
▁precious	-10.871
▁musicals	-10.8712
▁virus	-10.8712
▁ralph	-10.8712
▁cabin	-10.8714
▁twin	-10.8716
▁achieved	-10.8726
▁emma	-10.8733
sh	-10.8736
▁lo	-10.8738
▁packed	-10.8738
▁chicago	-10.8753
▁medium	-10.8753
lu	-10.876
▁leslie	-10.876
▁fx	-10.876
▁suits	-10.8763
▁march	-10.8777
▁backdrop	-10.8777
▁subplot	-10.8779
▁hence	-10.8784
▁hoped	-10.8785
existent	-10.8785
video	-10.8787
▁easier	-10.8796
▁cinderella	-10.8797
▁min	-10.8797
▁expensive	-10.88
liners	-10.8805
▁snake	-10.8809
▁suggests	-10.881
ville	-10.8815
▁develops	-10.8822
school	-10.8827
▁spare	-10.8828
▁insist	-10.8828
▁savage	-10.8829
▁definite	-10.8829
▁neck	-10.8833
▁sneak	-10.8834
▁funeral	-10.8839
▁oddly	-10.884
▁crack	-10.884
▁godfather	-10.8841
▁larger	-10.8848
▁motivation	-10.8849
▁tricks	-10.8851
▁repeatedly	-10.8853
▁wishes	-10.8853
▁wreck	-10.8858
▁briefly	-10.8868
▁confront	-10.8871
▁hunting	-10.8876
▁grandfather	-10.8884
▁photographer	-10.8886
▁opposed	-10.8886
▁fonda	-10.889
▁jobs	-10.889
▁outcome	-10.8893
▁importantly	-10.8908
▁bell	-10.8908
▁winter	-10.8916
▁showcase	-10.8919
▁horses	-10.892
▁stood	-10.8926
▁guilt	-10.8929
▁cia	-10.893
▁sand	-10.8931
▁refuses	-10.8938
▁locked	-10.8939
▁noble	-10.8941
▁carol	-10.8942
▁fi	-10.8949
ana	-10.8952
▁tremendous	-10.896
▁audio	-10.897
▁threw	-10.897
▁sophisticated	-10.8972
▁pointed	-10.8973
▁mansion	-10.8973
▁accused	-10.8974
▁1/2	-10.8976
▁carefully	-10.8978
▁wing	-10.8979
▁rogers	-10.8987
boy	-10.8992
spoiler	-10.8993
▁hook	-10.8994
▁landscape	-10.9
▁handful	-10.9001
▁creators	-10.9004
▁duke	-10.9005
▁hysterical	-10.9005
▁9/10	-10.9006
▁jazz	-10.901
▁sole	-10.9011
▁selling	-10.9014
▁spike	-10.9016
▁thumbs	-10.902
▁heroic	-10.9023
▁highlights	-10.9027
▁0	-10.9029
▁maintain	-10.9034
▁spoiled	-10.9034
▁rap	-10.9036
▁penn	-10.9037
▁shoes	-10.9038
▁daughters	-10.9038
▁requires	-10.9044
▁pink	-10.9046
▁germans	-10.9051
wise	-10.9051
▁commercials	-10.9053
▁fifteen	-10.9058
▁resolution	-10.9058
▁altogether	-10.9058
▁madonna	-10.9061
▁hudson	-10.9061
▁shall	-10.9062
▁jake	-10.9063
▁complaint	-10.9063
▁sandra	-10.9064
▁grows	-10.9078
▁mild	-10.9079
▁shadows	-10.9082
▁kicks	-10.9085
que	-10.9086
▁souls	-10.9086
ad	-10.9098
▁wine	-10.9099
▁thrills	-10.91
▁swedish	-10.9103
▁horrid	-10.9103
▁pride	-10.9103
▁linda	-10.9113
▁engaged	-10.9114
▁sport	-10.9119
▁infamous	-10.9124
▁loosely	-10.9126
▁timeless	-10.913
▁hitch	-10.913
▁dialogs	-10.9136
▁jumping	-10.9143
ir	-10.9144
▁suspects	-10.9145
▁hamlet	-10.915
▁ambitious	-10.915
▁drunken	-10.9151
▁attracted	-10.9153
▁wondered	-10.9155
▁possessed	-10.9157
▁smoking	-10.916
▁burning	-10.9168
▁carl	-10.917
▁jet	-10.9171
▁norman	-10.9179
li	-10.919
ee	-10.9192
▁hopper	-10.9193
head	-10.9194
▁fancy	-10.9195
im	-10.9195
▁increasingly	-10.9195
▁blake	-10.9197
▁staff	-10.9197
▁destruction	-10.9199
▁goal	-10.9203
▁fitting	-10.9203
▁stated	-10.9204
writer	-10.9209
ran	-10.9209
▁parent	-10.9217
▁explosions	-10.9218
movies	-10.9218
▁realise	-10.9219
▁rick	-10.9219
▁response	-10.9225
▁puppet	-10.9231
▁jealous	-10.9232
▁altman	-10.9237
▁dropped	-10.9238
▁terrifying	-10.9238
▁du	-10.924
▁translation	-10.924
▁reasonably	-10.9241
▁lucy	-10.9242
▁noise	-10.9242
▁indians	-10.9243
▁rat	-10.9256
▁stinker	-10.9272
▁returning	-10.9273
jo	-10.9274
▁brilliance	-10.9283
▁documentaries	-10.9283
▁frustrated	-10.9284
▁stops	-10.9285
▁stooges	-10.9287
▁daring	-10.9291
▁cole	-10.9297
▁pleasantly	-10.93
only	-10.9309
▁spots	-10.9313
▁clown	-10.9317
▁buff	-10.9318
mm	-10.9319
▁tortured	-10.9319
▁raped	-10.9325
▁menacing	-10.9328
▁celluloid	-10.933
▁beaten	-10.9333
bi	-10.9336
▁bone	-10.9347
▁saves	-10.9349
▁pleased	-10.9351
▁boot	-10.9357
id	-10.9359
▁disc	-10.9363
▁corpse	-10.9367
▁porno	-10.937
aka	-10.937
▁symbolism	-10.9374
▁hideous	-10.9374
▁carrey	-10.9375
▁walken	-10.9377
▁drivel	-10.9378
▁watches	-10.939
▁mile	-10.9392
▁cup	-10.9394
▁insulting	-10.9397
▁threat	-10.9409
▁revelation	-10.9412
▁interaction	-10.9414
▁char	-10.9418
▁cusack	-10.942
▁russia	-10.942
▁poverty	-10.9421
▁accompanie	-10.9421
▁crisis	-10.9421
▁angeles	-10.9423
▁block	-10.9433
▁angela	-10.9435
▁button	-10.9444
▁remaining	-10.9452
▁generous	-10.9457
▁doll	-10.9458
▁flawless	-10.946
▁assassin	-10.9461
let	-10.9461
▁strike	-10.9462
▁editor	-10.9462
▁victoria	-10.9465
▁believing	-10.9466
▁eccentric	-10.9466
▁valley	-10.9466
▁pseudo	-10.9467
▁luckily	-10.9469
▁importance	-10.9469
▁photographed	-10.947
▁associated	-10.9472
king	-10.9474
▁thrillers	-10.9476
che	-10.9479
▁discovery	-10.9485
▁ignored	-10.9493
▁videos	-10.9493
▁picking	-10.9493
▁mario	-10.9499
▁explicit	-10.9503
▁predator	-10.951
▁tie	-10.9511
▁chest	-10.9511
▁disjointed	-10.9512
▁austen	-10.9512
▁cliff	-10.9512
▁mis	-10.9512
▁elderly	-10.9516
▁lone	-10.9519
▁aimed	-10.952
▁accomplished	-10.952
▁iron	-10.952
▁cases	-10.9524
▁idiots	-10.9526
▁citizen	-10.9531
▁disease	-10.9538
▁lend	-10.9543
▁ear	-10.9547
▁21	-10.9547
▁vague	-10.955
▁evident	-10.9551
ak	-10.9554
▁occur	-10.9554
letting	-10.9555
▁bleak	-10.9557
▁inevitable	-10.9558
now	-10.9559
▁charismatic	-10.956
▁distance	-10.956
▁encounters	-10.956
▁countless	-10.956
▁surrounded	-10.9562
▁pulling	-10.9568
▁canada	-10.9569
▁nights	-10.957
▁unintentionally	-10.957
▁depend	-10.9572
▁dis	-10.9579
▁willis	-10.9587
▁q	-10.9589
▁travels	-10.959
▁obscure	-10.9592
---	-10.9598
▁kinds	-10.9598
▁(19	-10.9598
michael	-10.96
▁territory	-10.9605
▁popcorn	-10.9605
▁dentist	-10.9605
▁liking	-10.9605
▁randy	-10.9606
▁alexander	-10.9607
▁attached	-10.9609
▁admittedly	-10.9613
▁woo	-10.9613
▁lust	-10.9615
▁mar	-10.9616
▁reasonable	-10.9619
▁spell	-10.962
hour	-10.9623
▁leg	-10.9625
▁duo	-10.9627
▁shortly	-10.9631
▁hanks	-10.964
ac	-10.9646
▁meaningless	-10.9647
▁blank	-10.9651
such	-10.9651
paced	-10.9651
▁conspiracy	-10.9652
▁vicious	-10.9653
▁antics	-10.9653
▁giallo	-10.9653
▁narrator	-10.9655
ut	-10.9655
▁amanda	-10.9657
▁eva	-10.9662
▁carter	-10.9663
▁terrorist	-10.9675
pa	-10.9677
▁dinosaurs	-10.9677
▁fond	-10.968
▁contract	-10.9681
▁reflect	-10.9686
▁spring	-10.9692
▁rely	-10.9694
▁discussion	-10.9697
▁airplane	-10.9698
▁astonishing	-10.9699
▁francis	-10.97
▁spooky	-10.9701
▁buried	-10.9701
▁combat	-10.9701
▁lawrence	-10.9703
▁killings	-10.9706
▁tender	-10.971
▁individuals	-10.9711
▁bold	-10.9715
▁glenn	-10.9716
ko	-10.972
▁dire	-10.972
ance	-10.9725
▁revealing	-10.9728
▁detailed	-10.9734
tion	-10.9736
ably	-10.9736
girl	-10.9739
▁sidekick	-10.9745
▁wax	-10.9745
▁unpleasant	-10.9745
▁preview	-10.9747
▁diamond	-10.9747
▁argento	-10.9747
▁generic	-10.9747
▁uniform	-10.9747
▁cared	-10.9748
▁goodness	-10.9749
▁murray	-10.975
▁50'	-10.9754
▁worthless	-10.9756
ya	-10.9764
▁reactions	-10.9769
▁shoots	-10.9769
▁bug	-10.9775
▁intrigue	-10.9779
▁complain	-10.9793
▁homosexual	-10.9794
▁university	-10.9794
▁yesterday	-10.9794
▁demands	-10.9794
▁argument	-10.9794
▁unwatchable	-10.9795
▁ticket	-10.9795
ating	-10.9796
▁listed	-10.98
▁factory	-10.9807
▁todd	-10.982
ber	-10.9823
red	-10.9828
▁abc	-10.9829
▁continued	-10.983
▁cd	-10.9835
▁hamilton	-10.9842
▁hatred	-10.9842
▁allowing	-10.9845
▁distant	-10.9846
▁dorothy	-10.9846
▁mate	-10.9847
▁arrested	-10.9848
▁ranks	-10.9849
▁overdone	-10.9851
▁afterwards	-10.9852
▁franco	-10.9853
▁childish	-10.9854
cing	-10.9857
▁2001	-10.9864
▁solo	-10.9872
▁ridiculously	-10.9875
▁2005	-10.9878
▁receive	-10.9879
▁slick	-10.988
▁smooth	-10.9883
▁inspiring	-10.9884
▁segments	-10.9886
▁cruise	-10.9888
▁sadistic	-10.989
▁rural	-10.989
▁grandmother	-10.989
▁wrestling	-10.9893
▁kitchen	-10.9893
▁sandler	-10.9893
▁pa	-10.9895
▁chicken	-10.9895
▁offended	-10.9897
▁hitting	-10.9906
▁thrill	-10.9909
▁provid	-10.9913
▁measure	-10.9927
▁gift	-10.993
▁rights	-10.9933
▁abysmal	-10.9939
▁unbelievably	-10.9939
▁reunion	-10.9939
▁involvement	-10.994
▁wallace	-10.994
▁hardcore	-10.9942
▁directorial	-10.9943
▁albe	-10.9946
▁superbly	-10.9948
▁bang	-10.9951
▁maria	-10.9951
▁burned	-10.9952
▁additional	-10.9956
▁purchase	-10.9974
▁painting	-10.9974
▁performing	-10.9977
▁arrive	-10.9979
▁defeat	-10.9979
▁digital	-10.998
comedy	-10.9984
▁lit	-10.9984
▁causing	-10.9987
▁chaos	-10.9987
▁juvenile	-10.9987
▁bullet	-10.9988
▁depression	-10.9988
▁pot	-10.9988
▁spielberg	-10.9989
▁illegal	-10.9989
▁tracy	-10.999
minded	-10.999
▁achievement	-10.9992
▁scripted	-10.9995
▁matthew	-10.9997
ex	-11
po	-11.0003
▁pal	-11.0008
▁tunes	-11.0014
▁hearts	-11.0023
▁investigate	-11.0026
▁subsequent	-11.0026
▁traveling	-11.0026
▁gentle	-11.0034
▁del	-11.0034
▁devoid	-11.0036
▁damme	-11.0036
▁comfortable	-11.0036
▁lincoln	-11.0038
▁devoted	-11.0038
▁oscars	-11.0039
▁diane	-11.0041
▁returned	-11.0042
wood	-11.0042
▁displays	-11.0049
▁escaped	-11.005
▁alternate	-11.0056
▁plant	-11.0062
bar	-11.0062
▁iii	-11.0066
▁sentence	-11.0081
▁crystal	-11.0085
▁kidding	-11.0085
▁campbell	-11.0085
▁brando	-11.0087
▁quinn	-11.0088
▁derek	-11.0089
▁overwhelming	-11.0089
▁duty	-11.009
▁extended	-11.009
▁neil	-11.0094
▁hi	-11.0096
▁thick	-11.0097
▁boll	-11.0098
ki	-11.011
▁crimes	-11.0113
▁widow	-11.0122
hi	-11.0126
▁slice	-11.013
▁ca	-11.0131
ization	-11.0132
▁implausible	-11.0134
▁fix	-11.0134
▁glover	-11.0135
mer	-11.0135
▁trio	-11.0136
▁abilities	-11.0136
▁installment	-11.0139
▁claire	-11.0141
▁ideal	-11.0141
▁slap	-11.0148
▁highest	-11.0152
▁lyrics	-11.0163
▁advise	-11.0166
▁thoughtful	-11.0171
▁splatter	-11.0176
▁bears	-11.0178
because	-11.0181
▁synopsis	-11.0184
▁kirk	-11.0184
▁unbearable	-11.0185
▁margaret	-11.0186
ised	-11.019
▁newspaper	-11.0191
!!!!!	-11.0214
▁clues	-11.0224
▁ned	-11.0226
▁firm	-11.0233
▁square	-11.0233
▁survival	-11.0233
▁worried	-11.0233
▁ireland	-11.0234
▁streep	-11.0235
▁temple	-11.0236
▁disturbed	-11.0237
▁stanley	-11.0237
▁logical	-11.024
▁resembles	-11.0243
▁executive	-11.0244
▁sadness	-11.0247
▁prostitute	-11.025
▁fired	-11.0259
▁dramas	-11.026
▁represents	-11.0261
grade	-11.0264
▁invite	-11.0271
▁miserable	-11.0283
▁bathroom	-11.0283
▁estate	-11.0284
eyed	-11.0284
▁planning	-11.0284
▁secretary	-11.0285
▁alternative	-11.0286
▁selfish	-11.0288
▁craig	-11.0289
▁strikes	-11.0289
minute	-11.029
▁overlooked	-11.0292
▁link	-11.0299
▁resist	-11.0312
▁nazis	-11.0326
▁beats	-11.0327
▁lol	-11.0327
▁contrary	-11.0335
▁emperor	-11.0335
▁dedicated	-11.0335
▁screw	-11.0337
▁delivering	-11.0338
ti	-11.0339
▁strictly	-11.034
most	-11.0341
▁improved	-11.0347
▁misses	-11.0348
▁pushed	-11.0348
lan	-11.0352
▁commented	-11.0352
ny	-11.0358
▁mac	-11.0359
▁ego	-11.0362
ped	-11.0367
▁grab	-11.0368
▁assault	-11.0373
▁user	-11.0377
▁corn	-11.0384
▁clumsy	-11.0384
▁psychiatrist	-11.0384
▁rendition	-11.0384
▁website	-11.0384
▁furthermore	-11.0385
▁occurs	-11.0388
▁affected	-11.0396
▁tag	-11.0397
▁principal	-11.0397
▁intrigued	-11.0398
ger	-11.0401
▁builds	-11.0402
▁teaching	-11.0407
▁staying	-11.0412
▁waters	-11.0423
▁rage	-11.0432
▁politically	-11.0433
done	-11.0434
▁captivating	-11.0436
▁exotic	-11.0436
▁carrie	-11.0436
▁pearl	-11.0439
▁prisoner	-11.0462
▁elaborate	-11.0473
▁superficial	-11.0476
▁battles	-11.0476
▁notably	-11.0486
▁absence	-11.0486
▁buddies	-11.0486
▁junior	-11.0486
▁sloppy	-11.0486
▁troma	-11.0486
▁elvis	-11.0486
▁slightest	-11.0487
▁producing	-11.0487
regarding	-11.0499
▁secondly	-11.0506
▁endure	-11.0528
▁explore	-11.0528
▁turner	-11.053
▁vast	-11.053
ble	-11.0533
▁branagh	-11.0537
▁mixture	-11.0537
▁punishment	-11.0537
▁racial	-11.0538
▁psychotic	-11.0538
▁philosophy	-11.0538
▁kubrick	-11.0539
▁stereotype	-11.054
▁yellow	-11.0541
▁calm	-11.0541
▁scientific	-11.0543
▁val	-11.0546
▁removed	-11.0549
▁buster	-11.0553
▁photo	-11.0554
▁folk	-11.0554
▁enters	-11.0562
▁anyways	-11.0564
▁noted	-11.0569
ron	-11.0569
▁provoking	-11.0577
▁fears	-11.0579
▁pe	-11.0587
▁hollow	-11.0589
▁choreography	-11.0589
▁eighties	-11.059
▁foul	-11.0596
▁knight	-11.0597
▁ja	-11.0603
then	-11.0606
▁ko	-11.0607
▁fatal	-11.0609
▁performer	-11.0613
▁blues	-11.0613
▁stronger	-11.0623
▁masters	-11.0624
pi	-11.0625
▁settle	-11.0627
▁engage	-11.0627
▁damage	-11.0628
▁walls	-11.0634
▁squad	-11.064
▁possibility	-11.0641
▁simplistic	-11.0641
▁curtis	-11.0641
▁coffee	-11.0642
▁gradually	-11.0642
▁falk	-11.0642
▁bath	-11.0644
▁vice	-11.0644
▁exaggerated	-11.0645
▁jeremy	-11.0646
▁bottle	-11.0657
▁parallel	-11.0658
▁classical	-11.0659
aged	-11.0659
▁explaining	-11.0667
▁offering	-11.0668
▁harder	-11.067
ru	-11.0677
▁pants	-11.0689
▁innovative	-11.0693
▁poetry	-11.0693
▁inventive	-11.0693
▁mtv	-11.0694
▁cox	-11.0696
▁kurt	-11.0697
▁clothing	-11.0699
▁nearby	-11.07
▁sacrifice	-11.0701
▁scheme	-11.0711
▁gi	-11.0712
▁ruthless	-11.0715
▁bette	-11.0716
▁vegas	-11.0717
▁wannabe	-11.0734
▁splendid	-11.0735
▁leonard	-11.0743
▁arrogant	-11.0745
▁resemblance	-11.0746
▁depressed	-11.0746
▁errors	-11.0747
ck	-11.0748
▁ironically	-11.0748
▁fighter	-11.0755
▁aka	-11.0758
▁garden	-11.0761
▁cats	-11.0762
▁shine	-11.0763
▁urge	-11.0763
▁warrior	-11.0767
▁holy	-11.0768
▁reached	-11.077
▁recorded	-11.0779
▁staged	-11.0781
▁rocks	-11.0782
▁establish	-11.0787
▁headed	-11.0796
▁colonel	-11.0798
▁mafia	-11.0798
▁population	-11.0798
▁judging	-11.0799
va	-11.0803
▁shining	-11.0804
▁involve	-11.0806
▁distracting	-11.0806
long	-11.0822
▁reed	-11.0824
▁throat	-11.0824
▁areas	-11.0836
▁cards	-11.0836
▁bon	-11.0845
▁doors	-11.0848
ok	-11.0849
▁occurred	-11.0851
▁convoluted	-11.0851
▁fed	-11.0852
▁murderous	-11.0854
▁coherent	-11.0863
▁triumph	-11.0867
▁proceedings	-11.087
ily	-11.087
cut	-11.0871
▁aging	-11.0872
▁explosion	-11.0875
▁agreed	-11.0876
▁notes	-11.0878
▁props	-11.0878
▁recognized	-11.0879
▁existed	-11.0879
▁secrets	-11.0891
▁blatant	-11.0894
▁conventional	-11.0896
▁closed	-11.0901
▁bargain	-11.0904
▁museum	-11.0904
▁isolated	-11.0905
▁robinson	-11.0905
▁dignity	-11.0906
▁alert	-11.0908
▁homeless	-11.0908
▁terrorists	-11.0909
▁mistaken	-11.091
▁cheating	-11.0913
ney	-11.0914
▁doc	-11.0914
▁cliche	-11.0915
▁2/10	-11.0918
▁nail	-11.0919
▁et	-11.0929
▁scarecrow	-11.093
▁andrew	-11.0936
▁wont	-11.0936
▁lifestyle	-11.0939
▁guarantee	-11.0944
▁prepare	-11.0944
▁frost	-11.0951
▁represent	-11.0952
▁screams	-11.0955
▁command	-11.0955
▁frustrating	-11.0957
▁recognition	-11.0957
▁norris	-11.0958
▁subtlety	-11.0958
▁baldwin	-11.0959
▁copies	-11.0961
cha	-11.0961
▁morality	-11.0961
▁winds	-11.0965
▁ought	-11.0968
▁differences	-11.0972
▁motives	-11.0972
▁tonight	-11.098
▁projects	-11.0982
▁dinosaur	-11.0986
▁sheen	-11.099
▁justify	-11.0996
▁grasp	-11.1001
▁tad	-11.1006
▁disappoint	-11.1006
ball	-11.1007
▁unoriginal	-11.1011
▁suspicious	-11.1011
▁stellar	-11.1012
▁beneath	-11.1012
▁versus	-11.1013
▁bates	-11.1015
▁eaten	-11.1016
tic	-11.1018
▁official	-11.1026
▁failing	-11.1027
▁exposed	-11.1027
▁succeeded	-11.1027
▁alfred	-11.1031
story	-11.1033
▁influenced	-11.1038
▁scarlett	-11.104
▁aid	-11.1046
▁rabbit	-11.105
▁enormous	-11.1055
▁darker	-11.1056
▁conversations	-11.1059
▁rubber	-11.1062
▁mars	-11.1063
▁manhattan	-11.1065
▁lemmon	-11.1065
▁primarily	-11.1067
▁shirley	-11.1067
▁countryside	-11.1068
▁bay	-11.1073
▁consistently	-11.1074
▁ne	-11.1086
▁witnessed	-11.1086
▁bud	-11.1088
▁sue	-11.1088
▁fooled	-11.1089
▁montage	-11.1091
▁mayor	-11.1098
▁wonders	-11.1103
▁titled	-11.1108
town	-11.1108
▁messages	-11.1108
▁divorce	-11.1112
▁depicts	-11.1114
▁report	-11.1114
field	-11.1116
▁morris	-11.1118
▁comparing	-11.1119
▁edition	-11.112
▁bonus	-11.112
▁gal	-11.1121
▁robbery	-11.1122
▁reaches	-11.1124
▁comics	-11.1125
▁brains	-11.1131
▁myers	-11.1132
than	-11.1135
▁forty	-11.1139
core	-11.114
▁lips	-11.1142
▁album	-11.1146
▁contribute	-11.1157
▁circle	-11.1159
▁vivid	-11.1164
▁unintentional	-11.1167
▁loyal	-11.1173
▁enemies	-11.1174
▁blew	-11.1175
▁undoubtedly	-11.1175
▁terry	-11.1179
▁signs	-11.1181
▁passes	-11.1182
▁huh	-11.1192
ate	-11.1195
ship	-11.1196
▁stark	-11.1198
▁agents	-11.1217
▁belong	-11.1217
▁prisoners	-11.1219
▁blast	-11.1219
yn	-11.122
▁mann	-11.122
▁adequate	-11.122
watch	-11.1224
▁awake	-11.1224
▁feed	-11.1227
▁aforementioned	-11.1229
▁garfield	-11.1229
▁contest	-11.1229
▁shelf	-11.1231
stop	-11.1245
▁ah	-11.1246
▁closet	-11.1252
▁threatening	-11.1253
▁honesty	-11.1259
▁duck	-11.1259
sen	-11.1262
▁sons	-11.1274
ff	-11.1279
▁education	-11.1283
▁excruciating	-11.1284
▁mason	-11.1286
▁downhill	-11.1286
robert	-11.1288
▁planned	-11.1288
▁classes	-11.1298
▁flop	-11.13
▁dust	-11.1301
▁gear	-11.1302
▁similarly	-11.1308
▁nicole	-11.1314
▁nightmares	-11.1314
▁phil	-11.1317
▁prize	-11.1323
▁gangsters	-11.1326
▁bullets	-11.1335
▁sleaze	-11.134
white	-11.1346
▁decisions	-11.1347
▁doomed	-11.135
▁keith	-11.1352
▁trained	-11.1355
▁overrated	-11.1355
▁tank	-11.1359
▁35	-11.1361
▁impress	-11.1364
▁loads	-11.1368
▁companion	-11.1373
▁journalist	-11.1373
▁unfolds	-11.1377
▁menace	-11.1383
▁covers	-11.1383
▁spread	-11.1384
▁masterful	-11.1387
▁bourne	-11.1396
▁barney	-11.1397
▁notion	-11.14
▁immensely	-11.14
os	-11.1402
▁runner	-11.1402
▁frankie	-11.1403
▁eastern	-11.1407
▁*****	-11.1407
tch	-11.141
▁em	-11.141
▁dee	-11.1414
both	-11.1415
▁tame	-11.1416
▁models	-11.1419
▁fingers	-11.1432
▁limits	-11.1435
▁graham	-11.1447
▁smaller	-11.1448
▁je	-11.145
▁horrifying	-11.1452
▁grotesque	-11.1452
▁equipment	-11.1452
▁bruno	-11.1452
▁formulaic	-11.1454
▁partly	-11.1455
▁satisfied	-11.1455
▁macy	-11.1459
▁rocket	-11.1463
▁officers	-11.1467
▁trees	-11.1474
▁marks	-11.1474
▁hack	-11.1476
▁tripe	-11.1477
▁pushing	-11.1479
▁displayed	-11.1479
......	-11.1479
▁josh	-11.1485
▁dynamic	-11.1488
▁progress	-11.1494
▁instant	-11.15
▁defend	-11.1505
▁cagney	-11.1508
▁bronson	-11.1508
▁guitar	-11.1509
▁airport	-11.1509
▁specifically	-11.1511
▁philosophical	-11.1512
▁ross	-11.1514
▁cake	-11.1515
▁5.	-11.1516
▁presumably	-11.1516
ise	-11.152
▁method	-11.152
▁romp	-11.1521
▁fest	-11.1525
▁creep	-11.1527
ten	-11.1532
▁describes	-11.1534
▁peak	-11.1538
▁mill	-11.1541
plot	-11.1551
▁ruins	-11.1554
▁legal	-11.1557
▁imagined	-11.1559
car	-11.156
▁switch	-11.1561
▁adorable	-11.1565
▁creativity	-11.1565
▁stilted	-11.1565
▁pitiful	-11.1565
▁primary	-11.1565
▁edgar	-11.1566
▁karate	-11.1566
▁cassavetes	-11.1566
▁empire	-11.1567
▁cinematographer	-11.1568
▁seventies	-11.1568
▁reduced	-11.1571
▁cheated	-11.1572
▁toy	-11.1573
▁wore	-11.1574
▁ease	-11.1576
wa	-11.1579
▁lucas	-11.1581
▁subplots	-11.1589
▁helicopter	-11.1597
▁transformation	-11.1602
▁poison	-11.1604
▁ears	-11.1605
▁tracks	-11.1616
▁hilariously	-11.1617
▁nostalgia	-11.1622
▁wrapped	-11.1622
▁florida	-11.1623
▁illogical	-11.1623
▁composer	-11.1624
▁workers	-11.1624
ster	-11.164
▁hart	-11.1651
▁trashy	-11.1655
▁rebel	-11.1666
▁consistent	-11.167
▁shake	-11.1673
▁scripts	-11.1679
▁rotten	-11.168
▁flies	-11.168
▁feast	-11.168
▁sappy	-11.168
▁martha	-11.1683
great	-11.1685
▁uneven	-11.1687
▁inane	-11.1688
▁steel	-11.169
night	-11.1691
▁solely	-11.1693
io	-11.1695
han	-11.1696
▁counter	-11.1699
▁advance	-11.1707
su	-11.1711
▁kicked	-11.1711
kin	-11.1715
mar	-11.1716
▁alike	-11.1717
esque	-11.1718
▁comfort	-11.1719
▁sticks	-11.1725
art	-11.1728
▁beg	-11.1729
▁unit	-11.1731
▁dutch	-11.1734
▁crawford	-11.1738
▁swimming	-11.1738
▁embarrassment	-11.1738
▁riveting	-11.1739
▁scooby	-11.1739
▁priceless	-11.1739
▁doug	-11.1743
ci	-11.1745
▁cream	-11.1746
▁rita	-11.1747
▁transfer	-11.1747
▁borrowed	-11.1748
coming	-11.1753
▁blond	-11.1756
▁chances	-11.1759
ence	-11.1761
▁mode	-11.1761
love	-11.1765
▁improve	-11.1765
▁pig	-11.1773
▁nerd	-11.1773
▁movements	-11.1777
▁historically	-11.1779
▁stinks	-11.1789
▁passionate	-11.1789
▁fields	-11.1796
▁huston	-11.1796
▁rude	-11.1796
▁pin	-11.1797
▁similarities	-11.1797
▁2004	-11.1798
▁grudge	-11.1798
▁considerable	-11.18
istic	-11.18
▁constructed	-11.1806
▁vi	-11.1807
ham	-11.1814
▁careers	-11.1815
▁y	-11.1816
▁poetic	-11.1818
▁parties	-11.182
▁practice	-11.1825
▁crush	-11.183
▁desired	-11.1832
▁recording	-11.1833
▁mentioning	-11.1833
▁odds	-11.185
▁hung	-11.1854
▁address	-11.1854
▁absent	-11.1854
▁aussie	-11.1854
▁felix	-11.1854
▁griffith	-11.1855
▁progresses	-11.1856
▁composed	-11.1857
▁dating	-11.1857
▁harvey	-11.1858
▁titanic	-11.1858
▁suitable	-11.1859
▁royal	-11.1861
▁dozens	-11.1866
▁cannon	-11.1867
au	-11.1874
▁emphasis	-11.1887
▁pretending	-11.1888
▁cg	-11.189
▁survived	-11.1892
going	-11.1895
▁wound	-11.19
▁financial	-11.1903
▁ga	-11.1906
▁frequent	-11.191
▁crucial	-11.1913
▁tyler	-11.1913
▁introduces	-11.1914
▁plausible	-11.1914
▁gentleman	-11.1915
▁corman	-11.1916
▁mankind	-11.1916
▁chased	-11.1918
▁psychic	-11.194
▁survivors	-11.194
▁awe	-11.1941
▁justin	-11.1942
op	-11.1943
▁moody	-11.1943
▁contained	-11.1947
▁pen	-11.195
ette	-11.1952
▁gate	-11.1958
▁developing	-11.1961
▁gut	-11.1962
▁dimensional	-11.1963
▁define	-11.197
▁vengeance	-11.1972
▁fought	-11.1972
▁glasses	-11.1975
▁lately	-11.1976
makers	-11.1976
▁topless	-11.1983
▁shirt	-11.1985
ng	-11.199
▁bi	-11.1992
▁ali	-11.2
▁discuss	-11.2001
▁las	-11.2004
was	-11.2006
ud	-11.2012
▁subjects	-11.2013
▁suited	-11.2013
are	-11.2016
▁drawing	-11.2017
▁portion	-11.202
▁operation	-11.202
▁leo	-11.2022
▁convincingly	-11.2027
ric	-11.2029
▁favour	-11.2031
▁ranger	-11.2031
▁circus	-11.2032
▁nicholson	-11.2032
▁garbo	-11.2032
▁perry	-11.2033
▁butler	-11.2033
▁twelve	-11.2033
▁ta	-11.2033
▁cow	-11.2034
▁catches	-11.2041
▁ol	-11.2041
▁sullivan	-11.2044
▁explored	-11.2047
▁gus	-11.205
▁thru	-11.2065
▁resemble	-11.2066
▁nut	-11.2069
▁ingredients	-11.2075
▁guessed	-11.2075
ened	-11.2076
▁replace	-11.2079
▁rave	-11.208
▁chuckle	-11.2081
▁nervous	-11.2082
▁elephant	-11.2082
▁ram	-11.209
▁saga	-11.2091
▁advertising	-11.2092
▁bullock	-11.2092
▁safety	-11.2092
▁ignorant	-11.2092
▁nostalgic	-11.2093
▁turkish	-11.2094
▁ps	-11.2097
▁incompetent	-11.2097
▁ruth	-11.2102
▁disappeared	-11.2102
q	-11.2105
▁mail	-11.2106
▁earned	-11.2109
hand	-11.2118
▁strangers	-11.212
▁brutally	-11.2124
den	-11.2124
▁annie	-11.2125
▁transform	-11.2142
▁pressure	-11.2144
▁spider	-11.2144
▁wealth	-11.2146
▁nomination	-11.2147
pre	-11.2149
▁challenging	-11.2152
▁chainsaw	-11.2152
▁wished	-11.2154
▁doom	-11.216
▁davies	-11.2161
handed	-11.2162
▁pays	-11.2162
▁boom	-11.2164
▁slave	-11.2165
▁dolls	-11.217
▁rod	-11.217
▁centre	-11.2179
▁faster	-11.2182
laughably	-11.2183
▁ties	-11.2187
ious	-11.2192
▁suggested	-11.2198
▁confess	-11.2201
▁reflection	-11.2203
▁rocky	-11.2205
▁transition	-11.2206
▁relation	-11.2207
▁mysteries	-11.2212
▁banned	-11.2212
▁quaid	-11.2214
▁crisp	-11.2215
▁mountains	-11.2216
▁conservative	-11.2218
face	-11.2225
▁groups	-11.2237
▁avoided	-11.2248
▁dame	-11.2249
▁sincere	-11.225
▁bite	-11.2254
▁prey	-11.2255
ph	-11.2259
▁careful	-11.226
▁opinions	-11.2262
▁intimate	-11.2263
▁3000	-11.227
▁capturing	-11.2273
▁mistress	-11.2273
▁karloff	-11.2278
▁jaw	-11.2279
▁relations	-11.2281
thriller	-11.2282
acted	-11.2289
▁lowest	-11.2294
▁painted	-11.2299
▁disappear	-11.23
▁adams	-11.2301
▁attend	-11.2306
▁borrow	-11.2308
▁ke	-11.2309
▁bam	-11.231
▁underly	-11.231
▁exchange	-11.2314
▁jewel	-11.2316
▁damned	-11.2316
▁useful	-11.2318
rr	-11.2327
▁panic	-11.2327
▁newman	-11.2328
▁senseless	-11.2328
climactic	-11.2334
▁global	-11.2335
▁phrase	-11.2335
▁campaign	-11.2335
▁understated	-11.2335
▁despair	-11.2335
▁corruption	-11.2336
▁samurai	-11.2336
▁confrontation	-11.2336
▁sixties	-11.2337
▁twilight	-11.2337
▁deliberately	-11.234
probably	-11.2344
▁quit	-11.2346
▁purchased	-11.2351
▁lock	-11.2362
ji	-11.2364
▁electric	-11.2367
▁label	-11.2373
acting	-11.2378
▁occasion	-11.239
▁tap	-11.2393
▁asylum	-11.2396
▁dreary	-11.2396
▁taught	-11.2396
▁obtain	-11.2396
▁destiny	-11.2397
▁appreciation	-11.2397
▁phantom	-11.2398
▁harold	-11.24
▁dread	-11.2401
▁warmth	-11.2401
▁jaws	-11.2403
▁alcoholic	-11.2405
▁deny	-11.2409
▁amy	-11.2421
▁handed	-11.2422
▁cons	-11.2427
▁ian	-11.2431
▁thugs	-11.2434
▁marty	-11.2437
▁react	-11.2438
ending	-11.2441
▁dimension	-11.2443
▁harm	-11.2444
▁burst	-11.2445
▁elegant	-11.2451
▁solution	-11.2453
▁wrap	-11.2453
▁spoke	-11.2456
▁region	-11.2457
▁amazon	-11.2459
▁valuable	-11.2459
key	-11.2459
▁illness	-11.2462
▁jeffrey	-11.2462
▁passable	-11.2462
▁inappropriate	-11.2466
▁awhile	-11.2468
▁staring	-11.2472
▁puppets	-11.2472
drama	-11.2472
▁bridges	-11.2479
▁remained	-11.2486
▁waited	-11.2488
▁rolled	-11.2496
▁trailers	-11.2502
ard	-11.2507
▁donna	-11.2512
▁superhero	-11.2516
▁frustration	-11.2516
▁amounts	-11.2517
▁muppet	-11.2519
▁greed	-11.2519
▁belt	-11.2521
▁pursuit	-11.2521
▁responsibility	-11.2521
▁descent	-11.2521
▁improvement	-11.2522
▁stale	-11.2522
paul	-11.2525
▁charlotte	-11.2527
▁floating	-11.2528
▁wounded	-11.2533
about	-11.2533
▁chi	-11.2547
▁seeks	-11.2547
▁outfit	-11.2569
▁debate	-11.2571
▁concentrate	-11.2571
▁package	-11.2571
▁cannibal	-11.2573
▁spacey	-11.2579
bb	-11.258
▁irrelevant	-11.2584
▁traffic	-11.2584
▁cancer	-11.2584
▁unsettling	-11.2584
▁fever	-11.2584
▁blowing	-11.2585
▁phony	-11.2585
▁coat	-11.2585
▁marshall	-11.2586
▁glorious	-11.2586
▁kingdom	-11.2587
▁communist	-11.2588
▁futuristic	-11.2588
▁revolutionary	-11.2589
▁gen	-11.2595
▁wandering	-11.2597
▁marion	-11.2608
▁motivations	-11.2608
▁channels	-11.2614
▁armed	-11.2622
▁demand	-11.2624
ial	-11.2625
▁reel	-11.2625
har	-11.2627
▁milk	-11.2627
▁sp	-11.2635
▁polish	-11.2637
▁introduce	-11.2638
▁desperation	-11.2647
▁minimum	-11.2647
▁soccer	-11.2647
▁bumbling	-11.2647
▁weather	-11.2647
▁tiresome	-11.2647
▁hokey	-11.2648
▁wacky	-11.2648
▁addiction	-11.2648
▁cleverly	-11.2648
▁carradine	-11.2648
▁watson	-11.2649
▁nuts	-11.2651
▁crocodile	-11.2652
▁commander	-11.2653
▁yelling	-11.2657
▁buffs	-11.2659
▁rising	-11.266
▁overacting	-11.2663
▁arrived	-11.2664
▁wishing	-11.2665
▁drops	-11.2666
▁conceived	-11.2667
▁unreal	-11.267
▁correctly	-11.2674
▁twins	-11.2675
▁pete	-11.2675
low	-11.2681
▁bela	-11.2688
▁stress	-11.2689
▁mute	-11.2699
▁excessive	-11.2701
▁pit	-11.2704
▁dialogues	-11.2708
▁paranoia	-11.2711
▁humble	-11.2711
▁remarkably	-11.2711
▁misery	-11.2711
▁affection	-11.2711
▁civilization	-11.2711
▁miniseries	-11.2712
▁nyc	-11.2712
▁teaches	-11.2714
▁access	-11.2718
ncomprehensible	-11.2719
▁understandable	-11.2728
▁lily	-11.2735
▁cheek	-11.2739
▁checked	-11.2746
wing	-11.2747
▁threaten	-11.2752
▁spark	-11.2754
▁premiere	-11.2765
awful	-11.2767
▁gabriel	-11.2772
▁possibilities	-11.2775
▁spock	-11.2775
▁guests	-11.2775
▁buildings	-11.2775
▁hartley	-11.2775
▁angst	-11.2776
▁definition	-11.2776
▁educational	-11.2777
▁christie	-11.278
▁gere	-11.278
▁leigh	-11.2781
▁secondary	-11.2781
▁carmen	-11.2782
▁scope	-11.2783
▁3)	-11.2786
▁directs	-11.2787
▁clock	-11.2794
▁tourist	-11.2798
▁proceeds	-11.2805
ent	-11.2809
▁redeem	-11.281
min	-11.2811
-13	-11.2812
ping	-11.2815
▁hints	-11.2818
▁owe	-11.2828
▁eager	-11.2829
▁objective	-11.283
▁patience	-11.284
▁facing	-11.284
▁romero	-11.284
▁agenda	-11.284
▁betrayal	-11.2841
▁daddy	-11.2841
▁austin	-11.2841
▁celebrity	-11.2841
▁invasion	-11.2842
▁1999	-11.2842
▁wizard	-11.2844
▁warren	-11.2845
▁experimental	-11.2845
▁ba	-11.285
▁realizing	-11.2851
▁behave	-11.2853
▁exceptionally	-11.2859
ass	-11.2861
▁landing	-11.2863
▁musician	-11.2867
▁jews	-11.2872
▁boris	-11.2876
▁beliefs	-11.2876
ever	-11.2888
▁---	-11.2889
▁nolan	-11.2893
▁artificial	-11.2894
▁remove	-11.2895
▁prejudice	-11.2899
▁treats	-11.29
▁jordan	-11.29
▁enthusiasm	-11.2905
▁equivalent	-11.2905
▁widmark	-11.2905
▁niro	-11.2905
▁francisco	-11.2905
▁craven	-11.2905
▁vaguely	-11.2918
▁gifted	-11.2919
▁boxing	-11.292
▁stevens	-11.2925
▁neo	-11.2926
▁pi	-11.2928
▁interact	-11.2929
▁joined	-11.2935
▁greatness	-11.2936
▁promised	-11.2941
▁wagon	-11.2946
▁dancers	-11.2951
chi	-11.2953
▁pun	-11.2958
▁shaw	-11.2965
▁inferior	-11.2969
▁tramp	-11.297
▁triangle	-11.297
▁roof	-11.297
▁nbc	-11.297
▁enterprise	-11.297
▁bedroom	-11.2971
▁kitty	-11.2971
▁champion	-11.2971
▁authority	-11.2971
▁underworld	-11.2973
▁defense	-11.2974
▁aaron	-11.2975
▁heartbreaking	-11.2975
faced	-11.2981
▁species	-11.2982
brazil	-11.2983
▁represented	-11.2983
our	-11.2986
▁clip	-11.2986
▁mighty	-11.2988
shot	-11.3005
▁col	-11.3006
▁sink	-11.3008
▁map	-11.301
▁affect	-11.3011
▁marketing	-11.3014
▁satisfy	-11.3018
▁ensues	-11.302
▁predict	-11.3023
▁suspend	-11.3025
▁joel	-11.3026
▁musicians	-11.303
▁7.	-11.3034
▁arrival	-11.3036
▁behaviour	-11.3036
▁mundane	-11.3036
▁smiling	-11.3036
▁travesty	-11.3036
▁velvet	-11.3036
▁edgy	-11.3037
▁spaghetti	-11.3037
▁2007	-11.3037
▁orange	-11.3039
▁quotes	-11.304
▁acid	-11.304
▁weakest	-11.3044
hero	-11.3044
▁severe	-11.3044
▁chapter	-11.3045
▁expressed	-11.3059
▁filler	-11.3062
▁catchy	-11.3068
▁relatives	-11.307
▁catching	-11.307
▁hoot	-11.3074
▁gather	-11.3075
▁expose	-11.3089
▁patients	-11.309
▁lasted	-11.3093
▁worker	-11.3096
▁corporate	-11.3102
▁loneliness	-11.3102
▁ritter	-11.3102
▁plight	-11.3102
▁bravo	-11.3103
▁holocaust	-11.3103
▁uplifting	-11.3105
▁popularity	-11.3105
▁forms	-11.3106
▁trademark	-11.3109
▁conditions	-11.311
▁tribe	-11.311
▁crossing	-11.311
▁bust	-11.3119
▁roller	-11.3127
▁claimed	-11.3128
gu	-11.3135
real	-11.3143
▁citizens	-11.3146
za	-11.315
▁unfair	-11.3159
▁alcohol	-11.3161
▁lift	-11.3161
list	-11.3162
▁belushi	-11.3169
▁exorcist	-11.3169
▁exploration	-11.3169
▁sarandon	-11.3169
▁suffice	-11.3169
▁tomorrow	-11.3169
▁wives	-11.3169
▁barrymore	-11.3169
▁household	-11.317
▁literature	-11.317
▁maid	-11.3171
▁vulnerable	-11.3172
▁scottish	-11.3173
▁exposure	-11.3173
▁berlin	-11.3175
▁depicting	-11.318
▁yo	-11.3182
worthy	-11.3185
▁complaining	-11.3193
▁jackass	-11.32
▁clueless	-11.3206
▁span	-11.3213
▁bones	-11.3213
▁chicks	-11.3214
▁sch	-11.3217
▁crawl	-11.3218
▁sucker	-11.3218
▁psychopath	-11.3235
▁deranged	-11.3236
▁april	-11.3236
▁compelled	-11.3236
▁property	-11.3236
▁simultaneously	-11.3236
▁astounding	-11.3237
▁spain	-11.3237
▁foxx	-11.3238
▁forbidden	-11.3239
▁timothy	-11.3239
▁awfully	-11.3239
▁ernest	-11.324
▁questionable	-11.3241
▁eats	-11.3248
jack	-11.3255
▁attitudes	-11.3258
▁online	-11.3259
▁rome	-11.3261
guy	-11.3268
▁ape	-11.3275
dr	-11.3285
▁comedians	-11.3288
▁tasteless	-11.3289
▁ny	-11.329
pe	-11.3301
▁thompson	-11.3303
▁testament	-11.3303
▁wisdom	-11.3303
▁construction	-11.3304
▁stack	-11.3304
▁unhappy	-11.3304
world	-11.3306
▁conrad	-11.3306
▁biography	-11.3307
▁kyle	-11.3307
▁june	-11.3309
▁chess	-11.3311
▁willie	-11.3311
its	-11.3313
▁taxi	-11.3314
▁imitation	-11.3314
▁matches	-11.3315
▁les	-11.3321
▁maniac	-11.3322
cy	-11.3328
▁climb	-11.3336
▁mock	-11.3343
▁pale	-11.3353
▁bow	-11.3356
▁julian	-11.3359
▁dirt	-11.3363
▁discovering	-11.3364
▁generations	-11.337
▁hopeless	-11.3371
▁flag	-11.3371
▁profanity	-11.3371
▁divine	-11.3371
▁purple	-11.3371
▁manipulative	-11.3371
▁mayhem	-11.3371
▁flair	-11.3371
▁muddled	-11.3373
▁samuel	-11.3374
▁cuba	-11.3374
away	-11.3376
▁'70	-11.3376
▁diana	-11.3377
▁beware	-11.3379
▁fisher	-11.3381
▁programme	-11.3381
▁colin	-11.3382
▁detract	-11.3384
▁virginia	-11.3385
provoking	-11.3387
motion	-11.3388
▁overlook	-11.3389
▁closest	-11.339
▁sara	-11.339
▁creator	-11.3392
▁messed	-11.3392
▁realm	-11.3395
ker	-11.3396
▁bu	-11.3397
make	-11.3398
▁refer	-11.3399
▁challenged	-11.3402
▁mall	-11.3405
▁slaughter	-11.3411
▁relax	-11.3411
▁likewise	-11.3418
▁pray	-11.342
▁robots	-11.3422
▁riot	-11.3431
▁meg	-11.3433
▁kicking	-11.3437
▁swim	-11.344
▁integrity	-11.344
▁bunny	-11.344
▁assassination	-11.3441
▁steer	-11.3443
▁assigned	-11.3443
▁gender	-11.3445
▁dylan	-11.3446
▁vera	-11.3447
▁washed	-11.3449
▁ellen	-11.3453
▁fashioned	-11.3457
▁loaded	-11.3458
▁drove	-11.3464
▁hippie	-11.3465
▁aim	-11.3471
▁hates	-11.3472
gh	-11.3479
(..	-11.3486
▁agrees	-11.3488
▁wildly	-11.3495
fl	-11.3503
▁hank	-11.3504
▁respected	-11.3507
▁seldom	-11.3509
▁simplicity	-11.3509
▁secretly	-11.3509
▁1995	-11.3509
▁petty	-11.3509
▁cruelty	-11.3509
▁representation	-11.351
▁stranded	-11.351
notch	-11.3511
▁unaware	-11.3514
▁'80	-11.3516
az	-11.3516
▁meryl	-11.3516
▁cube	-11.3537
▁letters	-11.354
▁sale	-11.3544
▁cha	-11.3546
▁faults	-11.3547
▁trivial	-11.3555
tz	-11.3556
▁reaching	-11.3562
▁trend	-11.3567
▁virtual	-11.3568
▁neighbors	-11.3572
▁birds	-11.3574
did	-11.3575
mp	-11.3576
▁centers	-11.3578
▁surviving	-11.3578
▁abusive	-11.3578
▁femme	-11.3578
▁nonsensical	-11.3578
▁egyptian	-11.3579
▁fifth	-11.3581
▁kenneth	-11.3581
▁bernard	-11.3582
▁wire	-11.3582
▁masses	-11.3582
▁natalie	-11.3583
▁domestic	-11.3584
▁retired	-11.3584
ible	-11.3587
▁jesse	-11.3587
▁patricia	-11.3591
▁standout	-11.3592
wife	-11.3593
▁coincidence	-11.3597
▁miracle	-11.3598
die	-11.3599
▁showdown	-11.36
▁genres	-11.3602
gen	-11.3602
▁disliked	-11.3605
get	-11.3606
▁heap	-11.361
▁yard	-11.3612
▁widely	-11.3613
▁icon	-11.362
▁gap	-11.3631
▁sa	-11.3632
▁shell	-11.3638
▁namely	-11.3645
▁voyage	-11.3646
▁marvel	-11.3648
▁stunned	-11.3648
▁visible	-11.3649
▁bean	-11.365
▁fascinated	-11.3651
▁complexity	-11.3651
▁ginger	-11.3652
▁couch	-11.3652
▁capital	-11.3652
▁arguably	-11.3652
▁maggie	-11.3652
tom	-11.3653
▁hyde	-11.3655
▁bands	-11.3655
▁poem	-11.3656
▁raises	-11.3656
▁moron	-11.3656
▁jacket	-11.3657
▁molly	-11.3658
▁ww	-11.366
▁sho	-11.3666
▁dump	-11.3666
james	-11.3666
another	-11.3668
▁complaints	-11.367
headed	-11.3671
▁recommendation	-11.3677
▁heston	-11.3682
▁writes	-11.3688
▁aids	-11.3693
▁spit	-11.3693
▁backgrounds	-11.3694
▁dud	-11.3697
▁ju	-11.3699
▁wong	-11.3707
▁hop	-11.3707
▁moreover	-11.3708
▁waves	-11.371
▁accuracy	-11.3719
▁silliness	-11.3719
▁prequel	-11.3719
▁unpredictable	-11.3719
▁minister	-11.3719
▁heartwarming	-11.3719
▁parade	-11.3719
▁prom	-11.372
▁harmless	-11.3722
▁dresses	-11.3722
▁witnesses	-11.3723
▁conan	-11.3723
▁greedy	-11.3725
▁juliet	-11.3727
▁refused	-11.3736
ray	-11.3736
▁advanced	-11.3737
particularly	-11.3737
based	-11.3739
stars	-11.3749
▁reader	-11.3756
cast	-11.3758
▁jumped	-11.3758
ford	-11.3773
▁lip	-11.3773
▁distinct	-11.3779
▁unfold	-11.3784
▁cope	-11.3787
▁motorcycle	-11.3789
▁wretched	-11.379
▁harrison	-11.3794
▁raymond	-11.3795
▁nicholas	-11.3796
▁institution	-11.3797
▁intentionally	-11.3798
▁cookie	-11.38
▁require	-11.3801
▁promises	-11.3803
▁stumbled	-11.3804
▁ra	-11.3807
book	-11.3808
▁worn	-11.3809
▁resources	-11.3809
▁methods	-11.3815
▁scores	-11.3815
ino	-11.3815
▁enhance	-11.3819
▁realised	-11.382
▁doo	-11.3826
▁imp	-11.3829
will	-11.383
▁golf	-11.3834
ou	-11.3839
ek	-11.3848
▁seed	-11.3849
hara	-11.3852
ab	-11.3857
▁balls	-11.3858
▁keen	-11.3859
▁rooney	-11.3861
▁lackluster	-11.3861
▁nephew	-11.3861
▁bogart	-11.3861
▁sunshine	-11.3861
▁conviction	-11.3862
▁straightforward	-11.3862
▁hughes	-11.3863
▁barker	-11.3863
▁grainy	-11.3864
▁dim	-11.3864
▁metaphor	-11.3866
▁orders	-11.3867
▁lauren	-11.3873
▁surfing	-11.3875
▁toys	-11.3875
▁heading	-11.3877
▁claude	-11.3879
read	-11.3879
mouth	-11.388
▁simpson	-11.3886
▁flee	-11.389
▁moronic	-11.3891
▁stiller	-11.3893
▁internal	-11.3893
note	-11.3895
▁abused	-11.3898
hu	-11.3898
▁babe	-11.3901
era	-11.3902
▁monk	-11.3904
▁iraq	-11.391
▁carlos	-11.3919
maker	-11.3923
▁darn	-11.3927
▁companies	-11.3933
▁insipid	-11.3933
▁miyazaki	-11.3933
▁robbins	-11.3933
▁accompany	-11.3933
▁venice	-11.3933
▁kapoor	-11.3933
▁static	-11.3933
▁sunny	-11.3933
fire	-11.3934
▁cities	-11.3935
▁elvira	-11.3936
▁disappears	-11.394
▁limit	-11.3947
▁shore	-11.395
▁polished	-11.3952
▁origin	-11.3955
▁policeman	-11.3955
▁objects	-11.3959
room	-11.396
oo	-11.3963
ver	-11.3964
▁firstly	-11.3964
▁sometime	-11.3968
ky	-11.3973
set	-11.3974
▁alter	-11.3975
▁venture	-11.3977
▁pursue	-11.3981
▁lively	-11.3984
▁schlock	-11.3999
▁23	-11.4
▁hurts	-11.4002
▁activities	-11.4005
▁brooklyn	-11.4005
▁uh	-11.4005
▁fantasies	-11.4005
▁ignorance	-11.4005
▁snipes	-11.4006
▁distribution	-11.4007
▁occasions	-11.4011
ning	-11.4011
▁whale	-11.4014
▁spirits	-11.4019
▁addict	-11.4023
▁invited	-11.4024
air	-11.4027
▁landscapes	-11.4028
▁shoulder	-11.4036
▁rex	-11.4041
▁th	-11.4041
▁leon	-11.4064
▁adore	-11.4067
▁ensure	-11.4074
▁vulgar	-11.4078
▁drake	-11.4078
▁wardrobe	-11.4078
▁supply	-11.4078
▁dysfunctional	-11.4079
▁dickens	-11.4079
▁widescreen	-11.408
▁travolta	-11.408
▁tacky	-11.4081
▁nemesis	-11.4081
▁2003	-11.4081
▁salman	-11.4086
▁2002	-11.4087
ned	-11.4092
▁auto	-11.4092
▁noises	-11.4094
▁encourage	-11.4095
point	-11.4096
dead	-11.4098
perhaps	-11.4099
▁sung	-11.41
▁cameras	-11.41
▁lands	-11.4103
▁rooms	-11.4106
▁cap	-11.4108
▁troops	-11.4109
▁walt	-11.4112
▁conflicts	-11.412
du	-11.4122
▁collect	-11.4125
▁cary	-11.4133
▁sweat	-11.4135
▁net	-11.4136
▁casual	-11.4142
part	-11.4142
▁apes	-11.4144
▁pops	-11.4145
god	-11.4147
▁globe	-11.4152
▁attorney	-11.4152
▁godzilla	-11.4152
▁astaire	-11.4152
▁banal	-11.4152
▁northern	-11.4152
▁deaf	-11.4152
▁pimp	-11.4152
▁uwe	-11.4155
ising	-11.4156
▁rusty	-11.4156
▁misleading	-11.4156
▁babies	-11.4157
▁choreographed	-11.4161
▁severely	-11.4163
▁biased	-11.4163
▁corpses	-11.4164
▁businessman	-11.4165
▁exit	-11.4166
▁spirited	-11.4187
▁jar	-11.4195
▁carey	-11.4199
▁jan	-11.4204
ze	-11.4205
▁guards	-11.4205
▁promote	-11.4207
▁positively	-11.4217
▁labor	-11.4218
▁sketch	-11.4218
▁ordered	-11.4218
▁posted	-11.4224
▁hunters	-11.4224
▁investigating	-11.4226
▁snl	-11.4226
▁technicolor	-11.4226
▁demise	-11.4226
▁dreck	-11.4226
▁remarks	-11.4228
cu	-11.4228
▁antonio	-11.4229
▁stuart	-11.423
▁boo	-11.4232
▁jill	-11.4234
-1	-11.4236
▁hungry	-11.4236
▁rear	-11.4243
▁tin	-11.4243
▁wilder	-11.4245
▁rope	-11.4247
▁document	-11.4247
bel	-11.4248
▁assure	-11.4249
thing	-11.4253
▁sounding	-11.4254
▁statue	-11.4258
▁alley	-11.4258
▁vein	-11.4258
▁setup	-11.4259
▁referr	-11.4261
▁accurately	-11.4265
▁1980'	-11.427
two	-11.4272
ell	-11.4273
▁photos	-11.4277
▁butcher	-11.4284
▁visiting	-11.4286
▁mal	-11.4294
▁feat	-11.43
▁buffalo	-11.43
▁describing	-11.43
▁niece	-11.43
▁preposterous	-11.43
▁miike	-11.43
▁kramer	-11.4301
▁fifty	-11.4301
▁sid	-11.4302
▁voight	-11.4303
▁hugh	-11.4313
▁boxer	-11.4317
▁dropping	-11.4322
▁idol	-11.4325
▁spiral	-11.4334
▁tail	-11.4337
▁repeating	-11.4337
play	-11.434
▁warriors	-11.4347
▁experiments	-11.4352
▁nun	-11.4363
▁filth	-11.437
▁sits	-11.4371
20	-11.4373
▁euro	-11.4375
▁compassion	-11.4376
▁ambiguous	-11.4376
▁inconsistent	-11.4376
▁primitive	-11.4376
▁shoddy	-11.4376
▁ingenious	-11.4376
▁brosnan	-11.4376
▁choppy	-11.4376
▁bettie	-11.4376
▁hindi	-11.4377
▁underwater	-11.4377
▁route	-11.4378
▁resulting	-11.4379
▁1972	-11.4379
▁suggestion	-11.4383
▁tastes	-11.4384
▁purposes	-11.4385
▁tube	-11.4391
▁lengthy	-11.4398
▁beard	-11.4399
again	-11.4399
▁newly	-11.4399
▁marine	-11.44
▁salt	-11.4405
▁defined	-11.4407
▁gadget	-11.4411
▁hello	-11.4412
▁outline	-11.4419
▁wig	-11.442
nic	-11.4421
▁clone	-11.4422
▁affairs	-11.4425
▁losers	-11.4427
van	-11.444
▁blunt	-11.4442
▁kar	-11.4443
▁fluff	-11.4445
▁fog	-11.4447
▁receives	-11.4448
yet	-11.445
▁faint	-11.4451
▁reign	-11.4452
▁monty	-11.4453
▁lunch	-11.4453
▁biblical	-11.4454
▁preachy	-11.4454
▁feminist	-11.4459
▁shouting	-11.4461
▁differently	-11.4461
▁liners	-11.4461
▁amused	-11.4463
▁passengers	-11.4465
▁generated	-11.447
fer	-11.4474
▁sen	-11.4479
▁dances	-11.448
▁reeves	-11.4481
▁knocked	-11.4483
▁roots	-11.4484
▁rhythm	-11.4487
▁signed	-11.4491
show	-11.4493
sky	-11.4495
▁someday	-11.4511
▁supported	-11.4512
vo	-11.4518
▁cab	-11.4521
▁profession	-11.4526
▁empathy	-11.4528
▁insanity	-11.4528
▁buzz	-11.4528
▁unlikable	-11.4528
▁dalton	-11.4528
▁undead	-11.453
▁fifties	-11.453
▁mil	-11.453
▁analysis	-11.4531
▁hulk	-11.4531
▁lang	-11.4532
▁beatty	-11.4533
▁invented	-11.4533
▁unlikeable	-11.4533
▁ethnic	-11.4534
▁witches	-11.4536
▁minus	-11.454
▁lifted	-11.454
▁overlong	-11.4542
▁exceptions	-11.455
woman	-11.455
▁alec	-11.4551
david	-11.4552
▁hearted	-11.4566
▁thread	-11.4568
▁shoe	-11.4577
▁pole	-11.4582
▁visits	-11.4584
▁mum	-11.4585
▁bitch	-11.4586
▁communicate	-11.4592
▁cue	-11.4601
▁compete	-11.4604
▁derivative	-11.4605
▁demented	-11.4605
▁conscience	-11.4605
▁pierce	-11.4605
▁goldberg	-11.4605
▁loyalty	-11.4605
tro	-11.4605
▁nightclub	-11.4606
▁ruby	-11.461
▁restored	-11.4612
▁kathy	-11.4612
▁ballet	-11.4615
▁controlled	-11.4615
▁wholly	-11.4622
▁sensational	-11.4626
▁kay	-11.4632
▁inspire	-11.4632
ku	-11.4633
▁saint	-11.4636
▁completed	-11.4642
▁skeleton	-11.4644
▁tiger	-11.4645
▁tunnel	-11.4645
▁teachers	-11.4646
▁survivor	-11.4647
zi	-11.4648
▁randomly	-11.4653
▁bla	-11.4659
▁explores	-11.4659
▁modest	-11.4668
▁fist	-11.467
▁narrow	-11.4672
▁inaccurate	-11.4682
▁obligatory	-11.4682
▁entitled	-11.4682
▁walsh	-11.4682
▁elevator	-11.4683
▁fay	-11.4684
▁judy	-11.4684
▁9/11	-11.4686
▁poker	-11.469
▁playboy	-11.4691
▁insightful	-11.4692
▁sandy	-11.4694
▁scifi	-11.4695
spiring	-11.4696
▁cor	-11.4706
cop	-11.4708
unless	-11.471
▁active	-11.4713
any	-11.4717
▁doctors	-11.4724
▁ambition	-11.4726
▁simpsons	-11.4733
▁accomplish	-11.4733
▁vomit	-11.4742
▁pour	-11.4744
▁drinks	-11.4751
▁desires	-11.4758
ite	-11.4759
▁fascination	-11.476
▁inevitably	-11.476
▁literary	-11.476
▁submarine	-11.476
▁surgery	-11.476
▁1983	-11.4761
▁steady	-11.4762
▁historic	-11.4762
▁olivier	-11.4763
▁tit	-11.4763
▁difficulties	-11.4766
▁acclaimed	-11.4766
▁precisely	-11.4766
▁breed	-11.4767
▁ni	-11.4769
▁behold	-11.4769
▁stream	-11.4771
▁damon	-11.4771
▁crazed	-11.4773
currently	-11.4784
▁lifeless	-11.4789
▁puzzle	-11.4791
▁suspens	-11.4792
▁inject	-11.48
▁edit	-11.4801
▁earl	-11.4815
▁disgrace	-11.4823
hy	-11.4824
▁abandon	-11.4828
▁delicate	-11.4829
▁caricature	-11.4835
▁columbia	-11.4839
▁hilarity	-11.4839
▁quentin	-11.4839
▁dawson	-11.4839
▁shaky	-11.4839
▁dismal	-11.4839
▁mildred	-11.4839
▁lush	-11.484
▁possession	-11.484
fa	-11.484
▁gentlemen	-11.4841
▁syndrome	-11.4841
▁dunne	-11.4842
▁recycled	-11.4842
▁crashes	-11.4845
while	-11.4848
▁bump	-11.4856
box	-11.4866
▁appropriately	-11.4867
▁chooses	-11.487
▁shift	-11.487
▁evolution	-11.4871
▁painter	-11.4875
▁quietly	-11.4877
▁option	-11.4885
ina	-11.4885
▁rates	-11.4888
▁merits	-11.4892
▁egg	-11.4896
▁sending	-11.49
▁myth	-11.4902
▁swallow	-11.4907
▁destroying	-11.4911
▁sugar	-11.4913
▁gibson	-11.4918
▁grief	-11.4918
▁hackneyed	-11.4918
▁imaginable	-11.4918
▁montgomery	-11.4918
▁orleans	-11.4918
▁paxton	-11.4918
▁penguin	-11.4918
▁simmons	-11.4918
▁morbid	-11.4918
▁hallmark	-11.4919
▁busey	-11.4919
▁macho	-11.492
▁frightened	-11.4922
▁beverly	-11.4922
▁credited	-11.4923
▁snowman	-11.4923
▁shaking	-11.4923
▁apply	-11.4924
▁rupert	-11.4926
▁consideration	-11.4926
▁apocalypse	-11.4927
▁located	-11.4928
▁hopelessly	-11.493
▁interactions	-11.493
▁loy	-11.4937
▁sums	-11.4945
▁winters	-11.4947
▁sympathize	-11.4949
▁unexpectedly	-11.4953
gar	-11.4955
▁mama	-11.496
▁adolescent	-11.4965
▁skull	-11.4966
▁rifle	-11.4966
▁er	-11.4969
▁counts	-11.4976
▁demonstrates	-11.498
▁latin	-11.4983
▁retain	-11.4988
▁phillips	-11.4988
▁strain	-11.499
▁chills	-11.499
used	-11.4996
▁machines	-11.4998
▁opportunities	-11.4998
▁mitchum	-11.4999
▁fruit	-11.5
▁outfits	-11.5
▁viewings	-11.5001
▁danish	-11.5001
▁engineer	-11.5001
▁leather	-11.5002
▁adopted	-11.5003
▁pages	-11.5004
▁modesty	-11.5005
▁startling	-11.501
▁lure	-11.5014
▁homer	-11.5014
▁marked	-11.5016
▁eh	-11.5017
▁lean	-11.5019
▁swing	-11.5021
▁greg	-11.5025
richard	-11.503
▁dealer	-11.5044
ists	-11.5046
▁predecessor	-11.5049
▁pad	-11.505
▁voted	-11.5051
▁sang	-11.5051
▁muslim	-11.5053
▁adaptations	-11.5054
▁joey	-11.5056
▁elm	-11.506
▁farmer	-11.5065
▁shared	-11.5067
▁yawn	-11.5069
▁translate	-11.507
▁items	-11.507
▁danes	-11.5073
▁agency	-11.5079
▁clooney	-11.5079
▁voodoo	-11.5079
▁dillon	-11.5079
▁basketball	-11.5079
▁kidnapping	-11.5079
▁scotland	-11.5079
▁russo	-11.5081
▁debbie	-11.5082
▁unseen	-11.5083
▁rejected	-11.5088
hop	-11.5092
▁penny	-11.51
funny	-11.5107
fetched	-11.5108
▁sincerely	-11.5109
▁kidman	-11.511
▁ranch	-11.5119
▁kissing	-11.5128
nick	-11.513
▁selection	-11.5131
▁mutant	-11.5132
▁vocal	-11.5132
▁styles	-11.5134
really	-11.5139
▁grass	-11.514
▁prop	-11.5144
▁norm	-11.5147
▁pirate	-11.515
▁abrupt	-11.5151
▁showtime	-11.5154
▁!!	-11.5155
▁costello	-11.516
▁exploring	-11.516
▁legacy	-11.516
▁significance	-11.516
▁assignment	-11.516
▁exposition	-11.5161
▁boston	-11.5161
▁previews	-11.5161
▁grinch	-11.5162
▁designs	-11.5162
▁wagner	-11.5163
▁thrust	-11.5163
▁sydney	-11.5163
▁muppets	-11.5164
▁deceased	-11.5164
▁jaded	-11.5164
▁denzel	-11.5165
▁vince	-11.5165
▁function	-11.5171
forward	-11.5172
new	-11.5179
▁august	-11.5181
▁challenges	-11.5182
▁demanding	-11.5183
length	-11.519
▁resident	-11.5192
vin	-11.5196
▁regarded	-11.52
▁heroin	-11.5205
▁sellers	-11.5206
wan	-11.521
▁roth	-11.521
▁compliment	-11.5214
▁quarter	-11.5215
▁instinct	-11.5215
▁pattern	-11.5217
under	-11.5221
ular	-11.5225
nie	-11.5225
▁22	-11.5231
▁sublime	-11.5232
▁delve	-11.5235
▁3-	-11.5237
miss	-11.5237
▁akshay	-11.5241
▁terminator	-11.5242
▁camcorder	-11.5242
▁sergeant	-11.5242
▁snuff	-11.5243
▁odyssey	-11.5244
▁inexplicably	-11.5244
▁biopic	-11.5244
▁vain	-11.5246
▁skits	-11.5249
▁richardson	-11.5249
▁highway	-11.5251
▁shorter	-11.5257
▁vastly	-11.5258
▁info	-11.5259
▁releases	-11.5259
▁screwed	-11.526
▁critique	-11.526
▁shed	-11.5261
held	-11.5263
▁christians	-11.5266
▁wal	-11.5272
▁wings	-11.5273
▁spine	-11.5273
▁der	-11.5277
uk	-11.5278
▁troubles	-11.5283
▁monkeys	-11.5285
▁shoulders	-11.529
big	-11.5291
▁inability	-11.5293
▁avid	-11.5296
▁liv	-11.5305
▁presenting	-11.5312
▁exquisite	-11.5315
▁judgment	-11.5323
▁mor	-11.5325
▁cemetery	-11.5325
▁devastating	-11.5325
▁chorus	-11.5325
▁bounty	-11.5325
▁jenny	-11.5325
▁commitment	-11.5326
▁deleted	-11.5326
▁frozen	-11.5328
▁olivia	-11.5328
ttp	-11.5329
▁flashes	-11.533
▁caliber	-11.5331
▁btw	-11.5332
▁worship	-11.5333
▁disgusted	-11.5337
▁heights	-11.5338
▁peck	-11.5338
▁transformed	-11.534
▁guaranteed	-11.5345
▁gems	-11.5349
▁wander	-11.5356
▁raj	-11.5356
mark	-11.5367
gan	-11.5368
right	-11.5373
▁hats	-11.5373
still	-11.5379
▁disgust	-11.538
▁ku	-11.5381
▁hostage	-11.5384
▁messy	-11.5385
www	-11.5388
▁motive	-11.5389
▁elevate	-11.5393
▁decline	-11.5397
▁eternal	-11.5399
▁reluctant	-11.5399
▁immediate	-11.5399
▁fa	-11.5399
▁freaks	-11.5403
▁immature	-11.5408
▁perception	-11.5408
▁polanski	-11.5408
▁psychology	-11.5408
▁deniro	-11.5408
▁disorder	-11.5408
▁toronto	-11.5408
▁ronald	-11.5408
▁unexplained	-11.5408
▁jarring	-11.5409
▁devito	-11.5409
▁heartfelt	-11.5409
▁hilton	-11.5409
▁elite	-11.5409
▁strings	-11.541
▁injured	-11.541
▁flavor	-11.541
▁brutality	-11.5411
▁kline	-11.5411
▁piper	-11.5412
▁paradise	-11.5412
▁1979	-11.5415
▁canceled	-11.5415
▁stopping	-11.5418
▁matched	-11.5421
▁sim	-11.5422
▁rangers	-11.5427
▁beside	-11.5429
production	-11.5438
sorry	-11.544
▁crown	-11.5441
▁irene	-11.5442
val	-11.5446
▁assumed	-11.5454
▁interestingly	-11.5456
▁youngest	-11.5458
▁refuse	-11.5461
here	-11.5462
▁sooner	-11.5464
light	-11.5465
▁frog	-11.5468
▁glance	-11.5469
▁roommate	-11.547
▁helpful	-11.5472
gged	-11.5476
▁jam	-11.5477
ju	-11.5484
▁logan	-11.5485
▁embrace	-11.5485
▁wheel	-11.5487
▁specially	-11.5487
▁expense	-11.5492
▁identical	-11.5492
▁provocative	-11.5492
▁senior	-11.5492
▁hopkins	-11.5492
▁paramount	-11.5492
▁gerard	-11.5492
▁suburban	-11.5493
▁rambo	-11.5493
://	-11.5493
▁ripping	-11.5493
▁furious	-11.5494
▁considerably	-11.5494
▁september	-11.5494
▁seymour	-11.5494
▁demonic	-11.5495
▁confidence	-11.5497
▁respectable	-11.5498
▁remade	-11.5498
▁populate	-11.5499
▁yep	-11.5499
▁edie	-11.5501
▁racing	-11.5501
▁rendered	-11.5501
▁christina	-11.5501
▁rag	-11.5503
▁tip	-11.5503
▁melting	-11.5506
▁thrilled	-11.5511
▁mins	-11.5513
▁stretched	-11.5519
▁artsy	-11.5522
▁flood	-11.5548
▁regards	-11.555
▁scratch	-11.5551
om	-11.5551
▁contribution	-11.5555
▁clan	-11.5557
▁studying	-11.556
▁pc	-11.5567
▁designer	-11.5569
▁va	-11.557
▁bully	-11.5572
▁glaring	-11.5577
▁investigator	-11.5577
▁eagle	-11.5577
▁resume	-11.5577
▁gorilla	-11.5577
▁underneath	-11.5577
▁taboo	-11.5577
▁leno	-11.5577
▁subtly	-11.5578
▁unrelated	-11.5578
▁energetic	-11.5578
▁harbor	-11.5579
▁abraham	-11.5579
▁akin	-11.5579
▁continually	-11.558
▁preferred	-11.558
▁hyper	-11.5581
▁partially	-11.5582
▁99	-11.5582
run	-11.5583
▁assuming	-11.5583
▁communication	-11.5584
▁millionaire	-11.5585
▁rapidly	-11.5586
▁raising	-11.5586
lie	-11.5587
▁independence	-11.5587
▁symbolic	-11.5588
▁glowing	-11.5589
▁bread	-11.5592
ability	-11.5592
▁victory	-11.5594
▁rats	-11.5595
ach	-11.5596
▁reported	-11.5597
proving	-11.5602
▁1930'	-11.5602
▁fade	-11.5604
▁arab	-11.5606
▁beatles	-11.5607
▁poke	-11.5609
▁filmmaking	-11.5609
george	-11.561
however	-11.5611
▁attract	-11.5612
▁lin	-11.5615
much	-11.5616
.......	-11.5624
▁posters	-11.5625
▁topics	-11.5629
bal	-11.5631
▁earn	-11.564
▁ships	-11.5641
▁bros	-11.5642
▁volume	-11.5643
▁morals	-11.5644
▁mormon	-11.5645
▁belle	-11.5649
ged	-11.5653
▁prominent	-11.5653
▁deer	-11.5653
▁barrel	-11.5653
▁pam	-11.5654
▁habit	-11.5656
▁errol	-11.5661
▁jess	-11.5662
▁verhoeven	-11.5663
▁gambling	-11.5663
▁palace	-11.5663
▁lambert	-11.5663
▁duvall	-11.5663
▁um	-11.5663
▁celebration	-11.5663
▁waitress	-11.5663
▁1997	-11.5663
▁acceptance	-11.5663
▁hayes	-11.5665
▁stallone	-11.5666
▁po	-11.5666
▁helpless	-11.5667
ay	-11.5669
▁vital	-11.567
▁respectively	-11.5672
▁weakness	-11.5678
▁translated	-11.5678
▁downey	-11.5681
▁serving	-11.5682
▁bars	-11.5693
▁stare	-11.5701
rock	-11.5708
▁dose	-11.5713
▁ch	-11.5724
your	-11.5724
▁sailor	-11.5732
▁centered	-11.5733
▁filling	-11.5733
▁industrial	-11.5737
▁respective	-11.5741
▁199	-11.5742
▁marrie	-11.5745
ski	-11.5748
▁devices	-11.5748
▁gypsy	-11.5749
▁terrified	-11.5749
▁exterior	-11.5749
▁amusement	-11.5749
▁razor	-11.5749
▁misguided	-11.5749
▁examination	-11.575
▁sharing	-11.5751
▁stumbles	-11.5752
▁lethal	-11.5752
▁turd	-11.5756
▁disregard	-11.5758
▁cheer	-11.576
▁resolved	-11.5761
▁stroke	-11.5764
tu	-11.5767
▁palm	-11.5769
▁boyle	-11.577
▁befriends	-11.5772
▁slip	-11.5779
▁dana	-11.5783
▁billed	-11.5784
▁han	-11.5786
▁fright	-11.5789
▁din	-11.5798
▁concepts	-11.5803
▁deserted	-11.5803
tra	-11.5803
▁jacob	-11.5807
ala	-11.5808
ow	-11.5811
▁slim	-11.5819
▁sustain	-11.5825
▁torment	-11.5825
▁soup	-11.5827
▁afterward	-11.5828
zz	-11.5829
▁ace	-11.5831
look	-11.5835
▁cohen	-11.5836
▁disastrous	-11.5836
▁embark	-11.5836
▁engrossing	-11.5836
▁eternity	-11.5836
▁peculiar	-11.5836
▁python	-11.5836
▁receiving	-11.5836
▁destination	-11.5836
▁ollie	-11.5836
▁automatically	-11.5836
▁bacon	-11.5836
▁hammy	-11.5837
▁mercy	-11.5837
▁continuing	-11.5837
▁pleasing	-11.5837
▁wilderness	-11.5837
▁claustrophobic	-11.5838
▁breakdown	-11.5838
30	-11.584
▁gris	-11.5842
cause	-11.5847
▁altered	-11.5851
▁evidently	-11.5854
▁minded	-11.5857
▁addicted	-11.5858
je	-11.5871
▁separated	-11.5875
▁ver	-11.5875
▁milo	-11.5876
▁morally	-11.5889
▁arrest	-11.5895
▁disguise	-11.5895
▁upside	-11.5897
lock	-11.5898
▁smell	-11.5901
▁grabs	-11.5903
▁dressing	-11.5903
name	-11.5906
▁descend	-11.5912
▁rises	-11.5912
human	-11.5913
▁click	-11.5913
▁axe	-11.5916
▁swamp	-11.5923
▁misfortune	-11.5923
▁macbeth	-11.5924
▁montana	-11.5924
▁spree	-11.5924
▁swayze	-11.5924
▁shortcomings	-11.5924
▁bonnie	-11.5924
▁sanders	-11.5924
▁studies	-11.5924
▁shopping	-11.5924
▁1984	-11.5924
▁authorities	-11.5924
▁fence	-11.5925
▁mencia	-11.5925
moving	-11.5927
▁amitabh	-11.5928
▁youtube	-11.5932
▁clive	-11.5936
▁attacking	-11.5948
tempted	-11.5954
/10	-11.5955
▁entered	-11.5961
▁charged	-11.5967
▁visited	-11.5968
mostly	-11.5977
▁nails	-11.5982
▁height	-11.5983
ov	-11.5985
▁glen	-11.5989
▁towers	-11.5989
▁sentiment	-11.5991
▁dictator	-11.5992
ig	-11.5993
▁backwards	-11.5996
▁taped	-11.5999
▁arch	-11.6002
▁foolish	-11.6003
10	-11.601
▁intentional	-11.6011
▁sarcastic	-11.6012
▁shatner	-11.6012
▁thieves	-11.6012
▁vibrant	-11.6012
▁headache	-11.6012
▁novak	-11.6012
▁wright	-11.6012
▁deserving	-11.6013
▁limp	-11.6013
▁ethan	-11.6013
▁weaknesses	-11.6014
▁spout	-11.6014
▁grateful	-11.6015
▁aesthetic	-11.6016
▁wesley	-11.6018
▁gable	-11.6019
▁cal	-11.6023
▁healthy	-11.6025
▁blatantly	-11.6028
▁shares	-11.6029
00	-11.6032
▁*1/2	-11.6039
▁mega	-11.6043
ara	-11.6045
black	-11.6049
▁owned	-11.6052
directed	-11.6052
▁dub	-11.6059
dar	-11.6068
▁tire	-11.6076
▁port	-11.6079
pro	-11.608
▁karl	-11.608
▁....	-11.6083
▁principle	-11.6089
▁spectacle	-11.609
▁servant	-11.6093
▁tooth	-11.6097
▁eleven	-11.6101
▁coffin	-11.6101
▁expedition	-11.6101
▁phenomenon	-11.6101
▁dallas	-11.6101
▁ghetto	-11.6101
▁lavish	-11.6101
▁cattle	-11.6101
▁diaz	-11.6102
▁abortion	-11.6104
▁gloria	-11.6106
▁curly	-11.6106
▁brit	-11.6107
▁election	-11.6107
▁speeches	-11.6107
▁warden	-11.6109
▁def	-11.6112
▁informative	-11.6119
▁flashy	-11.6119
▁mechanical	-11.612
▁iv	-11.6127
▁assured	-11.6127
▁trivia	-11.6132
▁planes	-11.6134
▁boost	-11.6138
▁coup	-11.6138
▁bio	-11.614
▁framed	-11.6153
▁orson	-11.6157
ik	-11.6159
▁pause	-11.6159
teen	-11.6167
▁difficulty	-11.6168
▁sales	-11.6168
▁intro	-11.6175
mann	-11.6177
▁bike	-11.6178
▁symbol	-11.6178
gun	-11.6178
▁masterpieces	-11.6179
▁enjoys	-11.618
▁smack	-11.618
▁applaud	-11.618
▁foil	-11.6181
▁supreme	-11.6182
▁surroundings	-11.6183
▁introduc	-11.6183
▁farrell	-11.6185
▁transcend	-11.6191
▁caution	-11.6191
▁comprehend	-11.6191
▁cushing	-11.6191
▁czech	-11.6191
▁pacific	-11.6191
▁repulsive	-11.6191
▁hayworth	-11.6191
▁rainbow	-11.6191
▁unimaginative	-11.6191
▁bloom	-11.6192
▁rampage	-11.6192
▁expectation	-11.6192
▁copied	-11.6192
▁underdog	-11.6193
▁kumar	-11.6194
▁minority	-11.6195
▁imaginary	-11.6195
▁gregory	-11.6196
▁infected	-11.6197
▁cycle	-11.6197
▁glued	-11.6198
▁visions	-11.6202
▁abruptly	-11.6202
ris	-11.6204
▁siblings	-11.6205
▁sopranos	-11.6205
▁brady	-11.6206
▁commenting	-11.6212
▁resembl	-11.6213
▁coke	-11.6213
along	-11.6213
▁ark	-11.6215
gra	-11.6217
▁101	-11.6224
fully	-11.6225
▁county	-11.6225
child	-11.6229
▁dumber	-11.623
▁2:	-11.6233
nia	-11.6235
▁lance	-11.6237
▁belly	-11.6237
ren	-11.624
▁dates	-11.6253
▁singers	-11.6261
▁masks	-11.6263
▁conventions	-11.6267
ugh	-11.627
▁surf	-11.6272
▁hooker	-11.6279
▁nerves	-11.628
▁finn	-11.628
▁vile	-11.6282
▁anticipation	-11.6282
▁departure	-11.6282
▁tcm	-11.6282
▁unsatisfying	-11.6282
▁championship	-11.6282
▁indication	-11.6282
▁screwball	-11.6283
▁haines	-11.6283
▁hapless	-11.6283
▁hogan	-11.6283
▁potter	-11.6283
▁ponyo	-11.6283
▁scorpion	-11.6285
▁frontier	-11.6285
▁dexter	-11.6285
ug	-11.6286
▁housewife	-11.6286
▁warming	-11.6286
▁erika	-11.6291
▁confident	-11.6294
▁trans	-11.6295
▁employed	-11.6296
▁incidentally	-11.6297
▁spice	-11.6298
▁mixing	-11.6298
▁asia	-11.6302
▁enhanced	-11.6304
▁forgiven	-11.6305
ini	-11.6307
fashioned	-11.6323
almost	-11.6325
▁lens	-11.6327
▁mates	-11.6334
▁grip	-11.6342
▁lowe	-11.6343
▁ri	-11.6346
▁leap	-11.6352
▁rides	-11.6357
▁bombs	-11.6357
lton	-11.6359
▁cliches	-11.636
▁confuse	-11.6361
▁criticize	-11.6361
▁confirm	-11.6363
▁fortunate	-11.6364
▁ants	-11.6367
▁paintings	-11.6368
▁adapt	-11.6371
▁fluid	-11.6374
▁admirable	-11.6374
▁casino	-11.6374
▁definitive	-11.6374
▁fierce	-11.6374
▁mesmerizing	-11.6374
▁netflix	-11.6374
▁rebellious	-11.6374
▁bulk	-11.6374
▁hybrid	-11.6374
▁despicable	-11.6374
▁recognizable	-11.6375
▁1993	-11.6375
▁clay	-11.6376
ens	-11.6377
▁reflects	-11.6377
▁spencer	-11.6378
▁pushes	-11.6378
▁punches	-11.638
▁christine	-11.638
▁natives	-11.6382
▁convicted	-11.6382
▁handling	-11.6383
▁skit	-11.6387
▁victorian	-11.6387
▁fuller	-11.6389
▁woeful	-11.6391
▁caper	-11.6392
▁bowl	-11.6397
▁mick	-11.64
▁residents	-11.6404
▁caricatures	-11.6412
▁ugh	-11.6414
▁trace	-11.6424
▁mu	-11.6428
▁disco	-11.6431
▁meal	-11.6437
▁oldest	-11.6438
▁entering	-11.6438
ries	-11.6441
▁daniels	-11.6443
toole	-11.6446
▁rehash	-11.6447
▁evans	-11.6448
▁lampoon	-11.6448
▁reminder	-11.6449
▁israel	-11.645
▁tool	-11.6452
lit	-11.6453
▁conquer	-11.6455
ator	-11.6456
▁radical	-11.6457
▁immortal	-11.6457
▁phenomenal	-11.6457
▁rapid	-11.6457
▁eventual	-11.6457
▁arc	-11.6458
▁owners	-11.6459
▁dilemma	-11.646
▁examine	-11.646
▁emerges	-11.6461
▁error	-11.6463
▁trauma	-11.6466
▁affleck	-11.6467
▁insurance	-11.6467
▁pfeiffer	-11.6467
▁seductive	-11.6467
▁telephone	-11.6467
▁neurotic	-11.6467
▁darwin	-11.6467
▁scariest	-11.6467
▁chopped	-11.6467
▁promotion	-11.6467
▁activity	-11.6467
▁undercover	-11.6468
▁samantha	-11.6469
▁sha	-11.647
▁homicide	-11.6472
▁fury	-11.6474
▁eugene	-11.6475
▁jealousy	-11.6479
rie	-11.648
▁diner	-11.648
▁wwe	-11.6482
▁fatale	-11.6487
▁ren	-11.6489
▁layers	-11.6489
▁portrayals	-11.6491
▁discussing	-11.6494
▁tho	-11.6495
▁cheerful	-11.6499
master	-11.6505
board	-11.6506
nothing	-11.6509
▁goat	-11.651
▁sticking	-11.651
ben	-11.6511
▁tan	-11.6515
▁tomb	-11.6515
actually	-11.6515
▁flower	-11.652
▁females	-11.6521
▁couples	-11.6524
▁wang	-11.6526
lon	-11.6526
▁casey	-11.6529
▁answered	-11.6533
▁refers	-11.654
▁carell	-11.6546
▁cleaning	-11.6546
▁garner	-11.6549
▁clash	-11.6558
▁biker	-11.6559
▁sitcoms	-11.6559
▁cassidy	-11.656
▁jersey	-11.656
▁preminger	-11.656
▁duration	-11.656
▁tolerable	-11.656
▁preston	-11.6561
▁disabled	-11.6561
▁mentality	-11.6562
▁absurdity	-11.6563
▁egypt	-11.6563
▁remark	-11.6563
▁incest	-11.6563
▁anytime	-11.6564
▁brenda	-11.6564
▁goodbye	-11.6566
▁romeo	-11.6568
nn	-11.6573
▁cents	-11.6575
cher	-11.6576
think	-11.6587
▁louise	-11.6589
▁foundation	-11.6592
▁bach	-11.6594
▁stumble	-11.6595
▁connections	-11.6597
▁dj	-11.6599
▁survives	-11.6601
▁ro	-11.6602
▁har	-11.6609
▁cameraman	-11.6611
▁longest	-11.6615
destined	-11.6616
▁drill	-11.6616
▁launch	-11.6623
▁drift	-11.6627
▁betray	-11.6642
▁boasts	-11.6644
▁gimmick	-11.6646
cur	-11.6647
▁coward	-11.6647
▁4)	-11.6648
▁fur	-11.6651
▁fundamental	-11.6652
▁medieval	-11.6654
▁ricci	-11.6654
▁unsuspecting	-11.6654
▁ustinov	-11.6654
▁visconti	-11.6654
▁stefan	-11.6654
▁custer	-11.6654
▁banter	-11.6655
▁palance	-11.6655
▁1939	-11.6655
▁cyborg	-11.6655
▁cobra	-11.6655
▁valentine	-11.6656
bra	-11.6656
▁randolph	-11.6658
▁fer	-11.6659
▁ashley	-11.6661
▁tossed	-11.6663
▁sixth	-11.6666
▁rice	-11.6666
▁1000	-11.6669
▁rainy	-11.6676
▁doris	-11.6676
▁enthusiastic	-11.6678
▁iq	-11.6679
▁outright	-11.6683
▁anyhow	-11.6685
act	-11.6687
qui	-11.669
▁drab	-11.6695
driven	-11.6698
ura	-11.6698
word	-11.6701
▁computers	-11.6703
produced	-11.671
▁cam	-11.6713
▁records	-11.6719
▁thunder	-11.6731
ions	-11.6735
▁obsessive	-11.6742
▁trials	-11.6744
▁cloud	-11.6745
▁orchestra	-11.6745
▁explosive	-11.6748
▁echo	-11.6749
▁atlantis	-11.675
▁gundam	-11.675
▁qualify	-11.675
▁stairs	-11.675
▁armstrong	-11.675
▁tomatoes	-11.675
▁liar	-11.6751
▁naughty	-11.6751
▁authenticity	-11.6751
▁rochester	-11.6751
▁passage	-11.6752
▁trigger	-11.6752
▁ghoulies	-11.6753
▁entirety	-11.6757
▁!!!	-11.6757
dan	-11.6759
▁tech	-11.6761
▁breast	-11.6762
▁ritual	-11.6767
▁attended	-11.6767
▁limitations	-11.6767
fe	-11.6773
▁divorced	-11.6775
ada	-11.6776
ola	-11.6778
▁switched	-11.6778
▁nu	-11.6783
foot	-11.6787
▁poet	-11.6788
▁races	-11.6789
use	-11.6792
▁wash	-11.6793
▁houses	-11.6793
anne	-11.6793
winning	-11.6793
filled	-11.6794
plus	-11.6794
▁noah	-11.6801
nar	-11.6803
hair	-11.6805
len	-11.681
check	-11.6813
▁persons	-11.6816
dis	-11.6816
▁fishing	-11.6822
▁accounts	-11.6834
▁intricate	-11.6836
▁strict	-11.6836
cho	-11.684
▁spade	-11.6846
▁controversy	-11.6846
▁galaxy	-11.6846
▁coppola	-11.6846
▁monroe	-11.6846
▁mccoy	-11.6846
nce	-11.6846
▁jury	-11.6846
▁streisand	-11.6848
▁gilbert	-11.6848
▁rosemary	-11.6851
▁publicity	-11.6851
▁brooding	-11.6851
▁brainless	-11.6851
▁satirical	-11.6852
▁depends	-11.6854
▁paulie	-11.6855
▁beth	-11.6856
▁injustice	-11.6857
eg	-11.6857
▁nerve	-11.6858
▁moe	-11.6859
▁ash	-11.6861
▁linked	-11.6867
▁wounds	-11.6869
▁conveys	-11.6872
ung	-11.6877
▁com	-11.688
▁token	-11.6889
▁cracking	-11.6898
pping	-11.69
▁wipe	-11.6913
▁inherent	-11.6916
▁exploit	-11.6917
▁doubts	-11.6922
▁chat	-11.6924
▁conclude	-11.6933
▁readers	-11.6938
▁shades	-11.6941
▁handles	-11.6942
▁depardieu	-11.6943
▁istanbul	-11.6943
▁paranoid	-11.6943
▁transplant	-11.6943
▁isolation	-11.6943
▁ingrid	-11.6943
▁sensible	-11.6943
▁homosexuality	-11.6944
▁1971	-11.6944
▁overbearing	-11.6944
▁license	-11.6944
▁uncut	-11.6946
▁sherlock	-11.6946
▁selected	-11.6952
▁stalker	-11.6952
▁wider	-11.6952
eating	-11.6954
▁fried	-11.6954
▁tapes	-11.6956
▁july	-11.6956
▁traits	-11.6957
▁dam	-11.6957
▁nominations	-11.6958
mr	-11.696
ical	-11.6966
▁nope	-11.697
▁gained	-11.6973
▁delighted	-11.6975
▁nicolas	-11.6977
50	-11.6984
elli	-11.6995
▁emerge	-11.6996
without	-11.6996
▁cbs	-11.6998
doo	-11.6999
▁bash	-11.6999
▁duel	-11.7005
view	-11.7007
free	-11.7014
▁liz	-11.7017
▁haunt	-11.7017
▁reward	-11.7018
▁formed	-11.702
▁juan	-11.7022
▁audition	-11.7026
berg	-11.7027
▁register	-11.703
▁sickening	-11.7032
▁colours	-11.7034
▁update	-11.7038
▁informed	-11.704
▁stella	-11.704
▁contempt	-11.7041
▁deputy	-11.7041
▁escaping	-11.7041
▁horizon	-11.7041
▁scrooge	-11.7041
▁vcr	-11.7041
▁ominous	-11.7041
▁bishop	-11.7041
▁lunatic	-11.7041
▁aircraft	-11.7041
▁reagan	-11.7041
▁melville	-11.7042
▁moses	-11.7042
▁adaption	-11.7042
▁malone	-11.7042
▁earnest	-11.7042
▁diverse	-11.7043
▁hepburn	-11.7043
▁romanian	-11.7044
▁tu	-11.7046
▁mag	-11.7047
▁bent	-11.7049
▁palma	-11.7053
▁coupled	-11.7054
▁anchor	-11.7054
▁dolph	-11.7056
never	-11.706
▁legends	-11.7062
▁cannes	-11.7064
▁bra	-11.7066
▁justified	-11.7066
ai	-11.7067
▁wanders	-11.707
▁des	-11.7072
▁endlessly	-11.708
▁raid	-11.7081
william	-11.7088
▁tactics	-11.7088
▁cooking	-11.7089
▁balanced	-11.7089
▁hides	-11.7097
▁claiming	-11.7103
▁indiana	-11.7106
▁unnatural	-11.7106
▁possess	-11.7111
▁morons	-11.7112
▁fools	-11.7113
far	-11.7114
▁rational	-11.7115
▁observation	-11.712
referred	-11.7121
▁bald	-11.7123
▁psyche	-11.7126
ps	-11.7126
▁blink	-11.7127
ita	-11.7135
▁booth	-11.7139
▁shepherd	-11.714
▁herzog	-11.714
▁medicine	-11.714
▁mannerisms	-11.714
▁breakfast	-11.714
▁laurence	-11.714
▁firing	-11.714
▁pathos	-11.7141
▁reliable	-11.7141
▁riff	-11.7141
▁1981	-11.7141
▁invest	-11.7141
▁1973	-11.7141
▁1982	-11.7141
▁madsen	-11.7142
▁downfall	-11.7144
▁prot	-11.7145
sp	-11.7146
▁distraction	-11.7146
▁artwork	-11.7147
▁slimy	-11.7147
▁candidate	-11.7147
▁approaching	-11.7148
▁holm	-11.7149
▁funding	-11.7151
▁chop	-11.7154
▁beau	-11.7156
▁rewarding	-11.7158
pr	-11.7159
▁israeli	-11.716
zer	-11.7162
▁inhabitants	-11.7162
▁carla	-11.7167
▁frat	-11.717
▁lionel	-11.7172
▁mud	-11.7175
▁stores	-11.718
▁votes	-11.7185
▁inspirational	-11.7186
▁8.	-11.7186
indulgent	-11.7187
cheek	-11.7188
zo	-11.7188
▁mentions	-11.719
▁avoiding	-11.7196
▁wi	-11.7201
▁sane	-11.7204
▁rang	-11.7205
▁aboard	-11.7207
▁ti	-11.7209
????	-11.721
▁transport	-11.7211
▁fulfill	-11.7211
▁geek	-11.7211
▁verge	-11.7212
▁comparisons	-11.7212
▁blackmail	-11.7212
aki	-11.7215
▁hippies	-11.7217
cap	-11.7217
quite	-11.7217
▁chill	-11.722
▁remakes	-11.7221
▁depict	-11.7221
▁pounds	-11.7226
▁despise	-11.7227
net	-11.723
▁convenient	-11.7234
▁accepting	-11.724
▁pedestrian	-11.724
▁paltrow	-11.724
▁subtext	-11.724
▁eyre	-11.724
▁sf	-11.724
▁segal	-11.724
▁basinger	-11.724
▁1988	-11.7241
▁restrained	-11.7243
▁stray	-11.7243
▁youthful	-11.7245
▁loop	-11.7246
▁horny	-11.7246
▁kansas	-11.7246
▁swept	-11.7247
▁freeze	-11.7247
▁ripoff	-11.7248
▁kris	-11.7248
▁sal	-11.7248
nes	-11.7248
▁debt	-11.7248
▁session	-11.7249
▁immigrant	-11.725
▁approaches	-11.7251
▁lighter	-11.7255
▁factors	-11.7255
▁coma	-11.7256
▁realities	-11.7257
▁programs	-11.7258
▁cobb	-11.7258
▁disguised	-11.726
▁tremendously	-11.7262
15	-11.7263
py	-11.7275
rent	-11.7277
▁gil	-11.728
▁freaking	-11.7283
▁gu	-11.7285
▁vignettes	-11.7286
producer	-11.7289
adventure	-11.7289
first	-11.7289
▁pub	-11.7292
iff	-11.7303
▁marc	-11.7305
)...	-11.7305
sta	-11.7306
▁likeable	-11.7307
▁cheaply	-11.7307
▁screenwriters	-11.731
▁render	-11.7313
▁pr	-11.7313
▁hans	-11.732
▁defie	-11.7321
▁bombing	-11.7321
actors	-11.7322
▁stink	-11.7325
▁schedule	-11.7328
▁participate	-11.7328
▁cheat	-11.7334
▁brat	-11.7338
▁choosing	-11.7341
▁inexplicable	-11.7341
▁persuade	-11.7341
▁physics	-11.7341
▁implied	-11.7341
▁manipulation	-11.7341
▁dixon	-11.7341
▁dubious	-11.7342
▁lupino	-11.7342
▁kurtz	-11.7342
▁exploding	-11.7343
▁grandma	-11.7343
▁ladder	-11.7344
▁1978	-11.7346
▁queens	-11.7346
▁alarm	-11.7346
▁posing	-11.7347
game	-11.7349
▁phillip	-11.7351
▁invention	-11.7351
▁mobile	-11.7353
▁freaky	-11.7356
▁bend	-11.7356
▁iconic	-11.7361
▁lastly	-11.7363
▁defeated	-11.7364
▁nations	-11.7368
▁sinking	-11.7369
▁(!)	-11.7371
▁swearing	-11.7384
take	-11.7388
▁dev	-11.7389
▁dish	-11.739
despite	-11.7391
▁politicians	-11.7398
▁ski	-11.74
▁incidents	-11.7402
▁file	-11.7403
code	-11.741
▁depths	-11.7412
▁poe	-11.742
▁compensate	-11.743
▁acknowledge	-11.743
▁tax	-11.7431
▁mount	-11.7432
▁affects	-11.7432
▁legitimate	-11.7433
ade	-11.7433
▁sparks	-11.744
▁korea	-11.744
▁aztec	-11.7443
▁bachelor	-11.7443
▁creek	-11.7443
▁flimsy	-11.7443
▁mutual	-11.7443
▁arriving	-11.7443
▁havoc	-11.7443
▁travis	-11.7443
▁hesitate	-11.7443
▁almighty	-11.7443
▁perverse	-11.7443
▁shelter	-11.7443
▁anton	-11.7443
▁adrian	-11.7443
▁horn	-11.7443
▁garage	-11.7443
▁alvin	-11.7444
▁motor	-11.7444
▁arquette	-11.7445
▁overblown	-11.7445
▁pound	-11.7445
▁stardom	-11.7446
▁harrowing	-11.7446
▁meandering	-11.7446
▁studied	-11.7447
▁daylight	-11.7448
▁outdated	-11.7448
▁advertised	-11.7449
▁realistically	-11.745
▁published	-11.7453
etc	-11.7454
av	-11.7454
▁growth	-11.7457
▁cigarette	-11.7457
▁bennett	-11.7457
▁realization	-11.7457
▁corporation	-11.746
▁educated	-11.746
▁pursued	-11.7461
▁kidnap	-11.7462
▁carson	-11.7464
▁sly	-11.7466
▁indifferent	-11.7471
▁shi	-11.7473
▁shove	-11.7474
▁pirates	-11.7478
▁russians	-11.7478
str	-11.7479
▁abound	-11.7482
▁partners	-11.7483
▁embarrassingly	-11.7484
ston	-11.7484
▁sleeper	-11.7492
pol	-11.7492
ridden	-11.7493
▁baron	-11.7497
▁lynn	-11.7497
dom	-11.7498
▁rescued	-11.7498
may	-11.7498
▁users	-11.7504
oz	-11.7513
▁suitabl	-11.7514
▁ivan	-11.7514
▁crashing	-11.7519
▁claus	-11.7522
▁brazil	-11.7525
▁everett	-11.7529
▁seeming	-11.7532
▁extensive	-11.7536
▁relentless	-11.7536
▁delicious	-11.7537
▁emphasize	-11.7537
▁locals	-11.754
cat	-11.7542
▁afghanistan	-11.7546
▁kermit	-11.7546
▁unwilling	-11.7546
▁vintage	-11.7546
▁nolte	-11.7546
▁bacall	-11.7546
▁unconventional	-11.7546
▁graveyard	-11.7546
▁pornography	-11.7546
▁:-)	-11.7549
▁phase	-11.7549
▁elder	-11.7551
▁isabelle	-11.7552
▁wtf	-11.7554
▁filthy	-11.7554
▁stalking	-11.7555
▁nod	-11.7556
▁profile	-11.7559
ick	-11.7559
▁convention	-11.7561
▁longing	-11.7562
▁springer	-11.7563
ong	-11.7564
▁mul	-11.7567
gy	-11.7568
other	-11.757
▁corey	-11.7571
▁neatly	-11.7571
▁flock	-11.7573
▁goals	-11.7574
▁dar	-11.7576
▁ty	-11.7577
▁sant	-11.758
tech	-11.7585
▁pros	-11.7585
nal	-11.7588
▁regularly	-11.7593
▁wisely	-11.7594
▁lil	-11.7602
▁seedy	-11.7603
ria	-11.7604
▁75	-11.7604
▁sour	-11.7608
▁peters	-11.7613
▁rub	-11.7615
mu	-11.7619
▁judged	-11.7625
▁domino	-11.7625
aud	-11.7639
rich	-11.7645
▁meteor	-11.765
▁plotting	-11.765
▁architect	-11.765
esquire	-11.765
▁merchant	-11.765
▁rourke	-11.765
▁bakshi	-11.765
▁warehouse	-11.765
▁stabbed	-11.765
▁collins	-11.765
▁pepper	-11.765
▁nauseating	-11.7651
▁detectives	-11.7651
▁ebert	-11.7651
▁1989	-11.7651
▁skinny	-11.7651
▁schneider	-11.7652
▁portman	-11.7652
▁den	-11.7653
▁daffy	-11.7653
brien	-11.7653
▁glamorous	-11.7653
▁miranda	-11.7654
lee	-11.7654
▁gandhi	-11.7654
▁vanessa	-11.7655
▁warrant	-11.7656
▁lena	-11.7656
▁otto	-11.7658
mel	-11.7658
▁smash	-11.7658
▁campus	-11.7659
▁celebrate	-11.766
hot	-11.7661
▁incorrect	-11.7664
▁dumped	-11.7667
▁antagonist	-11.7667
▁threatened	-11.7668
▁monologue	-11.7669
▁muscle	-11.767
ory	-11.7676
▁aiming	-11.7678
▁hk	-11.769
▁flip	-11.7696
spirited	-11.7705
files	-11.7705
▁bikini	-11.7706
peter	-11.7706
▁whit	-11.7715
▁approached	-11.772
▁fuel	-11.7722
▁reviewed	-11.7724
▁95	-11.773
noir	-11.7736
▁smiles	-11.7738
▁classy	-11.7739
▁resolve	-11.7748
▁factual	-11.7752
▁arguing	-11.7755
▁dazzling	-11.7755
▁malkovich	-11.7755
▁preparing	-11.7755
▁tendency	-11.7755
▁gigantic	-11.7755
▁begging	-11.7755
▁incapable	-11.7755
▁psychologist	-11.7755
▁sabrina	-11.7755
▁tolerance	-11.7755
▁wheelchair	-11.7755
▁fritz	-11.7756
▁senator	-11.7756
▁accessible	-11.7756
▁pokemon	-11.7756
▁pairing	-11.7756
▁unsure	-11.7757
▁vibe	-11.7757
▁alison	-11.7757
▁redford	-11.7757
▁zane	-11.7758
▁mitch	-11.7758
▁joanna	-11.7758
▁1987	-11.7758
▁satisfaction	-11.7759
▁christianity	-11.7759
▁shotgun	-11.7759
▁novelty	-11.7761
▁evan	-11.7761
▁associate	-11.7763
▁flowers	-11.7763
▁stern	-11.7765
▁conveniently	-11.7766
▁rewarded	-11.7767
▁popping	-11.777
▁billing	-11.7775
▁suspicion	-11.7776
▁composition	-11.7777
▁employee	-11.7777
▁riddle	-11.7778
▁windows	-11.7778
▁confronted	-11.7782
thin	-11.7785
▁damaged	-11.7789
▁candle	-11.7789
▁safely	-11.7793
ology	-11.7797
▁rider	-11.7799
▁seasoned	-11.7801
characterisation	-11.7802
fiction	-11.7808
▁(?)	-11.7809
people	-11.7809
little	-11.781
bill	-11.7818
▁babes	-11.7825
▁parallels	-11.7826
▁mold	-11.7829
▁colleagues	-11.783
▁interests	-11.7832
▁chore	-11.7839
midst	-11.7842
uck	-11.785
▁thumb	-11.7851
▁reverse	-11.7851
ez	-11.7856
▁198	-11.7859
▁republic	-11.7861
▁staple	-11.7861
▁scorsese	-11.7862
▁cerebral	-11.7862
▁experiencing	-11.7862
▁improbable	-11.7862
▁mediocrity	-11.7862
▁undeniably	-11.7862
▁understatement	-11.7862
▁applied	-11.7862
▁dietrich	-11.7862
▁sissy	-11.7862
▁niven	-11.7862
▁granger	-11.7862
▁unsympathetic	-11.7862
▁relevance	-11.7862
▁terminal	-11.7862
▁unfamiliar	-11.7862
▁macabre	-11.7862
▁underwear	-11.7863
▁weaver	-11.7863
▁rory	-11.7863
▁gamera	-11.7863
▁possesses	-11.7864
▁cries	-11.7864
▁lizard	-11.7865
▁antonioni	-11.7865
▁lester	-11.7865
▁gein	-11.787
▁blob	-11.7872
▁distracted	-11.7872
▁sweeping	-11.7873
▁reject	-11.7873
▁dumbest	-11.7874
playing	-11.7874
▁payoff	-11.7875
▁divided	-11.7876
esh	-11.7878
fight	-11.788
▁crow	-11.7882
▁bastard	-11.7883
▁organization	-11.7883
▁complications	-11.7886
▁meantime	-11.7888
▁cultures	-11.7893
▁hay	-11.7894
▁strengths	-11.7895
wall	-11.7899
▁skilled	-11.7899
▁lau	-11.79
▁characteristics	-11.7902
stone	-11.7916
▁weaker	-11.7916
bert	-11.792
▁intensely	-11.7927
▁janet	-11.7929
ot	-11.7937
▁pee	-11.7939
▁interpret	-11.7945
▁blamed	-11.7949
fan	-11.7954
lain	-11.7969
▁regime	-11.7969
▁abomination	-11.7969
▁inclusion	-11.7969
▁kurosawa	-11.7969
▁othello	-11.7969
▁phoenix	-11.7969
▁redundant	-11.7969
▁horrified	-11.7969
▁whining	-11.7969
▁admission	-11.7969
▁boogie	-11.7969
▁maximum	-11.7969
▁bloke	-11.797
▁jolie	-11.797
▁rodney	-11.797
▁hawn	-11.797
▁estranged	-11.7971
▁1994	-11.7971
▁uniforms	-11.7971
▁1998	-11.7971
▁franklin	-11.7971
▁lois	-11.7972
▁casper	-11.7974
▁chow	-11.7974
▁porter	-11.7977
▁questioning	-11.7978
▁stylized	-11.7978
▁slam	-11.7978
▁nero	-11.7979
▁demonstrate	-11.7985
▁dashing	-11.7986
bound	-11.799
▁bitten	-11.7991
hal	-11.7992
come	-11.7994
ella	-11.7995
▁ensue	-11.7996
▁poses	-11.7999
▁croc	-11.8003
dog	-11.8009
▁cartoonish	-11.8012
lyn	-11.8015
▁mon	-11.8016
▁scenarios	-11.8017
▁item	-11.8018
▁praised	-11.802
▁chronicles	-11.8028
▁interior	-11.8036
hey	-11.8036
▁suspected	-11.8038
hr	-11.8039
▁joyce	-11.8041
▁endings	-11.8044
▁laws	-11.8045
▁teams	-11.8049
▁28	-11.8056
▁convinces	-11.8056
scene	-11.8057
row	-11.8062
▁bleed	-11.8066
▁expand	-11.8071
▁aggressive	-11.8074
▁exploits	-11.8074
▁pose	-11.8075
▁smug	-11.8077
▁slide	-11.8078
▁chamber	-11.8078
▁fragile	-11.8078
▁parodies	-11.8078
▁pizza	-11.8078
▁rhett	-11.8078
▁ritchie	-11.8078
▁verdict	-11.8078
▁aftermath	-11.8078
▁lansbury	-11.8078
▁harvest	-11.8078
▁whiny	-11.8078
▁repair	-11.8078
▁tokyo	-11.8078
▁morph	-11.8078
▁feeble	-11.8078
▁canyon	-11.8078
▁sweden	-11.8079
▁sought	-11.8079
▁replacement	-11.8079
▁1959	-11.8079
▁coburn	-11.8079
▁1974	-11.8079
▁theories	-11.8079
▁werewolves	-11.808
▁believability	-11.8081
▁crippled	-11.8083
▁shelley	-11.8083
▁norton	-11.8083
▁boone	-11.8083
roo	-11.8083
▁omen	-11.8086
▁lon	-11.8087
▁za	-11.8087
▁monica	-11.8087
▁crooked	-11.8087
▁preacher	-11.8088
▁organized	-11.809
qua	-11.809
▁letdown	-11.809
▁seduce	-11.8091
▁explode	-11.8093
▁sheep	-11.8093
▁promoted	-11.8099
▁yell	-11.81
▁gestures	-11.8102
▁variation	-11.8105
▁pocket	-11.811
▁rot	-11.8111
ali	-11.8111
▁finishing	-11.8115
▁spelling	-11.8119
▁newer	-11.8123
▁mari	-11.8129
▁reports	-11.8133
before	-11.8136
▁insights	-11.8137
▁midst	-11.814
▁que	-11.8142
▁shameless	-11.8143
▁lu	-11.8151
▁decid	-11.8154
▁kent	-11.8155
▁slot	-11.8157
▁uncover	-11.816
▁valid	-11.816
▁cher	-11.8162
▁grin	-11.8168
▁hears	-11.8174
brow	-11.8174
▁wu	-11.8175
▁amaze	-11.8175
▁imitate	-11.8175
▁surrender	-11.8177
▁verbal	-11.8178
▁collective	-11.8178
▁dodge	-11.818
▁recover	-11.8182
▁villa	-11.8186
▁excess	-11.8186
▁distract	-11.8187
▁frantic	-11.8188
▁mermaid	-11.8188
▁plodding	-11.8188
▁sebastian	-11.8188
▁parrot	-11.8188
▁sterling	-11.8188
****	-11.8189
▁sniper	-11.819
▁luis	-11.8191
▁subway	-11.8191
▁alicia	-11.8191
▁agony	-11.8192
▁dante	-11.8192
▁tower	-11.8193
▁offbeat	-11.8196
▁absorbing	-11.8198
▁lola	-11.8203
▁offend	-11.8207
▁farley	-11.821
▁subsequently	-11.821
▁chucky	-11.821
uff	-11.8213
▁messing	-11.8214
▁revolve	-11.8217
▁viewpoint	-11.8219
▁abbott	-11.8219
▁newcomer	-11.822
▁fuss	-11.822
▁collector	-11.8221
▁conveyed	-11.8221
▁encountered	-11.8233
yeah	-11.8247
ks	-11.8259
▁richards	-11.8262
▁cape	-11.8262
▁te	-11.8262
▁grabbe	-11.8267
▁transferr	-11.8268
▁locke	-11.8272
▁accepts	-11.8273
▁rightly	-11.8276
▁joint	-11.8277
offs	-11.8286
ches	-11.8286
▁neglect	-11.8288
▁heels	-11.829
▁literal	-11.8293
▁boarding	-11.8294
▁abstract	-11.8296
▁polar	-11.8298
▁manipulate	-11.8298
▁sleeve	-11.8299
▁timberlake	-11.8299
▁crosby	-11.8299
▁ordeal	-11.8299
▁puppy	-11.8299
▁marx	-11.8299
▁kahn	-11.8299
▁unattractive	-11.8299
▁taut	-11.8299
▁pbs	-11.83
▁1945	-11.83
▁patty	-11.83
▁protection	-11.8301
▁determination	-11.8302
▁300	-11.8303
▁sensual	-11.8304
space	-11.8304
▁chip	-11.8305
▁vanity	-11.8305
▁graves	-11.831
▁rack	-11.8314
▁whip	-11.8314
▁eagerly	-11.8316
▁updated	-11.8318
▁generate	-11.8319
▁hum	-11.8323
▁cheers	-11.8325
▁rambling	-11.833
▁clerk	-11.8331
▁redneck	-11.8332
▁laser	-11.8332
▁colleague	-11.8333
▁tenant	-11.8336
▁tightly	-11.8339
▁arty	-11.8341
▁hercules	-11.8342
▁interviewed	-11.8343
▁comeback	-11.8347
▁pilots	-11.835
worth	-11.835
▁elliott	-11.8353
mart	-11.8356
▁yu	-11.8357
ided	-11.8358
numbing	-11.8359
▁critters	-11.8361
▁bart	-11.8362
▁remembering	-11.8366
▁heath	-11.8369
pat	-11.8372
high	-11.8381
▁sensation	-11.8382
▁gar	-11.8383
gue	-11.8385
lia	-11.8391
▁patriot	-11.8394
have	-11.8395
▁locate	-11.8399
▁inherit	-11.8401
▁tr	-11.8401
▁immense	-11.8402
▁bias	-11.8405
▁substitute	-11.8407
▁leaders	-11.8409
▁fetish	-11.8409
▁tickets	-11.8411
▁detroit	-11.8411
▁lombard	-11.8411
▁battling	-11.8411
▁sergio	-11.8411
▁pompous	-11.8412
▁wendy	-11.8412
▁kinski	-11.8412
▁nutshell	-11.8412
▁rugby	-11.8412
▁sharon	-11.8412
▁nathan	-11.8412
▁paycheck	-11.8413
▁repressed	-11.8413
▁phoebe	-11.8414
▁lightning	-11.8414
▁artistry	-11.8414
▁auteur	-11.8415
▁promptly	-11.842
▁biting	-11.8427
▁engine	-11.8428
▁clarke	-11.8429
▁assist	-11.8429
▁goof	-11.8429
▁masterfully	-11.8432
▁wholesome	-11.8433
fo	-11.8435
▁swinging	-11.8436
▁hysterically	-11.8436
▁dwarf	-11.8445
▁request	-11.8445
▁rebels	-11.8447
▁feeding	-11.8448
▁outcast	-11.8452
▁40'	-11.8454
-19	-11.8454
▁shootout	-11.8455
witted	-11.8459
tta	-11.846
sci	-11.847
lar	-11.8471
level	-11.8473
jones	-11.8474
▁scored	-11.8475
lew	-11.8477
▁shocker	-11.8482
▁principals	-11.8498
▁mole	-11.8506
▁toni	-11.8508
breaking	-11.851
▁barn	-11.8511
▁orphan	-11.8514
▁si	-11.8517
▁insomnia	-11.8524
▁eisenstein	-11.8525
▁mclaglen	-11.8525
▁vaughn	-11.8525
▁vigilante	-11.8525
▁poirot	-11.8525
▁regain	-11.8525
▁lucille	-11.8525
▁bittersweet	-11.8525
▁replies	-11.8525
▁roam	-11.8525
▁groundbreaking	-11.8526
▁madison	-11.8526
▁emmy	-11.8526
▁furniture	-11.8527
▁battlefield	-11.8527
▁guardian	-11.8527
▁runaway	-11.8528
▁vance	-11.853
▁dramatically	-11.853
▁exclusively	-11.853
▁nest	-11.8531
▁goldie	-11.8532
▁cock	-11.8534
▁contestants	-11.8534
▁economic	-11.8537
▁tormented	-11.8539
▁ramon	-11.8542
▁tara	-11.8543
▁plate	-11.8545
▁lighthearted	-11.8545
▁sack	-11.855
▁baddies	-11.8552
▁stereotyped	-11.8554
city	-11.8555
▁benny	-11.856
▁spaceship	-11.8563
▁rapist	-11.8563
▁dock	-11.8563
▁vehicles	-11.8564
▁triple	-11.8566
ft	-11.8578
▁routines	-11.8579
▁joker	-11.858
▁jude	-11.8581
▁frames	-11.8582
same	-11.8582
▁unusually	-11.8585
...........	-11.8586
▁dragons	-11.859
▁sells	-11.8592
does	-11.8596
▁origins	-11.8598
▁ki	-11.8598
ied	-11.8601
▁goodman	-11.8602
▁paints	-11.8604
▁hawke	-11.8605
taking	-11.8609
▁stoned	-11.8612
▁joining	-11.8613
▁howling	-11.8617
▁landed	-11.8622
rick	-11.863
▁swift	-11.863
▁peaceful	-11.8631
eb	-11.8632
▁deliberate	-11.8636
▁charms	-11.8638
▁arguments	-11.864
▁balloon	-11.864
▁shanghai	-11.864
▁spontaneous	-11.864
▁ghastly	-11.864
▁bunuel	-11.864
▁rookie	-11.864
▁ceiling	-11.864
▁lorre	-11.864
▁graduation	-11.864
▁lumet	-11.864
▁enigmatic	-11.864
▁scarier	-11.864
▁void	-11.864
▁surgeon	-11.864
▁slapped	-11.8641
▁grier	-11.8641
▁email	-11.8641
▁instructor	-11.8641
▁sentimentality	-11.8642
▁fuzzy	-11.8642
▁sanity	-11.8642
▁salesman	-11.8642
▁fontaine	-11.8643
▁sketches	-11.8643
▁covering	-11.8643
▁captivated	-11.8643
▁rebecca	-11.8643
▁sophie	-11.8644
▁reid	-11.8645
▁noticeable	-11.8646
▁loan	-11.8647
▁dismiss	-11.8648
▁refus	-11.865
▁respond	-11.8651
ub	-11.8652
ero	-11.8656
▁experts	-11.8657
▁vividly	-11.866
▁summe	-11.8661
ius	-11.8666
▁photographs	-11.8667
firmly	-11.8668
▁pierre	-11.8668
▁settled	-11.8669
▁gathering	-11.8671
▁stages	-11.8675
▁shifts	-11.8687
des	-11.8696
iv	-11.8704
▁bum	-11.871
▁mouths	-11.8717
▁theatres	-11.8717
▁mysteriously	-11.8721
boat	-11.8722
rk	-11.8724
▁gaps	-11.8724
▁crossed	-11.8727
anna	-11.8731
▁apple	-11.8733
▁pans	-11.8734
▁vol	-11.8734
▁dern	-11.8741
▁sw	-11.8743
▁enlist	-11.8746
▁ob	-11.8746
▁cliched	-11.8752
▁lecture	-11.8752
▁plants	-11.8755
▁clouds	-11.8756
▁admiration	-11.8756
▁carnival	-11.8756
▁cronenberg	-11.8756
▁dahmer	-11.8756
▁lopez	-11.8756
▁recipe	-11.8756
▁turmoil	-11.8756
▁lundgren	-11.8756
▁decay	-11.8756
▁sundance	-11.8757
▁nanny	-11.8757
▁boobs	-11.8757
▁darling	-11.8757
▁ninety	-11.8757
▁intact	-11.8757
▁portuguese	-11.8758
▁noteworthy	-11.8758
▁1991	-11.8758
▁releasing	-11.8758
▁zoey	-11.8759
▁offense	-11.8759
▁jurassi	-11.876
▁melissa	-11.8762
half	-11.8762
▁marlon	-11.8762
▁micheal	-11.8762
ations	-11.8762
▁atomic	-11.8763
▁dove	-11.8764
▁dash	-11.8764
▁assembled	-11.8765
▁acquired	-11.8766
▁males	-11.8767
▁apt	-11.8769
▁wo	-11.8769
▁wonderland	-11.877
▁ricky	-11.8772
▁robertson	-11.8773
▁slaves	-11.8774
▁faded	-11.8777
▁ru	-11.8779
▁secure	-11.8779
▁lucio	-11.8781
▁conscious	-11.8782
▁severed	-11.8783
▁bait	-11.8784
▁herbert	-11.8784
jean	-11.8787
scenes	-11.8791
▁graduate	-11.8792
▁statements	-11.8792
ns	-11.8797
▁daytime	-11.8798
▁starters	-11.8799
ification	-11.8799
sex	-11.8801
▁playful	-11.8804
▁mirrors	-11.8806
ium	-11.8807
▁stuffed	-11.8809
yr	-11.8816
girlfriend	-11.8822
flick	-11.8822
yo	-11.8827
genre	-11.8835
amato	-11.8837
tan	-11.8843
▁distress	-11.8845
▁sorrow	-11.8847
ide	-11.8854
▁tolerate	-11.8861
▁boyer	-11.8862
▁substantial	-11.8864
▁fanatic	-11.8866
▁lt	-11.8867
▁bounce	-11.8867
say	-11.8867
▁30'	-11.887
▁georgia	-11.8871
▁denouement	-11.8874
▁dungeon	-11.8874
▁monotonous	-11.8874
▁seinfeld	-11.8874
▁slept	-11.8874
▁injury	-11.8874
▁essay	-11.8874
▁murky	-11.8874
▁enchanting	-11.8874
▁kilmer	-11.8874
▁hurry	-11.8874
▁declare	-11.8874
▁darren	-11.8874
▁miami	-11.8874
▁psychedelic	-11.8875
▁compound	-11.8875
▁lonesome	-11.8875
▁bodyguard	-11.8875
▁diary	-11.8875
▁fido	-11.8875
▁dandy	-11.8876
▁desk	-11.8877
▁hackman	-11.8877
▁wayans	-11.8878
▁nonexistent	-11.8878
▁predictably	-11.8878
▁chemical	-11.8879
▁posey	-11.8881
▁lurking	-11.8885
▁rolls	-11.8886
▁exploited	-11.8887
▁betrayed	-11.8888
▁patriotic	-11.8892
▁lad	-11.8896
▁boots	-11.8897
▁gina	-11.8899
▁lange	-11.8899
▁reno	-11.8902
▁robbers	-11.8902
▁expertly	-11.8905
▁affecting	-11.8906
▁shemp	-11.8906
▁stable	-11.891
wick	-11.891
▁stupidest	-11.891
ual	-11.8913
▁admired	-11.8914
▁log	-11.8915
▁bubble	-11.8918
▁thug	-11.8924
goers	-11.8927
▁chew	-11.8929
please	-11.8937
▁hyped	-11.8938
smith	-11.8941
dvd	-11.8941
ified	-11.8941
killer	-11.8951
▁8/10.	-11.8958
▁grounds	-11.8965
▁jose	-11.8965
br	-11.8966
▁revolt	-11.8975
▁travell	-11.8976
▁vet	-11.8977
vis	-11.8978
▁immigrants	-11.8981
▁whine	-11.8982
water	-11.8989
▁precede	-11.8993
▁chaotic	-11.8993
▁coyote	-11.8993
▁marvellous	-11.8993
▁monkees	-11.8993
▁salvation	-11.8993
▁quasi	-11.8993
▁fraud	-11.8993
▁rogue	-11.8993
▁mythology	-11.8993
▁entries	-11.8993
▁cocaine	-11.8993
▁sunset	-11.8994
▁fires	-11.8994
▁hooper	-11.8994
▁costner	-11.8994
▁torch	-11.8995
▁spies	-11.8995
▁spoon	-11.8995
▁2008	-11.8996
▁veterans	-11.8999
▁cody	-11.8999
▁reserved	-11.9001
▁stereo	-11.9001
▁flows	-11.9001
▁raines	-11.9001
▁nuanced	-11.9002
▁85	-11.9002
▁neglected	-11.9005
▁debra	-11.9005
▁buffy	-11.9009
▁discussed	-11.9019
▁gates	-11.9021
▁reflected	-11.9021
▁observe	-11.9021
▁directions	-11.9023
▁resulted	-11.9025
▁indicate	-11.9031
ward	-11.9032
▁sleepy	-11.904
▁illusion	-11.9041
▁giggle	-11.9046
▁cad	-11.9049
▁stake	-11.9051
▁circles	-11.9052
▁dive	-11.9052
▁arrow	-11.9052
▁pegg	-11.9052
▁nat	-11.9053
▁marines	-11.9057
▁parking	-11.9059
ika	-11.9061
▁rounded	-11.9065
▁benefits	-11.9065
▁camping	-11.907
▁insults	-11.9074
▁tri	-11.9078
quin	-11.908
▁steele	-11.9084
▁excellently	-11.9085
ane	-11.9087
▁rejects	-11.9087
▁packs	-11.9088
▁relat	-11.9091
▁entrance	-11.91
▁sync	-11.9101
▁determine	-11.9105
ann	-11.9107
ure	-11.9107
turned	-11.911
▁guinness	-11.9113
▁sincerity	-11.9113
▁inclined	-11.9114
▁railroad	-11.9114
▁shannon	-11.9114
▁nifty	-11.9114
▁doyle	-11.9114
▁vault	-11.9114
▁captive	-11.9114
▁stir	-11.9114
▁renaissance	-11.9114
▁garland	-11.9114
▁jules	-11.9114
▁clara	-11.9114
▁rouge	-11.9115
▁pickford	-11.9115
▁clunky	-11.9115
▁underdeveloped	-11.9115
▁sassy	-11.9115
▁waist	-11.9115
▁chaney	-11.9115
▁consequently	-11.9116
▁trains	-11.9116
▁gloomy	-11.9116
▁association	-11.9116
▁fiend	-11.9116
▁midget	-11.9116
▁govinda	-11.9116
▁narrated	-11.9117
▁interrupted	-11.9118
▁magician	-11.9119
▁nuances	-11.9121
bin	-11.9124
▁heather	-11.913
ap	-11.9132
▁barber	-11.9136
▁sources	-11.9138
▁smarter	-11.9145
▁brett	-11.9147
bell	-11.9147
▁climbing	-11.915
▁wak	-11.915
ery	-11.9151
▁defy	-11.9155
▁convict	-11.9161
▁replay	-11.9164
▁sgt	-11.9164
power	-11.9168
▁hardest	-11.9168
▁politician	-11.9169
▁profit	-11.9173
▁flames	-11.918
around	-11.9186
▁customers	-11.9193
▁satanic	-11.9196
hole	-11.9196
quality	-11.9201
▁glimpses	-11.9201
cc	-11.9205
tier	-11.921
▁ignor	-11.921
▁fills	-11.9212
▁tipp	-11.9212
mad	-11.9213
has	-11.9215
bit	-11.9216
▁shrink	-11.9218
▁eli	-11.922
▁sentences	-11.9221
▁select	-11.9224
ang	-11.9229
▁slack	-11.9232
▁brynner	-11.9235
▁fishburne	-11.9235
▁misunderstood	-11.9235
▁oblivious	-11.9235
▁streak	-11.9235
▁unanswered	-11.9235
▁owl	-11.9235
▁kinnear	-11.9235
▁foremost	-11.9236
▁carrot	-11.9236
▁witchcraft	-11.9236
▁enduring	-11.9236
▁ebay	-11.9236
▁grease	-11.9236
▁zeta	-11.9236
▁edison	-11.9236
▁carnage	-11.9236
▁honey	-11.9236
▁knightley	-11.9236
▁popped	-11.9237
▁nina	-11.9237
▁feminine	-11.9238
▁unclear	-11.9238
▁chef	-11.9238
▁brendan	-11.9239
▁fodder	-11.9239
▁inaccuracies	-11.924
▁sammy	-11.924
▁shuttle	-11.924
▁pamela	-11.924
▁197	-11.9241
▁staging	-11.9242
▁vivian	-11.9242
▁stargate	-11.9242
▁respects	-11.9242
▁juliette	-11.9244
▁deliciously	-11.9247
▁overboard	-11.9248
▁dealers	-11.9248
lam	-11.925
▁consciousness	-11.9251
▁wherever	-11.9251
▁awakening	-11.9252
▁rendering	-11.9257
▁spinal	-11.9258
▁scratching	-11.9261
▁intend	-11.9264
▁whoopi	-11.9269
▁squeeze	-11.927
ax	-11.9273
▁employ	-11.9274
▁10/10.	-11.9277
iko	-11.9278
▁recruit	-11.9279
form	-11.9284
bs	-11.9286
▁slob	-11.9287
▁wrestler	-11.929
▁client	-11.9291
▁tuned	-11.9292
▁woke	-11.9293
▁hunted	-11.9294
▁switche	-11.9294
▁hateful	-11.9296
▁wee	-11.9302
five	-11.9303
▁enable	-11.9307
▁astronaut	-11.9308
▁vo	-11.9308
tte	-11.9311
▁flame	-11.9311
▁witnessing	-11.9312
beat	-11.9314
▁fetched	-11.9317
▁denis	-11.9318
▁achieves	-11.9321
loud	-11.9327
ett	-11.9328
▁reviewing	-11.933
best	-11.9333
▁employees	-11.9334
▁sting	-11.934
▁webb	-11.9345
▁eliminate	-11.9346
▁recreate	-11.9346
▁pervert	-11.9348
▁prompt	-11.9349
pl	-11.9349
▁seats	-11.935
▁2-	-11.9353
od	-11.9357
▁hunk	-11.9357
▁complement	-11.9359
▁asterix	-11.9359
▁attenborough	-11.9359
▁berkeley	-11.9359
▁inadvertent	-11.9359
▁inconsistencies	-11.9359
▁kaufman	-11.9359
▁liberty	-11.9359
▁nielsen	-11.9359
▁gulliver	-11.9359
▁framing	-11.9359
▁varied	-11.9359
▁abroad	-11.9359
▁woven	-11.9359
▁array	-11.9359
▁thurman	-11.9359
▁temptation	-11.9359
▁distinctive	-11.9359
▁resistance	-11.9359
▁courtroom	-11.9359
▁teddy	-11.936
▁vin	-11.936
▁dodgy	-11.9361
▁ramones	-11.9361
▁thirties	-11.9363
▁corbett	-11.9364
▁overweight	-11.9365
neill	-11.9365
▁strung	-11.9367
hol	-11.9371
▁preaching	-11.9372
▁stab	-11.9385
▁frontal	-11.9391
▁bashing	-11.9393
▁wartime	-11.9399
▁protest	-11.9401
▁increase	-11.9403
▁evokes	-11.9406
▁opt	-11.9406
▁roughly	-11.9407
▁marathon	-11.9411
▁uma	-11.9411
▁mobster	-11.9418
▁apologize	-11.9426
▁ads	-11.9427
mill	-11.9427
▁drum	-11.9428
▁gosh	-11.9431
perfect	-11.9431
▁breathing	-11.9435
▁plug	-11.944
itz	-11.9441
▁cells	-11.9441
▁followers	-11.9443
rio	-11.9451
▁juice	-11.9456
▁drain	-11.9456
▁existing	-11.9469
▁gee	-11.947
▁iran	-11.947
▁dustin	-11.9474
plots	-11.9475
▁bava	-11.9479
▁avenge	-11.9482
▁romania	-11.9482
▁math	-11.9483
▁gerald	-11.9484
▁ambiguity	-11.9484
▁capacity	-11.9484
▁excellence	-11.9484
▁facility	-11.9484
▁liberties	-11.9484
▁uncanny	-11.9484
▁gravity	-11.9484
▁paranormal	-11.9484
▁rousing	-11.9484
▁hostile	-11.9484
▁kingsley	-11.9484
▁rudy	-11.9485
▁elicit	-11.9485
▁burke	-11.9485
▁judgement	-11.9485
▁liu	-11.9486
▁espionage	-11.9486
▁bondage	-11.9487
▁godard	-11.9488
▁voiced	-11.9488
▁basil	-11.9489
▁stretches	-11.9489
▁stalked	-11.949
▁spotlight	-11.9491
▁digging	-11.9492
▁para	-11.9493
▁distributed	-11.9493
pin	-11.9495
▁establishment	-11.9497
▁fascist	-11.9498
▁invested	-11.9498
▁pow	-11.95
del	-11.9503
▁progressed	-11.9508
▁crosses	-11.9508
▁buttons	-11.9509
▁cheering	-11.951
▁complained	-11.9513
▁forgetting	-11.9516
▁sleeps	-11.952
▁breathe	-11.952
▁attending	-11.9521
glo	-11.9522
▁maintains	-11.9523
▁combs	-11.9526
▁temper	-11.953
▁7/10.	-11.9535
ically	-11.9543
▁nan	-11.9544
▁bucket	-11.9545
▁forties	-11.9548
office	-11.9549
▁attribute	-11.9549
▁alba	-11.955
▁reruns	-11.9553
▁1920	-11.9553
▁jew	-11.9555
▁flowing	-11.9561
▁rounds	-11.9563
▁mae	-11.9565
stein	-11.9566
actor	-11.9572
▁outing	-11.9579
cia	-11.9581
*****	-11.9594
▁glow	-11.9595
▁toxic	-11.9599
▁thirst	-11.9604
▁applause	-11.961
▁atrocity	-11.961
▁celebrities	-11.961
▁identified	-11.961
▁melody	-11.961
▁obscurity	-11.961
▁capote	-11.961
▁einstein	-11.961
▁occult	-11.961
▁incestuous	-11.9611
▁representative	-11.9611
▁lestat	-11.9611
▁finney	-11.9611
▁mystical	-11.9612
▁optimistic	-11.9614
▁reform	-11.9614
▁cheadle	-11.9614
▁193	-11.9614
▁bearable	-11.9614
▁cain	-11.9615
▁tailor	-11.9615
▁assumes	-11.9617
▁sirk	-11.9618
▁readily	-11.9618
▁rivals	-11.9618
▁0/10	-11.9618
▁dino	-11.962
▁inserted	-11.9621
vy	-11.9625
ile	-11.9631
▁addressed	-11.9634
▁eater	-11.9635
▁outlaw	-11.9637
▁bury	-11.9638
▁lara	-11.9639
▁traitor	-11.9642
nu	-11.965
▁zu	-11.9658
anti	-11.9658
▁sporting	-11.9661
▁rant	-11.9662
▁ger	-11.9665
sized	-11.967
▁hy	-11.9676
▁superstar	-11.9678
▁bats	-11.9682
▁wink	-11.9686
since	-11.9687
▁greene	-11.9687
port	-11.9688
11	-11.9695
▁nap	-11.9701
▁reads	-11.9703
▁manic	-11.9704
▁bass	-11.9704
▁comprise	-11.9706
eur	-11.9708
▁gr	-11.9708
▁churn	-11.9721
▁gig	-11.9725
▁insert	-11.9728
▁ponder	-11.9729
▁alleged	-11.9729
▁posse	-11.9736
▁demille	-11.9739
▁deneuve	-11.9739
▁firth	-11.9739
▁fugitive	-11.9739
▁influential	-11.9739
▁melancholy	-11.9739
▁rathbone	-11.9739
▁keanu	-11.9739
▁loretta	-11.9739
▁tierney	-11.9739
▁rukh	-11.9739
▁programming	-11.9739
▁envy	-11.9739
▁comparable	-11.9739
▁alliance	-11.9739
?!?	-11.9739
▁courageous	-11.974
▁shearer	-11.974
▁bless	-11.974
▁stating	-11.974
▁cassie	-11.9741
▁distinction	-11.9741
▁retro	-11.9742
▁octopus	-11.9742
▁meredith	-11.9742
▁villainous	-11.9744
▁roach	-11.9744
▁improvised	-11.9745
▁momentum	-11.9746
▁atlantic	-11.9747
▁hmm	-11.9747
pan	-11.9752
▁wa	-11.9755
▁stu	-11.9755
▁servants	-11.9756
▁dominated	-11.9758
▁upbeat	-11.9758
being	-11.9759
▁judges	-11.976
▁versa	-11.9761
▁celebrated	-11.9762
▁peek	-11.9764
enchant	-11.9765
tty	-11.9767
▁fable	-11.9769
pper	-11.9771
▁inmates	-11.9774
▁proceed	-11.9778
roll	-11.9785
▁coaster	-11.9787
▁solved	-11.9789
ros	-11.979
▁discipline	-11.9798
▁sunk	-11.9805
▁consequence	-11.9808
▁differ	-11.9808
▁produces	-11.981
inducing	-11.9816
▁mol	-11.9819
▁brush	-11.982
whose	-11.9823
speaking	-11.9824
▁vega	-11.9824
▁explodes	-11.9835
▁sur	-11.9839
super	-11.9841
▁screened	-11.9841
▁executives	-11.9846
▁luc	-11.9847
▁weekly	-11.9849
▁ideals	-11.9852
▁construct	-11.9857
▁precise	-11.9859
▁stud	-11.9862
▁marlow	-11.9864
▁burge	-11.9865
▁scandal	-11.9868
▁chupacabra	-11.9869
▁dynamite	-11.9869
▁groove	-11.9869
▁nightmarish	-11.9869
▁october	-11.9869
▁satellite	-11.9869
▁stadium	-11.9869
▁vapid	-11.9869
▁winchester	-11.9869
▁devotion	-11.9869
▁klein	-11.9869
▁merry	-11.9869
▁policy	-11.9869
▁prostitution	-11.9869
▁banana	-11.9869
▁flipping	-11.9869
▁1985	-11.9869
▁genetic	-11.9869
▁investment	-11.9869
▁gillian	-11.9869
▁1933	-11.987
▁1977	-11.987
▁hypnotic	-11.9871
▁penelope	-11.9871
▁brent	-11.9872
▁robocop	-11.9872
▁myrna	-11.9872
▁punchline	-11.9874
▁alexandra	-11.9874
▁elmer	-11.9875
▁effortlessly	-11.9875
▁tide	-11.9875
▁falcon	-11.9876
▁polly	-11.9877
▁funky	-11.9878
▁evolved	-11.9879
▁anticipated	-11.9879
▁counting	-11.988
▁bitchy	-11.9882
▁nerdy	-11.9882
▁transported	-11.9883
▁awareness	-11.9884
▁fairness	-11.9885
▁herman	-11.9886
waiting	-11.9892
▁hound	-11.9893
▁peers	-11.9894
▁worms	-11.9894
▁smoothly	-11.9895
▁fran	-11.9899
▁inform	-11.9899
▁unfolding	-11.9901
▁shocks	-11.9904
▁clad	-11.9905
trap	-11.9905
▁tilly	-11.9909
▁magically	-11.9914
▁outset	-11.9917
▁dynamics	-11.9918
▁marketed	-11.9923
▁fo	-11.9925
▁masked	-11.9927
alien	-11.9928
▁fleshed	-11.9933
▁keeper	-11.9933
▁officials	-11.9939
▁jock	-11.994
▁wil	-11.9941
▁article	-11.9948
▁listened	-11.9956
▁attic	-11.9956
▁ariel	-11.996
sion	-11.9965
▁melt	-11.9966
▁rio	-11.9969
▁seal	-11.997
▁scar	-11.9971
ata	-11.9978
▁youngsters	-11.9983
▁hawk	-11.9983
▁ple	-11.9987
ari	-11.9987
▁reunite	-11.9991
▁restore	-11.9993
▁mortal	-11.9995
▁cancel	-11.9997
▁timon	-11.9998
last	-12
▁slut	-12
▁centuries	-12
▁estevez	-12
▁intersperse	-12
▁norwegian	-12
▁pixar	-12
▁prologue	-12
▁suicidal	-12
▁unappealing	-12
▁sensibility	-12
▁macdonald	-12
▁hopeful	-12
▁snappy	-12
▁marilyn	-12
▁burden	-12
▁annoyance	-12
▁looney	-12
▁therapy	-12
▁robbed	-12
▁sidewalk	-12.0001
▁zealand	-12.0001
▁subdued	-12.0002
▁spotted	-12.0003
▁diamonds	-12.0003
▁philadelphia	-12.0003
▁skeptical	-12.0003
▁zany	-12.0003
▁infant	-12.0004
▁anonymous	-12.0004
▁byrne	-12.0004
▁chocolate	-12.0005
▁scripting	-12.0005
▁malcolm	-12.0005
▁cos	-12.0007
▁mindset	-12.0007
▁fanny	-12.0009
▁wilde	-12.0009
▁elected	-12.0013
▁products	-12.0013
▁mod	-12.0015
▁demi	-12.0015
▁symbols	-12.0015
▁confirmed	-12.0019
▁relaxed	-12.0021
▁overnight	-12.0022
▁sexist	-12.0022
▁demonstrated	-12.0023
roy	-12.0029
▁sample	-12.0031
gle	-12.0039
▁esp	-12.0044
▁gum	-12.0046
▁lap	-12.0046
▁claw	-12.0047
chris	-12.0048
▁creeps	-12.0048
12	-12.0052
hum	-12.0055
▁insulted	-12.0058
▁threads	-12.0064
▁zoom	-12.0066
▁bombed	-12.0067
▁elliot	-12.0069
▁scarlet	-12.0069
▁bryan	-12.007
special	-12.0071
▁boob	-12.0074
!!)	-12.0075
▁pope	-12.0077
second	-12.0081
▁coin	-12.0084
▁lam	-12.0086
▁tops	-12.0086
joe	-12.0093
▁lambs	-12.0094
▁sigh	-12.0094
once	-12.0107
▁bearing	-12.0107
▁digest	-12.0113
▁organ	-12.0114
▁whisper	-12.0115
▁colored	-12.0116
▁goth	-12.0117
▁vamp	-12.0118
▁punish	-12.012
▁sinks	-12.0121
kar	-12.0124
ob	-12.0129
▁honour	-12.0133
▁admirably	-12.0133
▁beethoven	-12.0133
▁cohesive	-12.0133
▁confined	-12.0133
▁gromit	-12.0133
▁lieutenant	-12.0133
▁mccarthy	-12.0133
▁moriarty	-12.0133
▁naschy	-12.0133
▁superfluous	-12.0133
▁anthology	-12.0133
▁carlito	-12.0133
▁irwin	-12.0133
▁closure	-12.0134
▁gallery	-12.0134
▁enchanted	-12.0134
▁hungarian	-12.0134
▁awry	-12.0134
▁crass	-12.0134
▁mcqueen	-12.0134
▁hellraiser	-12.0134
▁pivotal	-12.0134
▁accomplishment	-12.0134
▁sweetheart	-12.0134
▁guinea	-12.0134
▁1934	-12.0134
▁edith	-12.0135
▁midler	-12.0136
▁omar	-12.0137
▁edmund	-12.0137
▁forgiveness	-12.0138
▁understandably	-12.0141
▁tacked	-12.0141
▁civilians	-12.0142
nk	-12.0143
▁harp	-12.0146
▁perceived	-12.0146
ois	-12.0152
ux	-12.0152
▁puzzled	-12.0156
▁loner	-12.0156
▁ranting	-12.0157
▁officially	-12.0158
▁bro	-12.0158
▁noel	-12.0159
ano	-12.0159
▁drawings	-12.0163
cle	-12.0163
▁troopers	-12.0175
▁stations	-12.0177
▁allies	-12.0189
▁targeted	-12.0192
▁rea	-12.0192
▁crook	-12.0202
ien	-12.0204
▁sober	-12.0207
▁targets	-12.0207
▁hug	-12.0208
▁confession	-12.0211
▁frances	-12.0211
▁counterpart	-12.0213
▁obstacles	-12.0213
▁unconscious	-12.0215
daughter	-12.0216
▁giants	-12.0217
▁shawn	-12.022
burn	-12.0222
voiced	-12.0222
▁slower	-12.0225
bag	-12.0244
▁tease	-12.025
▁pointing	-12.0251
▁awaken	-12.0251
▁bandit	-12.0252
▁socially	-12.0253
▁compromise	-12.0255
fall	-12.0259
▁sufficient	-12.0261
▁admitted	-12.0263
▁pianist	-12.0263
▁retrieve	-12.0263
▁weep	-12.0264
boo	-12.0266
▁reckless	-12.0267
mail	-12.0268
▁huppert	-12.0269
▁lubitsch	-12.0269
▁radiation	-12.0269
▁redgrave	-12.0269
▁audrey	-12.0269
▁combining	-12.0269
▁custody	-12.0269
▁economy	-12.0269
▁occupation	-12.0269
▁pursuing	-12.0269
▁schizophrenic	-12.0269
▁transvestite	-12.0269
▁suave	-12.0269
▁overtones	-12.0269
▁reprise	-12.0269
▁chavez	-12.0269
▁laboratory	-12.0269
▁henson	-12.0269
▁discount	-12.0269
▁stomp	-12.0269
▁padding	-12.0269
▁sensitivity	-12.0269
▁chevy	-12.0269
▁earliest	-12.0269
▁hannah	-12.0269
▁jagger	-12.0269
▁1957	-12.0269
▁brazilian	-12.0269
▁hmmm	-12.027
▁mentor	-12.027
▁grayson	-12.027
▁biko	-12.0272
▁distinguish	-12.0272
▁ample	-12.0272
▁sway	-12.0273
▁rickman	-12.0274
▁puke	-12.0274
▁mice	-12.0275
▁cuban	-12.0275
▁paths	-12.0275
▁abundance	-12.0275
▁faye	-12.0278
▁similarity	-12.0279
working	-12.0279
▁collar	-12.0284
▁bosses	-12.0286
▁casually	-12.0286
▁glenda	-12.0287
▁criticized	-12.0289
▁restraint	-12.029
▁gathered	-12.0291
▁cord	-12.0291
▁labeled	-12.0293
▁christy	-12.0293
▁sheets	-12.0295
▁holland	-12.0298
▁crypt	-12.03
▁openly	-12.0303
▁seriousness	-12.0305
▁scam	-12.0306
▁9/10.	-12.0308
▁handy	-12.031
non	-12.0318
▁dope	-12.0319
▁surround	-12.0322
▁excuses	-12.0327
▁snap	-12.0328
▁cursed	-12.033
person	-12.034
▁talkie	-12.0341
▁lighten	-12.0342
▁cousins	-12.0344
▁flashing	-12.0347
▁pic	-12.0351
related	-12.0351
ties	-12.0352
▁reeve	-12.0352
hl	-12.0353
loving	-12.0353
▁admirer	-12.0357
cus	-12.0357
packed	-12.0361
▁blacks	-12.0366
▁ab	-12.0371
▁tar	-12.0374
late	-12.0379
▁alot	-12.0381
▁watcher	-12.0385
▁ye	-12.0386
▁privilege	-12.0392
▁observations	-12.0395
▁anxious	-12.0396
▁robotic	-12.0401
ken	-12.0404
▁cigar	-12.0406
▁district	-12.0406
▁gielgud	-12.0406
▁henchmen	-12.0406
▁hockey	-12.0406
▁impersonation	-12.0406
▁perpetual	-12.0406
▁preparation	-12.0406
▁sasquatch	-12.0406
▁succumb	-12.0406
▁ramsey	-12.0406
▁butterfly	-12.0406
▁escort	-12.0406
▁exploitative	-12.0406
▁patterson	-12.0406
▁division	-12.0406
▁disappearance	-12.0406
▁attendant	-12.0406
▁joking	-12.0406
▁dudley	-12.0406
▁faux	-12.0406
▁stripped	-12.0406
▁motel	-12.0407
eric	-12.0407
▁leland	-12.0408
▁fabric	-12.0408
▁deadpan	-12.0408
▁jacques	-12.0409
▁backyard	-12.0409
▁casablanca	-12.041
▁irritated	-12.0411
▁domain	-12.0413
▁evelyn	-12.0413
▁professionals	-12.0414
▁progression	-12.0415
▁terrorism	-12.0416
▁relentlessly	-12.0419
▁projection	-12.0419
▁milland	-12.0419
▁morse	-12.0419
▁moran	-12.0421
▁distinctly	-12.0424
ea	-12.0425
▁chiller	-12.0426
▁filmography	-12.0426
▁rewind	-12.0428
▁billion	-12.043
born	-12.0434
▁suggesting	-12.0439
▁kerr	-12.0445
early	-12.0447
▁hinted	-12.045
hn	-12.0456
▁characteristic	-12.0459
▁notices	-12.0461
▁eggs	-12.0461
▁techno	-12.0464
▁shah	-12.0464
▁insanely	-12.0466
▁ambitions	-12.0467
▁awfulness	-12.0469
▁begun	-12.0469
sam	-12.0472
▁laying	-12.0474
telling	-12.0478
▁evoke	-12.0481
heads	-12.0485
▁gangs	-12.0488
modern	-12.0491
death	-12.0492
▁cummings	-12.0493
▁brick	-12.0493
▁zi	-12.0494
▁sy	-12.0496
ice	-12.0496
ira	-12.0496
▁spoiling	-12.0509
try	-12.0516
▁remorse	-12.0518
live	-12.0523
ching	-12.0526
▁spoofs	-12.0528
▁chapters	-12.0529
▁weary	-12.0534
▁tent	-12.0534
▁amuse	-12.0539
▁imo	-12.0541
▁puerto	-12.0544
▁applies	-12.0544
▁arizona	-12.0544
▁decency	-12.0544
▁graffiti	-12.0544
▁hilary	-12.0544
▁predicament	-12.0544
▁scheider	-12.0544
▁schwarzenegger	-12.0544
▁zellweger	-12.0544
▁federal	-12.0544
▁bicycle	-12.0544
▁lurid	-12.0545
▁outlandish	-12.0545
▁raptor	-12.0545
▁brunette	-12.0545
▁clarity	-12.0545
▁chamberlain	-12.0545
▁granny	-12.0545
▁shepard	-12.0545
▁daisy	-12.0545
▁cancelled	-12.0545
▁compassionate	-12.0545
▁selleck	-12.0545
▁chopper	-12.0545
▁interplay	-12.0545
▁chock	-12.0545
▁raunchy	-12.0545
▁dragging	-12.0545
▁recite	-12.0545
▁delay	-12.0546
▁gossip	-12.0546
▁campfire	-12.0546
▁charity	-12.0546
▁oddball	-12.0547
▁passive	-12.0547
▁penalty	-12.0547
▁villagers	-12.0547
▁data	-12.0547
▁swanson	-12.0548
▁coleman	-12.055
los	-12.055
▁lindsay	-12.0553
▁perverted	-12.0557
2)	-12.0564
ani	-12.0567
▁keys	-12.0569
▁martino	-12.057
lost	-12.0572
▁slashers	-12.0574
▁murderers	-12.0581
▁gripe	-12.0582
piece	-12.0582
▁puns	-12.0592
nor	-12.0595
▁cracks	-12.06
▁shameful	-12.0606
▁carly	-12.0618
▁groan	-12.062
ack	-12.0621
▁pod	-12.0624
▁500	-12.0627
nny	-12.0631
▁borders	-12.0632
▁filter	-12.0633
▁prank	-12.0635
▁marrying	-12.0637
8)	-12.0639
pp	-12.0639
cum	-12.064
imo	-12.0644
▁scriptwriter	-12.0649
▁sucking	-12.0655
▁instances	-12.0657
many	-12.0664
aid	-12.0664
self	-12.0664
▁flirt	-12.0666
rex	-12.0668
▁chin	-12.0669
▁crank	-12.067
▁snatch	-12.0671
▁finance	-12.0672
▁hail	-12.0674
▁videotape	-12.0674
▁cunning	-12.0675
▁ufo	-12.0683
▁knee	-12.0684
▁branch	-12.0684
▁retrospect	-12.0685
▁blaxploitation	-12.0685
▁goldblum	-12.0685
▁puzzling	-12.0685
▁yourselves	-12.0685
▁shelves	-12.0685
▁sparse	-12.0685
▁paragraph	-12.0685
▁kazan	-12.0685
▁obscene	-12.0685
▁serum	-12.0685
▁boundaries	-12.0685
▁helmet	-12.0686
▁stirring	-12.0686
▁mustache	-12.0686
▁shady	-12.0686
▁patent	-12.0686
▁quant	-12.0686
▁electricity	-12.0686
▁shaggy	-12.0687
▁elementary	-12.0688
▁straw	-12.0688
▁antwone	-12.0689
▁napoleon	-12.0689
▁deed	-12.0689
▁retelling	-12.069
▁glossy	-12.069
▁infinitely	-12.069
win	-12.069
▁denied	-12.0691
▁letterman	-12.0692
▁thorn	-12.0692
▁stabbing	-12.0692
▁deliverance	-12.0693
▁hispanic	-12.0693
coat	-12.0696
▁sarcasm	-12.0697
▁reluctantly	-12.0702
▁principles	-12.0704
▁fleeting	-12.0704
▁sail	-12.0705
▁sickness	-12.0705
▁transitions	-12.0706
scale	-12.0706
▁manipulated	-12.0706
▁dorm	-12.0708
▁predicted	-12.0709
odd	-12.0709
▁madman	-12.071
▁coolest	-12.0711
sure	-12.0712
▁silverman	-12.0713
▁willard	-12.0717
▁pigs	-12.0726
▁switching	-12.0729
▁repeats	-12.0731
▁tricked	-12.0731
▁operate	-12.0739
▁stra	-12.0739
▁dien	-12.0742
▁crooks	-12.0744
▁clinic	-12.0744
▁astronauts	-12.0744
▁unravel	-12.0749
▁crashed	-12.075
▁rivers	-12.0752
80	-12.0758
▁dangerously	-12.076
release	-12.0764
▁fe	-12.0766
▁blockbusters	-12.0769
▁ce	-12.0769
▁rep	-12.0772
ula	-12.0773
wrenching	-12.0775
literally	-12.0777
whatever	-12.0777
▁bimbo	-12.0778
uc	-12.0779
▁peril	-12.0779
meaning	-12.0783
▁10)	-12.0783
▁brass	-12.0786
heart	-12.0788
albe	-12.0796
▁mixe	-12.0804
▁excels	-12.0807
▁mastermind	-12.0808
▁accuse	-12.0815
▁achievements	-12.0817
▁revel	-12.0819
▁increasing	-12.0822
wi	-12.0823
▁wan	-12.0824
!!!!!!	-12.0825
▁contradict	-12.0827
▁import	-12.0828
▁beowulf	-12.0828
▁mcdowell	-12.0828
▁playwright	-12.0828
▁flamboyant	-12.0828
▁homicidal	-12.0828
▁neutral	-12.0828
▁overwrought	-12.0828
▁psychiatric	-12.0828
▁reckon	-12.0828
▁reiser	-12.0828
▁saloon	-12.0828
▁sprinkle	-12.0828
▁unnerving	-12.0828
▁vessel	-12.0828
▁swiss	-12.0828
▁dedication	-12.0828
▁revolving	-12.0828
▁pulse	-12.0828
▁rumble	-12.0828
▁randall	-12.0828
▁raimi	-12.0828
▁harlow	-12.0828
▁ernie	-12.0828
▁perkins	-12.0828
▁fathom	-12.0828
▁olsen	-12.0829
▁revival	-12.0829
▁pains	-12.0829
▁banks	-12.0829
▁skipping	-12.0829
▁fellini	-12.0829
▁remainder	-12.0829
▁butch	-12.083
▁jodie	-12.083
▁grating	-12.083
▁infectious	-12.083
▁detached	-12.083
camp	-12.083
▁sylvester	-12.0831
▁stance	-12.0831
▁sponsor	-12.0832
▁traumatic	-12.0832
▁momma	-12.0832
▁accidental	-12.0833
▁scattered	-12.0833
▁forrest	-12.0833
▁bogus	-12.0834
▁uptight	-12.0834
▁scoop	-12.0835
▁grandpa	-12.0836
▁stephanie	-12.0837
▁derived	-12.0838
▁russ	-12.0839
▁crane	-12.0841
ening	-12.0841
▁occupied	-12.0841
▁holden	-12.0842
▁edwards	-12.0845
▁yearning	-12.0847
▁mandy	-12.0851
▁placement	-12.0855
▁sparkle	-12.0855
▁coen	-12.0858
▁outrageously	-12.0863
▁cutter	-12.0866
▁watered	-12.0869
lim	-12.0871
place	-12.0872
▁indulge	-12.0872
▁advances	-12.0873
▁recurr	-12.0875
▁27	-12.0875
▁depictions	-12.0877
▁ninjas	-12.0878
▁subconscious	-12.088
ona	-12.0883
▁viva	-12.0885
▁inhabit	-12.0895
▁hu	-12.09
▁mack	-12.0902
▁motions	-12.0908
▁shaped	-12.0913
▁searched	-12.0921
▁lightly	-12.0929
stick	-12.0931
hhh	-12.0931
▁gra	-12.0932
lly	-12.0935
▁yells	-12.0936
happy	-12.0937
pu	-12.0944
▁extend	-12.0944
▁degrees	-12.0944
▁fleet	-12.0945
true	-12.0945
▁monologues	-12.0947
lot	-12.0947
▁prostitutes	-12.0948
▁conduct	-12.095
▁chops	-12.0959
aw	-12.0959
▁expects	-12.096
bie	-12.0962
isation	-12.0962
▁permanent	-12.0963
▁overacts	-12.0964
▁mat	-12.0967
▁draft	-12.097
uous	-12.0972
▁academic	-12.0973
▁adventurous	-12.0973
▁arrogance	-12.0973
▁carriage	-12.0973
▁fiasco	-12.0973
▁fiennes	-12.0973
▁impeccable	-12.0973
▁poitier	-12.0973
▁rebellion	-12.0973
▁scheming	-12.0973
▁spectrum	-12.0973
▁tepid	-12.0973
▁unnecessarily	-12.0973
▁autobiography	-12.0973
▁fairbanks	-12.0973
▁kristofferson	-12.0973
▁seattle	-12.0973
▁houston	-12.0973
▁handicapped	-12.0973
▁seuss	-12.0973
▁denver	-12.0973
▁britney	-12.0973
▁retirement	-12.0973
▁stepmother	-12.0974
▁mabel	-12.0974
▁idealistic	-12.0974
▁soderbergh	-12.0974
▁keyboard	-12.0974
▁katie	-12.0974
▁caroline	-12.0974
▁arnie	-12.0974
▁choir	-12.0974
▁exaggeration	-12.0975
▁plantation	-12.0975
▁suggestive	-12.0975
▁deception	-12.0976
▁breathless	-12.0976
▁miner	-12.0977
▁overshadowed	-12.0977
▁deanna	-12.0978
full	-12.0978
▁cecil	-12.0979
▁lorenzo	-12.0979
▁sylvia	-12.0979
▁consumed	-12.0979
▁angelina	-12.098
▁dopey	-12.098
▁scarface	-12.098
▁agreement	-12.098
▁imho	-12.098
▁peggy	-12.0981
▁courtesy	-12.0984
illa	-12.0987
▁drifter	-12.0987
▁downtown	-12.0988
▁sheila	-12.0989
▁dreaming	-12.099
▁strained	-12.0993
nice	-12.0995
▁linear	-12.0999
▁downward	-12.1004
▁amber	-12.1007
kind	-12.101
▁sonny	-12.1011
▁oriented	-12.1015
▁disappearing	-12.1015
▁carr	-12.1018
▁junkie	-12.1019
▁defending	-12.1019
▁pranks	-12.1024
(!)	-12.1026
▁kat	-12.1027
worker	-12.104
▁annoy	-12.1048
▁shout	-12.1051
▁halt	-12.1052
▁talentless	-12.1053
▁brooke	-12.1055
▁numbing	-12.1057
▁pioneer	-12.1058
▁bout	-12.1062
▁dominate	-12.1062
▁novelist	-12.1064
▁tackle	-12.1065
▁coal	-12.1067
murder	-12.1068
wrote	-12.1068
centered	-12.107
▁turtle	-12.1074
team	-12.1075
▁stripper	-12.1076
poor	-12.1077
▁shred	-12.108
cru	-12.1081
uel	-12.1086
opera	-12.1089
▁swords	-12.1089
▁gam	-12.1092
▁yeti	-12.1095
var	-12.1096
▁signal	-12.1096
▁europeans	-12.1097
▁criticisms	-12.1098
▁kidnaps	-12.11
mercifully	-12.1105
▁hugo	-12.1105
▁sabotage	-12.1108
▁proportions	-12.1115
▁incidental	-12.1116
▁heal	-12.1117
semblance	-12.1118
▁ambiance	-12.112
▁dafoe	-12.112
▁elusive	-12.112
▁fassbinder	-12.112
▁minnelli	-12.112
▁sentinel	-12.112
▁galactica	-12.112
▁elijah	-12.112
▁sweeney	-12.112
▁transparent	-12.112
▁rhys	-12.112
▁gilliam	-12.112
▁beetle	-12.112
▁cedric	-12.112
▁miniature	-12.112
▁gym	-12.112
▁diversity	-12.112
▁monday	-12.1121
▁vader	-12.1121
▁oriental	-12.1121
▁penis	-12.1121
▁naval	-12.1121
▁demeanor	-12.1121
▁1975	-12.1122
▁kinky	-12.1122
▁supportive	-12.1123
▁duchovny	-12.1123
▁borderline	-12.1123
▁patch	-12.1123
▁disconnected	-12.1123
▁mono	-12.1123
gore	-12.1125
▁platoon	-12.1126
▁gershwin	-12.1126
▁drowned	-12.1127
▁spawned	-12.1128
▁marcus	-12.1128
▁condemned	-12.1129
▁bigfoot	-12.1129
▁subtitled	-12.1129
▁skateboarding	-12.1131
▁policemen	-12.1132
▁lingering	-12.1133
▁traditions	-12.1134
▁distinguished	-12.1135
▁allegedly	-12.1136
▁dusty	-12.1136
▁dec	-12.1137
clo	-12.1137
▁gaze	-12.1138
▁arranged	-12.114
▁csi	-12.114
▁revolting	-12.1142
nik	-12.1146
▁favourites	-12.1146
▁adequately	-12.1146
▁chuckles	-12.1149
▁lex	-12.1151
▁crushed	-12.1152
mb	-12.1155
▁significantly	-12.1161
▁endured	-12.1162
▁commanding	-12.1169
▁nickname	-12.1171
▁knees	-12.1172
▁mia	-12.1188
▁hicks	-12.1194
▁tits	-12.1195
rating	-12.1199
▁splash	-12.1205
▁poop	-12.1206
▁theft	-12.1208
rou	-12.1209
100	-12.1216
through	-12.1216
sexual	-12.1216
camera	-12.1217
natured	-12.1219
bling	-12.1221
▁asset	-12.1221
▁collaboration	-12.1225
▁gasp	-12.1226
▁virtue	-12.1227
hall	-12.1229
▁husbands	-12.1236
mal	-12.1239
▁awarded	-12.1243
▁pals	-12.1245
▁lili	-12.1251
gr	-12.1251
▁download	-12.1256
▁propose	-12.1256
▁texture	-12.1256
▁app	-12.1259
▁continuous	-12.126
▁talky	-12.126
▁polite	-12.126
ative	-12.126
dance	-12.1261
▁truthful	-12.1265
▁existential	-12.1269
▁submit	-12.1269
▁benjamin	-12.1269
▁ceremony	-12.1269
▁connecticut	-12.1269
▁external	-12.1269
▁sociopath	-12.1269
▁wynorski	-12.1269
▁biological	-12.1269
▁blazing	-12.1269
▁assistance	-12.127
▁pornographic	-12.127
▁supermarket	-12.127
▁tedium	-12.127
▁spinning	-12.127
▁esther	-12.127
▁1955	-12.127
▁lightweight	-12.127
▁ledger	-12.1271
▁drugged	-12.1271
▁barbra	-12.1271
▁truman	-12.1271
▁rko	-12.1272
▁armageddon	-12.1272
▁congo	-12.1273
▁ostensibly	-12.1273
▁diabolical	-12.1274
▁manga	-12.1275
▁veronica	-12.1276
▁miraculously	-12.1276
▁romances	-12.1281
▁sl	-12.1282
▁geniuses	-12.1292
▁overused	-12.1295
▁enormously	-12.1296
▁menu	-12.13
▁justification	-12.1303
▁papa	-12.1304
mont	-12.1307
▁networks	-12.1309
ute	-12.1314
▁animators	-12.1321
▁muslims	-12.1325
kate	-12.1327
▁advised	-12.1329
tley	-12.1332
▁fold	-12.1334
▁monumental	-12.1334
▁cowboys	-12.1336
▁dreadfully	-12.1339
▁ruled	-12.134
▁worrying	-12.134
▁atwill	-12.1342
▁eyed	-12.1344
▁til	-12.1351
▁services	-12.1351
▁hick	-12.1352
▁crowded	-12.1352
▁cheaper	-12.1352
▁soo	-12.1358
frame	-12.1365
average	-12.1369
sometimes	-12.1369
▁jen	-12.1373
▁spears	-12.1374
rak	-12.1377
▁barbarian	-12.1379
tim	-12.1381
▁coincidences	-12.1381
formed	-12.1382
40	-12.1384
fish	-12.1385
▁tru	-12.1387
wow	-12.1394
▁outdoor	-12.1398
▁ongoing	-12.14
▁intelligently	-12.1407
▁qualifie	-12.1408
▁spray	-12.141
▁environmental	-12.1413
▁whack	-12.1413
▁swan	-12.1416
▁anatomy	-12.1421
▁circuit	-12.1421
▁competing	-12.1421
▁unfinished	-12.1421
▁versatile	-12.1421
▁wrath	-12.1421
▁fitzgerald	-12.1421
▁monstrous	-12.1421
▁quintessential	-12.1421
▁roosevelt	-12.1421
▁thirteen	-12.1421
▁implies	-12.1421
▁whimsical	-12.1421
▁goldsworthy	-12.1421
▁komodo	-12.1421
▁unstable	-12.1421
▁culprit	-12.1421
▁oprah	-12.1421
▁saddest	-12.1421
▁capshaw	-12.1421
▁bloodshed	-12.1421
▁perversion	-12.1421
▁gilmore	-12.1421
▁cheung	-12.1421
▁cynicism	-12.1421
▁recreation	-12.1421
▁levy	-12.1421
▁resurrection	-12.1422
▁skipped	-12.1422
▁loony	-12.1423
▁hostel	-12.1423
▁hustler	-12.1424
▁mathieu	-12.1424
▁farewell	-12.1424
▁serials	-12.1425
rit	-12.1425
▁voyager	-12.1425
▁capsule	-12.1425
▁eleanor	-12.1425
▁kathleen	-12.1427
kill	-12.1428
▁hunky	-12.1428
▁hometown	-12.1429
▁staggering	-12.143
▁genie	-12.143
▁deborah	-12.143
▁masterson	-12.1433
▁seth	-12.1438
▁blessed	-12.1438
▁ze	-12.1443
pen	-12.1448
▁walters	-12.1448
▁lump	-12.145
▁lawn	-12.1452
▁portions	-12.1452
▁understands	-12.1459
earth	-12.1461
pm	-12.1466
▁pleasures	-12.1475
▁helm	-12.1477
▁maze	-12.1478
▁tele	-12.1479
raging	-12.1479
▁cloth	-12.1479
▁terrorize	-12.1482
▁chic	-12.1483
▁counterparts	-12.1484
ying	-12.149
▁schools	-12.1493
▁participants	-12.1497
▁fl	-12.1498
▁ridden	-12.15
▁bridget	-12.1502
▁9.	-12.1506
14	-12.1506
boring	-12.151
▁lesbians	-12.1516
ille	-12.152
apparently	-12.1522
until	-12.1523
▁sacrifices	-12.1523
▁collapse	-12.1523
ulation	-12.1524
▁ala	-12.1524
▁ira	-12.1524
▁shin	-12.1529
four	-12.1532
▁sox	-12.1535
▁innuendo	-12.1535
jane	-12.1536
▁instrument	-12.1536
▁landmark	-12.1537
▁hatch	-12.1537
turn	-12.1539
▁paula	-12.154
▁sg	-12.1541
▁curtain	-12.1543
log	-12.1545
ova	-12.1545
▁robber	-12.1547
▁pu	-12.1554
▁dominic	-12.1557
▁cram	-12.1561
▁presume	-12.1562
▁acclaim	-12.1564
sic	-12.157
▁norma	-12.1571
▁crop	-12.1572
▁photograph	-12.1574
▁baddie	-12.1574
▁uncertain	-12.1575
▁carnosaur	-12.1575
▁harriet	-12.1575
▁identities	-12.1575
▁innovation	-12.1575
▁maturity	-12.1575
▁millennium	-12.1575
▁necessity	-12.1575
▁ounce	-12.1575
▁vaudeville	-12.1575
▁lukas	-12.1575
▁schrader	-12.1575
▁bachchan	-12.1575
▁lennon	-12.1575
▁avenue	-12.1575
▁macarthur	-12.1575
▁rabid	-12.1575
▁slumber	-12.1575
▁quaint	-12.1575
▁kathryn	-12.1575
▁laurie	-12.1575
▁theodore	-12.1575
▁yarn	-12.1575
▁vinnie	-12.1575
▁cockney	-12.1575
▁scarred	-12.1575
▁chong	-12.1575
▁tempest	-12.1575
▁throne	-12.1575
▁skating	-12.1575
▁gruff	-12.1575
▁misfire	-12.1575
▁uneasy	-12.1575
▁voting	-12.1576
▁irresistible	-12.1576
▁carlyle	-12.1576
▁engagement	-12.1576
▁dressler	-12.1576
▁marvin	-12.1576
▁featurette	-12.1576
▁zoo	-12.1576
▁carpet	-12.1577
▁kindly	-12.1578
▁honorable	-12.1578
▁homo	-12.1578
▁katherine	-12.1578
▁carroll	-12.1579
▁ellis	-12.158
▁winners	-12.1581
▁downbeat	-12.1582
▁arkin	-12.1582
▁circa	-12.1582
▁legion	-12.1582
▁unleashed	-12.1582
▁announced	-12.1584
▁kisses	-12.1584
▁stones	-12.1587
▁sights	-12.1593
▁waltz	-12.1593
▁blessing	-12.1596
▁risks	-12.1598
▁crispin	-12.1598
▁slips	-12.1606
▁rowlands	-12.161
▁wrongly	-12.1611
▁praying	-12.1615
▁epics	-12.1618
▁yea	-12.1618
▁perspectives	-12.1622
▁absorbed	-12.1622
▁robe	-12.1626
▁hooks	-12.1628
........	-12.163
▁inch	-12.1633
▁deeds	-12.1635
▁shakes	-12.1637
▁clubs	-12.1637
▁inducing	-12.1638
home	-12.1638
kov	-12.164
▁assort	-12.1644
▁bynes	-12.1653
▁rene	-12.1653
liness	-12.1654
rah	-12.1655
▁mobsters	-12.1657
▁bog	-12.1668
▁trusted	-12.167
▁cleaner	-12.167
▁goo	-12.1672
▁hairy	-12.1673
▁papers	-12.1674
oc	-12.1675
▁monks	-12.1677
laugh	-12.1679
better	-12.1679
bomb	-12.168
lewis	-12.168
▁burnt	-12.1682
▁exhibit	-12.1683
thought	-12.1684
▁fend	-12.1688
▁invent	-12.1696
▁testing	-12.1696
▁martian	-12.1697
▁gesture	-12.1697
▁missile	-12.1698
▁ratio	-12.17
▁layer	-12.1701
workers	-12.1703
cra	-12.1705
▁hare	-12.1712
▁traps	-12.1714
▁hark	-12.1714
wash	-12.1717
omi	-12.1717
▁stamp	-12.172
▁convert	-12.172
▁influences	-12.172
▁heir	-12.1722
▁telly	-12.1724
brian	-12.1726
east	-12.1729
▁grain	-12.1729
▁athletic	-12.1731
▁intellect	-12.1731
▁percent	-12.1731
▁categories	-12.1731
▁communism	-12.1731
▁foreboding	-12.1731
▁gardner	-12.1731
▁sophistication	-12.1731
▁switzerland	-12.1731
▁unremarkable	-12.1731
▁floyd	-12.1731
▁sydow	-12.1731
▁agonizing	-12.1731
▁wreak	-12.1731
▁cotton	-12.1731
▁prue	-12.1731
▁aniston	-12.1731
▁placing	-12.1731
▁grammar	-12.1731
▁gently	-12.1731
▁rudd	-12.1731
▁aerial	-12.1731
▁predictability	-12.1731
▁vulnerability	-12.1731
▁mumble	-12.1731
▁rampant	-12.1731
▁shylock	-12.1731
▁backwoods	-12.1731
▁hutton	-12.1732
▁visceral	-12.1732
▁rehearsal	-12.1732
▁solomon	-12.1732
▁singular	-12.1732
▁breakthrough	-12.1732
▁girlfriends	-12.1733
▁liam	-12.1733
▁decoration	-12.1733
▁censorship	-12.1734
▁imprisoned	-12.1734
▁earthquake	-12.1735
dad	-12.1735
▁cliffhanger	-12.1736
▁tenderness	-12.1736
young	-12.1737
▁judd	-12.1737
▁misty	-12.1737
▁springs	-12.1738
▁rockne	-12.174
▁succession	-12.1741
▁drowning	-12.1743
200	-12.1743
vert	-12.1743
▁flea	-12.1745
▁fantastically	-12.1746
▁motivated	-12.1746
▁beforehand	-12.1747
▁mona	-12.1748
▁lick	-12.1748
▁emilio	-12.175
▁dug	-12.1751
tel	-12.1753
▁bergen	-12.1755
▁revelations	-12.1756
state	-12.1757
▁nailed	-12.1763
▁armor	-12.1767
▁chewing	-12.177
every	-12.1771
▁interpretations	-12.1775
▁nerds	-12.1776
▁failures	-12.1779
▁sap	-12.1782
▁stoic	-12.1783
cl	-12.1783
▁formal	-12.1783
ama	-12.1784
▁manners	-12.1786
anger	-12.1786
▁reduce	-12.1795
▁wrenching	-12.1795
mes	-12.1799
dding	-12.1803
mc	-12.1807
takes	-12.1815
▁darkly	-12.1815
▁conflicted	-12.1818
developed	-12.1833
▁responds	-12.1834
force	-12.1836
everything	-12.1838
▁counted	-12.1838
▁mash	-12.1841
▁5)	-12.1843
▁illustrate	-12.1844
mie	-12.1856
▁shield	-12.1857
mus	-12.1858
▁committ	-12.186
▁electronic	-12.1861
▁charges	-12.1861
▁rips	-12.1862
bing	-12.1864
▁fighters	-12.1867
▁happenings	-12.1868
hold	-12.1868
▁squirm	-12.1872
▁entertainer	-12.1872
▁capt	-12.1873
▁undergo	-12.1876
▁anguish	-12.1879
effects	-12.188
▁bert	-12.1881
▁refuge	-12.1883
uri	-12.1884
▁adjust	-12.1886
hoo	-12.1888
▁duff	-12.1888
▁hawaii	-12.1889
▁concentration	-12.189
▁exorcism	-12.189
▁knack	-12.189
▁phantasm	-12.189
▁sensibilities	-12.189
▁upstairs	-12.189
▁agatha	-12.189
▁bartender	-12.189
▁irrational	-12.189
▁krueger	-12.189
▁quigley	-12.189
▁schumacher	-12.189
▁soylent	-12.189
▁cringing	-12.189
▁solving	-12.189
▁keitel	-12.189
▁misplaced	-12.189
▁goddess	-12.189
▁stride	-12.189
▁mockery	-12.189
▁drummer	-12.189
▁irving	-12.189
▁judith	-12.1891
▁kit	-12.1891
▁anxiety	-12.1891
▁iranian	-12.1891
▁delta	-12.1891
▁classified	-12.1891
▁worm	-12.1891
▁reese	-12.1892
▁confederate	-12.1892
▁conductor	-12.1893
▁farscape	-12.1893
▁dung	-12.1894
▁mendes	-12.1894
▁delirious	-12.1895
▁controlling	-12.1896
▁baffled	-12.1896
▁logo	-12.1897
▁chips	-12.1897
▁troll	-12.1898
▁publisher	-12.1899
▁expresses	-12.1899
▁shakespearean	-12.19
▁starlet	-12.19
▁ming	-12.1902
▁shamelessly	-12.1904
▁output	-12.1906
▁warped	-12.1907
▁commenter	-12.1909
▁aspire	-12.191
▁rec	-12.1913
tes	-12.1917
▁destructive	-12.1917
ished	-12.1919
▁tools	-12.1921
▁veer	-12.1921
▁downside	-12.1923
▁salvage	-12.1925
▁widowed	-12.1925
▁encouraged	-12.1926
▁boxes	-12.1926
▁volumes	-12.1927
▁fixed	-12.1928
▁maintained	-12.1929
▁harlin	-12.1934
rat	-12.1935
cal	-12.1935
▁intellectually	-12.1935
(?)	-12.1937
thical	-12.1939
script	-12.1947
▁yul	-12.195
▁mills	-12.195
western	-12.1952
▁pressed	-12.1954
▁kin	-12.1956
??)	-12.1965
▁lovingly	-12.1966
▁contributes	-12.1971
ock	-12.1974
▁aura	-12.1975
▁sheet	-12.1981
▁detect	-12.1981
▁protecting	-12.1981
▁saddle	-12.1986
?!?!	-12.1993
thank	-12.1998
christopher	-12.1999
besides	-12.1999
unfortunately	-12.1999
ese	-12.1999
actresses	-12.2
candy	-12.2001
▁clo	-12.2011
hood	-12.2011
▁ada	-12.2022
▁chap	-12.2024
▁passenger	-12.2026
ller	-12.2029
▁cheats	-12.2032
▁poo	-12.2033
▁gods	-12.2034
lines	-12.2039
▁undermine	-12.204
▁slugs	-12.2041
ison	-12.2043
▁sc	-12.2043
▁toned	-12.2043
ue	-12.2047
▁franc	-12.2049
▁micro	-12.205
▁violin	-12.2051
▁erik	-12.2051
▁bathtub	-12.2051
▁belgian	-12.2051
▁conniving	-12.2051
▁constraints	-12.2051
▁contemplate	-12.2051
▁desolate	-12.2051
▁dolemite	-12.2051
▁evocative	-12.2051
▁luxury	-12.2051
▁oblivion	-12.2051
▁sophomoric	-12.2051
▁stalwart	-12.2051
▁superlative	-12.2051
▁torturing	-12.2051
▁wahlberg	-12.2051
▁caretaker	-12.2051
▁mishima	-12.2051
▁beaver	-12.2051
▁garcia	-12.2051
▁cocktail	-12.2051
▁sunrise	-12.2051
▁irresponsible	-12.2051
▁bloodthirsty	-12.2051
▁babysitter	-12.2052
▁radar	-12.2052
▁retreat	-12.2052
▁1947	-12.2052
▁governor	-12.2052
▁charley	-12.2052
▁slavery	-12.2053
▁luther	-12.2053
▁devious	-12.2053
▁slayer	-12.2054
▁henchman	-12.2054
pieces	-12.2054
▁timmy	-12.2055
▁grit	-12.2055
▁dial	-12.2056
▁distorted	-12.2056
▁diesel	-12.2056
▁trump	-12.2057
▁pathetically	-12.2057
▁robbing	-12.2058
▁lyrical	-12.2059
▁overwhelmed	-12.2059
▁007	-12.206
▁correctness	-12.2061
▁expressive	-12.2064
▁lament	-12.2065
▁varying	-12.2065
lou	-12.2067
▁shiny	-12.2067
▁expanded	-12.2067
▁dismissed	-12.207
▁healing	-12.2073
▁sar	-12.2073
45	-12.2078
▁renee	-12.2078
induced	-12.2078
▁adored	-12.208
▁peer	-12.208
▁weirdness	-12.2081
▁loos	-12.2081
▁snowy	-12.2083
▁meek	-12.2087
▁instruments	-12.209
▁usage	-12.2091
▁entertains	-12.2091
▁10!	-12.2093
ep	-12.2093
▁gel	-12.2094
2.	-12.2096
whom	-12.2097
▁billie	-12.2097
▁representing	-12.2105
▁leak	-12.2105
ates	-12.2108
▁amateurs	-12.2112
▁steppe	-12.2114
▁crowe	-12.2119
▁tones	-12.2122
▁sections	-12.2123
▁structured	-12.2127
▁divide	-12.2128
▁hol	-12.213
▁dispose	-12.2131
▁reasoning	-12.2134
aging	-12.2135
▁cater	-12.2136
shirt	-12.2136
▁indulgent	-12.2137
cent	-12.2146
▁stakes	-12.2148
cam	-12.2148
conscious	-12.2149
▁classmates	-12.2149
▁amid	-12.2151
▁encourages	-12.2151
▁beam	-12.2154
▁250	-12.2154
▁schemes	-12.2158
▁dale	-12.2158
know	-12.2159
outs	-12.2163
culture	-12.2163
▁backed	-12.2164
▁sins	-12.2171
talking	-12.2176
▁sweep	-12.2177
cool	-12.2181
▁thereafter	-12.2182
▁explanations	-12.2182
found	-12.2183
▁scout	-12.2188
▁float	-12.2188
▁soprano	-12.2189
▁sibling	-12.2189
▁violently	-12.2194
arm	-12.22
▁moan	-12.2202
▁mm	-12.221
▁hor	-12.2211
saw	-12.2211
▁languages	-12.2212
▁automatic	-12.2215
▁appalled	-12.2215
▁baffling	-12.2215
▁cheesiness	-12.2215
▁colony	-12.2215
▁eclipse	-12.2215
▁greece	-12.2215
▁incompetence	-12.2215
▁monstrosity	-12.2215
▁patriarch	-12.2215
▁piranha	-12.2215
▁saboteur	-12.2215
▁extraordinari	-12.2215
semitism	-12.2215
▁padded	-12.2215
▁raving	-12.2215
▁cunningham	-12.2215
▁duncan	-12.2215
▁conquest	-12.2215
▁minnie	-12.2215
▁uninspiring	-12.2216
sub	-12.2216
▁commendable	-12.2216
▁langdon	-12.2216
▁scum	-12.2216
▁eccleston	-12.2217
▁tucker	-12.2217
▁emergency	-12.2217
▁litter	-12.2217
▁truffaut	-12.2217
▁bullies	-12.2217
▁worldwide	-12.2218
▁standpoint	-12.2218
▁prolonged	-12.2218
▁surrealism	-12.2218
▁stunk	-12.2218
▁klaus	-12.2219
▁sammo	-12.2219
numbers	-12.2219
▁gusto	-12.2219
▁botched	-12.222
▁artistically	-12.222
▁grandson	-12.222
▁della	-12.2222
▁bikers	-12.2222
▁flare	-12.2226
▁inhabited	-12.2227
▁continent	-12.2228
▁cent	-12.2228
▁bigot	-12.2228
▁amok	-12.223
▁reunited	-12.2234
▁observed	-12.2234
▁finishes	-12.2237
ire	-12.2237
▁bites	-12.2238
▁connor	-12.2239
▁brandon	-12.2241
▁slaughtered	-12.2241
▁stalin	-12.2242
marisa	-12.2243
▁jerky	-12.2244
▁locker	-12.2246
budding	-12.2251
▁earns	-12.2254
▁fades	-12.2256
▁smallest	-12.2259
▁pipe	-12.2262
▁dukes	-12.2263
▁sock	-12.2266
▁anita	-12.227
▁dialect	-12.2271
▁peaks	-12.2276
▁amoral	-12.2278
▁democratic	-12.2278
▁duh	-12.2286
misunderstanding	-12.2287
mate	-12.229
▁hosts	-12.2292
ple	-12.2292
▁saints	-12.2293
▁outlook	-12.2294
oooo	-12.2299
▁badness	-12.23
ban	-12.2305
music	-12.2305
▁clients	-12.2306
▁riches	-12.2307
▁manson	-12.2308
▁professionally	-12.2309
▁convicts	-12.231
▁scarecrows	-12.2311
ram	-12.2311
▁pok	-12.2312
▁ros	-12.2313
▁throats	-12.2317
▁trait	-12.2319
writing	-12.2319
hell	-12.232
alan	-12.2321
remember	-12.2323
▁bliss	-12.2325
▁phones	-12.2325
▁punks	-12.2326
▁festivals	-12.2327
possible	-12.2329
father	-12.2329
▁preach	-12.2331
▁goofs	-12.2332
rin	-12.2333
▁plunge	-12.2333
themed	-12.2334
▁kindness	-12.234
▁ghostly	-12.2341
▁bre	-12.2341
▁dangers	-12.235
▁monitor	-12.2355
released	-12.236
▁contend	-12.2367
▁tur	-12.2367
▁plea	-12.2367
▁preserve	-12.2369
▁revive	-12.2373
▁authors	-12.2374
▁thankful	-12.2376
▁potent	-12.2377
▁choke	-12.2377
▁disrespect	-12.2378
kh	-12.2379
▁cyber	-12.2381
▁anniversary	-12.2382
▁baxter	-12.2382
▁beckinsale	-12.2382
▁bloodbath	-12.2382
▁constitute	-12.2382
▁englund	-12.2382
▁idiocy	-12.2382
▁infidelity	-12.2382
▁january	-12.2382
▁liotta	-12.2382
▁optimism	-12.2382
▁seduction	-12.2382
▁vertigo	-12.2382
▁wolves	-12.2382
▁stimulating	-12.2382
▁suzanne	-12.2382
▁talbot	-12.2382
▁erratic	-12.2382
▁gwyne	-12.2382
▁dassin	-12.2382
▁zhang	-12.2382
▁cursing	-12.2382
▁interrogation	-12.2382
▁colbert	-12.2382
▁signature	-12.2382
▁babette	-12.2382
▁braveheart	-12.2382
▁ploy	-12.2382
▁forehead	-12.2382
▁stitches	-12.2382
▁dirk	-12.2382
▁freddie	-12.2383
▁unlucky	-12.2383
▁ironside	-12.2383
▁dario	-12.2383
▁presidential	-12.2383
▁duckling	-12.2383
▁vu	-12.2383
▁surpasses	-12.2383
▁undeveloped	-12.2383
▁rivalry	-12.2384
▁cru	-12.2384
▁ravishing	-12.2384
▁rugged	-12.2385
▁reels	-12.2385
▁maureen	-12.2386
▁platform	-12.2386
▁canvas	-12.2386
▁diva	-12.2386
▁imply	-12.2387
▁guru	-12.2389
▁rotting	-12.239
▁unrated	-12.239
▁jedi	-12.239
tale	-12.239
▁starship	-12.2392
▁continuously	-12.2393
▁italians	-12.2393
▁prone	-12.2394
▁archive	-12.2396
▁contender	-12.2397
▁interpreted	-12.2399
▁searches	-12.2399
▁eliminated	-12.2399
▁fulfilled	-12.24
wich	-12.2401
▁inventor	-12.2401
▁cart	-12.2402
▁nana	-12.2403
▁kor	-12.2404
▁wimp	-12.2405
▁butchered	-12.2406
▁strangest	-12.2416
▁habits	-12.242
▁airing	-12.2421
▁realises	-12.2423
▁pas	-12.2424
▁sentenced	-12.2426
▁tart	-12.243
▁sacrificed	-12.2431
▁(199	-12.2433
▁dreamed	-12.2433
tron	-12.2433
fiery	-12.2435
▁instincts	-12.2437
▁barbie	-12.2437
▁chen	-12.2437
▁missions	-12.2438
▁functions	-12.2439
ego	-12.244
▁tables	-12.2443
▁jacobi	-12.2444
ving	-12.2445
▁wip	-12.245
▁northwest	-12.2454
▁ar	-12.2455
having	-12.2457
▁deservedly	-12.2461
eck	-12.2464
▁conveying	-12.2464
political	-12.2466
jun	-12.2471
zy	-12.2473
▁tam	-12.2475
▁corridors	-12.2479
▁expressing	-12.248
▁patrol	-12.2481
promoting	-12.2485
trip	-12.2488
▁daft	-12.249
▁leone	-12.249
▁tess	-12.2491
▁capitalize	-12.2495
slow	-12.2496
apocalyptic	-12.2498
okay	-12.2498
▁42	-12.2502
-80	-12.2506
▁afro	-12.2511
ail	-12.2512
▁sr	-12.2513
▁fund	-12.2514
▁limbs	-12.2515
mac	-12.2516
▁evolve	-12.2516
dark	-12.2517
▁unre	-12.2518
▁disturb	-12.2522
complete	-12.2523
▁organic	-12.2524
▁snail	-12.2528
▁cheerleader	-12.2529
▁pistol	-12.253
using	-12.2533
▁zombi	-12.2533
▁mannered	-12.2534
▁kiddie	-12.2535
▁tattoo	-12.254
▁extract	-12.254
▁perceive	-12.2541
▁unsuccessful	-12.2542
uh	-12.2545
▁epitome	-12.2551
▁janitor	-12.2551
▁librarian	-12.2551
▁november	-12.2551
▁prevalent	-12.2551
▁adept	-12.2551
▁gypo	-12.2551
▁marijuana	-12.2551
▁snoop	-12.2551
▁sordid	-12.2551
▁haggard	-12.2551
▁climate	-12.2551
▁muscular	-12.2551
▁administration	-12.2551
▁enforcement	-12.2551
▁overseas	-12.2551
▁textbook	-12.2552
▁unforgivable	-12.2552
▁josie	-12.2552
▁adultery	-12.2552
▁stoop	-12.2552
▁monotone	-12.2552
▁cement	-12.2552
▁moss	-12.2552
▁rejection	-12.2552
▁noticing	-12.2553
▁renowned	-12.2553
▁bsg	-12.2553
▁massey	-12.2553
▁ventura	-12.2553
▁midway	-12.2554
▁siege	-12.2555
▁tragically	-12.2555
▁feared	-12.2556
▁gram	-12.2557
▁tub	-12.2557
▁wildlife	-12.2557
▁panel	-12.2558
▁battlestar	-12.2558
▁heartily	-12.2558
▁chalk	-12.2558
▁disk	-12.2559
▁trier	-12.2561
!!!)	-12.2561
▁powerfully	-12.2563
▁dependent	-12.2564
▁punished	-12.2565
▁aptly	-12.2565
▁neighbours	-12.2567
▁exceeding	-12.2567
▁hunger	-12.2567
mind	-12.2568
▁nell	-12.2568
▁'50	-12.257
▁carrier	-12.2575
▁rad	-12.2575
▁declared	-12.258
▁swank	-12.2585
▁freely	-12.2585
▁creations	-12.2588
▁toby	-12.2591
▁collecting	-12.2592
▁penned	-12.2594
▁www	-12.2596
▁bru	-12.2602
▁refund	-12.2603
body	-12.2611
▁simpler	-12.2611
▁befriend	-12.2612
▁predecessors	-12.2614
▁stumbl	-12.2619
tell	-12.262
dir	-12.2623
▁shack	-12.2628
▁informs	-12.2634
▁attributes	-12.2639
▁fart	-12.2639
▁ooze	-12.2644
▁emotionless	-12.2651
blood	-12.2654
should	-12.2656
eu	-12.2656
jennifer	-12.2671
holland	-12.2671
kevin	-12.2672
usually	-12.2672
▁locale	-12.2672
decent	-12.2672
▁hadley	-12.2673
▁dreamy	-12.2676
▁cassel	-12.2676
crafted	-12.2677
▁brits	-12.2678
▁censors	-12.268
▁icons	-12.2693
*1/2	-12.2697
▁fri	-12.27
▁arrange	-12.27
sided	-12.2701
▁numb	-12.2702
gli	-12.2703
▁barrier	-12.2706
▁stooge	-12.2707
▁refugee	-12.271
charles	-12.271
▁prejudices	-12.2713
these	-12.2714
suit	-12.2715
▁pond	-12.2717
met	-12.2717
▁deck	-12.2718
▁tourists	-12.2719
warming	-12.2721
▁stubborn	-12.2722
▁dunn	-12.2722
▁honeymoon	-12.2722
▁achieving	-12.2724
▁cleopatra	-12.2724
▁concrete	-12.2724
▁crummy	-12.2724
▁cypher	-12.2724
▁dakota	-12.2724
▁debacle	-12.2724
▁democracy	-12.2724
▁intimacy	-12.2724
▁jigsaw	-12.2724
▁kutcher	-12.2724
▁maverick	-12.2724
▁pryor	-12.2724
▁rachael	-12.2724
▁requisite	-12.2724
▁stereotyping	-12.2724
▁vengeful	-12.2724
▁shrek	-12.2724
▁wrestlemania	-12.2724
▁zucco	-12.2724
▁glamour	-12.2724
▁shrill	-12.2724
▁shaft	-12.2724
▁vienna	-12.2724
▁committee	-12.2724
▁diving	-12.2724
▁jolly	-12.2724
▁tiring	-12.2724
▁nora	-12.2724
▁tenacious	-12.2724
▁wanda	-12.2724
▁rohmer	-12.2724
▁nutty	-12.2725
▁diversion	-12.2725
▁1944	-12.2725
▁tomei	-12.2725
▁jessie	-12.2725
▁slater	-12.2725
▁enthralling	-12.2726
▁daphne	-12.2727
▁blurred	-12.2727
▁1992	-12.2727
▁visitor	-12.2727
▁memento	-12.2728
▁underused	-12.2728
▁cynthia	-12.2729
▁thelma	-12.2729
▁nigel	-12.2731
▁relieved	-12.2731
▁moderately	-12.2732
▁cro	-12.2732
▁'90	-12.2733
▁cocky	-12.2733
ev	-12.2734
▁observer	-12.2735
▁kristin	-12.2736
ered	-12.2737
▁richly	-12.2738
▁peterson	-12.2739
▁homework	-12.2742
▁supremely	-12.2742
▁bothers	-12.2743
▁dogma	-12.2743
▁deepest	-12.2744
▁loren	-12.2747
▁becky	-12.2749
▁socks	-12.2752
▁relates	-12.2753
▁fling	-12.2754
▁thereof	-12.2755
ain	-12.2758
rap	-12.2759
▁laden	-12.2762
▁allison	-12.2762
▁bonding	-12.2765
▁mocking	-12.2769
▁premiered	-12.2769
▁roar	-12.2771
eth	-12.2772
▁fewer	-12.2784
lier	-12.2788
▁files	-12.2789
▁locales	-12.2792
▁restless	-12.2802
igan	-12.2805
▁jerks	-12.2806
................	-12.2808
▁magnificently	-12.2809
▁bothering	-12.2817
▁controls	-12.2817
▁tested	-12.282
lic	-12.2829
▁systems	-12.2834
original	-12.2835
load	-12.2841
ched	-12.2842
husband	-12.2847
social	-12.2847
boyfriend	-12.2847
jason	-12.2849
obviously	-12.2851
▁denise	-12.2855
unlike	-12.2856
?????	-12.2862
gene	-12.2864
▁mug	-12.2864
17	-12.2868
▁stares	-12.2872
jan	-12.2873
▁prints	-12.2874
▁lilli	-12.2875
▁marcel	-12.2876
track	-12.2878
▁nit	-12.288
▁opponent	-12.2884
▁neighbour	-12.2884
▁contestant	-12.2886
▁recognise	-12.2889
▁summarize	-12.289
▁wage	-12.2894
▁dia	-12.2897
▁sandwich	-12.2897
▁scrap	-12.2897
▁feud	-12.2898
▁execute	-12.2899
▁stylistic	-12.2899
▁caribbean	-12.2899
▁confines	-12.2899
▁costuming	-12.2899
▁disdain	-12.2899
▁eloquent	-12.2899
▁kieslowski	-12.2899
▁nevsky	-12.2899
▁notwithstanding	-12.2899
▁replacing	-12.2899
▁rodriguez	-12.2899
▁turgid	-12.2899
▁allegory	-12.2899
▁smarmy	-12.2899
▁cardinal	-12.2899
▁geisha	-12.2899
▁discernible	-12.2899
▁plummer	-12.2899
▁slang	-12.2899
▁digress	-12.2899
▁bauer	-12.2899
▁prehistoric	-12.2899
▁zorro	-12.2899
▁milligan	-12.2899
▁somber	-12.2899
▁guidance	-12.2899
▁calvin	-12.2899
▁grandparents	-12.2899
▁denial	-12.2899
▁marlene	-12.2899
▁venus	-12.2899
▁triad	-12.2899
▁picnic	-12.2899
▁unemployed	-12.2899
▁hitchhiker	-12.29
▁conroy	-12.29
▁griffin	-12.29
▁sorority	-12.29
▁hiring	-12.29
▁waterfront	-12.29
▁warfare	-12.29
▁sfx	-12.29
ington	-12.29
▁stepping	-12.2901
▁slew	-12.2901
▁exhausted	-12.2901
▁1942	-12.2901
▁pawn	-12.2901
▁approximately	-12.2902
▁dunno	-12.2902
▁gladiator	-12.2902
▁speechless	-12.2903
▁michel	-12.2903
▁efficient	-12.2904
▁aimless	-12.2904
▁positions	-12.2905
▁illuminated	-12.2905
rip	-12.2905
▁cindy	-12.2905
▁nineties	-12.2905
▁loot	-12.2906
▁partial	-12.2906
▁geraldine	-12.2906
▁uber	-12.2907
▁ji	-12.2907
waving	-12.2908
▁heterosexual	-12.2908
▁wwi	-12.2909
▁surpassed	-12.291
▁shudder	-12.2911
▁meyer	-12.2916
▁defining	-12.2917
▁gaming	-12.292
▁moviegoers	-12.2921
▁jared	-12.2926
▁inflict	-12.2927
▁bleeding	-12.2928
▁colourful	-12.2929
▁irons	-12.293
scott	-12.2933
standing	-12.2933
▁muted	-12.2936
▁mormons	-12.294
▁weirdo	-12.2943
▁freaked	-12.2945
▁tra	-12.2948
▁adopt	-12.2949
oid	-12.2959
▁allied	-12.2961
▁spunk	-12.2964
▁quirks	-12.2967
nan	-12.2968
dling	-12.2968
ight	-12.2968
▁lions	-12.297
fun	-12.297
▁farmers	-12.297
▁raping	-12.2971
sick	-12.2972
▁caron	-12.2973
neck	-12.2973
▁anil	-12.2975
▁spectacularly	-12.2975
▁terr	-12.2977
▁psychologically	-12.2977
▁haha	-12.298
▁gor	-12.298
▁welcomed	-12.2983
▁custom	-12.2983
▁raft	-12.2986
hill	-12.2986
bre	-12.299
▁sharks	-12.299
▁campers	-12.2994
jim	-12.2997
kim	-12.2998
▁supporters	-12.3001
01	-12.3004
▁mur	-12.3005
▁rocked	-12.3005
▁spi	-12.3005
▁nash	-12.3006
▁raiders	-12.301
▁believer	-12.3015
step	-12.3017
▁heartless	-12.3024
sensitive	-12.3025
angelo	-12.3027
pet	-12.3027
▁grounded	-12.303
marc	-12.3034
▁interiors	-12.3035
▁magazines	-12.3036
classic	-12.3044
▁pill	-12.3044
til	-12.3045
▁embarrass	-12.3049
▁revisit	-12.3049
ign	-12.305
▁nuance	-12.3054
▁misfits	-12.3054
fr	-12.3054
▁hating	-12.3055
table	-12.3056
▁smirk	-12.306
▁slash	-12.306
ix	-12.3061
▁insects	-12.3061
▁blends	-12.3062
ude	-12.3063
gon	-12.3065
▁surpass	-12.3065
▁spectator	-12.3065
▁civilian	-12.307
▁blo	-12.3071
▁convent	-12.3077
▁knox	-12.3077
▁compilation	-12.3078
▁fictitious	-12.3078
▁frenetic	-12.3078
▁hasselhoff	-12.3078
▁temporarily	-12.3078
▁thwart	-12.3078
▁wendigo	-12.3078
▁astonished	-12.3078
▁cinematographic	-12.3078
▁demographic	-12.3078
▁dyke	-12.3078
▁footsteps	-12.3078
▁upbringing	-12.3078
▁abbey	-12.3078
▁dwight	-12.3078
▁troupe	-12.3078
▁uncompromising	-12.3078
▁farcical	-12.3078
▁helsing	-12.3078
▁scantily	-12.3078
▁architecture	-12.3078
▁raoul	-12.3078
▁dross	-12.3078
▁chord	-12.3078
▁ponderous	-12.3078
▁alluring	-12.3078
▁happier	-12.3078
▁relish	-12.3078
▁vanilla	-12.3079
▁cannibalism	-12.3079
▁enthralled	-12.3079
▁medal	-12.3079
▁housekeeper	-12.3079
▁longoria	-12.3079
▁rumor	-12.3079
▁tasty	-12.3079
▁archie	-12.308
▁starving	-12.3081
▁echoes	-12.3081
▁tropical	-12.3081
▁flavia	-12.3081
▁harper	-12.3082
▁mister	-12.3083
▁gambler	-12.3083
▁bickering	-12.3083
▁dime	-12.3084
▁195	-12.3085
▁chloe	-12.3086
▁december	-12.3086
▁marginally	-12.3087
▁lar	-12.3087
▁dripping	-12.3087
▁customs	-12.309
later	-12.3091
▁novella	-12.3091
▁buys	-12.3091
▁lava	-12.3093
▁trendy	-12.3093
▁inherited	-12.3095
▁articulate	-12.3095
▁protective	-12.3096
▁visitors	-12.3096
▁freshman	-12.3098
▁launched	-12.3098
▁ilk	-12.3099
▁berry	-12.3099
▁forgiving	-12.3102
▁assassins	-12.3104
▁cleverness	-12.3105
▁inc	-12.3111
▁carole	-12.3113
▁concentrated	-12.3115
▁jos	-12.3116
org	-12.3118
ended	-12.3121
▁fallon	-12.3122
▁blondell	-12.3122
▁needlessly	-12.3123
▁cracked	-12.3123
▁spared	-12.3132
▁finely	-12.3133
▁shifting	-12.3134
boys	-12.3136
▁dreyfuss	-12.3136
▁ott	-12.3142
▁quarters	-12.3147
▁pitched	-12.3147
phone	-12.3148
▁melv	-12.3149
▁booze	-12.3157
▁conclusions	-12.3157
▁grocer	-12.3158
▁guise	-12.3166
▁dc	-12.3167
▁fry	-12.3168
▁incomplete	-12.317
▁dork	-12.3176
▁documents	-12.3181
shoot	-12.3181
▁willingly	-12.3183
kk	-12.3185
▁mist	-12.3192
▁monte	-12.3192
character	-12.3193
▁freed	-12.3198
▁muster	-12.3199
▁teamed	-12.3202
dream	-12.3203
▁pap	-12.3204
dropping	-12.3207
normal	-12.3207
luc	-12.3209
ters	-12.3209
▁gall	-12.321
▁hardships	-12.321
zombie	-12.321
fact	-12.3212
chu	-12.3213
▁nuns	-12.3217
▁associates	-12.3224
▁impressions	-12.3229
...).	-12.323
mother	-12.3232
▁ste	-12.3232
their	-12.3233
▁blur	-12.3234
▁premier	-12.3241
75	-12.3241
▁figur	-12.3242
▁fee	-12.3243
atic	-12.3244
▁cy	-12.3245
▁resurrect	-12.3248
▁allan	-12.3248
und	-12.3248
▁cherish	-12.325
post	-12.3256
▁winston	-12.3258
▁vh	-12.3258
▁locks	-12.3259
▁buffoon	-12.3259
▁dublin	-12.3259
humphrey	-12.3259
▁atrocities	-12.3259
▁caesar	-12.3259
▁cavalry	-12.3259
▁chandler	-12.3259
▁feisty	-12.3259
▁glimmer	-12.3259
▁knives	-12.3259
▁mcdermott	-12.3259
▁moustache	-12.3259
▁nickelodeon	-12.3259
▁pretense	-12.3259
▁sheridan	-12.3259
▁snack	-12.3259
▁twenties	-12.3259
▁eminent	-12.3259
▁mandatory	-12.3259
▁damsel	-12.3259
▁takashi	-12.3259
▁clarence	-12.3259
▁oppressive	-12.3259
▁smuggling	-12.3259
▁beckham	-12.3259
▁bernsen	-12.3259
▁android	-12.3259
▁caligula	-12.3259
▁cheech	-12.326
▁thailand	-12.326
▁inheritance	-12.326
▁formidable	-12.326
▁landlord	-12.326
▁chiba	-12.326
▁patriotism	-12.326
▁volcano	-12.326
▁occurring	-12.326
▁ashton	-12.326
▁delusional	-12.326
▁demonstration	-12.326
▁dangerfield	-12.326
▁1943	-12.326
▁untalented	-12.326
▁opus	-12.326
▁jewelry	-12.326
▁artful	-12.3261
▁crossfire	-12.3261
▁sparkling	-12.3261
▁gosling	-12.3261
▁sacred	-12.3261
▁catwoman	-12.3262
▁patton	-12.3262
▁virginity	-12.3262
▁outta	-12.3263
▁renoir	-12.3263
▁trent	-12.3263
▁sixty	-12.3263
▁nuke	-12.3263
▁om	-12.3263
▁gimmicks	-12.3263
mme	-12.3264
▁witless	-12.3264
▁revolver	-12.3264
▁2009	-12.3265
▁inexperienced	-12.3265
▁skate	-12.3266
▁coverage	-12.3267
▁uncredited	-12.3268
▁vanishing	-12.3268
▁stoner	-12.3269
▁rae	-12.3273
▁utilize	-12.3273
pity	-12.3274
▁grips	-12.3275
nz	-12.3279
▁seventh	-12.3279
▁leary	-12.328
▁garnered	-12.3281
▁bernie	-12.3282
▁wielding	-12.3283
uch	-12.3284
▁adviser	-12.3285
▁examined	-12.3291
ena	-12.3291
▁rapes	-12.3298
▁earning	-12.3298
▁thunderbirds	-12.3298
▁existent	-12.3301
▁tangle	-12.3306
▁relaxing	-12.3307
▁flu	-12.3311
▁demme	-12.3315
▁spelled	-12.3319
▁ul	-12.3319
▁bathing	-12.3322
▁plotline	-12.3327
▁muni	-12.3327
▁surrounds	-12.3333
95	-12.3342
▁sm	-12.3347
pack	-12.3349
ado	-12.3351
▁(2)	-12.3353
▁screamed	-12.3354
▁gre	-12.3355
▁specialist	-12.3361
▁tick	-12.3369
▁indicates	-12.337
ifying	-12.337
date	-12.3376
▁edges	-12.3382
lessness	-12.3384
twist	-12.3385
warning	-12.3388
▁offerings	-12.3388
▁knights	-12.3389
could	-12.339
present	-12.339
▁towns	-12.3391
guard	-12.3391
baked	-12.3392
connor	-12.3392
english	-12.3392
would	-12.3392
hollywood	-12.3392
▁paz	-12.3393
hence	-12.3394
those	-12.3394
▁loudly	-12.3394
porn	-12.3395
clock	-12.3396
nazi	-12.3396
▁annoyingly	-12.3397
▁outbreak	-12.3402
▁fashions	-12.3412
ima	-12.3414
lover	-12.3415
oli	-12.3417
▁drivers	-12.3417
▁bel	-12.342
▁shaun	-12.3422
▁aims	-12.3424
▁gloss	-12.3428
▁cynic	-12.3434
▁prospect	-12.3435
▁retard	-12.3435
▁suppress	-12.3436
▁nasa	-12.3437
▁behaves	-12.3437
▁advertisement	-12.3438
▁rewrite	-12.3439
▁distributor	-12.3441
gger	-12.3442
▁reception	-12.3444
▁concoct	-12.3444
▁nausea	-12.3444
▁beef	-12.3444
deemed	-12.3444
▁adversity	-12.3445
▁appetite	-12.3445
▁catastrophe	-12.3445
▁fleischer	-12.3445
▁glorified	-12.3445
▁humiliation	-12.3445
▁imitating	-12.3445
▁insecure	-12.3445
▁insignificant	-12.3445
▁mischievous	-12.3445
▁procedure	-12.3445
▁repertoire	-12.3445
▁schtick	-12.3445
▁shenanigans	-12.3445
▁staircase	-12.3445
▁tragedies	-12.3445
▁twentieth	-12.3445
▁empathize	-12.3445
▁brawl	-12.3445
▁intimidating	-12.3445
▁opposition	-12.3445
▁valiant	-12.3445
▁facade	-12.3445
▁nathaniel	-12.3445
▁trunk	-12.3445
▁kruger	-12.3445
▁heiress	-12.3445
▁vijay	-12.3445
▁amiable	-12.3445
▁eighteen	-12.3445
▁reincarnation	-12.3445
▁dummy	-12.3445
▁duties	-12.3445
▁pesci	-12.3445
▁separation	-12.3445
▁hubby	-12.3445
▁attachment	-12.3445
▁hypocrisy	-12.3445
▁trey	-12.3445
▁palette	-12.3445
▁creepiness	-12.3445
▁1951	-12.3445
▁evie	-12.3445
▁grandeur	-12.3446
▁stature	-12.3446
▁undertaker	-12.3446
4)	-12.3446
▁northam	-12.3447
▁bravery	-12.3447
▁jacqueline	-12.3448
▁lemon	-12.3448
▁distasteful	-12.3448
▁consumer	-12.3449
▁wry	-12.3449
▁busby	-12.3449
sort	-12.345
▁colman	-12.345
▁clunker	-12.345
▁palestinian	-12.345
▁vincenzo	-12.3451
▁skillfully	-12.3452
▁feather	-12.3452
▁burr	-12.3452
▁maurice	-12.3455
▁widower	-12.3457
▁upsetting	-12.3458
▁uniquely	-12.3459
▁thou	-12.346
matt	-12.346
▁opponents	-12.346
▁swat	-12.3464
zar	-12.3465
▁seduced	-12.3467
▁dense	-12.3472
▁orbit	-12.3474
▁connors	-12.3475
▁jab	-12.3477
▁bags	-12.3478
▁rail	-12.3478
▁goers	-12.348
▁amir	-12.348
▁mish	-12.3481
▁manos	-12.3483
▁merk	-12.3484
doing	-12.3485
▁archer	-12.3489
▁ably	-12.3491
▁blu	-12.3494
▁loathe	-12.3494
▁successor	-12.3497
▁doses	-12.3498
▁apocalyptic	-12.3503
▁ry	-12.3505
▁meadows	-12.3505
▁belonging	-12.3505
▁cu	-12.3506
▁proudly	-12.3508
▁meanders	-12.3509
▁heighten	-12.351
:00	-12.3511
▁operatic	-12.3514
▁lengths	-12.3519
▁options	-12.3522
disc	-12.3525
worn	-12.3532
▁48	-12.3533
sister	-12.3533
▁lamp	-12.3536
▁traveled	-12.3538
cor	-12.354
▁wade	-12.3543
▁gadgets	-12.3544
▁das	-12.3548
sia	-12.3549
dice	-12.3551
▁monument	-12.3552
overs	-12.3553
evil	-12.3572
fisted	-12.3575
▁hartman	-12.3577
▁jeep	-12.3578
mba	-12.358
barbara	-12.3581
▁consummate	-12.3581
between	-12.3581
christian	-12.3581
monster	-12.3582
▁minimalist	-12.3587
seriously	-12.3587
nuff	-12.3595
▁cooler	-12.3596
▁celebrat	-12.3597
edge	-12.3597
7)	-12.3599
zing	-12.3601
plane	-12.3604
▁exceed	-12.3605
lando	-12.3605
▁ff	-12.3605
▁len	-12.3607
lots	-12.3611
▁ringing	-12.3613
▁spook	-12.3616
▁commentators	-12.3619
▁zen	-12.362
▁glue	-12.362
▁devour	-12.3622
tig	-12.3623
▁(200	-12.3628
▁finch	-12.363
▁tennis	-12.3632
▁spouse	-12.3632
▁drawback	-12.3632
▁lawyers	-12.3633
▁witherspoon	-12.3633
▁bogosian	-12.3633
▁cradle	-12.3633
▁devastated	-12.3633
▁episodic	-12.3633
▁humiliating	-12.3633
▁indifference	-12.3633
▁invincible	-12.3633
▁leguizamo	-12.3633
▁pregnancy	-12.3633
▁prophecy	-12.3633
▁puerile	-12.3633
▁stiles	-12.3633
▁thursday	-12.3633
▁tycoon	-12.3633
▁dispute	-12.3633
▁spliced	-12.3633
▁maltin	-12.3633
▁microphone	-12.3633
▁riddick	-12.3633
▁burial	-12.3633
▁gospel	-12.3633
▁galore	-12.3633
▁bloated	-12.3633
▁rarity	-12.3634
▁ealing	-12.3634
▁avail	-12.3634
▁gerry	-12.3634
▁jenna	-12.3634
▁annual	-12.3634
▁parole	-12.3634
▁clayton	-12.3634
▁capra	-12.3635
▁employer	-12.3635
▁condescending	-12.3635
▁1953	-12.3635
▁forsythe	-12.3635
▁alejandro	-12.3636
▁idle	-12.3637
▁ripper	-12.3637
▁worries	-12.3638
▁pepe	-12.3638
▁harmony	-12.3639
▁addresses	-12.3639
▁seamlessly	-12.3639
▁subjective	-12.364
▁cannibals	-12.3641
▁scan	-12.3641
▁franz	-12.3641
▁cloak	-12.3642
▁cough	-12.3643
▁marital	-12.3644
▁natasha	-12.3644
▁exceeded	-12.3644
▁20-	-12.3646
▁brash	-12.3647
▁vic	-12.3647
▁dna	-12.3647
▁diego	-12.3647
sses	-12.3649
▁avant	-12.365
▁recovered	-12.3653
▁commando	-12.3654
▁tagline	-12.3655
▁dip	-12.3656
▁pauses	-12.3658
▁wai	-12.3659
▁friendships	-12.366
chy	-12.3661
▁bid	-12.3662
fed	-12.3662
▁suspended	-12.3665
▁silk	-12.3667
▁ida	-12.3667
ash	-12.367
ree	-12.3672
▁suchet	-12.3673
▁shadowy	-12.3673
▁martians	-12.3675
instead	-12.3676
▁holidays	-12.3679
▁sak	-12.3679
▁cosmo	-12.3681
▁funds	-12.3682
▁richie	-12.3682
tie	-12.3682
▁marvelously	-12.3682
▁wheels	-12.3686
▁4/10.	-12.3686
▁rhyme	-12.3688
▁annoys	-12.3691
▁plods	-12.3691
▁geeks	-12.3691
▁hurting	-12.3691
holes	-12.3693
▁critically	-12.3694
▁cringed	-12.3694
▁listener	-12.3694
▁tina	-12.3695
arch	-12.3698
▁boards	-12.37
▁mutants	-12.3701
▁printed	-12.3708
drawn	-12.3709
▁pip	-12.3713
▁companions	-12.3715
▁eg	-12.3715
▁brides	-12.3716
oooooo	-12.3718
▁spur	-12.3724
believe	-12.3725
▁nc	-12.3728
▁bogg	-12.373
▁relive	-12.3731
19	-12.3734
▁dual	-12.374
▁implications	-12.3744
oy	-12.3746
hate	-12.375
ook	-12.375
fighting	-12.3754
▁mcc	-12.3758
25	-12.376
fly	-12.376
▁camps	-12.3765
▁kara	-12.3767
lize	-12.3768
animator	-12.3772
thomas	-12.3773
family	-12.3773
brother	-12.3774
million	-12.3775
often	-12.3776
▁shan	-12.378
▁1800	-12.3784
blooded	-12.3785
▁modeling	-12.3785
▁slippe	-12.3786
▁humane	-12.3789
▁links	-12.379
ern	-12.3792
▁delon	-12.3792
▁stalks	-12.3793
▁condemn	-12.3796
tain	-12.3798
pot	-12.3799
▁cigarettes	-12.3799
cro	-12.38
▁lifts	-12.38
▁formerly	-12.3803
frank	-12.3805
▁lurk	-12.381
▁attain	-12.3812
▁retire	-12.3812
▁marginal	-12.3817
[...]
