<unk>	0
<s>	0
</s>	0
▁the	-3.08956
.	-3.35065
▁a	-3.73794
▁and	-3.79738
s	-3.85919
▁of	-3.90372
▁to	-3.97183
'	-4.04843
▁is	-4.2185
br	-4.23758
▁it	-4.29786
▁in	-4.34281
▁i	-4.37718
▁this	-4.54266
▁that	-4.60237
▁/><	-4.94084
▁/>	-4.96862
▁was	-4.96918
▁movie	-5.01415
t	-5.01672
-	-5.04548
▁for	-5.0919
▁with	-5.11125
▁	-5.14695
▁film	-5.14697
▁as	-5.15852
▁but	-5.16399
.<	-5.22728
▁you	-5.30813
▁on	-5.34757
▁(	-5.43848
▁not	-5.46371
▁are	-5.49611
▁he	-5.52564
▁have	-5.53398
▁be	-5.53414
▁his	-5.5555
▁one	-5.56635
)	-5.67498
▁all	-5.72474
▁they	-5.77758
▁at	-5.78074
▁by	-5.79016
▁an	-5.79459
▁so	-5.84715
▁who	-5.85368
▁like	-5.86273
▁from	-5.8803
▁just	-6.00017
▁there	-6.01485
▁out	-6.02697
▁about	-6.02853
▁her	-6.03192
▁or	-6.03245
▁has	-6.06474
▁if	-6.09913
▁some	-6.1261
▁what	-6.13023
▁good	-6.13201
▁can	-6.16401
ing	-6.19964
▁very	-6.22261
▁more	-6.22775
!	-6.22856
▁when	-6.26483
▁she	-6.29127
▁time	-6.32371
▁no	-6.32378
▁up	-6.32946
▁my	-6.33444
?	-6.33979
▁would	-6.34836
▁even	-6.37366
▁me	-6.38495
the	-6.38993
▁see	-6.39401
▁really	-6.39562
▁story	-6.40005
▁only	-6.42425
d	-6.44448
i	-6.45223
▁their	-6.45544
▁had	-6.45995
▁were	-6.49512
▁which	-6.51172
ed	-6.52143
▁we	-6.52401
▁well	-6.52904
▁much	-6.59729
▁do	-6.59903
▁-	-6.60866
▁than	-6.60941
▁bad	-6.61234
▁get	-6.61238
▁great	-6.62528
▁will	-6.64309
▁people	-6.64311
▁other	-6.64443
▁been	-6.65243
▁don	-6.6744
...	-6.68297
:	-6.68958
▁how	-6.69579
▁because	-6.69777
ly	-6.70289
▁into	-6.7109
▁first	-6.71176
▁also	-6.71216
▁most	-6.72544
▁him	-6.74263
m	-6.74355
▁make	-6.75868
▁made	-6.76998
▁way	-6.78741
▁could	-6.80501
▁too	-6.82994
▁then	-6.8437
▁them	-6.85116
▁think	-6.85325
▁any	-6.85484
▁watch	-6.88381
▁characters	-6.90158
▁after	-6.90571
▁character	-6.91073
▁movies	-6.92532
▁seen	-6.92861
▁love	-6.94397
▁plot	-6.95099
▁show	-6.96434
▁acting	-6.96567
▁many	-6.9674
▁over	-6.98328
▁two	-6.98456
a	-6.99489
▁know	-6.99785
▁being	-6.99795
▁<	-6.9986
▁never	-7.00186
▁best	-7.0044
re	-7.01265
▁'	-7.0155
▁did	-7.02027
▁little	-7.02528
ve	-7.03024
▁life	-7.03105
▁ever	-7.03796
▁where	-7.05565
▁films	-7.06846
▁man	-7.08173
▁your	-7.08532
▁better	-7.08886
y	-7.10509
▁its	-7.10621
▁off	-7.11191
▁does	-7.12235
▁end	-7.12309
▁say	-7.14207
▁scene	-7.17661
▁still	-7.1798
▁here	-7.18321
▁go	-7.19126
▁these	-7.22201
▁scenes	-7.24301
e	-7.25243
▁why	-7.25836
▁should	-7.2589
▁something	-7.26265
▁back	-7.26431
▁through	-7.29747
▁such	-7.29754
▁thing	-7.30069
▁while	-7.30518
▁real	-7.3066
▁watching	-7.31101
in	-7.31994
▁those	-7.33314
▁funny	-7.34992
▁actors	-7.35588
▁didn	-7.36194
▁doesn	-7.36836
).	-7.37209
and	-7.3774
/	-7.38443
▁years	-7.39416
▁work	-7.39774
▁lot	-7.40959
▁look	-7.41705
er	-7.41803
▁find	-7.42035
▁now	-7.4216
▁actually	-7.43077
▁new	-7.43451
▁nothing	-7.44078
▁old	-7.44257
▁before	-7.44887
▁director	-7.4507
▁though	-7.45731
▁going	-7.45949
▁same	-7.46216
▁part	-7.46795
▁every	-7.46831
▁another	-7.47105
▁few	-7.47168
▁big	-7.47685
it	-7.47993
▁makes	-7.48599
<	-7.489
▁cast	-7.49106
ll	-7.51219
▁again	-7.51587
▁want	-7.51997
▁world	-7.5373
▁pretty	-7.54886
▁down	-7.56238
▁horror	-7.56439
▁quite	-7.57246
▁thought	-7.58143
▁us	-7.58402
▁got	-7.59063
▁young	-7.59819
▁things	-7.60627
▁take	-7.60964
▁give	-7.61076
▁fact	-7.61119
▁around	-7.61511
▁long	-7.62647
▁enough	-7.62819
▁seems	-7.63368
▁saw	-7.65408
▁may	-7.65659
▁must	-7.66099
▁comedy	-7.67084
▁right	-7.6736
▁music	-7.67835
▁action	-7.67862
▁own	-7.67953
▁far	-7.69125
▁role	-7.69218
▁come	-7.6974
▁both	-7.70047
▁between	-7.70158
▁guy	-7.7021
▁original	-7.70288
▁always	-7.71058
▁series	-7.71114
▁however	-7.71343
▁interesting	-7.71511
▁isn	-7.71832
▁script	-7.7232
▁whole	-7.72656
▁bit	-7.73239
▁without	-7.73271
▁least	-7.74131
▁point	-7.74738
▁almost	-7.74741
▁done	-7.75172
▁feel	-7.75785
this	-7.75786
▁times	-7.76786
▁am	-7.77213
▁minutes	-7.7758
▁family	-7.7759
▁last	-7.78826
▁gets	-7.78935
▁might	-7.79253
▁anything	-7.80323
▁fun	-7.80324
▁kind	-7.81583
▁girl	-7.82422
▁performance	-7.82524
▁tv	-7.82974
▁since	-7.83396
▁worst	-7.84779
▁probably	-7.85759
▁anyone	-7.86777
▁away	-7.87229
▁hard	-7.87272
▁found	-7.88203
▁sure	-7.88759
▁woman	-7.90041
▁dvd	-7.90461
▁believe	-7.9086
or	-7.91587
▁day	-7.9198
▁each	-7.92406
▁yet	-7.92563
▁rather	-7.9274
▁making	-7.93631
▁book	-7.95138
--	-7.96838
▁put	-7.97002
o	-7.97115
▁ending	-7.97145
▁trying	-7.97351
▁worth	-7.97677
▁course	-7.97952
▁screen	-7.9809
▁our	-7.98463
▁set	-7.99722
▁actor	-7.99724
▁watched	-7.99934
▁having	-8.00465
▁main	-8.00561
▁goes	-8.00768
r	-8.00832
▁sense	-8.01134
▁everything	-8.01142
▁different	-8.01213
▁play	-8.01344
▁place	-8.0157
▁let	-8.01623
n	-8.0172
▁money	-8.01788
▁played	-8.01792
▁reason	-8.02123
▁job	-8.02346
▁wasn	-8.03094
▁someone	-8.03608
▁true	-8.04146
▁looking	-8.04456
▁three	-8.04721
▁effects	-8.05028
▁high	-8.05118
▁war	-8.0513
▁especially	-8.05505
▁comes	-8.05538
▁black	-8.05811
▁everyone	-8.05858
as	-8.06659
▁special	-8.06856
▁fan	-8.07145
▁together	-8.07218
▁shows	-8.07402
▁maybe	-8.0771
▁once	-8.07769
▁seem	-8.09536
▁night	-8.09566
▁plays	-8.09925
▁half	-8.10047
▁american	-8.10183
▁looks	-8.10507
▁beautiful	-8.10557
▁audience	-8.10923
▁excellent	-8.11023
▁said	-8.11267
(	-8.11835
▁seeing	-8.12041
▁version	-8.12541
▁idea	-8.12548
▁instead	-8.12719
▁2	-8.13312
▁left	-8.13544
es	-8.13568
▁during	-8.13972
▁short	-8.1443
▁although	-8.14651
▁mind	-8.15051
but	-8.15857
▁later	-8.16056
▁else	-8.16063
on	-8.1624
▁year	-8.17109
▁takes	-8.17173
▁star	-8.17251
▁shot	-8.17432
▁wife	-8.18187
▁death	-8.18199
▁home	-8.18374
▁nice	-8.18483
▁poor	-8.1854
▁himself	-8.18671
▁house	-8.18782
▁john	-8.19479
▁read	-8.19738
▁father	-8.19895
▁10	-8.19973
▁enjoy	-8.20475
▁completely	-8.21432
▁low	-8.21713
▁boring	-8.21847
▁along	-8.22662
▁second	-8.22949
▁stupid	-8.23337
▁re	-8.2354
▁men	-8.23619
▁recommend	-8.23647
▁used	-8.23714
▁line	-8.23812
▁simply	-8.23972
▁need	-8.2419
▁school	-8.24272
▁classic	-8.24432
▁help	-8.24439
▁wrong	-8.25037
▁kids	-8.25279
▁hollywood	-8.25857
▁b	-8.26351
▁friends	-8.26553
▁try	-8.26677
▁rest	-8.2757
▁dead	-8.28034
▁production	-8.28213
▁either	-8.28233
▁less	-8.28411
if	-8.28834
▁women	-8.2888
▁camera	-8.28924
▁mean	-8.29228
c	-8.29296
▁full	-8.29373
▁use	-8.29547
▁start	-8.29562
▁couple	-8.29766
▁understand	-8.29841
al	-8.29957
▁sex	-8.29984
▁un	-8.3007
▁video	-8.30689
▁tell	-8.30718
▁truly	-8.31367
▁remember	-8.31469
▁performances	-8.31832
▁terrible	-8.32003
▁awful	-8.32179
▁given	-8.32298
▁top	-8.32316
▁came	-8.32376
▁budget	-8.32771
▁until	-8.32916
man	-8.33434
▁won	-8.34702
▁--	-8.34991
▁next	-8.35271
▁getting	-8.3569
to	-8.35701
▁wonderful	-8.3574
▁head	-8.35904
▁keep	-8.35952
▁person	-8.36095
▁episode	-8.36136
▁sound	-8.37251
▁mother	-8.37337
▁laugh	-8.37713
▁moments	-8.382
k	-8.38556
▁name	-8.38674
▁small	-8.39099
▁perfect	-8.39326
▁human	-8.39585
▁boy	-8.39602
▁piece	-8.39652
▁face	-8.39887
▁dialogue	-8.3991
▁itself	-8.40293
▁definitely	-8.40895
▁car	-8.40997
▁live	-8.41017
▁under	-8.41103
th	-8.41505
▁couldn	-8.41849
▁playing	-8.42354
▁absolutely	-8.42878
▁doing	-8.43049
▁waste	-8.43147
▁children	-8.43429
▁went	-8.44125
▁entertaining	-8.44388
▁stars	-8.44521
▁friend	-8.44705
▁hope	-8.44846
▁cinema	-8.44935
▁lines	-8.44994
▁case	-8.45037
▁early	-8.45045
▁worse	-8.45054
▁picture	-8.45065
▁sort	-8.45102
▁liked	-8.45555
▁loved	-8.45774
▁often	-8.45878
▁dark	-8.46901
ness	-8.47265
▁style	-8.477
▁perhaps	-8.47957
▁3	-8.48276
▁certainly	-8.48691
▁felt	-8.49072
▁title	-8.49609
▁gives	-8.5035
▁supposed	-8.50372
g	-8.50616
▁care	-8.50718
▁drama	-8.5077
▁lost	-8.50883
▁humor	-8.50948
▁beginning	-8.51187
▁written	-8.51217
▁become	-8.51292
▁several	-8.51463
▁direction	-8.51606
▁entire	-8.5199
l	-8.52132
▁problem	-8.5239
▁game	-8.52518
▁lead	-8.52907
▁mr	-8.53034
▁white	-8.53261
▁totally	-8.53877
▁seemed	-8.54087
▁guess	-8.54435
▁de	-8.54743
▁guys	-8.54896
▁turn	-8.55581
▁others	-8.55698
▁based	-8.56021
▁evil	-8.56749
▁flick	-8.56821
▁wanted	-8.57187
▁heart	-8.57195
there	-8.57413
▁side	-8.57449
an	-8.57499
▁example	-8.57643
▁finally	-8.57682
▁horrible	-8.57725
▁1	-8.58153
▁son	-8.58279
▁fine	-8.58965
▁fans	-8.59197
▁against	-8.5935
▁lives	-8.59367
▁quality	-8.59876
▁amazing	-8.59907
▁killer	-8.59941
▁already	-8.60409
▁called	-8.60512
▁run	-8.6059
▁throughout	-8.60665
!<	-8.60693
▁writing	-8.60776
▁today	-8.61172
▁art	-8.61337
▁expect	-8.61596
▁close	-8.61736
▁past	-8.61866
▁town	-8.61914
▁enjoyed	-8.62041
▁history	-8.62613
▁god	-8.62954
▁kid	-8.62987
▁able	-8.63035
p	-8.63359
▁final	-8.63405
▁favorite	-8.63416
▁oh	-8.64151
▁yes	-8.64235
▁matter	-8.64376
▁gave	-8.64413
▁stuff	-8.64618
▁days	-8.64769
▁act	-8.64778
so	-8.64855
up	-8.65258
▁kill	-8.65347
▁child	-8.65878
▁becomes	-8.66134
▁viewer	-8.66231
▁etc	-8.66977
▁tries	-8.67737
▁hand	-8.67793
▁brilliant	-8.6827
▁slow	-8.6836
▁genre	-8.6846
▁late	-8.69724
▁myself	-8.70293
▁blood	-8.70612
▁wants	-8.70891
▁michael	-8.71256
▁decent	-8.7139
▁despite	-8.71544
▁actress	-8.71973
▁unfortunately	-8.72041
▁city	-8.72076
▁eyes	-8.72196
▁group	-8.72368
▁behind	-8.72726
▁parts	-8.72917
▁thinking	-8.7298
▁girls	-8.73167
▁turns	-8.73217
▁works	-8.73223
▁crap	-8.73756
▁strong	-8.73899
▁killed	-8.74079
▁voice	-8.74092
▁themselves	-8.7431
▁hour	-8.74539
▁sometimes	-8.74726
▁feeling	-8.74769
▁daughter	-8.74906
▁self	-8.7512
▁heard	-8.75141
▁soon	-8.75252
▁highly	-8.75372
▁experience	-8.75553
▁fight	-8.75799
ers	-8.76088
▁directed	-8.76188
▁type	-8.76468
▁overall	-8.76606
▁)	-8.76642
▁cool	-8.76862
▁obviously	-8.76877
▁murder	-8.77005
▁happen	-8.77375
▁wonder	-8.77537
▁took	-8.77541
▁sad	-8.77833
▁hit	-8.77895
▁chance	-8.7847
▁starts	-8.78471
▁hilarious	-8.78753
▁hell	-8.78851
▁lack	-8.78906
▁simple	-8.79035
▁wouldn	-8.79465
▁happens	-8.79605
▁score	-8.79782
▁stop	-8.79792
▁extremely	-8.79883
▁coming	-8.80285
▁involved	-8.80332
▁looked	-8.80528
▁cut	-8.80975
▁leave	-8.8105
▁stories	-8.81156
▁moment	-8.81357
▁told	-8.81458
▁ago	-8.81806
le	-8.81829
▁brother	-8.8198
▁song	-8.82374
▁husband	-8.82425
en	-8.82487
▁happened	-8.82826
▁save	-8.82869
▁violence	-8.82954
▁wish	-8.8315
▁cannot	-8.83226
▁attempt	-8.83282
▁complete	-8.83608
for	-8.84054
h	-8.84155
b	-8.84186
▁writer	-8.84309
he	-8.84329
▁gore	-8.84333
▁huge	-8.84342
▁living	-8.84358
▁ok	-8.84439
▁o	-8.84447
▁obvious	-8.84491
!!	-8.84736
▁police	-8.84749
like	-8.84778
▁serious	-8.84907
▁interest	-8.85705
▁age	-8.85867
ic	-8.86073
▁call	-8.86225
one	-8.86389
▁yourself	-8.86471
▁light	-8.86782
▁roles	-8.86941
▁jokes	-8.86948
▁please	-8.87052
▁cheap	-8.87069
▁cinematography	-8.8708
▁talent	-8.87274
▁shown	-8.87403
▁5	-8.8773
▁ten	-8.87854
▁opinion	-8.87964
▁career	-8.87993
▁annoying	-8.88138
▁released	-8.88288
fi	-8.88405
▁anyway	-8.88464
▁word	-8.89086
).<	-8.89206
▁taken	-8.89282
▁hero	-8.89295
▁seriously	-8.89375
▁english	-8.89431
▁order	-8.89464
ie	-8.89514
▁except	-8.89762
▁documentary	-8.89852
▁relationship	-8.89866
▁known	-8.90096
▁ridiculous	-8.90156
▁4	-8.90481
▁disappointed	-8.90485
▁number	-8.9052
▁hours	-8.90561
▁particularly	-8.90947
▁across	-8.91067
f	-8.91149
▁alone	-8.91238
▁view	-8.91376
▁exactly	-8.91415
▁usually	-8.91478
▁reality	-8.91503
▁saying	-8.91534
▁david	-8.91622
▁usual	-8.91737
▁power	-8.91904
▁female	-8.92195
▁started	-8.92374
▁james	-8.92445
▁change	-8.92518
▁says	-8.92605
▁none	-8.9275
▁...	-8.93047
▁middle	-8.93095
▁scary	-8.93176
▁silly	-8.93327
▁non	-8.93366
no	-8.93465
▁possible	-8.93588
▁co	-8.9394
▁attention	-8.9404
▁major	-8.94042
▁country	-8.94107
at	-8.94143
▁body	-8.94544
▁knew	-8.94574
▁running	-8.94595
▁opening	-8.94809
▁robert	-8.95213
▁strange	-8.95484
all	-8.9557
▁beyond	-8.95608
▁level	-8.95722
which	-8.95802
▁musical	-8.95939
▁miss	-8.96036
▁due	-8.96092
▁f	-8.96173
▁television	-8.96212
ther	-8.96411
▁single	-8.96698
▁four	-8.96708
▁novel	-8.96763
▁somewhat	-8.97079
▁c	-8.97106
▁20	-8.9711
▁important	-8.97139
▁turned	-8.97311
▁add	-8.97421
▁local	-8.97477
▁among	-8.97581
▁happy	-8.97641
▁modern	-8.97641
▁jack	-8.9768
▁earth	-8.9789
▁dialog	-8.9795
▁shots	-8.98261
▁king	-8.98325
▁die	-8.98401
▁la	-8.98712
▁room	-8.98785
not	-8.98895
▁taking	-8.98897
▁predictable	-8.98929
▁rating	-8.99019
▁near	-8.99244
▁dull	-8.99312
▁words	-8.9935
*	-8.99817
▁fast	-9.00013
▁hate	-9.00277
▁soundtrack	-9.00306
!!!	-9.0053
▁talking	-9.0059
▁whose	-9.00665
▁d	-9.0071
▁enjoyable	-9.00776
▁team	-9.00832
▁space	-9.00848
▁french	-9.0125
who	-9.01844
▁clich	-9.01847
▁entertainment	-9.01979
▁buy	-9.0199
▁subject	-9.02157
▁review	-9.02186
▁episodes	-9.02198
▁romantic	-9.02301
▁straight	-9.02565
▁british	-9.02691
▁mostly	-9.02777
▁dr	-9.02951
▁aren	-9.03035
▁basically	-9.03111
▁thriller	-9.03344
▁rock	-9.03432
▁future	-9.03533
▁talk	-9.03535
▁sequel	-9.03537
▁comic	-9.03731
▁haven	-9.03827
what	-9.04109
▁clearly	-9.04451
▁message	-9.04623
▁storyline	-9.04661
▁problems	-9.04727
▁including	-9.04912
▁events	-9.04986
is	-9.04999
▁songs	-9.05015
▁eye	-9.05101
▁clear	-9.0513
of	-9.05172
▁stand	-9.05179
my	-9.05259
▁upon	-9.05286
▁surprised	-9.05317
▁bring	-9.05374
able	-9.05664
▁mention	-9.05911
▁fall	-9.06027
▁apparently	-9.06131
▁monster	-9.06339
▁bunch	-9.06387
▁george	-9.06512
▁whe	-9.06659
▁supporting	-9.06758
▁above	-9.06791
▁theater	-9.06876
▁similar	-9.06944
▁dog	-9.07143
▁sequence	-9.07484
!)	-9.07534
▁sister	-9.07868
▁moving	-9.07929
▁material	-9.07954
▁ends	-9.08212
el	-9.08317
▁doubt	-9.08496
▁five	-9.08504
▁easily	-9.0885
▁effort	-9.09098
▁red	-9.09165
▁suspense	-9.09514
▁tried	-9.09552
ch	-9.09765
▁rent	-9.09878
▁giving	-9.10033
▁release	-9.1048
▁falls	-9.10593
▁easy	-9.10605
▁sit	-9.10775
▁stay	-9.10794
▁parents	-9.10889
▁oscar	-9.10914
ting	-9.11201
▁follow	-9.11325
▁certain	-9.1139
▁fantastic	-9.11626
▁check	-9.11634
▁viewing	-9.11654
▁tells	-9.11713
▁kept	-9.11857
▁lady	-9.11956
▁showing	-9.11962
▁class	-9.12005
▁deal	-9.1201
▁theme	-9.12265
▁comments	-9.1266
▁hot	-9.12981
▁finds	-9.12989
▁tale	-9.1317
▁premise	-9.13509
▁greatest	-9.13569
▁19	-9.13603
▁feature	-9.13739
▁editing	-9.13762
▁realistic	-9.13829
▁forget	-9.13843
▁sets	-9.13974
▁period	-9.14025
w	-9.1405
▁decided	-9.14276
▁imagine	-9.14468
▁hear	-9.14523
z	-9.14541
▁working	-9.14551
▁lame	-9.14675
▁gone	-9.14935
▁weak	-9.1496
▁move	-9.15144
▁appears	-9.15302
▁typical	-9.15331
▁avoid	-9.15436
▁believable	-9.15492
▁mystery	-9.15578
▁animation	-9.1564
est	-9.15734
▁needs	-9.15735
▁famous	-9.16016
▁e	-9.16196
▁general	-9.16197
▁gay	-9.16269
▁reviews	-9.16322
▁doctor	-9.16472
▁crime	-9.16546
▁wait	-9.17369
▁sorry	-9.17422
▁filmed	-9.17466
▁romance	-9.17511
out	-9.17561
▁knows	-9.1757
▁learn	-9.17945
▁open	-9.18079
▁named	-9.18176
▁sci	-9.18184
▁actual	-9.18275
▁within	-9.1828
▁nearly	-9.18476
▁deep	-9.18633
you	-9.18637
▁g	-9.18657
▁elements	-9.18679
▁dance	-9.18936
▁imdb	-9.18961
▁surprise	-9.19003
▁viewers	-9.19115
▁using	-9.19177
▁lots	-9.19238
▁average	-9.19813
▁weird	-9.19868
▁dumb	-9.19882
▁t	-9.19955
by	-9.20145
▁brought	-9.20168
▁pay	-9.20382
▁atmosphere	-9.204
▁truth	-9.20472
▁air	-9.20477
▁season	-9.20678
▁poorly	-9.20739
▁america	-9.20903
well	-9.21072
▁shame	-9.21324
▁spend	-9.21692
u	-9.21712
▁somehow	-9.2175
▁expected	-9.21758
v	-9.21786
▁figure	-9.21787
▁box	-9.22056
▁form	-9.22222
▁street	-9.22432
▁cop	-9.22478
▁killing	-9.22524
▁free	-9.22567
▁york	-9.2259
na	-9.22753
▁copy	-9.22836
0	-9.22856
▁peter	-9.22883
▁situation	-9.22972
▁comment	-9.23117
▁herself	-9.23334
▁paul	-9.23346
that	-9.23545
▁okay	-9.23625
▁leads	-9.23783
▁western	-9.23833
▁means	-9.23878
▁p	-9.23983
▁sequences	-9.24026
ion	-9.24057
▁write	-9.24269
▁richard	-9.24534
▁crew	-9.24537
3	-9.24748
▁particular	-9.24799
▁*	-9.24972
▁superb	-9.25084
▁cheesy	-9.25335
▁reading	-9.25361
▁minute	-9.25369
▁third	-9.25375
▁question	-9.26073
▁admit	-9.2614
▁male	-9.26265
▁difficult	-9.26467
▁begins	-9.26579
▁water	-9.26579
▁points	-9.26832
▁begin	-9.26842
▁dream	-9.26868
less	-9.27131
be	-9.27249
▁nor	-9.27254
▁fire	-9.27359
▁mess	-9.27378
▁masterpiece	-9.27392
▁island	-9.27466
▁lee	-9.27593
▁became	-9.27635
▁forward	-9.27691
▁screenplay	-9.27726
ra	-9.27912
▁mad	-9.28398
▁society	-9.28399
ish	-9.28538
▁feels	-9.28567
▁stage	-9.28583
▁mark	-9.28686
▁footage	-9.28811
▁interested	-9.2895
▁potential	-9.29067
▁possibly	-9.29512
▁forced	-9.29782
▁needed	-9.29821
▁meet	-9.29841
▁break	-9.29991
▁effect	-9.30134
▁sexual	-9.3017
▁disney	-9.30271
▁indeed	-9.30274
▁bill	-9.30278
▁cover	-9.30287
▁joke	-9.30355
▁boys	-9.30462
▁beauty	-9.30511
▁cat	-9.30572
with	-9.30645
▁development	-9.30776
▁eventually	-9.31056
▁whatever	-9.31115
▁plain	-9.31124
▁agree	-9.31194
▁memorable	-9.31199
▁girlfriend	-9.31245
▁total	-9.31345
▁result	-9.31357
▁emotional	-9.31447
▁j	-9.31488
▁badly	-9.31719
▁otherwise	-9.31777
▁realize	-9.31796
▁previous	-9.31857
▁incredibly	-9.3191
▁nature	-9.31942
▁credits	-9.3202
▁plus	-9.32396
▁features	-9.32487
▁laughs	-9.3272
▁u	-9.32795
time	-9.32816
▁ex	-9.3302
▁!	-9.33038
▁unique	-9.33174
▁rich	-9.33181
▁leaves	-9.33289
▁front	-9.33301
▁gun	-9.33457
▁baby	-9.33582
▁twist	-9.33589
ian	-9.33636
▁perfectly	-9.33873
▁background	-9.33874
▁personal	-9.33913
▁acted	-9.33948
▁van	-9.3402
▁crazy	-9.34196
▁setting	-9.34382
▁plenty	-9.34646
ist	-9.34701
ism	-9.34747
us	-9.34796
▁creepy	-9.34908
ation	-9.34946
▁meets	-9.35034
▁ways	-9.35167
▁inside	-9.35275
▁business	-9.35406
▁quickly	-9.3542
▁cute	-9.35465
▁hands	-9.35499
do	-9.35501
▁italian	-9.35544
▁directing	-9.35742
▁super	-9.35823
co	-9.35963
la	-9.36
▁worked	-9.36201
?)	-9.36448
▁wasted	-9.36485
▁flat	-9.36856
▁keeps	-9.37035
▁battle	-9.37191
▁odd	-9.3738
▁ask	-9.37491
▁present	-9.37701
▁r	-9.37782
▁japanese	-9.37823
▁spent	-9.37899
▁cartoon	-9.37936
▁earlier	-9.38084
▁fairly	-9.3809
▁older	-9.38126
▁list	-9.38192
▁appear	-9.38259
2	-9.38435
▁expecting	-9.38519
de	-9.38624
▁deserves	-9.38847
▁powerful	-9.39016
even	-9.39088
▁unless	-9.39138
▁era	-9.39143
▁secret	-9.3917
▁large	-9.39261
▁writers	-9.39366
▁portrayed	-9.39367
▁note	-9.39611
1	-9.3968
▁dramatic	-9.39705
▁public	-9.39734
▁leading	-9.39963
▁towards	-9.39965
▁fails	-9.40158
ma	-9.40402
▁laughing	-9.4042
▁sounds	-9.4048
▁villain	-9.40925
▁sub	-9.41101
ity	-9.412
▁clever	-9.41244
▁pure	-9.41253
▁recently	-9.4139
▁following	-9.41475
▁various	-9.41568
▁success	-9.41577
son	-9.41722
▁pace	-9.41796
▁german	-9.42026
▁train	-9.42045
▁talented	-9.42128
▁caught	-9.42337
▁hair	-9.42384
▁remake	-9.42526
▁band	-9.42576
▁hold	-9.4273
▁zombie	-9.4292
▁missing	-9.42952
il	-9.4296
▁create	-9.43529
▁sweet	-9.43604
▁brings	-9.43637
▁30	-9.43719
▁camp	-9.43758
▁brain	-9.43991
▁store	-9.44017
▁escape	-9.44105
▁sick	-9.44224
▁bar	-9.44452
▁fighting	-9.44528
▁focus	-9.44535
▁joe	-9.44701
▁anti	-9.4481
ling	-9.44843
....	-9.44955
▁nudity	-9.44997
▁party	-9.45069
▁meant	-9.45102
▁visual	-9.45177
▁incredible	-9.45177
▁trash	-9.45319
da	-9.45486
▁language	-9.45796
▁ended	-9.45828
▁manages	-9.45832
▁hardly	-9.45872
▁appreciate	-9.46023
▁l	-9.46039
▁return	-9.46133
ies	-9.46191
▁missed	-9.46218
▁speak	-9.46396
un	-9.464
▁tension	-9.46478
▁whom	-9.46523
▁cold	-9.46528
▁fit	-9.46692
▁fantasy	-9.46702
▁bored	-9.46752
▁trouble	-9.46779
▁win	-9.46804
▁reasons	-9.46955
▁fear	-9.46998
▁married	-9.47022
▁casting	-9.47029
▁value	-9.47035
▁political	-9.47201
▁post	-9.47304
don	-9.47321
▁tom	-9.47419
▁waiting	-9.47606
▁fake	-9.47637
▁members	-9.47873
ine	-9.479
we	-9.47918
ment	-9.47992
▁project	-9.48039
▁credit	-9.48042
▁telling	-9.4819
▁road	-9.48225
▁college	-9.48316
▁outside	-9.48493
▁k	-9.48536
▁pre	-9.4854
▁attempts	-9.48721
▁rate	-9.48944
▁science	-9.48948
▁apart	-9.48967
ur	-9.49096
▁con	-9.49107
▁pick	-9.49184
▁channel	-9.49215
▁company	-9.4924
▁amusing	-9.49344
▁scott	-9.49477
▁pointless	-9.49729
▁state	-9.49894
▁portrayal	-9.50077
▁william	-9.50243
▁familiar	-9.50273
▁awesome	-9.50283
▁common	-9.50385
▁slightly	-9.50622
▁al	-9.5064
▁office	-9.50727
▁wrote	-9.50733
▁created	-9.50758
▁master	-9.50846
▁8	-9.51114
gest	-9.51114
▁consider	-9.51177
▁ben	-9.51271
▁convincing	-9.51528
▁filmmakers	-9.51665
▁christmas	-9.51756
▁amount	-9.51791
▁track	-9.51843
▁gang	-9.51931
te	-9.5204
mo	-9.52108
▁choice	-9.52215
▁control	-9.52295
▁basic	-9.5238
▁popular	-9.5239
▁positive	-9.52486
▁died	-9.52616
▁considering	-9.52619
▁dancing	-9.52632
▁further	-9.52717
▁7	-9.53345
▁intelligent	-9.53356
▁9	-9.53374
▁park	-9.53464
▁pathetic	-9.53504
▁15	-9.53673
▁solid	-9.5387
▁tough	-9.53871
▁social	-9.53925
▁century	-9.5403
▁produced	-9.5403
▁concept	-9.54078
▁directors	-9.54086
▁ideas	-9.54116
▁bizarre	-9.54436
▁garbage	-9.54436
▁exciting	-9.54545
▁unlike	-9.54762
▁bother	-9.54826
▁mentioned	-9.55025
▁recommended	-9.55123
▁respect	-9.55222
▁force	-9.55391
▁trip	-9.55597
▁humour	-9.55642
▁decide	-9.55961
▁match	-9.56039
▁compared	-9.5609
▁glad	-9.56103
▁accent	-9.56213
▁sam	-9.56395
▁studio	-9.5653
▁appeal	-9.56548
▁neither	-9.56659
▁younger	-9.56742
▁spirit	-9.56759
▁cult	-9.56772
▁walk	-9.56846
▁alive	-9.56982
▁entirely	-9.56988
com	-9.57142
▁former	-9.57171
ha	-9.57193
▁drug	-9.5722
ta	-9.5724
▁decides	-9.57301
▁impressive	-9.57321
▁follows	-9.57367
ter	-9.57427
▁situations	-9.57453
▁week	-9.57759
▁mood	-9.57916
▁sadly	-9.57986
▁violent	-9.57995
go	-9.58009
some	-9.58209
▁producers	-9.58319
▁cause	-9.58421
▁fair	-9.58596
▁conclusion	-9.58691
▁culture	-9.58697
▁moves	-9.58713
land	-9.58762
▁honest	-9.58918
movie	-9.58972
x	-9.59159
▁adult	-9.59207
▁jane	-9.59235
▁bought	-9.59237
▁successful	-9.59348
▁depth	-9.59472
▁edge	-9.59487
▁recent	-9.5958
▁bo	-9.59642
▁filled	-9.59731
▁remind	-9.59865
▁disturbing	-9.59945
ar	-9.60153
▁brothers	-9.60279
▁chemistry	-9.60386
▁shoot	-9.60424
▁green	-9.60439
off	-9.60518
▁touch	-9.60576
▁opera	-9.60696
▁h	-9.60734
▁vampire	-9.60762
▁west	-9.60833
▁effective	-9.60852
▁south	-9.60888
▁genius	-9.60935
▁meaning	-9.60937
▁?	-9.61155
▁shooting	-9.6117
▁weren	-9.61297
▁images	-9.61527
▁showed	-9.61629
▁longer	-9.61749
▁values	-9.61861
▁sea	-9.62037
▁dad	-9.6205
▁taste	-9.62071
▁stick	-9.62185
▁prison	-9.62316
▁tone	-9.62323
▁club	-9.62397
▁changed	-9.62465
▁impression	-9.62483
▁silent	-9.62608
▁bed	-9.62648
▁barely	-9.62649
▁alien	-9.62679
▁impossible	-9.62731
▁revenge	-9.62978
▁suddenly	-9.63148
▁smart	-9.63189
▁law	-9.63353
ge	-9.63468
ne	-9.63472
▁failed	-9.63764
▁chase	-9.64244
she	-9.64459
although	-9.64557
▁uses	-9.64603
▁explain	-9.64738
▁festival	-9.6476
▁stunning	-9.6476
▁singing	-9.64762
▁adventure	-9.64769
▁90	-9.64941
▁blue	-9.65016
▁pass	-9.65073
j	-9.65141
▁fiction	-9.65158
▁wild	-9.65395
▁questions	-9.65418
▁jim	-9.6552
▁kills	-9.65553
ri	-9.6558
▁considered	-9.65779
▁journey	-9.65854
▁somewhere	-9.6596
▁added	-9.65985
▁80'	-9.66071
▁frank	-9.66309
▁yeah	-9.66312
▁planet	-9.66359
▁starring	-9.66531
▁sexy	-9.66566
▁catch	-9.6673
▁normal	-9.6713
▁twists	-9.67155
old	-9.67202
▁available	-9.67331
▁involving	-9.67342
ley	-9.67492
▁charming	-9.67521
▁scenery	-9.67774
▁leaving	-9.67968
▁army	-9.67995
▁computer	-9.68001
▁land	-9.68266
▁slasher	-9.68276
▁ultimately	-9.68307
▁sitting	-9.68474
▁standard	-9.68532
when	-9.68634
▁disappointing	-9.68652
▁100	-9.68751
they	-9.68925
▁innocent	-9.68956
▁soul	-9.69024
▁purpose	-9.69133
▁ray	-9.69153
▁ghost	-9.69435
▁photography	-9.69479
ia	-9.69532
▁london	-9.69589
▁government	-9.69599
▁immediately	-9.69606
▁issues	-9.69701
am	-9.69757
▁jones	-9.69791
▁ride	-9.69909
▁honestly	-9.70152
▁plan	-9.70269
ally	-9.70455
ton	-9.70502
▁nobody	-9.70526
ro	-9.70716
▁beautifully	-9.70829
▁disappointment	-9.70866
age	-9.70905
▁appearance	-9.70965
▁nowhere	-9.70979
▁subtle	-9.71003
▁loud	-9.71081
▁mary	-9.71108
▁rare	-9.71161
▁laughable	-9.71165
▁charles	-9.71181
▁personally	-9.7123
▁surprisingly	-9.71234
▁terrific	-9.71253
▁soldiers	-9.71349
▁excuse	-9.71376
ive	-9.71429
▁magic	-9.71498
▁heavy	-9.71664
▁door	-9.71967
▁touching	-9.71995
▁adaptation	-9.72018
▁attack	-9.72076
▁everybody	-9.72313
▁boyfriend	-9.72334
▁lovely	-9.72426
▁comedies	-9.72431
▁aspect	-9.72437
▁date	-9.72473
▁ability	-9.72576
▁giant	-9.72587
▁suppose	-9.7265
▁teen	-9.72655
▁smith	-9.72748
▁natural	-9.73106
▁drive	-9.73138
▁throw	-9.7314
▁manner	-9.73167
▁unbelievable	-9.73204
▁books	-9.73225
▁managed	-9.73598
▁charm	-9.73665
▁cry	-9.73736
▁pain	-9.73762
▁animated	-9.73764
▁naked	-9.73765
▁rip	-9.74119
▁painful	-9.74148
▁support	-9.74317
▁le	-9.74396
▁cinematic	-9.74398
▁finish	-9.74413
▁bond	-9.74655
▁presence	-9.7466
▁outstanding	-9.74685
▁remains	-9.7471
▁utterly	-9.74743
▁generally	-9.74746
▁terms	-9.74748
▁victim	-9.74849
▁color	-9.74862
▁award	-9.75092
▁ed	-9.75101
▁aside	-9.75137
▁complex	-9.75184
making	-9.75225
▁narrative	-9.7533
▁fell	-9.756
▁indian	-9.76035
▁thrown	-9.76037
▁summer	-9.76048
▁happening	-9.7614
5	-9.762
▁likely	-9.76317
▁double	-9.76423
em	-9.7651
ry	-9.76531
▁ship	-9.76538
▁details	-9.76585
▁costumes	-9.76622
▁literally	-9.76889
▁hospital	-9.76955
▁wow	-9.77202
▁student	-9.77212
▁content	-9.77228
▁building	-9.77234
▁expectations	-9.77277
▁wood	-9.77406
▁80	-9.77504
▁detective	-9.7764
▁thanks	-9.77723
▁emotions	-9.77763
ey	-9.77922
▁runs	-9.78178
▁climax	-9.78181
ul	-9.78229
▁mistake	-9.78269
▁bottom	-9.78297
▁hurt	-9.78301
▁grace	-9.78326
▁hoping	-9.78375
4	-9.78447
▁gem	-9.78567
▁pictures	-9.78752
▁intended	-9.78916
▁tired	-9.79052
▁beat	-9.79081
▁sent	-9.79261
▁knowing	-9.79393
▁fresh	-9.79418
▁minor	-9.79484
▁historical	-9.79488
budget	-9.79561
▁brief	-9.79601
▁laughed	-9.79626
▁zombies	-9.7966
▁mom	-9.79666
▁constantly	-9.7967
▁producer	-9.79702
▁thank	-9.79746
▁martin	-9.79757
▁emotion	-9.79774
▁makers	-9.7987
director	-9.79987
ous	-9.80015
▁mysterious	-9.80036
▁spoilers	-9.80037
over	-9.80137
▁boss	-9.80168
ty	-9.80168
▁military	-9.80174
ce	-9.80256
▁serial	-9.80286
▁walking	-9.80542
▁phone	-9.80657
▁contains	-9.80821
▁st	-9.80856
▁race	-9.80867
▁confusing	-9.80994
▁paris	-9.81067
▁chris	-9.81169
▁charlie	-9.81177
▁fascinating	-9.81284
▁mid	-9.81299
▁n	-9.8132
▁forever	-9.81326
▁suggest	-9.81372
9	-9.81601
▁audiences	-9.81605
▁slowly	-9.81658
▁se	-9.81716
▁exception	-9.81759
▁changes	-9.81796
▁direct	-9.81989
▁bruce	-9.82047
▁da	-9.82093
▁pop	-9.82105
ized	-9.82176
▁notice	-9.82181
▁presented	-9.82222
now	-9.82429
lo	-9.8243
▁shocking	-9.82481
▁answer	-9.82507
▁spot	-9.82686
▁compelling	-9.8286
▁folks	-9.83024
▁sat	-9.83229
▁collection	-9.83297
▁stands	-9.83452
▁pull	-9.83468
7	-9.83583
▁central	-9.83586
▁quick	-9.8369
▁offer	-9.83781
▁m	-9.8379
▁shock	-9.83846
▁detail	-9.83984
▁equally	-9.84082
▁justice	-9.84096
▁w	-9.84167
▁marriage	-9.84327
▁steve	-9.84503
▁names	-9.84582
▁x	-9.84596
▁sleep	-9.84664
▁students	-9.84802
▁harry	-9.84945
▁fully	-9.85004
men	-9.85009
overall	-9.85025
▁critics	-9.85067
ful	-9.85156
just	-9.8519
▁step	-9.85204
▁torture	-9.8535
▁negative	-9.85352
▁system	-9.85511
▁fashion	-9.85655
um	-9.85669
▁creative	-9.85821
▁impact	-9.85824
▁ahead	-9.85828
ke	-9.85911
▁six	-9.85922
▁agent	-9.85965
▁10.	-9.8601
▁opportunity	-9.86097
▁aspects	-9.86102
▁ground	-9.86157
▁extreme	-9.86161
▁motion	-9.86233
▁include	-9.86397
▁grade	-9.86422
▁fox	-9.8658
▁trailer	-9.86584
▁surely	-9.86681
▁compare	-9.86689
ner	-9.86756
▁disaster	-9.86863
▁rented	-9.86864
▁confused	-9.86875
▁impressed	-9.86894
▁million	-9.86915
▁50	-9.86927
▁gorgeous	-9.86999
▁jean	-9.87047
▁mix	-9.87083
▁industry	-9.8715
▁likable	-9.8715
▁funniest	-9.87165
▁ha	-9.87189
▁feelings	-9.87261
▁per	-9.87269
▁image	-9.8735
see	-9.87362
▁ma	-9.87376
rs	-9.87512
▁mainly	-9.87533
▁extra	-9.87625
▁pieces	-9.87706
▁treat	-9.87836
▁church	-9.87909
▁affair	-9.87951
▁location	-9.87982
▁sight	-9.87992
dy	-9.87998
▁radio	-9.8802
▁porn	-9.88099
▁hey	-9.88342
▁rated	-9.88351
▁pleasure	-9.88367
▁fellow	-9.88369
▁hitchcock	-9.88526
▁twice	-9.88535
▁thus	-9.8858
▁themes	-9.88581
▁tony	-9.88592
▁finding	-9.88751
▁grand	-9.8884
▁gold	-9.88862
▁noir	-9.88984
▁epic	-9.88996
▁russian	-9.89083
▁wondering	-9.89135
▁holes	-9.89271
▁paid	-9.89322
▁:	-9.89328
after	-9.8941
▁random	-9.89477
▁stewart	-9.89478
▁lover	-9.89541
▁anymore	-9.89654
▁mediocre	-9.89762
▁damn	-9.89834
▁imagination	-9.89909
▁process	-9.89926
▁dreams	-9.89936
ted	-9.89994
▁difference	-9.89996
▁mc	-9.90038
▁share	-9.90195
▁lived	-9.9022
▁appeared	-9.9031
▁passion	-9.90553
8	-9.90608
▁drawn	-9.90789
▁born	-9.91016
▁developed	-9.91165
▁suicide	-9.91177
▁batman	-9.91203
▁reminded	-9.91212
▁key	-9.9122
▁lighting	-9.91263
▁count	-9.91267
▁forgotten	-9.91339
▁flicks	-9.91444
▁wind	-9.91467
me	-9.91487
▁mine	-9.9164
line	-9.91749
▁hasn	-9.9177
▁acts	-9.91781
▁plane	-9.91816
▁falling	-9.9227
▁stuck	-9.92429
▁station	-9.92451
▁moral	-9.92461
▁intense	-9.92464
▁billy	-9.92487
▁delivers	-9.9256
▁loose	-9.92583
▁scientist	-9.92748
▁machine	-9.92754
▁attractive	-9.92758
her	-9.92785
▁drugs	-9.92795
also	-9.92822
▁joy	-9.92848
ant	-9.92861
▁ugly	-9.92906
▁places	-9.93078
▁hotel	-9.93092
▁listen	-9.9312
▁cross	-9.9343
▁relationships	-9.93798
▁ms	-9.93828
▁accident	-9.93859
▁latter	-9.93871
▁wooden	-9.93894
▁wall	-9.93957
▁fat	-9.94122
▁lacks	-9.94319
bo	-9.94337
▁creature	-9.94417
▁deliver	-9.94627
▁putting	-9.94641
▁absolute	-9.94724
▁adults	-9.94731
▁ready	-9.94824
ler	-9.94826
▁mouth	-9.94855
▁puts	-9.94866
▁lose	-9.94916
year	-9.94918
▁tend	-9.9501
▁information	-9.95011
▁captain	-9.95033
▁tragic	-9.95114
▁struggle	-9.95212
▁theatre	-9.95228
▁soldier	-9.95242
▁soap	-9.95274
▁flaws	-9.95334
▁lord	-9.95412
▁trust	-9.95432
▁cops	-9.95443
▁soft	-9.95453
▁allowed	-9.95468
▁member	-9.95573
▁addition	-9.95619
▁animals	-9.95619
▁shouldn	-9.95687
▁dies	-9.9569
ba	-9.95708
▁teenage	-9.9583
▁search	-9.95946
▁12	-9.96031
▁victims	-9.96102
▁approach	-9.96111
▁board	-9.96129
▁independent	-9.96326
▁horse	-9.96354
▁brown	-9.96375
oh	-9.96379
▁element	-9.96387
▁40	-9.96389
good	-9.96414
▁ho	-9.9644
▁teacher	-9.96585
▁besides	-9.96682
life	-9.96708
▁moon	-9.96731
▁adds	-9.96805
▁picked	-9.96894
▁angry	-9.96992
▁describe	-9.97078
▁apartment	-9.97171
though	-9.9722
▁becoming	-9.97311
▁price	-9.97365
▁kelly	-9.97525
▁superior	-9.97653
▁childhood	-9.97666
▁cgi	-9.97716
▁shop	-9.97789
▁actresses	-9.97828
▁whatsoever	-9.97829
▁stock	-9.98039
▁build	-9.98072
▁worthy	-9.98129
▁thoroughly	-9.98175
▁christopher	-9.98422
▁standards	-9.98448
▁seven	-9.98495
▁par	-9.98497
▁offers	-9.98539
▁supposedly	-9.98739
se	-9.99027
▁therefore	-9.99034
▁moved	-9.99041
po	-9.99085
▁faces	-9.99089
▁en	-9.9912
▁criminal	-9.99154
▁current	-9.99194
▁blame	-9.99209
▁zero	-9.99235
▁design	-9.99313
▁queen	-9.99353
▁deserve	-9.99498
▁dirty	-9.99576
▁page	-9.99577
▁commentary	-9.99705
▁boat	-9.99825
▁followed	-9.99879
▁afraid	-9.99883
▁seemingly	-9.99889
▁desert	-9.99895
▁led	-9.99921
▁sucks	-10.0003
▁nasty	-10.0006
▁carry	-10.0022
▁personality	-10.0023
▁favourite	-10.0036
▁judge	-10.004
▁martial	-10.004
▁draw	-10.0045
▁woods	-10.0057
▁lies	-10.006
however	-10.0067
led	-10.007
▁rape	-10.0073
▁70	-10.0086
▁speaking	-10.0086
▁absurd	-10.0089
▁intriguing	-10.009
▁proves	-10.0091
▁christian	-10.0095
▁stone	-10.0097
▁friendship	-10.0109
▁watchable	-10.0117
▁helped	-10.0124
▁turning	-10.0125
▁ball	-10.0126
▁memory	-10.0143
▁redeeming	-10.0148
▁professional	-10.017
ka	-10.0176
▁suspect	-10.0181
▁onto	-10.0184
▁filming	-10.0186
▁comedic	-10.0195
▁clothes	-10.0213
▁area	-10.0221
▁energy	-10.023
▁explanation	-10.023
▁jr	-10.024
▁provide	-10.0246
▁tears	-10.0251
▁continue	-10.0252
▁tim	-10.026
star	-10.0268
▁jackson	-10.0268
▁games	-10.0286
ber	-10.0287
▁smile	-10.0288
ring	-10.0293
▁pair	-10.0299
▁willing	-10.03
▁bright	-10.0305
ca	-10.0306
▁provides	-10.0318
▁inspired	-10.0328
especially	-10.0331
▁unknown	-10.0337
▁dis	-10.0368
▁tragedy	-10.0372
▁animal	-10.0379
▁ring	-10.038
▁ryan	-10.0381
▁helps	-10.039
▁anybody	-10.0391
▁hall	-10.0403
▁jerry	-10.0411
▁henry	-10.0413
▁70'	-10.0428
▁accept	-10.0431
top	-10.0432
▁mo	-10.0434
▁uncle	-10.0436
▁murders	-10.0453
▁dying	-10.0462
▁asked	-10.0465
▁realized	-10.0467
▁length	-10.0467
▁anywhere	-10.0469
▁rarely	-10.0479
▁artistic	-10.0485
▁mission	-10.0491
▁jason	-10.0506
▁mike	-10.0515
▁wanting	-10.0516
▁physical	-10.0522
from	-10.0535
played	-10.054
▁national	-10.0544
ga	-10.0545
▁witch	-10.0546
▁priest	-10.0552
while	-10.0558
▁skip	-10.0559
▁delightful	-10.0566
ize	-10.0571
▁spoiler	-10.0577
▁intelligence	-10.0588
▁moore	-10.0589
▁blind	-10.0595
▁news	-10.0601
▁twenty	-10.0608
▁held	-10.0609
di	-10.0618
▁religious	-10.0628
▁artist	-10.0657
▁roll	-10.0662
▁floor	-10.0662
▁vs	-10.0662
▁food	-10.0665
▁brutal	-10.0667
▁surprising	-10.0686
▁heaven	-10.0688
▁states	-10.0689
▁thin	-10.069
▁bob	-10.0693
▁bloody	-10.0693
▁allow	-10.0696
▁favor	-10.0697
▁vhs	-10.0719
▁accurate	-10.0723
▁flying	-10.0753
▁wearing	-10.0753
then	-10.0755
▁dan	-10.0768
▁allen	-10.0774
per	-10.0777
▁kevin	-10.078
▁began	-10.0789
ho	-10.0792
vi	-10.0808
▁ice	-10.0814
▁returns	-10.0814
▁relate	-10.0817
▁pro	-10.082
▁wonderfully	-10.0823
▁filmmaker	-10.0823
▁nick	-10.0825
▁destroy	-10.083
▁dangerous	-10.0835
▁recall	-10.0871
der	-10.0882
▁below	-10.0884
▁memories	-10.0884
▁generation	-10.0885
yes	-10.0891
▁wide	-10.0895
▁opposite	-10.0903
▁hidden	-10.0905
▁bland	-10.0907
▁river	-10.0918
▁shakespeare	-10.0922
▁necessary	-10.0923
▁gags	-10.0925
▁devil	-10.0926
▁stephen	-10.0929
▁rubbish	-10.0941
▁13	-10.0944
▁pacing	-10.096
▁author	-10.0962
ni	-10.0971
▁thomas	-10.1004
▁player	-10.1013
▁wit	-10.1018
▁chinese	-10.1019
▁noticed	-10.1019
▁jump	-10.1027
▁exist	-10.1029
▁1950	-10.1037
▁na	-10.1042
▁deeply	-10.1047
▁scared	-10.1054
▁tape	-10.1062
▁mere	-10.1064
▁kick	-10.1067
▁numbers	-10.1067
▁1970	-10.1075
▁issue	-10.1089
▁hated	-10.1098
▁engaging	-10.1112
▁warning	-10.1116
▁unusual	-10.1121
let	-10.1128
▁arts	-10.1134
▁cable	-10.1136
▁field	-10.1152
▁understanding	-10.116
▁behavior	-10.117
▁buddy	-10.1174
▁cash	-10.119
▁president	-10.1191
▁eddie	-10.1194
.....	-10.1205
▁williams	-10.1206
▁academy	-10.1209
▁thinks	-10.1236
▁limited	-10.1236
les	-10.1238
▁americans	-10.1244
▁lynch	-10.1248
▁ka	-10.1253
▁somebody	-10.129
▁commercial	-10.1295
▁curious	-10.1306
▁seconds	-10.1309
▁fame	-10.1311
li	-10.1312
▁introduced	-10.1314
▁debut	-10.132
▁chan	-10.1322
whilst	-10.1326
▁remarkable	-10.1326
▁johnny	-10.1331
▁comparison	-10.1353
▁constant	-10.1353
▁locations	-10.136
house	-10.1361
▁leader	-10.1365
▁officer	-10.1368
ier	-10.1368
▁fu	-10.137
▁pa	-10.1373
▁crowd	-10.1374
▁singer	-10.1383
▁loves	-10.1386
hi	-10.1389
▁ran	-10.139
▁hang	-10.1398
▁regular	-10.1412
▁apparent	-10.1412
▁owner	-10.142
▁record	-10.1422
▁monsters	-10.1424
▁humorous	-10.1427
▁manage	-10.1429
▁utter	-10.1431
▁nicely	-10.1432
▁technical	-10.1432
▁clean	-10.1433
▁anne	-10.1434
▁finished	-10.1446
▁village	-10.1447
▁round	-10.1448
▁learned	-10.1463
▁unnecessary	-10.1464
▁speed	-10.1468
▁range	-10.1471
▁mental	-10.1472
ster	-10.1477
▁dealing	-10.1483
▁cost	-10.1483
▁site	-10.1484
▁witty	-10.1485
???	-10.1486
ated	-10.1486
bu	-10.1487
▁arthur	-10.1489
▁months	-10.1492
▁desperate	-10.1493
▁holds	-10.1495
▁captured	-10.1499
▁conflict	-10.1501
▁lets	-10.1502
▁discover	-10.1511
▁heroine	-10.1514
▁fault	-10.1517
▁crappy	-10.1525
sh	-10.1532
▁mini	-10.1538
▁includes	-10.1543
▁davis	-10.1544
▁magnificent	-10.1553
ci	-10.1566
▁advice	-10.1584
con	-10.1589
par	-10.161
▁pilot	-10.1622
ah	-10.1622
▁youth	-10.1626
▁sing	-10.1644
▁morning	-10.1645
▁drunk	-10.1646
▁taylor	-10.1647
▁test	-10.165
▁eat	-10.1651
▁responsible	-10.1665
▁references	-10.1676
▁max	-10.1684
▁knowledge	-10.1684
▁driving	-10.1686
▁trek	-10.1686
▁partner	-10.1687
▁heroes	-10.1701
▁vision	-10.1701
▁sign	-10.1704
▁starting	-10.1704
▁survive	-10.1705
▁suit	-10.1711
▁danny	-10.1714
▁connection	-10.1722
▁fail	-10.1729
▁gross	-10.1729
▁players	-10.1762
▁loving	-10.1764
▁saving	-10.177
▁seat	-10.1772
▁vote	-10.1773
▁hadn	-10.1777
▁media	-10.1777
▁fate	-10.1785
▁mixed	-10.1789
▁creating	-10.179
looking	-10.1804
▁lacking	-10.1807
▁community	-10.1808
▁quiet	-10.1817
??	-10.1824
▁ta	-10.1825
▁travel	-10.1828
▁met	-10.1831
▁asks	-10.1832
▁bigger	-10.1834
im	-10.1836
ary	-10.1842
▁terribly	-10.185
▁african	-10.1852
▁event	-10.1857
▁howard	-10.1861
▁sucked	-10.1861
▁18	-10.1865
▁kinda	-10.1866
▁growing	-10.187
▁rose	-10.1876
▁genuine	-10.1879
▁castle	-10.1889
▁window	-10.189
▁legend	-10.1892
▁ordinary	-10.1894
▁gotten	-10.1895
▁humanity	-10.1896
▁nonsense	-10.1897
▁alan	-10.1898
▁sharp	-10.19
▁deserved	-10.1903
▁bank	-10.1903
▁program	-10.1909
▁prove	-10.1915
▁robin	-10.1923
▁formula	-10.1928
▁private	-10.1934
▁sell	-10.1936
nd	-10.1938
▁lovers	-10.1938
▁finest	-10.194
▁treated	-10.1953
▁england	-10.1954
▁scream	-10.196
rely	-10.1965
▁wise	-10.1973
▁warm	-10.1974
▁irritating	-10.1974
how	-10.1975
way	-10.1976
▁normally	-10.1978
ru	-10.1987
▁unrealistic	-10.1996
▁individual	-10.1997
▁capture	-10.2001
▁australian	-10.2002
▁grow	-10.2004
▁steal	-10.2017
▁calls	-10.2034
▁adam	-10.2034
▁parody	-10.204
▁rescue	-10.2043
▁wayne	-10.2046
lin	-10.2052
▁north	-10.2055
▁murdered	-10.2057
▁unfunny	-10.2059
▁golden	-10.2064
▁explained	-10.2064
▁winning	-10.2072
▁luck	-10.2084
▁bomb	-10.2092
▁international	-10.2101
▁ill	-10.2101
▁keeping	-10.2102
▁dreadful	-10.211
▁faith	-10.2123
ance	-10.2132
!!!!	-10.2141
▁brian	-10.2146
▁angel	-10.2146
side	-10.2149
▁wedding	-10.2169
▁psycho	-10.2171
▁skin	-10.2173
▁ford	-10.2174
bad	-10.2182
▁shallow	-10.2186
▁paper	-10.2196
▁wars	-10.2197
▁hunter	-10.2203
▁empty	-10.2208
▁rain	-10.2211
▁realism	-10.2229
▁satire	-10.2229
▁protagonist	-10.2235
▁spoil	-10.2254
▁lesson	-10.2255
▁sean	-10.2263
▁bits	-10.2263
▁contain	-10.2264
mer	-10.2266
0'	-10.2267
▁numerous	-10.2272
▁france	-10.2285
▁asian	-10.2294
▁guns	-10.2296
▁fly	-10.2297
▁instance	-10.2301
why	-10.2302
▁desire	-10.2308
▁dressed	-10.2308
▁powers	-10.231
▁drag	-10.2311
▁****	-10.2312
▁efforts	-10.2319
▁dick	-10.2324
▁foreign	-10.2336
▁skills	-10.2352
id	-10.2352
▁texas	-10.2359
▁included	-10.236
▁broken	-10.2361
▁consist	-10.2361
che	-10.2361
▁v	-10.2364
▁hill	-10.2368
▁gangster	-10.2368
▁rob	-10.2369
▁european	-10.2372
▁heck	-10.2376
▁table	-10.2376
▁truck	-10.2381
▁corny	-10.2385
▁whenever	-10.239
▁driver	-10.2392
▁fill	-10.2393
iness	-10.2393
▁mar	-10.2398
▁reviewers	-10.2406
▁pulled	-10.2424
ence	-10.2427
▁chick	-10.2435
▁portray	-10.2441
▁stereotypes	-10.2447
▁11	-10.245
▁finale	-10.2453
▁dated	-10.2453
▁teenagers	-10.2454
▁ya	-10.2464
▁model	-10.2464
▁higher	-10.2479
▁remembered	-10.2481
▁cage	-10.2486
▁gory	-10.2487
▁visit	-10.249
▁frankly	-10.2493
▁alex	-10.2497
ut	-10.25
▁insane	-10.2501
▁pretentious	-10.2511
▁develop	-10.2511
▁vi	-10.2515
▁study	-10.2516
screen	-10.252
▁terror	-10.2525
▁screaming	-10.2534
▁practical	-10.2534
▁correct	-10.2536
▁occasionally	-10.2545
▁li	-10.2545
▁regret	-10.2556
▁disgusting	-10.2562
▁hat	-10.2562
▁sun	-10.2565
▁psychological	-10.2566
▁z	-10.2569
▁gary	-10.2571
▁loss	-10.2572
▁hunt	-10.2581
▁sheer	-10.2602
▁aware	-10.2626
ard	-10.2631
▁joan	-10.2632
▁context	-10.2646
▁universal	-10.2646
▁spanish	-10.2646
▁/	-10.2652
▁awkward	-10.2654
▁grown	-10.2656
▁concerned	-10.2657
▁fish	-10.2661
▁cameo	-10.2662
▁discovered	-10.2664
▁teenager	-10.2667
▁saved	-10.2668
▁lucky	-10.2705
▁according	-10.2709
▁blonde	-10.2712
▁combination	-10.2713
▁amateur	-10.2714
▁nightmare	-10.273
▁ladies	-10.2736
▁fights	-10.2736
war	-10.2738
▁perform	-10.2738
▁originally	-10.2742
▁flesh	-10.2745
▁feet	-10.2745
▁spectacular	-10.2748
▁actions	-10.2758
▁sheriff	-10.2758
▁football	-10.2759
▁unexpected	-10.2769
▁frame	-10.2771
back	-10.2786
ably	-10.2796
ee	-10.2803
ki	-10.2804
▁featuring	-10.2808
▁received	-10.2811
▁meeting	-10.2812
▁vampires	-10.2827
▁deals	-10.2833
▁lewis	-10.2835
ate	-10.2846
▁reaction	-10.2847
▁villains	-10.2848
▁grew	-10.285
▁tedious	-10.2851
▁talents	-10.286
▁contrived	-10.2872
▁sees	-10.2875
▁hits	-10.2878
▁rental	-10.288
▁miles	-10.2892
▁choose	-10.2892
▁attitude	-10.2892
▁graphic	-10.2895
▁underrated	-10.2897
▁research	-10.2898
▁sake	-10.2903
▁sh	-10.2903
▁decade	-10.2909
▁display	-10.2909
▁strength	-10.291
▁heads	-10.2911
mon	-10.2914
▁join	-10.2914
▁evidence	-10.2918
▁julie	-10.2921
ad	-10.2923
▁perspective	-10.2939
▁hitler	-10.2943
▁laughter	-10.2947
very	-10.2947
bi	-10.2951
▁failure	-10.2963
▁gonna	-10.2964
▁amateurish	-10.2965
ities	-10.2966
▁douglas	-10.2966
his	-10.2969
▁crash	-10.2975
▁genuinely	-10.2978
▁fred	-10.2992
▁ann	-10.2997
▁ko	-10.2999
gi	-10.3008
▁sky	-10.3017
▁toward	-10.3022
▁dry	-10.3033
▁bbc	-10.3034
▁network	-10.3034
▁eric	-10.3052
▁results	-10.306
▁promise	-10.3066
▁reach	-10.3068
▁revealed	-10.3069
▁ba	-10.308
watch	-10.3089
▁beach	-10.3097
▁court	-10.3104
▁forces	-10.3107
va	-10.3109
▁essentially	-10.3111
ac	-10.3111
can	-10.3113
▁sympathetic	-10.3127
▁send	-10.313
▁involves	-10.3149
ran	-10.315
▁turkey	-10.3151
▁reviewer	-10.3151
▁naturally	-10.3156
▁cars	-10.3164
▁center	-10.3164
▁edited	-10.3166
▁ultimate	-10.3166
▁europe	-10.3172
▁decision	-10.3178
▁native	-10.3178
▁anthony	-10.3179
▁blow	-10.318
▁product	-10.3204
▁tight	-10.3207
▁rise	-10.3209
▁overly	-10.321
another	-10.3213
▁pet	-10.3226
▁matt	-10.3234
▁bear	-10.3237
▁described	-10.3245
rd	-10.3249
pa	-10.3259
▁candy	-10.3264
▁japan	-10.3269
▁existence	-10.327
▁handsome	-10.3273
▁executed	-10.3275
▁assume	-10.3283
▁families	-10.3293
▁steven	-10.3311
▁relief	-10.3318
▁jesus	-10.332
▁hopes	-10.3322
▁traditional	-10.3322
▁provided	-10.3323
▁logic	-10.3325
▁costs	-10.3329
▁flashbacks	-10.3333
ger	-10.334
▁depressing	-10.3341
▁freedom	-10.3342
▁visuals	-10.3342
▁seagal	-10.3346
ent	-10.3351
▁cuts	-10.3363
▁em	-10.3373
▁unable	-10.3374
▁robot	-10.3386
▁horribly	-10.3389
▁lousy	-10.3389
▁gratuitous	-10.339
▁danger	-10.3392
op	-10.3393
▁alice	-10.3399
american	-10.3404
▁lake	-10.3406
▁breaks	-10.3414
first	-10.3416
▁semi	-10.342
et	-10.3428
▁san	-10.3432
▁department	-10.3438
que	-10.3443
▁streets	-10.3446
▁eating	-10.3453
▁print	-10.3457
▁delivered	-10.346
▁treatment	-10.3463
▁gordon	-10.3463
gu	-10.3464
▁keaton	-10.3465
▁chief	-10.3466
maybe	-10.3476
mar	-10.3482
▁jungle	-10.3487
▁jennifer	-10.3496
▁hide	-10.3498
▁mountain	-10.3507
▁prefer	-10.3509
▁humans	-10.3517
▁costume	-10.3524
▁pity	-10.3527
▁mrs	-10.3529
▁continues	-10.3532
▁jimmy	-10.3542
▁prime	-10.3546
▁gene	-10.3548
day	-10.3555
▁creatures	-10.3557
▁clue	-10.3559
▁kong	-10.356
▁lo	-10.3566
▁prince	-10.3567
▁contrast	-10.3575
▁brilliantly	-10.3576
▁foot	-10.3577
▁ruin	-10.3578
▁theatrical	-10.3586
work	-10.3588
▁walked	-10.3592
▁recognize	-10.3596
▁el	-10.3599
▁cruel	-10.3608
▁capable	-10.3609
▁viewed	-10.3622
▁proper	-10.3624
▁bat	-10.3629
▁excited	-10.3635
▁refreshing	-10.3635
▁nurse	-10.3643
lan	-10.3645
▁entertained	-10.3645
▁endless	-10.3646
▁jeff	-10.3646
▁embarrassing	-10.3649
▁fool	-10.3656
▁rules	-10.3656
▁identity	-10.3658
▁levels	-10.367
▁surreal	-10.3684
▁insult	-10.3687
▁wolf	-10.3687
▁till	-10.3689
▁mask	-10.3691
▁discovers	-10.3695
▁pleasant	-10.3696
▁strongly	-10.3696
▁twisted	-10.3699
▁market	-10.3703
▁east	-10.3703
▁dude	-10.3704
▁built	-10.3712
our	-10.373
▁slapstick	-10.3733
▁bringing	-10.3734
▁stopped	-10.3734
▁halloween	-10.3738
▁remain	-10.3739
▁lesbian	-10.375
▁subtitles	-10.3753
?!	-10.3756
ir	-10.376
▁promising	-10.376
▁tiny	-10.3762
▁praise	-10.3767
john	-10.3775
▁religion	-10.3783
▁surface	-10.3784
▁louis	-10.3784
▁larry	-10.3787
▁visually	-10.3789
▁aliens	-10.38
▁hearing	-10.3803
end	-10.3807
▁substance	-10.3808
▁bus	-10.3811
▁exploitation	-10.3812
where	-10.3823
▁pile	-10.3823
▁theaters	-10.3829
▁dollars	-10.3832
▁bodies	-10.3839
nt	-10.3854
▁beast	-10.3864
▁sudden	-10.3872
▁service	-10.3879
▁harris	-10.3881
▁bore	-10.3884
▁canadian	-10.3887
▁majority	-10.3887
▁jo	-10.3889
▁target	-10.389
▁reporter	-10.3891
▁standing	-10.3896
▁portrays	-10.3897
▁proved	-10.3903
▁shocked	-10.3909
▁scare	-10.3916
▁barbara	-10.3919
▁cell	-10.3919
▁rough	-10.3923
▁produce	-10.3935
▁evening	-10.3935
▁enemy	-10.3937
▁grave	-10.3941
▁cares	-10.3945
▁ages	-10.3951
▁lower	-10.3951
ok	-10.3954
▁germany	-10.3956
▁ancient	-10.396
▁harsh	-10.3961
▁kung	-10.3961
▁dubbed	-10.3967
ph	-10.3972
▁steals	-10.3984
▁naive	-10.3986
▁regard	-10.3988
▁jackie	-10.3997
jo	-10.4002
▁uk	-10.4007
▁routine	-10.4007
lu	-10.4019
down	-10.4023
▁sisters	-10.4025
anyway	-10.4031
▁qualities	-10.4037
▁albert	-10.4045
▁root	-10.406
▁circumstances	-10.4065
▁chaplin	-10.4066
▁di	-10.4073
▁safe	-10.4079
▁appealing	-10.4084
▁asking	-10.4085
▁loses	-10.4086
▁saturday	-10.4091
▁arm	-10.41
▁ruined	-10.4104
▁idiot	-10.4106
▁awards	-10.4109
▁portraying	-10.4113
**	-10.4115
▁factor	-10.4119
bb	-10.4123
ver	-10.4124
▁scale	-10.4128
▁abuse	-10.4129
▁interview	-10.4131
▁asleep	-10.4132
▁sequels	-10.4137
▁painfully	-10.4139
▁vehicle	-10.4139
▁treasure	-10.4141
▁core	-10.4141
▁haunting	-10.4148
▁junk	-10.4152
▁fi	-10.4161
▁speech	-10.4163
▁lie	-10.4165
▁universe	-10.4167
▁bag	-10.4167
▁patient	-10.4167
▁werewolf	-10.4168
▁demon	-10.4177
▁highlight	-10.418
▁morgan	-10.4188
▁professor	-10.4194
▁emotionally	-10.4205
ron	-10.421
▁spoof	-10.4228
▁account	-10.4245
▁suck	-10.4252
▁peace	-10.426
▁sports	-10.4263
▁types	-10.4265
▁ca	-10.4268
ise	-10.4274
▁drop	-10.4278
▁cartoons	-10.4288
▁irish	-10.429
▁propaganda	-10.4298
▁offensive	-10.4304
▁simon	-10.4324
▁classics	-10.4351
made	-10.4351
▁friday	-10.4353
▁source	-10.4354
▁passed	-10.4357
film	-10.4358
▁nominated	-10.4358
red	-10.4376
▁teens	-10.4377
▁satisfying	-10.4387
▁creates	-10.4388
▁caused	-10.4388
▁weeks	-10.4393
▁path	-10.4393
▁ignore	-10.4396
mi	-10.4396
▁flow	-10.44
▁sympathy	-10.4431
▁urban	-10.4431
▁chosen	-10.4434
cy	-10.4435
▁worthwhile	-10.4436
▁fare	-10.4455
▁knock	-10.4469
▁hood	-10.447
▁extras	-10.4478
▁suffering	-10.4483
▁hal	-10.4483
▁washington	-10.4485
▁jail	-10.4487
ney	-10.4487
▁hip	-10.4489
▁marry	-10.4492
▁enter	-10.4494
▁kate	-10.4505
!).	-10.451
▁execution	-10.4512
▁inter	-10.4517
▁position	-10.4517
▁united	-10.4521
▁gas	-10.4523
▁mob	-10.4526
▁encounter	-10.4531
▁excitement	-10.4539
▁base	-10.454
ja	-10.4542
▁suspenseful	-10.4544
▁eight	-10.4563
▁broadway	-10.4568
▁guilty	-10.4571
▁experienced	-10.4571
▁su	-10.4574
▁losing	-10.4581
▁contemporary	-10.4593
▁angles	-10.4593
▁training	-10.4596
▁storm	-10.4601
rate	-10.4601
han	-10.4609
▁po	-10.4614
▁holmes	-10.4621
▁depicted	-10.4624
▁winner	-10.4637
▁makeup	-10.4644
▁technology	-10.4647
▁term	-10.465
▁min	-10.4653
▁roger	-10.4653
▁erotic	-10.4655
▁wear	-10.4655
▁hopefully	-10.4658
▁unfortunate	-10.4663
▁lawyer	-10.4675
den	-10.4676
▁mst	-10.4691
▁dean	-10.47
▁false	-10.4703
▁committed	-10.4705
▁darkness	-10.4718
▁dig	-10.4719
▁influence	-10.4725
▁environment	-10.4727
▁weekend	-10.4731
▁gi	-10.4731
▁mexican	-10.4732
▁stereotypical	-10.4733
▁veteran	-10.4741
▁opens	-10.4743
▁crying	-10.4745
▁appropriate	-10.4749
▁california	-10.4757
▁figured	-10.4761
▁sum	-10.4762
▁ne	-10.4786
▁du	-10.479
▁bothered	-10.4795
pi	-10.4808
▁renting	-10.4811
▁prior	-10.4813
▁exact	-10.4813
▁virtually	-10.4819
▁mass	-10.4824
▁talks	-10.4824
▁conversation	-10.4826
▁edward	-10.4827
▁lane	-10.4832
▁1980	-10.4833
▁dogs	-10.4836
pe	-10.4837
▁25	-10.4837
▁roy	-10.484
cha	-10.484
▁anime	-10.4841
▁southern	-10.4841
▁task	-10.4841
▁melodrama	-10.4842
▁china	-10.4844
▁joseph	-10.4847
ya	-10.4848
▁claim	-10.4852
▁shut	-10.487
▁spy	-10.4876
▁commit	-10.488
▁anna	-10.4883
▁grant	-10.4891
▁wilson	-10.4897
▁russell	-10.4899
▁tarzan	-10.49
▁raw	-10.4912
▁performed	-10.4915
▁dennis	-10.4933
▁allows	-10.4935
▁parker	-10.4945
▁convince	-10.4953
▁massive	-10.4954
▁14	-10.4955
▁obsessed	-10.496
▁degree	-10.4969
▁welcome	-10.497
▁silver	-10.4974
▁anger	-10.4975
▁fits	-10.4976
▁pat	-10.4981
▁atrocious	-10.4981
▁mature	-10.4982
▁supernatural	-10.4983
▁concern	-10.4986
▁flight	-10.4987
▁believed	-10.4995
▁spin	-10.4999
▁shark	-10.5005
car	-10.5006
▁witness	-10.5009
▁jewish	-10.501
▁continuity	-10.5011
▁haunted	-10.5015
▁guide	-10.5017
▁previously	-10.5021
▁expression	-10.5022
▁cutting	-10.5023
▁anderson	-10.5043
▁featured	-10.5043
▁latest	-10.5046
ng	-10.505
▁experiment	-10.5053
▁structure	-10.5054
tic	-10.5062
▁brave	-10.5065
▁captures	-10.5065
▁reputation	-10.5066
▁variety	-10.5066
▁inept	-10.5067
▁nevertheless	-10.5073
▁johnson	-10.5075
***	-10.5083
▁calling	-10.5086
▁jerk	-10.5094
▁murphy	-10.5097
▁movement	-10.5118
▁sir	-10.5118
▁kim	-10.512
▁category	-10.5124
▁vietnam	-10.5126
most	-10.514
▁studios	-10.5146
▁chose	-10.5149
▁cave	-10.5151
▁indie	-10.5152
▁frightening	-10.5155
▁row	-10.5159
▁wake	-10.5161
▁largely	-10.5161
▁che	-10.5167
▁proud	-10.5169
▁segment	-10.5174
os	-10.5177
▁extraordinary	-10.5181
▁cheese	-10.5181
▁unlikely	-10.5185
▁mel	-10.5187
▁touches	-10.5189
cing	-10.5202
▁walks	-10.5202
▁accents	-10.5205
▁code	-10.5208
▁ludicrous	-10.521
▁drew	-10.5211
▁punch	-10.5219
▁patrick	-10.5219
▁sch	-10.5221
▁inner	-10.5226
▁blockbuster	-10.5232
▁belief	-10.5233
▁tear	-10.5239
▁profound	-10.5239
▁contact	-10.5239
▁mi	-10.5247
▁remotely	-10.525
▁speaks	-10.5262
▁sword	-10.5264
du	-10.5267
▁description	-10.5268
▁eastwood	-10.5269
▁massacre	-10.5269
▁ga	-10.527
▁holding	-10.5271
still	-10.5281
▁santa	-10.5287
▁kiss	-10.5291
▁handled	-10.5291
▁shadow	-10.5293
ten	-10.5294
▁brooks	-10.5296
▁deadly	-10.5296
▁suffers	-10.5297
▁vacation	-10.5297
▁unconvincing	-10.5297
▁forgettable	-10.5298
▁breath	-10.5301
▁accidentally	-10.5301
▁sensitive	-10.5307
▁voices	-10.5309
▁forest	-10.5313
▁screening	-10.5323
including	-10.5327
▁hanging	-10.5327
boy	-10.5338
za	-10.534
▁host	-10.5343
▁meanwhile	-10.5345
▁league	-10.5351
▁quirky	-10.5356
▁).	-10.5358
grade	-10.536
▁birth	-10.5361
more	-10.5367
▁usa	-10.5367
▁politics	-10.5368
ko	-10.537
▁buck	-10.5371
▁insight	-10.5378
▁india	-10.5379
field	-10.5384
▁reveal	-10.5407
▁demons	-10.5411
▁amazingly	-10.5411
▁scenario	-10.5412
ana	-10.5425
tv	-10.5428
▁metal	-10.5434
▁crude	-10.5439
▁trilogy	-10.5444
▁assistant	-10.5445
▁coach	-10.5446
ol	-10.5456
rated	-10.5464
▁forgot	-10.5465
▁paced	-10.5471
ham	-10.548
▁everywhere	-10.5481
▁donald	-10.5484
▁curse	-10.5488
gen	-10.5499
▁africa	-10.55
▁breaking	-10.5501
▁tree	-10.5505
▁gritty	-10.5507
▁amazed	-10.5508
▁section	-10.5509
▁tour	-10.5514
ating	-10.5524
▁covered	-10.5525
▁blend	-10.5526
ping	-10.5529
▁multi	-10.5534
izing	-10.5536
▁elizabeth	-10.554
▁required	-10.5541
▁plans	-10.5545
▁shape	-10.5548
▁stranger	-10.555
▁delight	-10.5559
▁suffer	-10.5559
▁lifetime	-10.5564
chi	-10.5565
▁dracula	-10.5566
▁mainstream	-10.5567
▁format	-10.5571
▁ted	-10.5577
▁initial	-10.5582
▁gain	-10.5588
ud	-10.5589
▁concert	-10.5594
except	-10.5596
▁summary	-10.5597
▁security	-10.5599
ot	-10.5607
▁learns	-10.5611
▁honor	-10.5623
▁repeated	-10.5624
▁gruesome	-10.5624
▁narration	-10.5624
▁cooper	-10.5629
▁flash	-10.5629
▁mis	-10.5654
▁fulci	-10.5654
▁depiction	-10.5656
▁statement	-10.5658
min	-10.566
ial	-10.5662
▁dare	-10.5681
▁funnier	-10.5684
▁stolen	-10.5687
▁bull	-10.5688
ps	-10.5688
▁rule	-10.5693
▁combined	-10.5697
▁prepared	-10.5698
▁warner	-10.5705
▁grim	-10.5707
▁sin	-10.5708
▁multiple	-10.5714
▁stomach	-10.5715
▁stayed	-10.5717
▁entertain	-10.5718
▁abandoned	-10.5722
▁daniel	-10.5725
▁dragon	-10.5728
▁guard	-10.5729
▁focused	-10.573
mp	-10.573
kin	-10.5734
▁destroyed	-10.5739
▁ham	-10.574
▁intellectual	-10.574
▁directly	-10.5741
▁disagree	-10.5744
▁afternoon	-10.5745
▁teeth	-10.5746
▁buying	-10.5749
▁mildly	-10.5753
▁blown	-10.5754
▁surprises	-10.5754
▁warned	-10.5762
▁occasional	-10.5765
▁spite	-10.5779
ji	-10.5781
▁convinced	-10.5793
▁julia	-10.5798
▁seasons	-10.5802
▁westerns	-10.5806
▁trapped	-10.5807
▁uninteresting	-10.5807
▁interviews	-10.5807
tro	-10.5808
▁killers	-10.5809
istic	-10.5812
▁listening	-10.5815
▁warn	-10.5823
▁pan	-10.5828
▁express	-10.5829
▁victor	-10.5835
▁alright	-10.5838
written	-10.5838
▁blah	-10.584
▁adventures	-10.5847
▁pretend	-10.5848
▁kane	-10.5851
▁snow	-10.586
▁closer	-10.5861
▁campy	-10.5863
▁underground	-10.5869
▁rolling	-10.5872
▁civil	-10.5872
ak	-10.5882
su	-10.5883
▁experiences	-10.5893
▁holiday	-10.5899
▁obnoxious	-10.59
too	-10.591
▁smoke	-10.5914
▁drink	-10.5918
ped	-10.5922
▁equal	-10.5925
▁via	-10.5927
▁seek	-10.5929
▁baseball	-10.593
▁sunday	-10.5931
▁goofy	-10.5933
▁mickey	-10.5936
▁chain	-10.5936
part	-10.5943
▁originality	-10.5945
zz	-10.5953
▁hire	-10.5954
▁magical	-10.5955
▁chair	-10.596
▁serve	-10.5965
▁separate	-10.5966
▁protect	-10.5967
▁lay	-10.5974
▁chuck	-10.5978
▁dozen	-10.5979
▁forth	-10.5981
▁whoever	-10.5986
▁skill	-10.599
▁revolution	-10.5992
▁risk	-10.5994
▁remote	-10.6012
▁bell	-10.6012
called	-10.6023
▁matters	-10.6027
▁mistakes	-10.6028
hearted	-10.6031
▁paint	-10.604
▁understood	-10.6055
▁fabulous	-10.6055
▁imagery	-10.6057
dimensional	-10.606
▁focuses	-10.6065
▁flashback	-10.6067
▁weapons	-10.6069
▁murderer	-10.6071
▁gr	-10.6071
ff	-10.6074
▁letter	-10.6079
ck	-10.6081
ups	-10.6083
▁downright	-10.6091
▁cultural	-10.6093
▁luke	-10.6094
▁susan	-10.6096
▁changing	-10.6096
▁favorites	-10.6102
vo	-10.6102
▁balance	-10.6103
▁presents	-10.6106
▁hi	-10.6107
tion	-10.6109
▁ron	-10.6109
ised	-10.6111
▁bound	-10.6111
▁heavily	-10.6118
▁complicated	-10.6121
wood	-10.6122
▁tommy	-10.6123
▁farm	-10.6128
▁rival	-10.613
other	-10.6138
▁charge	-10.6146
▁halfway	-10.6155
style	-10.6162
▁device	-10.6164
▁critical	-10.6172
▁broad	-10.6177
▁facial	-10.6182
▁plague	-10.6182
▁legendary	-10.6183
▁mirror	-10.6196
▁hired	-10.6199
▁paying	-10.6202
▁deeper	-10.6207
▁princess	-10.621
▁clark	-10.6211
▁status	-10.6214
▁block	-10.6216
▁17	-10.6221
▁ja	-10.6226
▁corner	-10.6229
▁claims	-10.623
▁sitcom	-10.6232
fest	-10.6232
▁reference	-10.6234
▁10/10	-10.6238
▁brand	-10.624
▁walter	-10.6241
mm	-10.6242
▁ocean	-10.6246
▁fbi	-10.6248
▁timing	-10.6251
law	-10.6253
▁bitter	-10.6258
▁guest	-10.6262
▁handle	-10.6271
▁driven	-10.6274
▁struggling	-10.628
▁:)	-10.6282
▁pulls	-10.6289
only	-10.6294
▁rush	-10.6299
▁granted	-10.6304
▁nazi	-10.6305
ex	-10.6309
▁internet	-10.6311
▁nude	-10.6311
▁appreciated	-10.6313
▁roberts	-10.6327
▁choices	-10.633
▁dear	-10.6336
writer	-10.6341
▁carpenter	-10.6343
relatively	-10.6344
ious	-10.6345
▁columbo	-10.6345
▁miller	-10.6348
▁scares	-10.6352
nic	-10.6368
▁dress	-10.637
▁closing	-10.6375
▁hole	-10.6377
▁raised	-10.6389
▁mindless	-10.6394
iest	-10.6395
▁reminiscen	-10.6407
▁racist	-10.6408
▁blair	-10.6408
tch	-10.6417
ric	-10.6426
▁faithful	-10.6431
▁serves	-10.6431
▁dinner	-10.6441
ward	-10.6443
something	-10.6449
▁touched	-10.6449
head	-10.6457
▁colors	-10.646
sen	-10.6461
▁theory	-10.6461
▁pie	-10.6463
au	-10.6465
▁designed	-10.6469
▁hoffman	-10.6473
ette	-10.6481
▁wreck	-10.6481
▁broke	-10.6487
▁upset	-10.6489
▁inspiration	-10.6489
▁passing	-10.6496
▁jon	-10.65
▁magazine	-10.6506
▁stylish	-10.6506
▁silence	-10.6506
▁comical	-10.6506
▁offered	-10.6507
▁bride	-10.6508
▁everyday	-10.6514
▁decades	-10.6519
▁cook	-10.6521
▁stan	-10.6523
▁lights	-10.6526
▁placed	-10.653
▁tongue	-10.6539
▁nuclear	-10.6542
▁del	-10.6547
▁lonely	-10.6548
▁desperately	-10.656
▁comedian	-10.6562
▁hack	-10.6564
light	-10.6566
▁lou	-10.657
▁wwii	-10.6579
▁nose	-10.6579
▁carried	-10.6583
ab	-10.6586
▁delivery	-10.6589
▁throwing	-10.659
▁prevent	-10.6591
▁criticism	-10.6596
▁tune	-10.66
▁pregnant	-10.6606
▁text	-10.6607
▁authentic	-10.6608
here	-10.6613
▁helen	-10.6622
ble	-10.6629
▁daily	-10.6639
▁effectively	-10.6641
▁bush	-10.6644
▁stupidity	-10.6648
io	-10.6655
▁drinking	-10.6661
▁learning	-10.6662
▁introduction	-10.6672
▁quest	-10.6677
▁philip	-10.668
▁sarah	-10.6681
):	-10.6683
yn	-10.6698
▁cant	-10.6704
▁starred	-10.6715
art	-10.6723
▁disbelief	-10.674
▁plastic	-10.674
▁tu	-10.6749
▁woody	-10.676
▁succeeds	-10.6767
▁wanna	-10.677
▁ashamed	-10.6774
▁hong	-10.6774
▁beloved	-10.6783
▁mac	-10.6785
▁expressions	-10.6787
▁chilling	-10.6788
▁hint	-10.6795
▁gag	-10.6803
▁condition	-10.6804
▁medical	-10.6808
▁arms	-10.6811
▁size	-10.6812
▁superman	-10.6816
▁achieve	-10.6819
▁fourth	-10.682
▁sleeping	-10.682
▁pitch	-10.6829
▁sides	-10.6829
▁greater	-10.6843
▁screenwriter	-10.6846
▁trick	-10.6848
▁sp	-10.685
▁barry	-10.685
▁explains	-10.6851
▁craft	-10.6867
▁connect	-10.6867
▁topic	-10.687
▁storytelling	-10.688
▁believes	-10.6888
▁laura	-10.6892
▁dislike	-10.6898
▁relie	-10.6911
▁bollywood	-10.6912
▁arrives	-10.6918
▁cor	-10.692
ions	-10.6933
▁cousin	-10.6941
fu	-10.6943
▁poignant	-10.6944
class	-10.6946
▁retarded	-10.695
great	-10.6955
▁disc	-10.6959
▁solve	-10.6963
▁betty	-10.6963
▁realizes	-10.6967
▁object	-10.697
▁200	-10.6971
▁nonetheless	-10.6984
▁karen	-10.6985
10	-10.7007
▁pitt	-10.7013
▁extent	-10.7013
▁greek	-10.7013
▁lazy	-10.7014
▁manager	-10.7014
▁entry	-10.7015
▁oliver	-10.7019
ris	-10.7027
▁tense	-10.7039
▁y	-10.7042
▁monkey	-10.7047
▁mgm	-10.7048
▁basis	-10.7048
▁overcome	-10.7053
▁thankfully	-10.706
▁related	-10.7063
▁mentally	-10.7069
▁angle	-10.7072
▁ni	-10.7075
▁exceptional	-10.7077
▁glass	-10.7087
▁madness	-10.7091
despite	-10.7094
▁tr	-10.7095
▁flaw	-10.7103
▁fianc	-10.7107
▁racism	-10.7118
▁weight	-10.7121
▁soviet	-10.7122
▁presentation	-10.7122
▁catherine	-10.7125
▁zone	-10.7129
▁lu	-10.7135
▁versions	-10.7138
▁served	-10.7139
▁significant	-10.714
▁nation	-10.7148
▁advantage	-10.7153
▁breathtaking	-10.7153
▁embarrassed	-10.7156
▁cowboy	-10.7156
▁idiotic	-10.7162
▁sold	-10.7167
▁union	-10.7171
▁bird	-10.7171
har	-10.7175
hard	-10.7178
ide	-10.7189
▁corrupt	-10.719
▁sha	-10.7191
▁caine	-10.7191
title	-10.7191
▁freddy	-10.7193
▁dollar	-10.7195
▁italy	-10.7197
ker	-10.7199
▁artists	-10.7204
characterization	-10.7206
▁adding	-10.721
▁revolves	-10.722
▁credible	-10.7223
▁necessarily	-10.7223
▁foster	-10.7224
▁sutherland	-10.7226
▁enjoying	-10.7226
▁iron	-10.7233
▁flawed	-10.7238
▁press	-10.7247
▁rings	-10.7254
▁horrific	-10.7258
▁pacino	-10.7259
▁gripping	-10.7259
▁countries	-10.7259
▁jay	-10.7262
▁hundred	-10.7265
▁stunt	-10.7271
▁properly	-10.7276
spoiler	-10.7278
▁/>*	-10.7285
▁australia	-10.7287
▁walker	-10.7287
cur	-10.7287
▁throws	-10.7291
▁credibility	-10.7294
▁franchise	-10.7294
▁striking	-10.7294
ow	-10.7302
spoilers	-10.7302
▁khan	-10.732
▁caring	-10.7322
▁helping	-10.7323
▁attraction	-10.7331
▁bugs	-10.7331
▁lloyd	-10.7333
▁meat	-10.7333
▁marie	-10.7333
▁sinatra	-10.7334
▁ninja	-10.7335
▁aunt	-10.7347
▁ironic	-10.7349
▁char	-10.735
▁fairy	-10.7356
▁attempting	-10.7358
▁hardy	-10.7365
▁sinister	-10.7366
▁bergman	-10.7366
▁obsession	-10.7366
▁1940	-10.7367
▁bridge	-10.7368
▁guessing	-10.7368
▁specific	-10.7371
▁succeed	-10.7373
ig	-10.7375
▁perfection	-10.7376
▁lion	-10.7379
gra	-10.7379
unfortunately	-10.738
...)	-10.7386
▁strip	-10.7398
▁stanwyck	-10.7405
▁reveals	-10.7405
▁carries	-10.7407
ite	-10.7411
▁nine	-10.7412
▁purely	-10.7412
▁repeat	-10.7415
▁pg	-10.7417
▁ego	-10.7421
▁confusion	-10.7438
▁lovable	-10.7438
▁backdrop	-10.7439
▁graphics	-10.7442
ky	-10.7443
▁convey	-10.7447
▁fictional	-10.745
ze	-10.7452
▁satan	-10.7453
ov	-10.7464
▁accepted	-10.7468
ending	-10.7474
▁innocence	-10.7474
▁sleazy	-10.7474
▁2001	-10.7482
▁sand	-10.7492
▁slight	-10.7499
▁shower	-10.7499
▁stunts	-10.7507
▁wins	-10.7509
▁controversial	-10.7511
ball	-10.7517
michael	-10.7525
▁answers	-10.7526
▁challenge	-10.7534
▁useless	-10.7535
▁wears	-10.7535
tom	-10.7536
ville	-10.7544
wa	-10.7545
▁happiness	-10.7547
▁thief	-10.7547
▁christ	-10.7551
▁lessons	-10.7574
▁leg	-10.7582
▁identify	-10.7584
▁boredom	-10.7585
▁cynical	-10.7586
▁nowadays	-10.7586
▁determined	-10.7592
▁criminals	-10.7594
because	-10.7599
▁causes	-10.76
▁initially	-10.7602
▁thousands	-10.7605
▁minds	-10.7606
▁stays	-10.7606
▁assassin	-10.762
▁***	-10.7624
▁sentimental	-10.7631
▁blade	-10.7631
▁glimpse	-10.7632
▁brad	-10.7632
▁creation	-10.7635
▁settings	-10.7636
ung	-10.7648
▁pack	-10.7649
▁card	-10.7655
▁pool	-10.7656
▁burton	-10.766
▁clips	-10.7669
▁bare	-10.7678
▁combine	-10.7679
▁burn	-10.7686
▁argue	-10.7695
▁attacked	-10.7699
▁push	-10.7703
▁searching	-10.7703
▁los	-10.7712
▁roman	-10.7721
set	-10.7726
▁views	-10.7729
▁horrendous	-10.7732
▁ultra	-10.7732
▁wealthy	-10.7736
▁hooked	-10.7744
▁interpretation	-10.7746
▁val	-10.7751
ens	-10.7756
▁sorts	-10.7758
▁wave	-10.7765
▁atmospheric	-10.7769
▁tribute	-10.7769
▁fortune	-10.7769
▁steam	-10.7769
its	-10.777
▁expert	-10.7771
▁freak	-10.7773
▁tradition	-10.7779
▁oz	-10.7782
▁thousand	-10.7784
perhaps	-10.7786
ened	-10.7786
▁rank	-10.7791
▁shy	-10.7793
lon	-10.7798
▁angels	-10.7799
▁exercise	-10.7806
▁portrait	-10.7806
action	-10.781
▁pe	-10.781
▁guts	-10.7811
▁tales	-10.7814
▁proof	-10.7817
▁bin	-10.7819
▁beer	-10.783
▁plots	-10.7834
▁fe	-10.7841
▁oil	-10.7844
▁savage	-10.7844
▁matrix	-10.7844
▁hbo	-10.7845
▁pi	-10.7847
▁raise	-10.7855
▁gal	-10.7861
horror	-10.7861
▁react	-10.7862
▁si	-10.7873
▁aired	-10.7879
▁gen	-10.7879
▁opened	-10.7879
▁stiff	-10.7882
▁strangely	-10.7883
▁toilet	-10.7883
▁catholic	-10.7884
▁lust	-10.7887
▁worry	-10.7899
▁burns	-10.7902
▁struggles	-10.7911
▁kennedy	-10.792
▁mexico	-10.792
▁1990	-10.7922
▁spell	-10.7923
▁virgin	-10.7923
ship	-10.7927
▁fallen	-10.7928
known	-10.7936
▁crack	-10.7947
▁ken	-10.795
▁imaginative	-10.7958
▁flynn	-10.7958
▁cameron	-10.7966
▁vincent	-10.7966
▁replaced	-10.7968
▁freeman	-10.7969
▁meaningful	-10.797
▁neck	-10.7971
▁fix	-10.7983
▁string	-10.7986
bel	-10.7995
▁homage	-10.7996
▁investigate	-10.7996
cut	-10.7999
▁sexuality	-10.7999
▁spoken	-10.8007
00	-10.8007
▁baker	-10.8008
▁resort	-10.8011
▁pen	-10.8015
plot	-10.8018
▁welles	-10.8021
▁intensity	-10.8034
ep	-10.8035
▁ripped	-10.8035
▁laid	-10.8037
▁complain	-10.8044
▁admire	-10.8045
▁lisa	-10.8047
▁notable	-10.8052
story	-10.8056
▁tea	-10.8057
pro	-10.8057
▁marvelous	-10.806
▁trail	-10.8066
▁restaurant	-10.8073
▁7/10	-10.8073
▁attacks	-10.8075
ny	-10.8078
▁carrying	-10.8079
▁ratings	-10.8085
▁sings	-10.8088
girl	-10.8089
▁0	-10.809
▁technique	-10.8095
▁je	-10.8095
▁neighbor	-10.8096
▁weapon	-10.8097
▁tall	-10.8097
▁checking	-10.8106
ugh	-10.8106
▁bobby	-10.8113
▁gra	-10.8115
▁michelle	-10.8119
▁shines	-10.8122
▁quote	-10.8126
rk	-10.813
▁cringe	-10.8134
▁month	-10.8136
▁competent	-10.8138
▁threat	-10.8141
bar	-10.8142
▁drives	-10.8147
▁reynolds	-10.815
▁dawn	-10.815
▁uninspired	-10.815
ft	-10.8163
cat	-10.8166
▁thrilling	-10.8166
▁miscast	-10.8169
▁minimal	-10.8169
▁tank	-10.817
▁/>(	-10.8174
▁rid	-10.8174
▁pal	-10.8183
▁exists	-10.8188
▁courage	-10.8188
king	-10.8189
▁britain	-10.8189
▁clown	-10.8189
▁imp	-10.8195
▁jamie	-10.8196
▁mouse	-10.8197
▁web	-10.8198
▁bi	-10.8199
▁va	-10.8203
ization	-10.8204
key	-10.8209
▁broadcast	-10.8211
▁consequences	-10.8213
▁gift	-10.8214
▁surrounding	-10.8219
▁upper	-10.8227
▁miserably	-10.8228
▁competition	-10.8228
▁wicked	-10.8228
▁disease	-10.8228
▁mummy	-10.8229
▁grey	-10.8232
play	-10.8233
aka	-10.8242
▁1.	-10.8254
▁poster	-10.8255
▁trial	-10.8255
acting	-10.8256
▁cure	-10.8259
▁lacked	-10.8262
▁tarantino	-10.8267
▁thirty	-10.8267
vin	-10.8268
▁matthau	-10.827
▁stealing	-10.827
▁endearing	-10.8271
▁snakes	-10.8272
▁attempted	-10.8272
▁parent	-10.8272
▁contract	-10.8273
▁picks	-10.8273
▁enjoyment	-10.8278
▁ghosts	-10.8283
▁colour	-10.8286
ek	-10.8288
▁response	-10.8306
▁nancy	-10.8307
▁discussion	-10.8308
series	-10.8309
▁predator	-10.8311
▁rachel	-10.8313
▁instantly	-10.8315
▁seeking	-10.8316
▁2.	-10.8317
▁heist	-10.8323
▁figures	-10.8329
▁bath	-10.8329
wise	-10.8329
▁hammer	-10.8331
▁greatly	-10.8333
▁hitch	-10.8338
▁ra	-10.8345
▁birthday	-10.8346
▁melodramatic	-10.8347
are	-10.8353
▁deaths	-10.8355
▁facts	-10.8355
▁productions	-10.8356
▁colorful	-10.8357
▁kar	-10.8362
av	-10.8363
▁trap	-10.8364
▁suffered	-10.8365
▁shorts	-10.8372
▁puppet	-10.838
▁uncomfortable	-10.8386
▁intent	-10.8387
om	-10.8387
▁frequently	-10.8394
▁regardless	-10.8394
▁escapes	-10.8395
▁sally	-10.84
▁march	-10.8401
school	-10.8407
please	-10.8407
▁measure	-10.8409
▁neat	-10.8416
▁bucks	-10.8418
▁sneak	-10.8425
▁examples	-10.8426
ach	-10.8428
▁bible	-10.8428
▁thoughts	-10.8429
▁liberal	-10.8429
▁annoyed	-10.8429
▁lying	-10.8433
done	-10.8434
▁friendly	-10.8449
▁invisible	-10.8465
▁blank	-10.847
▁jessica	-10.8471
both	-10.8473
▁blast	-10.848
▁flop	-10.8483
ible	-10.8484
▁troubled	-10.8489
▁gotta	-10.849
▁screw	-10.8491
▁knight	-10.8493
▁sa	-10.8495
movies	-10.8496
▁lesser	-10.8503
▁notorious	-10.8506
▁chasing	-10.8506
▁editor	-10.8508
▁owen	-10.8508
▁alas	-10.8517
▁von	-10.8524
▁90'	-10.8526
▁heat	-10.8533
▁outrageous	-10.8534
ily	-10.8544
je	-10.8545
▁pulp	-10.8546
▁neighborhood	-10.8546
▁navy	-10.8547
cent	-10.8548
▁stretch	-10.8548
row	-10.8548
▁intentions	-10.8549
▁appearing	-10.8553
▁link	-10.8555
▁stinker	-10.8555
▁notch	-10.8561
▁tied	-10.857
▁whereas	-10.8575
▁trade	-10.8578
▁hundreds	-10.8582
▁newspaper	-10.8587
▁unforgettable	-10.8587
▁midnight	-10.8587
▁basement	-10.8588
▁personalities	-10.8588
▁novels	-10.8588
▁acceptable	-10.8589
▁performers	-10.8591
▁corn	-10.8592
▁sole	-10.8594
▁pit	-10.8596
▁busy	-10.86
▁techniques	-10.8604
▁pin	-10.8605
▁boot	-10.8606
▁offering	-10.8608
dr	-10.8611
▁riding	-10.8616
▁frankenstein	-10.8627
▁investigation	-10.8627
▁hiding	-10.8627
▁45	-10.8629
▁2000	-10.8634
▁ram	-10.8637
▁teach	-10.8639
▁dancer	-10.8645
such	-10.8648
▁**	-10.8648
▁maker	-10.8653
run	-10.8656
▁protagonists	-10.8657
hy	-10.866
▁millions	-10.8663
▁essential	-10.8663
▁motivation	-10.8664
▁spiritual	-10.8668
▁connery	-10.8668
▁merit	-10.8671
▁successfully	-10.8671
▁duck	-10.8672
▁q	-10.868
low	-10.8684
---	-10.8685
▁dave	-10.8693
▁rap	-10.8694
▁garden	-10.87
▁belongs	-10.8701
▁andrews	-10.8704
▁ensemble	-10.8709
▁library	-10.8709
gg	-10.8718
▁insist	-10.8719
▁loser	-10.872
▁bon	-10.872
▁farce	-10.8722
▁pink	-10.8723
▁connected	-10.8727
rating	-10.8737
▁border	-10.8746
▁knife	-10.875
▁kidnapped	-10.875
▁korean	-10.8752
▁finger	-10.8755
▁intention	-10.8757
was	-10.8766
ku	-10.877
ou	-10.8774
▁spending	-10.8774
▁drags	-10.8777
▁physically	-10.8778
▁curiosity	-10.8791
▁sidekick	-10.8792
gr	-10.8793
▁command	-10.8797
▁adapted	-10.8801
▁critic	-10.8804
net	-10.8804
gar	-10.8806
▁outer	-10.8817
▁legs	-10.882
▁aged	-10.8821
right	-10.8825
▁closely	-10.8826
jack	-10.8828
▁incident	-10.8828
▁bug	-10.8831
▁ourselves	-10.8833
▁cardboard	-10.8833
nie	-10.8833
▁technically	-10.8834
▁arnold	-10.8836
▁scientists	-10.8836
▁4/10	-10.884
long	-10.884
▁gray	-10.8843
▁noble	-10.8856
robert	-10.8858
▁24	-10.8863
▁torn	-10.8866
▁eccentric	-10.8875
▁laurel	-10.8875
▁superficial	-10.8875
▁piano	-10.8875
▁trite	-10.8875
▁struck	-10.8886
▁forgive	-10.8899
▁crafted	-10.8906
▁coast	-10.8908
▁beating	-10.891
▁blows	-10.891
hu	-10.8913
type	-10.8915
▁mitchell	-10.8916
▁eerie	-10.8917
▁dragged	-10.8917
▁relative	-10.8919
gy	-10.8921
▁holly	-10.8921
▁bu	-10.8922
▁burt	-10.8925
▁dealt	-10.8929
▁split	-10.8957
▁practice	-10.8958
▁afford	-10.8958
▁benefit	-10.8959
▁powell	-10.896
▁steps	-10.8963
▁mu	-10.8966
▁irony	-10.8968
▁jet	-10.897
▁insulting	-10.8993
liners	-10.8997
▁happily	-10.9001
▁repetitive	-10.9001
▁eve	-10.9001
▁cried	-10.9001
▁wax	-10.9001
berg	-10.9003
ell	-10.9004
▁load	-10.9014
▁jumps	-10.9015
▁punk	-10.9015
▁(19	-10.9017
▁concerns	-10.9017
▁hype	-10.9023
tan	-10.9024
▁intrigue	-10.9027
▁appalling	-10.9031
▁nelson	-10.9043
▁redemption	-10.9043
▁lugosi	-10.9047
▁dubbing	-10.9047
▁disappoint	-10.905
town	-10.9051
▁lift	-10.9052
ford	-10.9059
▁hills	-10.9059
ay	-10.906
▁swear	-10.9065
▁carol	-10.9066
▁lab	-10.9068
▁health	-10.9079
▁triumph	-10.9079
▁stole	-10.9084
▁incoherent	-10.9086
▁glory	-10.9086
▁gothic	-10.9086
gan	-10.909
▁ward	-10.9094
▁wannabe	-10.9096
▁chases	-10.9102
video	-10.9113
about	-10.9114
▁ear	-10.9119
▁cup	-10.9121
ning	-10.9124
▁mor	-10.9127
▁charisma	-10.9128
▁essence	-10.9128
▁ralph	-10.9134
▁talked	-10.9138
▁needless	-10.9139
▁hence	-10.9139
▁appearances	-10.9139
aged	-10.914
▁ruthless	-10.914
▁bone	-10.9144
▁sexually	-10.9147
▁emma	-10.9153
▁packed	-10.9164
▁twin	-10.9167
▁spring	-10.9167
▁1930	-10.9169
▁virus	-10.9172
▁precious	-10.9172
cu	-10.9178
▁breasts	-10.918
▁persona	-10.9181
▁cia	-10.9188
▁doll	-10.9188
▁cameos	-10.919
tra	-10.919
▁pot	-10.9191
bs	-10.9202
▁penn	-10.9203
finally	-10.9204
▁sends	-10.9211
▁generous	-10.9214
▁chicago	-10.9214
▁airplane	-10.9215
▁cabin	-10.9218
▁fx	-10.9219
▁established	-10.9221
two	-10.9221
▁cha	-10.9226
▁achieved	-10.9235
existent	-10.9241
▁har	-10.9246
▁snake	-10.9253
▁slap	-10.9257
▁bottle	-10.9258
▁easier	-10.9258
▁album	-10.9258
▁shi	-10.9259
▁expensive	-10.9262
▁subplot	-10.9266
▁suits	-10.9268
▁titles	-10.9274
▁rushed	-10.9277
▁faced	-10.9279
▁hoped	-10.9284
▁typically	-10.9286
▁obscure	-10.9301
▁medium	-10.9301
▁funeral	-10.9301
▁cruise	-10.9302
▁bleak	-10.9302
▁thick	-10.9304
▁chi	-10.9305
▁elsewhere	-10.9306
▁tricks	-10.9312
coming	-10.9316
▁fortunately	-10.9318
▁develops	-10.932
▁tons	-10.932
▁definite	-10.9332
▁showcase	-10.9339
▁godfather	-10.9345
▁rick	-10.9346
▁horses	-10.9346
▁mile	-10.9347
▁opposed	-10.9349
ang	-10.9359
▁musicals	-10.936
▁larger	-10.936
▁outcome	-10.9362
▁repeatedly	-10.9363
▁ju	-10.9366
▁shirt	-10.9369
rie	-10.9375
▁wa	-10.9378
▁importantly	-10.9388
▁companion	-10.9388
▁cinderella	-10.9389
▁montage	-10.9389
▁stood	-10.9389
▁mansion	-10.939
▁jonathan	-10.9394
▁logical	-10.9404
▁locked	-10.9406
face	-10.9408
▁depend	-10.9411
▁rocket	-10.9414
▁heroic	-10.9414
▁confront	-10.9416
▁hysterical	-10.942
ino	-10.9422
▁creators	-10.9429
▁mill	-10.943
▁relevant	-10.9433
▁threw	-10.9433
▁installment	-10.9433
▁sophisticated	-10.9435
hr	-10.9436
▁accused	-10.9437
▁sidney	-10.9438
▁racial	-10.9442
▁carefully	-10.9443
▁wing	-10.9448
▁winter	-10.9448
▁refuses	-10.9456
▁wishes	-10.9458
▁wire	-10.9459
▁handful	-10.9461
▁tremendous	-10.9465
▁hook	-10.9466
▁citizen	-10.9466
▁jazz	-10.9469
▁hunting	-10.9473
▁fa	-10.9473
▁audio	-10.9477
▁assault	-10.9477
▁clint	-10.9481
air	-10.9484
▁eva	-10.9485
▁emily	-10.9487
▁guilt	-10.9488
will	-10.9492
▁ver	-10.9499
▁suggests	-10.9506
▁spoiled	-10.9507
ned	-10.9509
q	-10.9513
▁rogers	-10.952
▁maintain	-10.9521
▁fifteen	-10.9521
▁resolution	-10.9521
▁horrid	-10.9521
▁pointed	-10.9525
▁staff	-10.9528
ass	-10.9534
ina	-10.9534
▁engaged	-10.9535
▁thrills	-10.9537
▁duke	-10.9539
▁grows	-10.9541
/10	-10.955
▁journalist	-10.955
▁germans	-10.9552
▁wine	-10.9553
▁kicks	-10.9562
▁shoes	-10.9563
▁swedish	-10.9566
▁unpleasant	-10.9566
▁slick	-10.9566
▁hamlet	-10.9567
▁mate	-10.9568
▁souls	-10.9569
▁ambitious	-10.9569
▁complaint	-10.9571
▁drunken	-10.9571
▁selling	-10.9575
▁landscape	-10.9581
minute	-10.9598
tal	-10.9598
▁spare	-10.9601
night	-10.9601
cast	-10.9606
▁sport	-10.9607
▁requires	-10.9607
▁jumping	-10.9614
▁2005	-10.9614
▁timeless	-10.9615
▁ideal	-10.9623
▁possessed	-10.9624
▁smoking	-10.9625
▁tie	-10.9628
▁tap	-10.9631
▁infamous	-10.9632
stop	-10.9636
▁commercials	-10.9641
▁cow	-10.9645
▁jealous	-10.9648
▁wondered	-10.9651
▁suspects	-10.9653
▁francis	-10.9655
▁splendid	-10.9656
▁hopper	-10.9657
▁9/10	-10.9657
▁pride	-10.9657
▁urge	-10.9657
▁terrifying	-10.9657
▁jobs	-10.9657
▁spike	-10.9658
▁increasingly	-10.966
▁reasonably	-10.9662
▁rat	-10.9664
▁shall	-10.9666
▁resist	-10.9666
▁fonda	-10.9667
get	-10.9667
▁mon	-10.9669
▁linda	-10.967
ists	-10.9671
▁fitting	-10.9674
▁burning	-10.9681
▁pearl	-10.9686
py	-10.9688
▁les	-10.9688
▁mild	-10.9689
▁loosely	-10.9691
und	-10.9692
▁brilliance	-10.9701
▁frost	-10.9701
▁inspector	-10.9701
ez	-10.9702
▁thumbs	-10.9704
▁fancy	-10.9707
▁photographer	-10.9708
▁shadows	-10.9709
▁stooges	-10.9711
▁sandra	-10.9712
▁leslie	-10.9713
▁daring	-10.9719
▁buff	-10.9722
fa	-10.9726
▁stated	-10.9727
▁norman	-10.9729
▁dialogs	-10.973
▁goal	-10.9735
▁briefly	-10.9745
▁grandfather	-10.9747
▁frustrated	-10.9748
letting	-10.9749
▁noise	-10.975
▁tortured	-10.975
▁madonna	-10.9751
▁hudson	-10.9752
minded	-10.9752
▁destruction	-10.9754
ec	-10.9756
▁daughters	-10.9759
▁realise	-10.976
▁attracted	-10.9764
fe	-10.9764
▁indians	-10.9768
▁pleasantly	-10.9769
pre	-10.9783
▁provid	-10.9789
▁documentaries	-10.9792
▁exchange	-10.9792
▁1/10	-10.9794
▁beaten	-10.9799
▁jewel	-10.9802
▁rabbit	-10.9803
▁woo	-10.9804
▁carl	-10.9807
▁corpse	-10.9813
▁nazis	-10.9815
▁fatal	-10.9817
▁hu	-10.9818
▁ke	-10.9821
▁explosions	-10.9833
▁failing	-10.9838
▁elaborate	-10.9838
▁poverty	-10.9838
▁dropped	-10.9839
▁cap	-10.9839
▁highlights	-10.9839
▁hideous	-10.9839
▁cole	-10.9853
▁bullet	-10.9859
▁spots	-10.986
die	-10.986
▁tin	-10.9876
▁maria	-10.988
▁believing	-10.9884
▁menacing	-10.9884
▁russia	-10.9884
▁altman	-10.9884
▁altogether	-10.9884
look	-10.9886
▁porno	-10.9888
▁splatter	-10.9888
▁translation	-10.9888
▁angeles	-10.9891
▁drivel	-10.9891
▁ro	-10.9891
▁raped	-10.9897
▁interaction	-10.9907
▁discovery	-10.9908
love	-10.9916
▁lone	-10.992
▁remaining	-10.9922
▁gentle	-10.9927
▁button	-10.9928
▁cliff	-10.993
▁helicopter	-10.993
▁austen	-10.9931
▁crisis	-10.9931
▁saves	-10.9934
▁walken	-10.9937
ever	-10.9937
▁lucy	-10.9937
▁jake	-10.9938
▁lifestyle	-10.9943
▁stops	-10.9944
▁boom	-10.9953
hour	-10.9959
make	-10.9961
▁ignored	-10.9964
▁te	-10.9965
▁flawless	-10.9969
▁pleased	-10.9971
▁watches	-10.9976
▁cusack	-10.9977
▁victoria	-10.9977
▁valley	-10.9978
▁accompanie	-10.9979
▁countless	-10.998
▁idiots	-10.9981
comedy	-10.9982
▁associated	-10.9984
▁et	-10.9991
▁notion	-10.9991
▁occur	-11
▁explicit	-11.0011
▁evident	-11.0011
▁vague	-11.0012
▁ch	-11.0012
gh	-11.0017
og	-11.0019
▁thrillers	-11.002
▁myth	-11.0023
▁dentist	-11.0024
▁disjointed	-11.0024
▁inventive	-11.0024
▁symbolism	-11.0024
▁celluloid	-11.0026
▁attached	-11.0027
▁importance	-11.0028
▁photographed	-11.0029
▁elderly	-11.0031
▁unintentionally	-11.0034
▁1/2	-11.0035
▁21	-11.0036
▁accomplished	-11.0036
!!!!!	-11.0038
▁aimed	-11.0039
▁pulling	-11.0042
▁lend	-11.0048
▁revelation	-11.0049
▁strike	-11.0052
paced	-11.0056
▁encounters	-11.0058
▁duo	-11.0061
▁giallo	-11.0071
▁distance	-11.0071
▁pseudo	-11.0071
▁popcorn	-11.0071
▁carrey	-11.0071
▁returning	-11.0072
▁terrorist	-11.0074
ising	-11.0075
▁surrounded	-11.0076
▁blake	-11.0077
▁3/10	-11.008
▁canada	-11.0085
▁reasonable	-11.0094
▁angela	-11.0095
50	-11.0104
▁dinosaurs	-11.0113
▁astonishing	-11.0118
▁inevitable	-11.0118
▁territory	-11.0118
▁charismatic	-11.0118
▁aim	-11.0119
▁combat	-11.0122
▁reflect	-11.0126
note	-11.013
▁videos	-11.0139
lie	-11.014
ical	-11.014
▁willis	-11.0142
▁uniform	-11.0145
▁preview	-11.0146
▁fer	-11.0148
▁meaningless	-11.0157
▁picking	-11.0163
▁liking	-11.0166
▁recording	-11.0166
▁antics	-11.0167
▁vicious	-11.0168
▁narrator	-11.0168
▁gabriel	-11.0169
▁travels	-11.0172
▁bold	-11.0176
▁yard	-11.0182
▁lit	-11.0182
yet	-11.0183
▁fond	-11.0187
▁impress	-11.0193
▁revealing	-11.0198
awful	-11.02
ability	-11.0204
az	-11.0209
▁chest	-11.0212
▁homosexual	-11.0212
▁mario	-11.0212
▁unwatchable	-11.0213
▁buried	-11.0213
▁elephant	-11.0215
▁abc	-11.0215
▁sal	-11.0219
▁phrase	-11.022
▁bra	-11.0222
▁albe	-11.0225
▁carter	-11.0229
▁tender	-11.0233
▁killings	-11.0233
▁dire	-11.0238
▁diamond	-11.0242
cho	-11.0245
▁goodness	-11.0252
▁phil	-11.0252
worthy	-11.0256
▁university	-11.0261
▁alexander	-11.0261
▁detailed	-11.0261
▁mann	-11.0261
▁kirk	-11.0262
▁rely	-11.0264
▁spooky	-11.0266
▁reactions	-11.0269
▁ri	-11.0271
▁childish	-11.0271
than	-11.0273
▁demands	-11.0274
▁prize	-11.0275
▁receive	-11.0275
▁nights	-11.0278
lam	-11.0279
▁sadistic	-11.028
▁jan	-11.0282
▁listed	-11.0289
▁dimension	-11.0295
▁franco	-11.0297
▁thrill	-11.0298
▁cases	-11.03
act	-11.0304
▁individuals	-11.0304
▁8/10	-11.0305
sign	-11.0307
sp	-11.0309
▁conspiracy	-11.0309
▁kitchen	-11.0309
▁rural	-11.0309
▁generic	-11.0309
core	-11.0311
paul	-11.0311
▁inspiring	-11.0312
mann	-11.0314
▁overdone	-11.032
▁cared	-11.0322
▁offended	-11.0324
ray	-11.0329
▁ranks	-11.0337
uff	-11.034
▁grab	-11.034
▁ticket	-11.0341
▁50'	-11.0342
ub	-11.0343
nce	-11.0343
▁continued	-11.0352
▁abysmal	-11.0357
▁argento	-11.0357
▁grandmother	-11.0357
▁randy	-11.0359
▁shoots	-11.036
len	-11.036
▁murray	-11.0362
▁ridiculously	-11.0364
▁unit	-11.0364
▁worthless	-11.0365
▁chicken	-11.0365
▁kudos	-11.0366
▁directorial	-11.0367
▁arrested	-11.0367
▁hanks	-11.0369
▁painting	-11.0376
wing	-11.0376
▁burned	-11.0376
van	-11.0381
▁oddly	-11.0382
▁quit	-11.039
▁argument	-11.039
▁fo	-11.039
▁dump	-11.0391
▁solo	-11.0392
▁todd	-11.0393
▁hamilton	-11.0406
▁juvenile	-11.0406
▁reunion	-11.0406
▁causing	-11.0406
▁sandler	-11.0406
▁hatred	-11.0406
▁involvement	-11.0406
▁transformation	-11.0407
▁spider	-11.0408
▁lawrence	-11.0411
▁winds	-11.0419
uck	-11.0427
▁nut	-11.044
▁achievement	-11.0441
▁digital	-11.0442
▁def	-11.045
▁comfort	-11.0453
▁depression	-11.0454
▁comfortable	-11.0456
▁kinds	-11.0456
▁reflection	-11.0458
▁displays	-11.046
▁segments	-11.0467
▁tunes	-11.0469
ium	-11.0472
▁bump	-11.0474
▁hitting	-11.0476
▁purchase	-11.0487
fer	-11.049
▁subsequent	-11.0491
again	-11.0496
regarding	-11.0497
▁cannibal	-11.0502
▁illegal	-11.0503
▁lincoln	-11.0503
▁spielberg	-11.0503
▁unbelievably	-11.0503
▁yesterday	-11.0503
▁damme	-11.0504
▁duty	-11.0504
▁wrestling	-11.0507
▁cd	-11.0507
▁hardcore	-11.0507
▁distant	-11.0508
▁ol	-11.0508
under	-11.0514
shot	-11.0515
▁allowing	-11.0517
▁iii	-11.0519
▁afterwards	-11.0523
val	-11.0523
▁arrive	-11.0524
lic	-11.0529
▁dee	-11.053
▁fest	-11.053
▁nu	-11.0531
▁smooth	-11.054
▁royal	-11.0542
probably	-11.0544
cle	-11.0546
▁2)	-11.0548
▁lol	-11.055
▁traveling	-11.0552
▁devoid	-11.0553
▁alternate	-11.0553
▁slice	-11.0553
ju	-11.0553
▁operation	-11.0554
▁overwhelming	-11.0557
?).	-11.0558
▁extended	-11.0559
▁dorothy	-11.0559
▁abilities	-11.0564
▁scripted	-11.0567
▁factory	-11.0572
tz	-11.0574
▁conventional	-11.0574
▁returned	-11.0577
▁widow	-11.0581
▁escaped	-11.0583
▁shine	-11.0585
▁defeat	-11.0592
▁performing	-11.0597
▁reed	-11.0601
▁chaos	-11.0603
▁firm	-11.062
▁bang	-11.0622
▁glenn	-11.0626
▁advise	-11.0627
▁improve	-11.0643
rr	-11.0646
▁plant	-11.0646
▁bears	-11.0647
▁crimes	-11.0649
sky	-11.065
▁hearts	-11.0651
▁tracy	-11.0652
▁quinn	-11.0652
▁implausible	-11.0652
▁wallace	-11.0652
▁dutch	-11.0653
▁unbearable	-11.0653
▁glover	-11.0654
▁temple	-11.0656
▁pressure	-11.0656
▁col	-11.0661
▁classical	-11.0672
▁sadness	-11.0673
▁gar	-11.0673
▁sentence	-11.0677
▁shortly	-11.0679
▁oscars	-11.068
▁transfer	-11.0693
▁worried	-11.0702
▁crystal	-11.0702
▁bathroom	-11.0702
▁derek	-11.0702
▁estate	-11.0702
▁kidding	-11.0702
▁campbell	-11.0703
▁affection	-11.0704
▁rubber	-11.0706
▁amanda	-11.071
guy	-11.071
▁overlooked	-11.0713
eyed	-11.0716
any	-11.0721
▁milk	-11.0726
▁superbly	-11.0728
▁thoughtful	-11.0728
▁clues	-11.0729
away	-11.0737
▁trans	-11.0737
nn	-11.074
▁wrap	-11.0752
▁survival	-11.0752
▁ireland	-11.0753
vy	-11.0753
▁grasp	-11.0753
▁secretary	-11.0754
▁devoted	-11.0755
▁trio	-11.0757
▁andy	-11.0761
▁neil	-11.0764
elli	-11.0766
▁strikes	-11.0775
▁resembles	-11.0776
▁pushed	-11.078
▁invite	-11.0787
▁commented	-11.0795
david	-11.0795
▁principal	-11.0795
▁lyrics	-11.0798
▁fired	-11.0799
▁alternative	-11.0803
▁miserable	-11.0803
▁streep	-11.0803
▁synopsis	-11.0803
▁planning	-11.0803
▁selfish	-11.081
▁foul	-11.0811
▁matthew	-11.0815
▁delivering	-11.0815
▁fed	-11.0815
oo	-11.0816
▁improved	-11.0823
▁highest	-11.0825
▁misses	-11.0828
▁mag	-11.0835
▁counter	-11.0836
ties	-11.0837
▁riot	-11.0838
▁defend	-11.0845
▁cr	-11.0846
▁represents	-11.0846
▁staying	-11.0847
▁prostitute	-11.0851
▁psychiatrist	-11.0853
▁website	-11.0853
▁dedicated	-11.0855
▁menace	-11.0855
▁bay	-11.0855
▁brando	-11.0857
▁disturbed	-11.0858
▁politically	-11.0864
▁luckily	-11.0864
▁intrigued	-11.0873
▁affected	-11.0874
▁dust	-11.0876
▁teaching	-11.0879
▁boll	-11.0881
▁ned	-11.0883
iv	-11.0889
▁user	-11.089
▁gut	-11.0891
ator	-11.0891
▁square	-11.0892
hand	-11.0894
▁tame	-11.0901
qui	-11.0901
▁poison	-11.0904
▁butcher	-11.0904
▁captivating	-11.0904
▁clumsy	-11.0904
▁exotic	-11.0904
▁strictly	-11.0911
▁peak	-11.0911
▁waters	-11.0922
▁prisoner	-11.0925
▁dramas	-11.0931
▁carrie	-11.0937
did	-11.0939
▁rights	-11.0942
real	-11.0943
bal	-11.0947
▁masters	-11.0947
▁emperor	-11.0956
▁absence	-11.0956
▁sloppy	-11.0956
▁psychotic	-11.0957
▁slightest	-11.0957
▁craig	-11.0964
▁rage	-11.0964
▁claire	-11.0966
▁jar	-11.0968
▁removed	-11.097
▁builds	-11.0974
▁occurs	-11.0981
▁stereotype	-11.0988
ini	-11.0992
▁endure	-11.0998
▁notably	-11.1
▁provoking	-11.1
▁buddies	-11.1007
▁elvis	-11.1008
ett	-11.1008
▁loyal	-11.101
▁tit	-11.1012
▁scientific	-11.1014
▁calm	-11.1014
▁beats	-11.1015
▁diane	-11.1017
hop	-11.1023
▁explore	-11.1024
▁cats	-11.1027
ice	-11.1035
pper	-11.1041
▁vice	-11.1042
place	-11.105
▁photo	-11.1058
▁squad	-11.1059
▁junior	-11.1059
▁mixture	-11.1059
▁philosophy	-11.1059
▁producing	-11.1059
▁rendition	-11.1059
▁troma	-11.1059
▁choreography	-11.106
▁unoriginal	-11.106
▁stanley	-11.106
▁yellow	-11.1063
▁exaggerated	-11.1064
▁folk	-11.1064
▁margaret	-11.1065
▁performer	-11.1071
▁admittedly	-11.1076
pping	-11.1077
human	-11.108
▁fla	-11.1082
▁turner	-11.1088
▁settle	-11.1095
▁engage	-11.1095
▁pants	-11.1101
zo	-11.1102
ap	-11.1105
avoid	-11.1105
▁walls	-11.1108
▁coffee	-11.1111
▁possibility	-11.1111
▁simplistic	-11.1111
▁poetry	-11.1112
eg	-11.1112
▁eighties	-11.1113
take	-11.1114
▁nearby	-11.112
▁damage	-11.1148
ren	-11.115
▁battles	-11.1151
▁enters	-11.1152
rn	-11.1155
▁vast	-11.1157
ates	-11.116
▁sn	-11.1162
▁favour	-11.1163
▁scheme	-11.1163
▁curtis	-11.1164
▁artificial	-11.1164
▁parallel	-11.1164
▁lin	-11.1165
▁resemblance	-11.1165
▁cox	-11.1171
ative	-11.1173
▁stronger	-11.1175
ski	-11.1186
▁steel	-11.1186
▁fighter	-11.1188
▁metaphor	-11.1189
▁tag	-11.1191
▁fears	-11.1192
▁vegas	-11.1196
zi	-11.1196
▁sacrifice	-11.1202
▁recorded	-11.1208
▁harder	-11.1211
▁blond	-11.1211
▁hollow	-11.1216
based	-11.1216
▁punishment	-11.1217
▁tribe	-11.1217
▁mtv	-11.1217
▁cons	-11.1222
▁communist	-11.1222
▁executive	-11.1223
▁shining	-11.1224
▁clothing	-11.1224
▁sue	-11.1228
▁blues	-11.1231
sure	-11.1234
▁reached	-11.1249
▁explaining	-11.1252
ella	-11.1261
▁leonard	-11.1266
▁staged	-11.1267
▁dim	-11.1267
▁las	-11.1268
▁innovative	-11.1269
▁mafia	-11.1269
▁yo	-11.1277
▁headed	-11.1284
pl	-11.1308
▁pun	-11.1308
▁sim	-11.1313
dis	-11.1314
hero	-11.1316
▁homeless	-11.1318
▁arrogant	-11.1322
▁bargain	-11.1322
▁convoluted	-11.1322
▁depressed	-11.1322
▁frustration	-11.1322
▁kubrick	-11.1322
▁occurred	-11.1323
▁warrior	-11.1326
▁murderous	-11.1328
▁alter	-11.1328
▁cliche	-11.1329
▁doc	-11.1331
▁distracting	-11.1335
▁errors	-11.1336
press	-11.1337
ations	-11.1343
pol	-11.1347
▁terrorists	-11.135
▁guarantee	-11.136
▁blatant	-11.1363
▁involve	-11.1364
▁bow	-11.1366
▁aging	-11.1375
▁prepare	-11.1376
▁recognition	-11.1376
▁baldwin	-11.1376
▁museum	-11.1376
▁trademark	-11.1376
▁proceedings	-11.1376
▁population	-11.1376
▁solution	-11.1376
▁norris	-11.1377
▁dinosaur	-11.1381
▁mistaken	-11.1381
many	-11.1381
▁wont	-11.1383
▁scarecrow	-11.1384
▁doors	-11.1402
▁buster	-11.1404
▁detract	-11.1406
ix	-11.1406
▁bette	-11.1409
▁flee	-11.1413
▁existed	-11.1417
ano	-11.1418
▁cards	-11.1419
▁agreed	-11.1421
ane	-11.1423
▁nail	-11.1425
white	-11.1425
▁colonel	-11.143
▁screams	-11.143
▁stellar	-11.1431
▁falk	-11.1433
▁copies	-11.1435
▁explosion	-11.1436
▁alert	-11.1437
▁bates	-11.1439
▁coherent	-11.144
▁poetic	-11.1444
▁andrew	-11.1446
▁ought	-11.1447
▁additional	-11.1451
▁confess	-11.1451
▁motives	-11.1455
acted	-11.1457
▁cheek	-11.1462
▁influenced	-11.1463
▁cu	-11.1464
▁bud	-11.1464
▁recognized	-11.1465
▁attract	-11.1466
......	-11.1469
▁marks	-11.1469
mel	-11.147
▁instant	-11.1471
▁official	-11.1478
▁beneath	-11.1484
▁manhattan	-11.1484
▁suspicious	-11.1484
▁isolated	-11.1484
▁versus	-11.1484
▁branagh	-11.1484
▁gradually	-11.1485
▁eaten	-11.1488
▁tad	-11.1488
▁throat	-11.1498
▁din	-11.1503
▁succeeded	-11.1506
▁differences	-11.1508
▁represent	-11.151
▁fri	-11.1511
▁awe	-11.1512
▁witnessed	-11.1512
ified	-11.1515
▁fooled	-11.1516
▁rod	-11.1516
▁scratch	-11.1518
▁rocks	-11.1519
▁predict	-11.1522
▁sheen	-11.1522
▁enormous	-11.1526
▁divorce	-11.1527
▁holy	-11.1528
▁kurt	-11.1537
▁dignity	-11.1538
▁frustrating	-11.1538
▁robinson	-11.154
▁subtlety	-11.154
much	-11.1541
▁robbery	-11.1541
▁judging	-11.1542
▁jeremy	-11.1548
▁tonight	-11.1548
▁cheating	-11.1549
▁mayor	-11.155
▁dar	-11.155
▁report	-11.1552
▁inappropriate	-11.1554
▁exposed	-11.1558
▁scarlett	-11.1565
mr	-11.1565
▁pale	-11.1566
▁conversations	-11.1566
roll	-11.1568
▁creep	-11.1575
wan	-11.1578
ress	-11.1585
▁enemies	-11.1593
▁edition	-11.1594
▁projects	-11.1595
▁countryside	-11.1596
▁lips	-11.1597
▁depicts	-11.1598
▁reaches	-11.16
▁consistently	-11.1604
pp	-11.1605
▁panic	-11.1606
lar	-11.1606
▁awake	-11.1615
▁dev	-11.1616
▁package	-11.1617
bit	-11.1619
ben	-11.1619
▁justify	-11.1619
▁darker	-11.1626
▁aka	-11.163
▁closed	-11.163
fully	-11.1634
▁vivid	-11.1635
▁unintentional	-11.1636
going	-11.1642
point	-11.1643
since	-11.1645
▁shirley	-11.1648
▁blew	-11.165
▁reel	-11.1655
▁feed	-11.1656
▁region	-11.1658
ged	-11.1674
▁myers	-11.1675
▁belong	-11.1675
▁props	-11.1676
really	-11.1686
▁stark	-11.1687
▁harm	-11.1688
▁adequate	-11.169
▁trace	-11.1696
▁programme	-11.1698
▁elegant	-11.1703
▁imitation	-11.1703
▁lemmon	-11.1703
▁nervous	-11.1703
▁statue	-11.1703
▁miracle	-11.1703
▁morality	-11.1706
▁emphasis	-11.1706
▁contrary	-11.1708
▁arc	-11.171
▁leap	-11.1712
▁titled	-11.1712
▁psychic	-11.1714
▁marty	-11.1715
▁contribute	-11.1716
▁secrets	-11.1717
▁passes	-11.1717
▁beg	-11.172
▁ki	-11.1724
▁classes	-11.1726
▁messages	-11.1727
▁circle	-11.1728
▁threatening	-11.173
▁areas	-11.1742
▁honesty	-11.1742
▁hung	-11.1751
list	-11.1753
▁mars	-11.1755
▁morris	-11.1756
▁education	-11.1756
james	-11.1756
▁agents	-11.1758
▁primarily	-11.1758
▁shelf	-11.1758
▁gear	-11.1758
▁undoubtedly	-11.1759
▁downhill	-11.1761
hood	-11.1763
pr	-11.1764
▁wonders	-11.1766
▁sl	-11.1771
▁doomed	-11.1772
▁aid	-11.1772
▁wagon	-11.1772
▁brains	-11.1772
▁signs	-11.1775
dom	-11.1785
▁huh	-11.1786
▁pla	-11.1799
▁tan	-11.18
▁decisions	-11.1806
win	-11.1809
▁spark	-11.181
▁unfolds	-11.181
▁loads	-11.1812
▁contest	-11.1814
richard	-11.1814
▁comparing	-11.1814
▁excruciating	-11.1814
▁sleaze	-11.1814
▁spiral	-11.1814
▁intimate	-11.1814
▁garfield	-11.1814
▁planned	-11.1815
▁venture	-11.1815
▁bonus	-11.1816
▁35	-11.1816
unless	-11.1817
▁keen	-11.1818
▁immensely	-11.182
▁runner	-11.1821
▁nicole	-11.1822
▁prisoners	-11.1827
▁notes	-11.1847
▁gangsters	-11.1848
ev	-11.1853
▁forty	-11.1855
▁shake	-11.1856
fr	-11.1867
sses	-11.1869
▁aforementioned	-11.187
▁objective	-11.1871
drama	-11.1873
▁formulaic	-11.1874
mate	-11.1875
▁frankie	-11.1877
▁eastern	-11.1877
gged	-11.188
▁keith	-11.1883
▁span	-11.1885
▁prejudice	-11.1886
far	-11.1887
▁overrated	-11.1888
▁maniac	-11.1889
▁whit	-11.189
fire	-11.1894
▁josh	-11.1906
▁sen	-11.1907
ura	-11.1908
once	-11.1909
▁inspire	-11.1911
▁comics	-11.1911
▁spread	-11.1914
▁trained	-11.1917
▁masterful	-11.1917
▁closet	-11.1918
▁switch	-11.1922
world	-11.1923
ries	-11.1924
sorry	-11.1926
▁ty	-11.1927
▁grotesque	-11.1927
▁mode	-11.1927
▁fingers	-11.1932
▁philosophical	-11.1932
▁mall	-11.1933
▁mistress	-11.1935
nny	-11.1936
comprehensible	-11.1939
▁limits	-11.1947
▁models	-11.1956
▁progress	-11.1961
▁displayed	-11.1964
▁smaller	-11.1968
show	-11.1971
▁interact	-11.1981
▁guitar	-11.1982
▁adorable	-11.1984
▁equipment	-11.1984
▁rotten	-11.1984
▁tramp	-11.1984
▁airport	-11.1985
▁karate	-11.1985
▁satisfied	-11.1988
▁reduced	-11.1991
▁bourne	-11.1993
▁label	-11.1995
pin	-11.1996
▁cake	-11.1998
▁dynamic	-11.2002
▁slave	-11.2004
▁covers	-11.2005
▁alfred	-11.2005
▁ease	-11.2005
▁superhero	-11.2007
▁der	-11.2013
▁ruins	-11.2013
▁pushing	-11.2015
▁bullets	-11.2015
▁tripe	-11.2021
▁method	-11.2022
▁transform	-11.2024
▁partly	-11.2036
▁compliment	-11.2041
▁empire	-11.2041
▁horrifying	-11.2041
▁pitiful	-11.2041
▁primary	-11.2041
▁debate	-11.2041
▁wrapped	-11.2041
▁bruno	-11.2042
▁trees	-11.2042
▁wore	-11.2046
▁cheated	-11.205
▁offend	-11.2052
▁officers	-11.2054
▁macy	-11.2056
▁nightmares	-11.2056
nu	-11.206
▁rebel	-11.2069
▁describes	-11.2071
▁romp	-11.2071
▁noted	-11.2072
view	-11.2077
lia	-11.2078
board	-11.2081
▁crush	-11.2086
▁trashy	-11.2088
lock	-11.209
▁legal	-11.209
▁graham	-11.2092
▁flies	-11.2098
▁sappy	-11.2099
▁smell	-11.2099
▁edgar	-11.2099
▁composer	-11.21
▁lucas	-11.2102
▁cinematographer	-11.2102
▁terry	-11.2102
directed	-11.2103
▁illness	-11.2105
▁ze	-11.2106
▁imagined	-11.2109
▁ab	-11.2112
cher	-11.2114
▁mil	-11.2115
▁tri	-11.2116
▁hilariously	-11.2121
ular	-11.2122
▁sons	-11.2134
▁ears	-11.2138
▁workers	-11.2142
nia	-11.2143
▁consistent	-11.2145
▁similarly	-11.2145
▁subplots	-11.2146
▁gu	-11.2149
▁bean	-11.2151
▁cagney	-11.2156
▁crawford	-11.2156
▁creativity	-11.2156
▁stilted	-11.2156
▁florida	-11.2156
▁flood	-11.2156
▁seventies	-11.2157
▁fever	-11.2158
▁advance	-11.2162
▁borrowed	-11.217
▁nerd	-11.2171
▁uneven	-11.2172
▁ross	-11.2173
▁coat	-11.2187
▁lock	-11.2189
▁kicked	-11.2201
▁pig	-11.2209
read	-11.2213
▁pattern	-11.2214
▁riveting	-11.2214
▁scooby	-11.2214
▁swimming	-11.2214
▁vocal	-11.2214
▁embarrassment	-11.2214
makers	-11.2216
esque	-11.2218
▁movements	-11.2232
▁solely	-11.2232
▁tracks	-11.2248
▁addict	-11.2255
▁bust	-11.2259
▁wil	-11.2268
▁swing	-11.2272
▁luc	-11.2273
▁bronson	-11.2273
▁nostalgia	-11.2273
▁illogical	-11.2273
▁aussie	-11.2273
▁huston	-11.2273
▁specifically	-11.2274
▁feast	-11.2274
▁similarities	-11.2276
▁2004	-11.2276
▁titanic	-11.2277
▁clone	-11.2279
handed	-11.228
▁stinks	-11.2282
▁centre	-11.2286
▁cannon	-11.2286
having	-11.2291
▁inane	-11.23
▁parties	-11.2309
▁iraq	-11.2311
▁desired	-11.2316
▁slaughter	-11.2316
tes	-11.2317
▁recommendation	-11.2318
▁eager	-11.2319
ory	-11.2324
▁ali	-11.2324
▁wi	-11.2325
▁gus	-11.2326
▁jordan	-11.2332
▁plausible	-11.2332
▁absent	-11.2332
▁felix	-11.2332
▁mentioning	-11.2333
▁priceless	-11.2335
▁cg	-11.2336
▁mankind	-11.2338
▁considerable	-11.2338
▁suitable	-11.2339
▁dating	-11.2339
▁presumably	-11.2342
▁cream	-11.2353
▁4.	-11.2356
▁function	-11.2365
▁pretending	-11.237
▁sticks	-11.2372
▁dozens	-11.2373
▁puzzle	-11.2375
▁passionate	-11.238
use	-11.2382
▁historically	-11.2384
▁fields	-11.2385
▁frequent	-11.2386
▁tunnel	-11.2391
▁fought	-11.2391
people	-11.2392
▁tail	-11.2392
▁progresses	-11.2394
▁glasses	-11.2396
▁dimensional	-11.2399
▁corman	-11.2399
▁topless	-11.2409
▁chased	-11.241
lee	-11.2416
▁careers	-11.2421
▁odds	-11.2429
qua	-11.2431
▁moody	-11.2434
▁define	-11.2435
▁survived	-11.2437
▁suited	-11.2437
▁cue	-11.2445
▁developing	-11.2445
▁spoke	-11.2447
▁refer	-11.2447
▁griffith	-11.245
▁vengeance	-11.245
▁martha	-11.245
▁tyler	-11.2451
▁traffic	-11.2451
lor	-11.2451
▁rude	-11.2452
▁gentleman	-11.2453
▁wizard	-11.2455
▁constructed	-11.2457
▁edit	-11.2461
▁rita	-11.2464
room	-11.2466
▁thru	-11.2467
▁introduces	-11.2468
ches	-11.2477
▁wound	-11.2478
▁hy	-11.2479
▁portion	-11.248
▁drawing	-11.2489
master	-11.2494
▁tip	-11.2494
▁chances	-11.2495
ari	-11.2495
uk	-11.2497
▁ingredients	-11.2498
▁ranger	-11.25
▁dirt	-11.2503
▁trend	-11.2504
maker	-11.2508
▁incompetent	-11.251
▁inferior	-11.251
▁nostalgic	-11.251
▁twelve	-11.251
▁advertising	-11.251
▁turkish	-11.251
▁barney	-11.2512
▁composed	-11.2513
ai	-11.2514
▁sullivan	-11.2523
▁disappeared	-11.2524
▁catches	-11.2526
▁explored	-11.2529
▁discuss	-11.2529
▁fist	-11.253
▁gate	-11.253
▁hay	-11.2541
▁nomination	-11.2546
▁survivors	-11.2546
ug	-11.2552
▁contained	-11.2558
▁financial	-11.2558
▁affect	-11.2564
▁address	-11.2566
▁saga	-11.2567
▁chuckle	-11.257
▁challenging	-11.257
▁circus	-11.257
▁bela	-11.257
▁chainsaw	-11.257
▁safety	-11.2572
▁perry	-11.2573
▁mason	-11.2574
▁convincingly	-11.258
iff	-11.2582
▁yawn	-11.2583
▁doom	-11.2588
these	-11.2589
▁earned	-11.2592
▁dud	-11.2592
▁th	-11.2599
▁lately	-11.2608
▁brutally	-11.2611
▁ruth	-11.2616
actually	-11.2616
▁mail	-11.2626
cl	-11.2627
▁delicate	-11.2631
▁mysteries	-11.2631
▁garbo	-11.2633
thriller	-11.2633
▁harvey	-11.2637
▁mountains	-11.264
▁darn	-11.2641
▁ironically	-11.2645
▁wig	-11.2649
ery	-11.2649
▁hart	-11.2654
▁butler	-11.2662
▁hum	-11.2664
▁relation	-11.2668
▁shaw	-11.267
▁guessed	-11.2671
▁wished	-11.2677
▁alike	-11.2677
▁replace	-11.2678
▁prey	-11.2682
▁sincere	-11.2691
hl	-11.2691
▁capturing	-11.2692
▁crucial	-11.2692
▁defense	-11.2692
▁nicholson	-11.2693
▁ignorant	-11.2693
▁annie	-11.2693
▁suggested	-11.2694
▁dolls	-11.2694
▁vein	-11.2695
▁resemble	-11.2695
esh	-11.2695
▁3000	-11.2695
▁mal	-11.2696
nothing	-11.2696
▁strangers	-11.2698
▁doug	-11.2701
▁leigh	-11.2704
▁furthermore	-11.2706
ien	-11.2706
▁rocky	-11.2707
▁rave	-11.2709
▁leo	-11.2709
▁roller	-11.2722
▁scripts	-11.2726
mir	-11.2727
come	-11.2727
▁careful	-11.2733
▁useful	-11.2739
▁senseless	-11.2739
second	-11.2744
▁dame	-11.2745
gue	-11.2745
▁damned	-11.275
▁faster	-11.275
▁ties	-11.2752
▁avoided	-11.2753
▁despair	-11.2753
▁understated	-11.2753
▁banned	-11.2753
▁bullock	-11.2754
▁sailor	-11.2755
ack	-11.2756
▁auto	-11.2761
without	-11.2764
▁crisp	-11.2769
▁purchased	-11.2773
▁attend	-11.278
▁relations	-11.278
▁underly	-11.2783
▁bite	-11.2784
▁newman	-11.2785
▁painted	-11.2785
ox	-11.2785
▁occasion	-11.2787
god	-11.2793
▁jaw	-11.2793
mb	-11.28
▁adams	-11.2807
▁wealth	-11.2807
▁er	-11.281
climactic	-11.2814
▁destiny	-11.2815
▁grudge	-11.2815
▁taught	-11.2815
▁twilight	-11.2815
▁dreary	-11.2815
▁quaid	-11.2815
▁sixties	-11.2816
▁corruption	-11.2817
▁confrontation	-11.2818
▁warmth	-11.2822
▁dread	-11.2823
tta	-11.2823
▁alcoholic	-11.2825
▁subjects	-11.2828
▁map	-11.2831
▁rope	-11.2839
▁lowest	-11.284
des	-11.2849
▁transition	-11.2853
▁des	-11.2855
along	-11.2877
▁asylum	-11.2877
▁campaign	-11.2877
▁samurai	-11.2877
▁amazon	-11.2877
▁rifle	-11.2877
▁obtain	-11.2877
▁roommate	-11.2879
ala	-11.288
▁passage	-11.288
▁disappear	-11.2881
▁conservative	-11.2883
▁thugs	-11.2884
book	-11.2886
▁deny	-11.2888
ure	-11.289
▁limit	-11.2903
▁fra	-11.2903
▁borrow	-11.2904
hara	-11.291
▁electric	-11.2912
box	-11.2918
▁pays	-11.2923
▁unreal	-11.2925
▁burst	-11.2928
30	-11.2928
worth	-11.2934
▁labor	-11.2934
▁waited	-11.2937
▁responsibility	-11.294
▁valuable	-11.294
▁tiger	-11.294
▁appreciation	-11.294
▁harold	-11.2941
production	-11.2944
▁karloff	-11.2946
▁davies	-11.2953
▁puppets	-11.2955
▁jaws	-11.2964
▁brit	-11.2969
▁remained	-11.2977
▁bam	-11.2977
▁handed	-11.298
▁muppet	-11.2982
▁ah	-11.2984
ip	-11.2985
▁rolled	-11.299
▁*****	-11.2991
▁sentiment	-11.2995
spiring	-11.2999
▁skull	-11.3003
▁irrelevant	-11.3003
▁phony	-11.3003
▁unsettling	-11.3003
▁revolutionary	-11.3003
▁improvement	-11.3004
▁greed	-11.3004
▁cassavetes	-11.3006
▁futuristic	-11.3006
ash	-11.3008
▁passable	-11.3009
▁deliberately	-11.3009
▁floating	-11.3015
▁groups	-11.3019
▁spacey	-11.302
▁staring	-11.3023
▁walt	-11.3025
ple	-11.3026
teen	-11.304
▁clip	-11.3048
▁concentrate	-11.305
▁polish	-11.3052
ual	-11.3056
▁seeks	-11.3057
▁trailers	-11.3063
ara	-11.3065
▁global	-11.3066
▁communicate	-11.3066
▁minimum	-11.3066
▁phantom	-11.3066
▁jeffrey	-11.3066
▁watson	-11.3066
▁pursuit	-11.3066
▁flip	-11.3066
▁cancer	-11.3066
▁belt	-11.3066
▁kingdom	-11.3067
lly	-11.3069
▁neo	-11.3071
▁sw	-11.3078
gor	-11.3081
▁wandering	-11.3081
▁arrived	-11.3086
ching	-11.3089
▁stroke	-11.3093
▁spade	-11.31
▁sar	-11.3101
itz	-11.3104
laughably	-11.3107
▁kat	-11.3115
▁doo	-11.3117
▁bridges	-11.3119
▁twins	-11.3122
▁carradine	-11.313
▁desperation	-11.313
▁deaf	-11.313
▁soccer	-11.313
▁bumbling	-11.313
▁frog	-11.313
▁stress	-11.313
▁tiresome	-11.313
▁miniseries	-11.313
▁hokey	-11.313
▁wacky	-11.3131
▁marshall	-11.3131
▁retain	-11.3132
▁nyc	-11.3132
▁opinions	-11.3134
▁crocodile	-11.3135
woman	-11.3136
▁1)	-11.314
▁outfit	-11.3142
▁yelling	-11.3145
▁wounded	-11.3145
▁demand	-11.3148
lit	-11.3148
▁introduce	-11.3165
▁ob	-11.3178
cus	-11.3178
▁wishing	-11.318
▁sara	-11.3182
▁disguise	-11.3183
port	-11.3185
▁possibilities	-11.3194
▁weather	-11.3194
▁angst	-11.3194
▁humble	-11.3194
▁misery	-11.3194
▁civilization	-11.3194
▁educational	-11.3196
▁checked	-11.3198
▁christie	-11.3201
▁motivations	-11.3202
▁access	-11.3202
▁secondary	-11.3202
▁blowing	-11.3203
▁3.	-11.3205
▁channels	-11.3205
▁lip	-11.3211
▁breed	-11.3212
▁ny	-11.3213
nal	-11.3213
▁overacting	-11.3215
▁conceived	-11.3216
▁understandable	-11.3217
new	-11.3218
▁hank	-11.3219
▁redeem	-11.3222
▁uh	-11.3223
col	-11.3225
▁rising	-11.3229
nor	-11.323
-13	-11.3232
▁flag	-11.3232
▁port	-11.3238
▁pete	-11.3243
▁mute	-11.3244
▁casual	-11.3246
▁premiere	-11.3246
▁excessive	-11.3246
▁op	-11.3246
stone	-11.3254
▁proceeds	-11.3256
▁behave	-11.3258
▁hartley	-11.3259
▁1999	-11.326
zer	-11.3264
brazil	-11.3264
each	-11.327
lyn	-11.327
faced	-11.3275
▁fisher	-11.3276
los	-11.3278
▁bla	-11.328
▁enhance	-11.3288
▁correctly	-11.3294
▁amounts	-11.3301
▁threaten	-11.3302
▁justin	-11.3304
▁directs	-11.3307
using	-11.3309
▁promote	-11.3312
▁armed	-11.3313
▁owe	-11.3314
▁cal	-11.3315
▁domestic	-11.3323
▁vomit	-11.3323
▁blunt	-11.3323
▁spock	-11.3323
▁golf	-11.3323
▁descent	-11.3323
▁facing	-11.3323
▁romero	-11.3324
▁glance	-11.3324
▁contribution	-11.3324
▁niro	-11.3325
▁betrayal	-11.3325
▁addiction	-11.3325
▁nuts	-11.3329
▁tourist	-11.333
▁boo	-11.3333
▁marion	-11.3333
▁taxi	-11.3334
▁hints	-11.3335
▁scope	-11.3337
▁beliefs	-11.3337
▁vaguely	-11.334
▁cleverly	-11.3341
▁buildings	-11.3342
▁musician	-11.3344
▁engineer	-11.3344
okay	-11.3351
▁hop	-11.3352
▁stink	-11.3363
▁prop	-11.3363
▁buffs	-11.3363
▁lily	-11.337
▁bur	-11.3371
▁intend	-11.3377
▁remove	-11.3378
used	-11.3384
▁anyways	-11.3384
▁drops	-11.3385
▁paranoia	-11.3388
▁patience	-11.3388
▁ritual	-11.3388
▁agenda	-11.3388
▁remarkably	-11.3389
▁glorious	-11.3389
▁francisco	-11.339
▁selection	-11.339
▁stale	-11.3391
▁underworld	-11.3391
▁charlotte	-11.3397
▁carmen	-11.3398
▁species	-11.3402
▁dancers	-11.3403
▁realizing	-11.3403
try	-11.3411
▁gifted	-11.3413
▁exceptionally	-11.3414
▁boxing	-11.3426
hal	-11.343
▁pour	-11.3432
▁promised	-11.3434
▁satisfy	-11.3434
▁stevens	-11.3436
mart	-11.3436
▁conclude	-11.3438
wi	-11.3441
mark	-11.3442
▁saint	-11.3443
▁disgrace	-11.3451
▁mundane	-11.3454
▁behaviour	-11.3454
▁celebrity	-11.3454
▁enthusiasm	-11.3454
▁invasion	-11.3454
▁nbc	-11.3454
▁smiling	-11.3454
▁travesty	-11.3454
▁warrant	-11.3454
▁kitty	-11.3455
▁bedroom	-11.3455
▁edgy	-11.3455
▁2/10	-11.3459
▁teaches	-11.3459
▁heartbreaking	-11.346
before	-11.3462
▁acid	-11.3464
▁weakest	-11.3464
▁barrel	-11.3465
▁commander	-11.3468
▁clock	-11.3478
▁bitch	-11.3488
▁guests	-11.3488
▁joined	-11.3496
▁catching	-11.3498
▁catchy	-11.3499
▁....	-11.3499
▁expose	-11.3504
nick	-11.3511
▁habit	-11.3513
▁encourage	-11.3515
dan	-11.3517
▁transcend	-11.352
▁arrival	-11.352
▁equivalent	-11.352
▁narrow	-11.352
▁widmark	-11.352
▁adolescent	-11.352
▁velvet	-11.352
▁orange	-11.3521
▁aaron	-11.3521
▁craven	-11.3521
▁roof	-11.3522
headed	-11.3524
▁warren	-11.3525
mouth	-11.3529
▁awhile	-11.3529
▁experimental	-11.3529
▁daddy	-11.3531
▁musicians	-11.3534
▁represented	-11.3538
▁mighty	-11.354
www	-11.354
matic	-11.3542
tte	-11.3542
bert	-11.3554
▁gather	-11.3555
▁bowl	-11.3562
▁cope	-11.3564
▁den	-11.357
▁hoot	-11.3572
▁suspend	-11.3572
▁ku	-11.3573
▁marketing	-11.3575
▁alcohol	-11.3575
▁ensues	-11.358
▁jews	-11.3581
nk	-11.3583
▁patients	-11.3586
▁audition	-11.3587
▁belushi	-11.3587
▁definition	-11.3587
▁exorcist	-11.3587
▁holocaust	-11.3587
▁literature	-11.3587
▁rhythm	-11.3587
▁sarandon	-11.3587
▁spaghetti	-11.3587
▁uplifting	-11.3587
▁hostage	-11.3589
▁2007	-11.359
▁authority	-11.359
▁vulnerable	-11.359
▁popularity	-11.3592
▁gere	-11.3595
rent	-11.3603
40	-11.3606
▁za	-11.3606
▁sink	-11.3609
▁quotes	-11.3615
▁expressed	-11.3619
▁clueless	-11.362
▁ye	-11.362
▁greatness	-11.3625
▁donna	-11.3625
▁horn	-11.3627
▁pee	-11.3628
▁filler	-11.363
▁nolan	-11.3632
▁babe	-11.3633
aging	-11.3634
▁treats	-11.3636
▁lasted	-11.3639
▁relatives	-11.3649
▁fruit	-11.3653
▁maid	-11.3653
▁tomorrow	-11.3654
▁ritter	-11.3654
▁triangle	-11.3654
▁loneliness	-11.3654
▁drill	-11.3655
▁plight	-11.3656
▁exposure	-11.3659
pen	-11.3666
▁berlin	-11.3667
▁depicting	-11.3668
▁shell	-11.367
▁crossing	-11.3672
▁severe	-11.3673
nate	-11.3684
▁scan	-11.3685
▁ger	-11.3687
▁claimed	-11.369
▁complaining	-11.369
▁cab	-11.3691
▁chicks	-11.3691
rick	-11.3695
▁landing	-11.3697
▁boris	-11.3697
▁sucker	-11.3699
str	-11.3701
▁crawl	-11.3701
▁origin	-11.3711
tim	-11.3716
▁deranged	-11.3722
▁exploration	-11.3722
▁testament	-11.3722
▁wisdom	-11.3722
▁online	-11.3722
▁champion	-11.3722
▁uncover	-11.3723
▁household	-11.3724
▁biography	-11.3724
big	-11.3724
▁lang	-11.3724
▁foxx	-11.3725
never	-11.3728
motion	-11.3732
hole	-11.3733
▁forms	-11.3733
▁conditions	-11.3734
notch	-11.3746
▁pr	-11.3758
vis	-11.3763
▁han	-11.3763
var	-11.3763
▁ru	-11.3764
name	-11.3766
uc	-11.3767
▁tasteless	-11.377
▁unfair	-11.3778
bin	-11.3781
ology	-11.3781
▁overlook	-11.3782
▁mat	-11.3783
(..	-11.3784
▁psychopath	-11.3789
▁eternal	-11.379
▁thompson	-11.379
▁austin	-11.379
▁conquer	-11.379
▁compelled	-11.379
▁flair	-11.379
▁barrymore	-11.379
▁discovering	-11.3791
▁unhappy	-11.3791
▁property	-11.3791
ically	-11.3792
▁stra	-11.3793
▁forbidden	-11.3794
tur	-11.3796
▁'70	-11.3796
ile	-11.3797
cop	-11.3797
▁attitudes	-11.3798
lton	-11.3799
▁questionable	-11.3799
provoking	-11.38
▁tooth	-11.3808
▁pray	-11.3809
▁comedians	-11.3812
▁pu	-11.3813
▁intro	-11.3819
▁gil	-11.3821
miss	-11.3823
▁mock	-11.3824
ification	-11.3827
ue	-11.3832
▁fur	-11.3835
best	-11.3837
▁document	-11.3838
-1	-11.3843
▁messed	-11.3843
uel	-11.3844
▁sho	-11.3851
▁astounding	-11.3858
▁profanity	-11.3858
▁conrad	-11.3858
▁mayhem	-11.3858
▁assigned	-11.3858
▁wives	-11.3859
mill	-11.3859
▁simultaneously	-11.3859
▁stack	-11.386
▁june	-11.386
▁jackass	-11.3861
ita	-11.3864
▁scottish	-11.3864
▁generations	-11.3867
particularly	-11.3869
peter	-11.3878
▁drove	-11.3879
▁eats	-11.388
▁climb	-11.388
ban	-11.3891
▁dialogues	-11.3897
▁capital	-11.3897
cia	-11.3907
▁arrest	-11.3913
▁sale	-11.3916
▁schlock	-11.3919
▁worker	-11.392
▁rome	-11.3923
▁julian	-11.3924
▁chapter	-11.3925
▁integrity	-11.3927
▁session	-11.3927
▁ernest	-11.3927
▁divine	-11.3927
▁purple	-11.3927
▁wildly	-11.3928
▁construction	-11.3928
▁enterprise	-11.3928
▁petty	-11.3929
▁representation	-11.3929
▁muddled	-11.393
▁kicking	-11.3931
▁joel	-11.3932
▁'80	-11.3934
▁hippie	-11.3935
▁willie	-11.3935
wife	-11.3936
funny	-11.3936
▁ph	-11.3939
▁chess	-11.394
▁internal	-11.394
▁washed	-11.3942
▁bones	-11.3942
▁matches	-11.3946
▁closest	-11.395
▁citizens	-11.395
▁respected	-11.3951
▁ian	-11.3952
ale	-11.3954
▁comp	-11.3956
sound	-11.3963
rid	-11.3964
▁trivial	-11.3964
▁net	-11.3966
▁fashioned	-11.397
▁ti	-11.3979
every	-11.3981
▁chew	-11.3982
▁awfully	-11.3984
put	-11.3986
▁euro	-11.3991
▁arab	-11.3995
▁swim	-11.3997
▁abusive	-11.3997
▁simplicity	-11.3997
▁sublime	-11.3997
▁composition	-11.3997
▁corporate	-11.3997
▁april	-11.3997
▁rational	-11.3997
▁bunny	-11.3997
▁virginia	-11.3997
▁unaware	-11.3997
▁egyptian	-11.3997
▁gender	-11.3998
▁cruelty	-11.3998
▁um	-11.4
▁aesthetic	-11.4001
▁realm	-11.4006
pass	-11.401
▁designer	-11.4011
▁egg	-11.4013
▁secretly	-11.4018
▁loaded	-11.4021
▁gems	-11.4022
▁showdown	-11.4022
▁chap	-11.4026
▁alley	-11.403
▁relax	-11.4031
▁meg	-11.4033
▁scr	-11.4034
fight	-11.4034
dding	-11.4034
▁challenged	-11.4035
▁robots	-11.4044
▁embrace	-11.4049
▁transport	-11.4052
▁ar	-11.4056
▁centers	-11.4059
▁modest	-11.4061
▁heap	-11.4066
▁dylan	-11.4067
▁rehash	-11.4067
▁kyle	-11.4067
▁femme	-11.4067
▁nonsensical	-11.4067
▁manipulative	-11.4067
▁decline	-11.4067
▁fascinated	-11.407
▁assassination	-11.407
▁cobb	-11.407
▁hopeless	-11.4071
stars	-11.4071
ali	-11.4072
bell	-11.4072
▁prom	-11.4072
▁retired	-11.4072
▁spain	-11.4074
▁shift	-11.4074
▁masses	-11.4075
▁agrees	-11.4075
▁poem	-11.4076
forward	-11.4081
▁patricia	-11.4082
▁spit	-11.4083
anna	-11.4092
▁behold	-11.4093
▁neighbors	-11.4097
▁cube	-11.4102
▁disliked	-11.4103
ening	-11.4104
▁hooker	-11.4105
▁complaints	-11.4118
▁virtual	-11.4125
▁nun	-11.4129
▁dish	-11.413
▁birds	-11.4134
▁marvel	-11.4137
▁skeleton	-11.4137
▁surviving	-11.4137
▁ginger	-11.4137
▁heartwarming	-11.4138
▁1995	-11.4138
▁parade	-11.414
▁aids	-11.414
▁jacket	-11.4141
▁complexity	-11.4141
▁stranded	-11.4142
▁maggie	-11.4142
▁timothy	-11.4144
▁moron	-11.4145
▁greedy	-11.4146
▁marine	-11.4148
▁colin	-11.4151
▁ellen	-11.4155
▁advanced	-11.4159
▁faults	-11.4163
▁ren	-11.4168
ign	-11.417
▁namely	-11.4177
▁reward	-11.4179
▁waves	-11.418
▁heston	-11.4185
▁letters	-11.4186
▁spa	-11.4194
▁icon	-11.42
▁voyage	-11.4205
▁hates	-11.4206
▁institution	-11.4208
▁cyborg	-11.4208
▁distress	-11.4208
▁suffice	-11.4208
▁wretched	-11.4208
▁silliness	-11.4208
▁prequel	-11.4208
▁unpredictable	-11.4208
▁samuel	-11.4209
▁candidate	-11.4209
▁minister	-11.4209
▁visible	-11.4209
▁coincidence	-11.4211
▁harmless	-11.4211
▁arguably	-11.4213
▁meryl	-11.4214
▁witnesses	-11.4216
▁quarter	-11.4217
▁intentionally	-11.4219
dead	-11.4221
william	-11.4221
▁conan	-11.4222
▁bands	-11.4222
▁/>***	-11.4223
▁reader	-11.4223
▁shoe	-11.4224
▁23	-11.4224
▁stumbled	-11.4226
almost	-11.4227
▁refused	-11.4232
bill	-11.4235
stein	-11.4241
▁backgrounds	-11.4243
▁99	-11.4244
▁haunt	-11.4245
▁toys	-11.4246
▁raises	-11.4248
▁unfold	-11.425
▁gl	-11.4252
eye	-11.4253
▁widely	-11.4255
▁methods	-11.4255
anti	-11.4256
▁jumped	-11.4263
▁distinct	-11.4264
▁mum	-11.4268
▁qua	-11.4269
▁reaching	-11.427
▁ww	-11.4271
think	-11.4274
▁wal	-11.4275
▁promises	-11.4277
▁wong	-11.4278
▁dilemma	-11.4279
▁globe	-11.4279
▁lackluster	-11.4279
▁suspicion	-11.4279
▁bernard	-11.4279
▁motorcycle	-11.4279
▁stunned	-11.4279
▁smack	-11.4279
▁beware	-11.428
▁straightforward	-11.4281
▁conviction	-11.4281
▁photos	-11.4281
▁grainy	-11.4284
▁simpson	-11.4285
▁demonic	-11.4285
▁dresses	-11.4286
▁helm	-11.4287
▁respond	-11.4287
▁profit	-11.4288
▁creator	-11.4292
george	-11.4293
▁juliet	-11.4296
▁cuba	-11.4297
▁standout	-11.4297
qu	-11.4303
▁dolph	-11.4304
▁worn	-11.4308
▁ape	-11.4311
ob	-11.4314
yo	-11.4316
ola	-11.4316
▁pops	-11.4317
ient	-11.4325
add	-11.4327
▁monk	-11.4329
ns	-11.4336
20	-11.4336
▁writes	-11.434
▁require	-11.4343
ied	-11.4345
rio	-11.4347
▁descend	-11.4351
▁accuracy	-11.4351
▁nephew	-11.4351
▁pioneer	-11.4351
cal	-11.4352
▁click	-11.4352
▁protest	-11.4352
▁diana	-11.4353
▁hughes	-11.4354
▁hyde	-11.436
▁steer	-11.4361
bly	-11.4363
everything	-11.4366
▁cookie	-11.4367
▁polished	-11.4368
▁surfing	-11.437
▁2:	-11.4381
▁sometime	-11.439
ero	-11.439
▁realised	-11.4392
▁abused	-11.4396
▁referr	-11.44
▁bike	-11.4422
▁fantasies	-11.4424
▁miyazaki	-11.4424
▁rooney	-11.4424
▁seldom	-11.4424
▁venice	-11.4424
▁whale	-11.4424
▁static	-11.4424
▁cities	-11.4428
▁balls	-11.4428
▁vera	-11.4429
▁zoom	-11.443
▁heading	-11.443
rob	-11.443
ston	-11.4431
▁apple	-11.4432
▁harrison	-11.4432
▁candle	-11.4432
▁molly	-11.4434
▁scores	-11.4435
▁jam	-11.4437
▁couch	-11.4438
▁cheer	-11.4443
east	-11.4445
▁resources	-11.4446
▁shore	-11.4453
▁lively	-11.4459
▁pursue	-11.4464
ppy	-11.4473
▁likewise	-11.4476
born	-11.4477
oz	-11.4484
▁genres	-11.4492
▁vulgar	-11.4496
ute	-11.4496
▁accompany	-11.4497
▁activities	-11.4497
▁unravel	-11.4497
▁variation	-11.4497
▁drake	-11.4497
▁brooklyn	-11.4497
▁distribution	-11.4497
▁sunshine	-11.4497
▁ignorance	-11.4497
▁kapoor	-11.4497
▁dysfunctional	-11.4497
▁objects	-11.45
▁2003	-11.4501
▁kenneth	-11.4503
▁jesse	-11.4504
fall	-11.4505
▁raymond	-11.4505
ria	-11.4505
▁sung	-11.4506
▁natalie	-11.4507
▁pleasing	-11.4508
▁nod	-11.4509
▁ensure	-11.4509
chris	-11.4514
▁invited	-11.452
▁outline	-11.452
▁disappears	-11.4524
▁occasions	-11.4526
cap	-11.4529
▁moronic	-11.4534
▁orders	-11.4535
▁spine	-11.4539
ew	-11.4542
▁noises	-11.4542
ering	-11.4546
▁spirits	-11.4549
mad	-11.4559
▁attorney	-11.457
▁fifth	-11.457
▁robbins	-11.457
▁corporation	-11.457
▁northern	-11.4571
▁dickens	-11.4571
▁sunny	-11.4571
▁banal	-11.4572
▁barker	-11.4572
▁tacky	-11.4574
▁2002	-11.4574
▁raj	-11.4574
▁apes	-11.4582
▁latin	-11.4587
▁helpless	-11.4592
▁gap	-11.4594
tech	-11.4597
▁option	-11.4598
▁vis	-11.4604
▁corpses	-11.4613
era	-11.4618
▁collect	-11.4618
▁exit	-11.4618
▁rex	-11.4621
▁rider	-11.4622
last	-11.4624
▁lands	-11.4627
cc	-11.463
▁adore	-11.4631
▁spirited	-11.4635
▁disco	-11.4639
▁5.	-11.464
ese	-11.4644
▁companies	-11.4644
▁insipid	-11.4644
▁investigating	-11.4644
▁nemesis	-11.4644
▁supply	-11.4644
▁wardrobe	-11.4644
▁babies	-11.4644
▁muscle	-11.4645
▁dreck	-11.4646
▁farrell	-11.4646
▁blackmail	-11.4646
▁snl	-11.4647
▁misleading	-11.465
▁hurts	-11.4653
▁radical	-11.4653
▁biased	-11.4654
▁choreographed	-11.4655
▁---	-11.4656
length	-11.4661
besides	-11.4661
▁remarks	-11.4662
▁businessman	-11.4664
anne	-11.4666
▁claude	-11.4667
your	-11.467
▁leon	-11.4671
▁rear	-11.4674
▁drum	-11.4674
▁policeman	-11.4677
▁posted	-11.4678
▁conflicts	-11.468
log	-11.4687
▁ordered	-11.4687
▁shoulder	-11.4694
▁sweat	-11.4695
▁sid	-11.47
▁dismiss	-11.4705
▁hunters	-11.4708
▁troops	-11.4712
▁7.	-11.4713
▁sounding	-11.4719
▁buffalo	-11.4719
▁describing	-11.4719
▁godzilla	-11.4719
▁preposterous	-11.4719
▁technicolor	-11.4719
▁bogart	-11.4719
▁pimp	-11.472
▁feat	-11.4721
▁greg	-11.4722
▁antonio	-11.4727
▁stiller	-11.4728
▁hungry	-11.4731
▁riddle	-11.4735
▁bread	-11.4736
▁lauren	-11.4736
▁carey	-11.4739
▁1980'	-11.4741
▁wipe	-11.4745
rock	-11.4757
ika	-11.4759
▁repeating	-11.4761
▁accurately	-11.4769
▁idol	-11.477
▁boxer	-11.4786
dar	-11.4788
▁warriors	-11.4789
▁compete	-11.4794
▁assure	-11.4794
▁compassion	-11.4794
▁ambiguous	-11.4794
▁miike	-11.4794
▁primitive	-11.4794
▁shoddy	-11.4794
▁astaire	-11.4794
▁niece	-11.4794
▁hindi	-11.4794
▁ingenious	-11.4794
▁demise	-11.4795
▁1972	-11.4795
▁spectacle	-11.4798
▁elvira	-11.48
▁rooms	-11.4802
▁positively	-11.4805
▁nicholas	-11.4806
▁losers	-11.4808
▁seed	-11.4812
plus	-11.4813
script	-11.4818
beat	-11.4818
▁cam	-11.482
▁poke	-11.4828
ada	-11.4831
▁secondly	-11.4835
▁thunder	-11.4839
check	-11.4853
ving	-11.4855
▁sketch	-11.4859
ade	-11.4862
▁carlos	-11.4863
▁mega	-11.4864
▁visiting	-11.4864
nder	-11.4869
▁inconsistent	-11.487
▁mount	-11.487
▁lunch	-11.487
▁fifty	-11.487
▁faint	-11.487
▁kramer	-11.487
▁stuart	-11.487
▁choppy	-11.487
▁bravo	-11.4871
▁widescreen	-11.4871
▁preachy	-11.4876
▁unlikeable	-11.4878
▁severely	-11.4884
▁shouting	-11.4885
▁suggestion	-11.4886
bottom	-11.4888
▁fried	-11.489
ik	-11.4895
▁resulting	-11.4896
▁beard	-11.4901
▁setup	-11.4903
▁axe	-11.4904
▁wilder	-11.4908
▁reeves	-11.4909
osi	-11.4911
nes	-11.4912
▁amy	-11.4914
▁liners	-11.4918
form	-11.4921
▁generate	-11.4931
▁guards	-11.4934
▁filth	-11.4938
▁tube	-11.4942
▁august	-11.4945
▁ethnic	-11.4945
▁biblical	-11.4946
▁fifties	-11.4946
▁industrial	-11.4946
▁empathy	-11.4946
▁bettie	-11.4946
▁dalton	-11.4947
▁rusty	-11.495
▁voight	-11.4951
▁travolta	-11.4951
▁snipes	-11.4952
od	-11.4956
▁gig	-11.4958
▁amused	-11.4961
▁yu	-11.4962
▁slip	-11.4967
▁gimmick	-11.4969
▁passengers	-11.4969
▁tick	-11.497
▁lifted	-11.4973
.......	-11.4974
unlike	-11.4974
-19	-11.4974
rich	-11.4976
hol	-11.4979
gle	-11.4981
▁lengthy	-11.4981
▁defined	-11.4982
▁disregard	-11.4983
▁hearted	-11.4984
▁purposes	-11.4987
▁knocked	-11.4988
ock	-11.4988
▁para	-11.4999
▁affairs	-11.5002
▁possess	-11.5005
▁/>1.	-11.5008
▁meal	-11.5014
▁fluff	-11.5018
▁profession	-11.502
▁pole	-11.502
▁analysis	-11.5023
▁insanity	-11.5023
▁unlikable	-11.5023
▁despise	-11.5023
▁debt	-11.5023
▁loyalty	-11.5024
▁sickening	-11.5024
▁goldberg	-11.5024
▁monty	-11.5024
▁underwater	-11.5025
▁beatty	-11.5027
ong	-11.5027
▁uwe	-11.503
▁supported	-11.5031
▁fuel	-11.5033
▁gor	-11.504
▁/>2.	-11.5044
▁thread	-11.5047
▁active	-11.5047
speaking	-11.5048
▁dropping	-11.505
▁sap	-11.5061
▁ski	-11.5063
does	-11.5069
15	-11.507
▁cary	-11.5071
▁exceptions	-11.5072
▁landscapes	-11.5076
quite	-11.5078
▁tastes	-11.5082
▁mul	-11.5083
kind	-11.5091
▁jill	-11.5092
▁anchor	-11.5099
▁derivative	-11.5101
▁demented	-11.5101
▁brosnan	-11.5101
▁collapse	-11.5101
▁conscience	-11.5101
▁nightclub	-11.5102
▁undead	-11.5104
▁explores	-11.5105
▁feminist	-11.511
▁worship	-11.5111
▁vet	-11.5111
▁invented	-11.5111
▁insightful	-11.5111
▁ballet	-11.5113
▁poker	-11.5114
foot	-11.5115
▁differently	-11.5116
▁cameras	-11.5117
▁newly	-11.5118
▁experiments	-11.5128
▁generated	-11.5129
▁receives	-11.5129
▁unre	-11.5134
kel	-11.5136
▁visits	-11.514
▁dam	-11.5161
▁randomly	-11.5163
▁inhabit	-11.5164
4)	-11.5165
nice	-11.5168
▁foolish	-11.5169
▁someday	-11.5171
▁simpsons	-11.5173
▁hick	-11.5173
▁accomplish	-11.5175
▁salt	-11.5176
▁historic	-11.5176
▁bro	-11.5178
▁alec	-11.5179
▁9/11	-11.5179
▁inaccurate	-11.5179
▁literary	-11.5179
▁steady	-11.5179
▁hulk	-11.5179
▁fluid	-11.5179
▁pierce	-11.5179
▁elevator	-11.5179
▁route	-11.5184
ama	-11.5185
▁dances	-11.5186
▁tenant	-11.5186
▁acclaimed	-11.5186
▁ruby	-11.5186
▁difficulties	-11.5187
▁playboy	-11.5188
▁inject	-11.519
▁scifi	-11.5193
▁crazed	-11.5194
▁shootout	-11.5194
▁overlong	-11.5196
▁sandy	-11.5199
little	-11.52
▁caricature	-11.5205
elle	-11.5209
▁scar	-11.5217
stage	-11.5222
have	-11.5226
eck	-11.5229
lim	-11.523
▁desires	-11.5231
mostly	-11.5233
being	-11.5233
▁lifeless	-11.5239
▁abandon	-11.5242
▁tire	-11.5253
ished	-11.5257
▁dawson	-11.5258
▁entitled	-11.5258
▁explosive	-11.5258
▁syndrome	-11.5258
▁surgery	-11.5258
▁redneck	-11.5258
rou	-11.5259
▁1983	-11.5259
▁completed	-11.526
▁reign	-11.5261
▁recycled	-11.5261
▁dunne	-11.5261
ius	-11.5262
moving	-11.5262
▁precisely	-11.5265
▁foil	-11.5267
▁kin	-11.5267
▁elm	-11.5267
▁roots	-11.5267
▁akshay	-11.5269
▁kathy	-11.5269
▁witches	-11.5272
▁salman	-11.5273
▁poo	-11.5273
▁stream	-11.5275
▁incorrect	-11.5277
child	-11.5279
black	-11.5279
▁ambition	-11.5285
▁wholly	-11.5295
ux	-11.5298
▁evolution	-11.5302
▁kay	-11.5303
▁fog	-11.5305
▁sits	-11.5307
▁painter	-11.5315
▁signed	-11.5315
illa	-11.5316
▁drinks	-11.5317
▁seduce	-11.5321
▁jacob	-11.5327
▁sugar	-11.5329
▁doctors	-11.533
ters	-11.5332
▁errol	-11.5333
▁clerk	-11.5337
▁fascination	-11.5337
▁gibson	-11.5337
▁grief	-11.5337
▁hackneyed	-11.5337
▁hilarity	-11.5337
▁morbid	-11.5337
▁olivier	-11.5337
▁newcomer	-11.5337
▁buzz	-11.5337
▁shaky	-11.5338
▁dismal	-11.5338
▁blink	-11.5338
▁gentlemen	-11.5339
▁lush	-11.5339
▁possession	-11.534
▁distraction	-11.534
▁judy	-11.5342
▁slide	-11.5344
▁destroying	-11.5344
▁restored	-11.5347
▁fay	-11.5347
▁crashes	-11.5347
▁hugh	-11.5349
▁hopelessly	-11.5351
▁controlled	-11.5351
▁consideration	-11.5352
▁damon	-11.5356
dvd	-11.5359
yeah	-11.5359
▁sensational	-11.5362
▁resident	-11.5367
utter	-11.5374
del	-11.5376
▁interactions	-11.538
▁hello	-11.538
▁teachers	-11.5387
▁brat	-11.5391
▁winters	-11.5397
char	-11.5405
▁sending	-11.5409
*****	-11.5414
▁demonstrates	-11.5414
▁columbia	-11.5417
▁imaginable	-11.5417
▁lampoon	-11.5417
▁montgomery	-11.5417
▁simmons	-11.5417
▁beverly	-11.5417
▁kumar	-11.5417
▁mildred	-11.5418
▁snowman	-11.5423
▁hyper	-11.5425
ologist	-11.5426
▁modesty	-11.5426
▁chooses	-11.5427
▁merits	-11.5427
▁apocalypse	-11.5428
▁apply	-11.543
▁minus	-11.5436
▁fright	-11.5436
▁outfits	-11.5439
word	-11.5443
▁surf	-11.5445
▁app	-11.5446
▁tele	-11.5448
vision	-11.5448
▁predecessor	-11.5448
▁sanders	-11.5448
▁muslim	-11.5448
▁survivor	-11.5449
▁arch	-11.5452
▁appropriately	-11.5453
▁goof	-11.5455
▁chills	-11.546
▁sums	-11.5462
▁quietly	-11.5465
▁engine	-11.5472
▁lean	-11.5472
▁sympathize	-11.5475
▁mama	-11.5475
▁marked	-11.5477
watching	-11.5479
▁voted	-11.548
ington	-11.548
ye	-11.5481
lain	-11.5482
▁swallow	-11.5483
pat	-11.5483
▁strain	-11.5491
▁immortal	-11.5497
▁antagonist	-11.5498
▁opportunities	-11.5498
▁orleans	-11.5498
▁quentin	-11.5498
▁voodoo	-11.5498
▁basketball	-11.5498
▁mitchum	-11.5498
power	-11.5498
▁hallmark	-11.5498
▁busey	-11.55
▁compensate	-11.55
▁invention	-11.55
▁shared	-11.55
▁eleven	-11.55
▁liv	-11.5501
▁macho	-11.5502
▁located	-11.5509
▁earl	-11.5512
▁adopted	-11.5512
▁hawk	-11.5513
▁danes	-11.5514
▁counts	-11.5514
▁startling	-11.5519
▁delve	-11.552
fetched	-11.552
▁ser	-11.5522
▁rates	-11.5526
▁suspens	-11.5528
▁phillips	-11.5529
▁credited	-11.5533
▁loy	-11.5538
▁pad	-11.5538
▁symbol	-11.5539
▁homer	-11.5545
▁sc	-11.5548
say	-11.555
▁palm	-11.5555
▁dealer	-11.5558
▁pirate	-11.5558
▁farmer	-11.5564
▁eh	-11.5566
ira	-11.5566
jay	-11.5567
▁translate	-11.5569
▁coward	-11.5571
▁organ	-11.5571
▁trauma	-11.5579
▁costello	-11.5579
▁exploring	-11.5579
▁inevitably	-11.5579
▁legacy	-11.5579
▁paxton	-11.5579
▁scotland	-11.5579
▁significance	-11.5579
▁pocket	-11.5579
▁dillon	-11.5579
▁kidnapping	-11.5579
▁exposition	-11.5579
▁leather	-11.5579
▁shaking	-11.558
▁unseen	-11.558
▁items	-11.558
▁russo	-11.5581
▁phenomenal	-11.5584
▁adaptations	-11.5585
▁machines	-11.5586
▁clan	-11.5591
ree	-11.5593
lip	-11.5595
held	-11.5598
▁emerge	-11.5598
▁grass	-11.56
▁demanding	-11.5605
▁muppets	-11.5606
▁viewings	-11.5607
▁rot	-11.5609
▁mutant	-11.5614
▁instinct	-11.5614
▁unexpectedly	-11.5623
▁kidman	-11.5624
may	-11.5637
▁rom	-11.5637
▁ash	-11.5638
▁chill	-11.564
actors	-11.5646
▁abrupt	-11.5649
▁tar	-11.5658
▁clooney	-11.5661
▁deceased	-11.5661
▁inexplicably	-11.5661
▁intricate	-11.5661
▁obligatory	-11.5661
▁odyssey	-11.5661
▁sergeant	-11.5661
▁assignment	-11.5661
▁agency	-11.5661
▁wagner	-11.5661
▁walsh	-11.5661
▁snuff	-11.5662
▁jaded	-11.5665
▁collector	-11.5665
▁showtime	-11.5667
▁wh	-11.5671
▁rejected	-11.5673
▁vain	-11.5675
▁pages	-11.5675
▁lure	-11.5679
▁skits	-11.5686
▁richardson	-11.5687
▁screwed	-11.5691
ram	-11.5693
▁launch	-11.5694
▁tam	-11.5696
▁previews	-11.5696
▁gee	-11.5701
▁confession	-11.5705
▁regarded	-11.5707
ifying	-11.5709
zar	-11.5712
▁plate	-11.5712
▁sang	-11.5713
▁ranch	-11.5717
▁kissing	-11.5719
mu	-11.5721
▁cher	-11.5721
▁challenges	-11.5722
▁adopt	-11.5727
▁wings	-11.5728
apart	-11.5729
ois	-11.5733
▁judgment	-11.5739
▁heroin	-11.5742
▁bounty	-11.5744
▁camcorder	-11.5744
▁cemetery	-11.5744
▁debbie	-11.5744
▁devastating	-11.5744
▁submarine	-11.5744
▁boston	-11.5744
▁monkeys	-11.5746
▁commitment	-11.5746
▁frightened	-11.5748
▁caliber	-11.575
▁sellers	-11.575
ttp	-11.5752
▁flashes	-11.5752
boo	-11.5761
▁designs	-11.5762
▁tho	-11.5765
ison	-11.5767
▁guaranteed	-11.5768
▁penny	-11.5771
▁shoulders	-11.5773
▁22	-11.5781
▁cloud	-11.5785
12	-11.5785
▁info	-11.5787
▁yell	-11.5789
eur	-11.5796
nne	-11.5801
▁inability	-11.5803
▁confirm	-11.5812
mes	-11.5813
thank	-11.5814
▁exquisite	-11.5815
sam	-11.5816
currently	-11.5822
▁bikini	-11.5827
▁flavor	-11.5827
▁immature	-11.5827
▁terminator	-11.5827
▁deleted	-11.5827
▁heartfelt	-11.5827
▁injured	-11.5827
▁psychology	-11.5827
▁disorder	-11.5827
▁unexplained	-11.5827
▁jenny	-11.5827
▁jarring	-11.5828
▁vince	-11.5828
▁1979	-11.5828
▁biopic	-11.5829
▁viewpoint	-11.5829
▁spill	-11.583
▁brutality	-11.5831
▁bald	-11.5831
▁loop	-11.5831
▁canceled	-11.5836
▁styles	-11.5838
200	-11.584
▁highway	-11.584
▁disgusted	-11.5841
lier	-11.5842
▁shorter	-11.5844
▁vastly	-11.5846
sigh	-11.5854
▁heights	-11.5855
▁finn	-11.5856
▁chat	-11.5857
▁refuse	-11.5858
▁matched	-11.5864
▁illusion	-11.5864
▁distract	-11.5873
▁crown	-11.5877
▁releases	-11.5878
pel	-11.588
▁3-	-11.5883
▁assumed	-11.5883
▁youngest	-11.5885
▁vol	-11.589
▁examine	-11.5896
▁joey	-11.5898
▁reluctant	-11.5899
▁immediate	-11.5899
fan	-11.5901
▁elder	-11.5903
ided	-11.5905
▁orchestra	-11.5908
▁olivia	-11.5911
▁provocative	-11.5911
▁sydney	-11.5911
▁chorus	-11.5911
▁organization	-11.5911
://	-11.5912
▁suburban	-11.5912
▁furious	-11.5914
▁avid	-11.5914
▁danish	-11.5916
▁rapist	-11.5917
▁remade	-11.592
▁wander	-11.592
▁respectable	-11.592
kar	-11.5921
▁rendered	-11.5923
▁racing	-11.5927
gger	-11.5931
▁melting	-11.5932
▁transformed	-11.5933
▁bio	-11.5936
▁thrilled	-11.5937
writing	-11.5937
high	-11.5938
seriously	-11.5941
▁sincerely	-11.5945
▁elevate	-11.5948
▁artsy	-11.595
eth	-11.5953
▁motive	-11.5956
▁troubles	-11.5957
▁rangers	-11.5957
▁abound	-11.5957
▁wheel	-11.5962
▁bart	-11.5963
▁fre	-11.5965
later	-11.5968
self	-11.5975
▁outlaw	-11.5975
▁increase	-11.598
▁freaks	-11.5986
▁studying	-11.5989
▁messy	-11.5995
hum	-11.5995
▁expense	-11.5996
▁independence	-11.5996
▁investigator	-11.5996
▁perception	-11.5996
▁seymour	-11.5996
▁abraham	-11.5996
▁glaring	-11.5996
▁identical	-11.5996
▁senior	-11.5996
▁obsessive	-11.5996
▁deniro	-11.5996
▁toronto	-11.5996
▁earnest	-11.5997
▁hilton	-11.5997
▁preferred	-11.5998
▁dictator	-11.5998
▁paradise	-11.5998
▁ripping	-11.5998
tain	-11.5998
▁bully	-11.5998
▁norm	-11.5998
▁continually	-11.5999
▁harbor	-11.5999
▁stopping	-11.6
tempted	-11.6001
▁confidence	-11.6001
▁1930'	-11.6003
▁millionaire	-11.6004
▁rupert	-11.6008
▁vin	-11.6009
▁presenting	-11.6013
▁sooner	-11.6014
▁patch	-11.602
those	-11.6025
▁filmmaking	-11.6026
▁ble	-11.6032
▁strings	-11.6038
▁earn	-11.6038
▁pc	-11.6041
▁mormon	-11.6042
▁disgust	-11.6046
▁smash	-11.6047
▁bach	-11.6058
met	-11.6062
▁symbolic	-11.6067
▁specially	-11.6073
kill	-11.6076
▁egypt	-11.608
▁critique	-11.6081
▁eagle	-11.6081
▁energetic	-11.6081
▁frozen	-11.6081
▁september	-11.6081
▁verhoeven	-11.6081
▁dwarf	-11.6081
▁hopkins	-11.6081
▁resume	-11.6081
▁gorilla	-11.6081
▁ronald	-11.6081
▁taboo	-11.6082
▁lambert	-11.6082
▁subtly	-11.6082
▁unrelated	-11.6083
▁beatles	-11.6084
▁considerably	-11.6084
▁frontier	-11.6085
▁kline	-11.6086
▁vital	-11.6087
▁partially	-11.6087
oc	-11.6087
▁hayes	-11.6088
▁populate	-11.6089
▁piper	-11.6089
▁dive	-11.6091
▁respectively	-11.6093
▁helpful	-11.6094
▁glowing	-11.6095
▁topics	-11.6098
wick	-11.6099
cause	-11.6099
hey	-11.61
▁bend	-11.6101
ula	-11.6102
▁weakness	-11.6103
▁liz	-11.6104
11	-11.6107
has	-11.6124
▁drift	-11.6133
▁dose	-11.6135
▁rats	-11.6137
▁minded	-11.614
cky	-11.6147
proving	-11.6153
▁prominent	-11.6155
▁cad	-11.6158
▁leno	-11.6161
give	-11.6162
▁coup	-11.6162
▁examination	-11.6167
▁misguided	-11.6167
▁penguin	-11.6167
▁underneath	-11.6167
▁paramount	-11.6167
▁gambling	-11.6167
▁denzel	-11.6167
▁celebration	-11.6168
▁rambo	-11.6168
▁centered	-11.6169
▁logan	-11.6169
▁waitress	-11.6169
▁com	-11.617
▁thrust	-11.6171
▁bros	-11.6172
▁stare	-11.6173
▁morals	-11.6173
▁199	-11.6174
▁assuming	-11.6175
▁rapidly	-11.6179
▁scriptwriter	-11.6179
▁emphasize	-11.6182
▁resolved	-11.6183
▁edie	-11.6185
▁translated	-11.6187
▁stumbles	-11.6189
▁reported	-11.6191
water	-11.6196
▁belle	-11.6198
▁downey	-11.6201
tel	-11.6206
▁recover	-11.6213
▁gadget	-11.6217
▁volume	-11.6218
▁shed	-11.6221
▁seal	-11.6222
▁hans	-11.6224
▁!!!	-11.6227
gun	-11.6237
▁akin	-11.6238
ller	-11.6245
▁deer	-11.6246
▁mins	-11.6246
▁respective	-11.6247
▁filling	-11.6248
▁lad	-11.625
▁fundamental	-11.6251
▁lap	-11.6253
▁communication	-11.6254
▁destination	-11.6254
▁eternity	-11.6254
▁groan	-11.6254
▁gypsy	-11.6254
▁polanski	-11.6254
▁receiving	-11.6254
▁devito	-11.6254
▁mercy	-11.6254
▁domino	-11.6254
▁ollie	-11.6255
▁automatically	-11.6255
▁raising	-11.6255
▁sharing	-11.6255
▁1997	-11.6255
▁1984	-11.6256
▁acceptance	-11.6256
▁elite	-11.6257
▁hammy	-11.6258
▁article	-11.626
▁marrie	-11.6265
▁befriends	-11.6271
▁comeback	-11.6272
city	-11.6272
▁victory	-11.6278
special	-11.6283
▁stretched	-11.6286
oid	-11.6288
▁ships	-11.6288
fo	-11.629
▁soup	-11.6296
▁posters	-11.6298
▁marc	-11.6299
▁rag	-11.6299
▁separated	-11.6302
▁devices	-11.6305
bing	-11.6307
▁phillip	-11.6308
▁snap	-11.6309
▁prot	-11.6312
wall	-11.6314
tina	-11.6326
pu	-11.6326
ani	-11.6326
▁sustain	-11.6327
▁!!	-11.6331
▁dressing	-11.6331
▁fade	-11.6331
ken	-11.6333
▁afterward	-11.6334
▁disastrous	-11.6342
▁embark	-11.6342
▁engrossing	-11.6342
▁misfortune	-11.6342
▁peculiar	-11.6342
▁python	-11.6342
▁razor	-11.6342
▁cohen	-11.6342
▁montana	-11.6342
▁terrified	-11.6342
▁amusement	-11.6343
▁duvall	-11.6343
▁palace	-11.6343
▁request	-11.6343
▁stallone	-11.6343
▁studies	-11.6343
▁bucket	-11.6343
▁authorities	-11.6344
▁shopping	-11.6344
▁bandit	-11.6344
▁bacon	-11.6344
▁grinch	-11.6344
▁christians	-11.6345
thing	-11.6348
▁youtube	-11.635
▁pause	-11.6352
▁dash	-11.6355
▁turd	-11.6357
▁tolerate	-11.6362
▁altered	-11.6366
▁/>3.	-11.6368
▁dub	-11.6368
isation	-11.6369
▁serving	-11.6371
▁gris	-11.6377
joe	-11.6379
▁boyle	-11.638
yr	-11.6381
)...	-11.6383
▁charged	-11.6387
▁attacking	-11.6392
▁visited	-11.6401
frank	-11.6402
▁observe	-11.6405
loud	-11.6415
▁torment	-11.6416
▁rises	-11.6417
▁upside	-11.6418
▁deserted	-11.6418
ail	-11.6421
▁backwards	-11.6421
▁hats	-11.6424
▁towers	-11.6425
▁ry	-11.6428
▁bastard	-11.6431
▁continuing	-11.6431
▁czech	-11.6431
▁legitimate	-11.6431
▁sarcastic	-11.6431
▁swamp	-11.6431
▁shortcomings	-11.6431
▁bars	-11.6431
▁spree	-11.6431
▁jess	-11.6432
hair	-11.6433
▁wilderness	-11.6433
▁weaknesses	-11.6434
▁spout	-11.6435
▁lethal	-11.6435
▁fence	-11.6436
▁gall	-11.6436
▁irene	-11.6438
hn	-11.6442
▁differ	-11.6442
▁christina	-11.6444
▁heal	-11.6445
▁taped	-11.6446
▁concepts	-11.6449
▁luis	-11.6452
▁addicted	-11.6453
▁stray	-11.6455
▁grabs	-11.6461
▁wash	-11.6466
▁ban	-11.6468
▁bent	-11.6468
ude	-11.6469
▁resembl	-11.6473
▁dil	-11.6476
super	-11.6479
▁eli	-11.6479
bling	-11.6482
▁principle	-11.6488
▁snatch	-11.6492
jean	-11.6495
▁ros	-11.6496
ld	-11.6502
▁ce	-11.6503
produced	-11.6511
▁billed	-11.6512
▁cro	-11.6513
cra	-11.6514
▁nails	-11.652
▁phenomenon	-11.652
▁thieves	-11.652
▁headache	-11.652
▁vibrant	-11.652
▁macbeth	-11.652
▁exterior	-11.652
▁deserving	-11.6521
▁jock	-11.6521
▁limp	-11.6522
ax	-11.6522
▁marx	-11.6523
▁claustrophobic	-11.6523
▁wrestler	-11.6523
▁clay	-11.6525
▁wu	-11.6525
▁mole	-11.6527
▁shred	-11.6528
▁speeches	-11.653
▁height	-11.6532
▁intentional	-11.6532
ush	-11.6535
▁healthy	-11.6537
tier	-11.6544
ros	-11.6549
filled	-11.6552
▁shares	-11.6557
▁mechanical	-11.6559
▁goat	-11.6564
▁beside	-11.6568
▁entered	-11.6569
▁adapt	-11.6572
toole	-11.6581
▁slim	-11.6581
app	-11.6588
▁dominate	-11.6594
instead	-11.6595
▁introduc	-11.6596
▁expectation	-11.6599
▁rep	-11.6599
▁graduate	-11.6605
▁zi	-11.6607
▁acknowledge	-11.6608
▁ghetto	-11.661
▁unimaginative	-11.661
▁coffin	-11.661
▁shatner	-11.661
▁novak	-11.661
▁rampage	-11.661
▁informative	-11.661
▁bloom	-11.661
▁arrow	-11.661
▁clive	-11.6611
▁wright	-11.6611
▁copied	-11.6611
▁breakdown	-11.6613
▁grateful	-11.6615
▁glued	-11.6618
▁sales	-11.6618
▁abruptly	-11.6623
mont	-11.6625
▁warden	-11.6626
▁assured	-11.6641
▁101	-11.6641
producer	-11.6642
▁talkie	-11.6645
▁planes	-11.665
▁coke	-11.6653
▁county	-11.6657
▁mono	-11.6659
hot	-11.6667
taking	-11.6668
▁boost	-11.6671
▁crow	-11.6672
▁observation	-11.6673
aud	-11.6674
▁framed	-11.6674
▁roth	-11.6675
▁til	-11.6676
▁morally	-11.6681
▁applaud	-11.6686
wait	-11.6688
rri	-11.669
19	-11.6695
▁difficulty	-11.67
▁architect	-11.6701
▁anticipation	-11.6701
▁comprehend	-11.6701
▁departure	-11.6701
▁expedition	-11.6701
▁pacific	-11.6701
▁rainbow	-11.6701
▁repulsive	-11.6701
▁dallas	-11.6701
▁lavish	-11.6701
▁tcm	-11.6701
▁swayze	-11.6701
▁haines	-11.6701
▁unsatisfying	-11.6701
▁rambling	-11.6701
▁bonnie	-11.6701
▁indication	-11.6701
▁gerard	-11.6701
▁potter	-11.6703
▁wesley	-11.6703
▁ethan	-11.6704
cor	-11.6704
▁regards	-11.6704
▁housewife	-11.6704
▁whine	-11.6705
▁curly	-11.6705
▁coin	-11.6714
▁spur	-11.6714
▁provoke	-11.6719
rim	-11.6719
▁iv	-11.6719
▁brady	-11.6722
▁bum	-11.6722
▁flashy	-11.6726
playing	-11.6726
▁sopranos	-11.6726
▁siblings	-11.6726
▁enhanced	-11.6727
▁warming	-11.673
▁surroundings	-11.6734
▁freeze	-11.6745
▁chop	-11.6745
force	-11.6746
▁commenting	-11.6751
▁stu	-11.6751
gone	-11.6751
etc	-11.6753
▁cer	-11.6755
▁milo	-11.6755
▁sting	-11.6758
▁pam	-11.6759
▁owned	-11.676
▁singers	-11.6764
▁servant	-11.6766
▁rant	-11.6766
▁glen	-11.6769
▁dumber	-11.6772
▁karl	-11.6775
free	-11.6777
▁confuse	-11.6777
▁criticize	-11.6777
pan	-11.6778
▁fortunate	-11.678
▁smug	-11.6793
▁rebellious	-11.6793
▁abortion	-11.6793
▁mesmerizing	-11.6793
▁netflix	-11.6793
▁casino	-11.6793
▁cattle	-11.6793
▁hayworth	-11.6793
▁recognizable	-11.6793
▁screwball	-11.6793
▁conventions	-11.6794
▁underdog	-11.6794
▁missile	-11.6795
▁spaceship	-11.6796
▁masterpieces	-11.6796
▁mencia	-11.6796
▁zu	-11.6796
▁motor	-11.6796
▁dates	-11.6797
▁belly	-11.6798
▁punches	-11.6803
▁nerves	-11.6805
▁skit	-11.6807
▁victorian	-11.6807
▁gable	-11.6808
▁grip	-11.6813
▁blatantly	-11.6814
▁peck	-11.6817
▁hears	-11.6818
▁lau	-11.6819
▁paintings	-11.6824
fashioned	-11.6829
actor	-11.683
▁lance	-11.683
▁reflects	-11.6832
▁caper	-11.6836
next	-11.6836
▁forgiven	-11.6838
etti	-11.6846
poor	-11.6847
▁vile	-11.6853
▁error	-11.6861
▁entering	-11.6862
▁reform	-11.6864
▁mud	-11.6865
▁asset	-11.6869
coat	-11.6872
▁natives	-11.6873
▁supreme	-11.6873
▁crop	-11.6874
▁psyche	-11.6876
▁visions	-11.688
▁israel	-11.688
cious	-11.6882
▁cris	-11.6883
▁bubble	-11.6885
▁caution	-11.6885
▁cushing	-11.6885
▁definitive	-11.6885
▁dexter	-11.6885
▁fierce	-11.6885
▁hapless	-11.6885
▁neurotic	-11.6885
▁scorpion	-11.6885
▁seductive	-11.6885
destined	-11.6885
▁imitate	-11.6885
▁telephone	-11.6885
▁bulk	-11.6885
▁chopped	-11.6885
▁scariest	-11.6885
▁promotion	-11.6886
kov	-11.6887
▁activity	-11.6887
▁collective	-11.6888
▁imaginary	-11.689
▁minority	-11.6891
▁aggressive	-11.6891
▁ace	-11.6891
▁fury	-11.6899
▁/>4/10	-11.69
▁jealousy	-11.6902
▁employed	-11.6903
▁superstar	-11.6905
gore	-11.6906
▁evidently	-11.691
▁diner	-11.691
▁discussing	-11.6917
▁mixing	-11.6917
▁ven	-11.6917
▁fatale	-11.6918
fiction	-11.692
brow	-11.6921
▁layers	-11.6922
▁masks	-11.6925
uous	-11.6936
got	-11.6943
▁residents	-11.6944
▁vo	-11.6948
▁orson	-11.695
▁flower	-11.695
▁sticking	-11.6953
****	-11.6959
▁biker	-11.696
▁oldest	-11.6961
????	-11.6961
bound	-11.6963
▁owners	-11.6963
▁mari	-11.6964
▁remark	-11.6964
▁daniels	-11.6967
▁eventual	-11.6967
▁rapid	-11.6967
▁evans	-11.6972
▁rec	-11.6972
▁interpret	-11.6973
▁clash	-11.6976
▁admirable	-11.6979
▁insurance	-11.6979
▁jersey	-11.6979
▁shepherd	-11.6979
▁hybrid	-11.6979
▁fetish	-11.6979
▁shrink	-11.6979
▁answered	-11.698
▁1993	-11.698
▁christine	-11.6981
▁cleaning	-11.6981
▁mentality	-11.6982
▁asia	-11.6989
▁convicted	-11.699
▁confident	-11.6991
▁stumble	-11.6992
▁miner	-11.6992
▁handling	-11.6995
code	-11.6996
▁signal	-11.6997
takes	-11.6999
scene	-11.6999
▁reminder	-11.7003
hell	-11.7004
bon	-11.7005
load	-11.7008
conscious	-11.7011
typical	-11.7014
▁cliches	-11.7017
▁cheerful	-11.7022
▁outing	-11.7025
▁sitcoms	-11.703
▁cents	-11.7031
▁conscious	-11.7035
▁ants	-11.7035
▁caricatures	-11.7042
▁operate	-11.7043
nz	-11.7045
▁harp	-11.7047
▁ark	-11.7055
▁drain	-11.7059
abo	-11.7064
▁mick	-11.7067
▁cassidy	-11.7073
▁medieval	-11.7073
▁unsuspecting	-11.7073
▁visconti	-11.7073
▁disabled	-11.7073
▁tolerable	-11.7073
▁/>7/10	-11.7073
▁darwin	-11.7073
▁goodbye	-11.7073
▁1939	-11.7073
▁incest	-11.7073
▁custer	-11.7074
▁palance	-11.7074
▁undercover	-11.7074
▁rice	-11.7076
▁yep	-11.7076
▁cobra	-11.7076
▁absurdity	-11.7077
▁erika	-11.7079
▁pill	-11.7086
eff	-11.7087
▁mates	-11.7089
▁woeful	-11.7094
eb	-11.7094
▁sy	-11.7097
▁connections	-11.7097
▁lowe	-11.7101
▁baron	-11.7101
▁admirer	-11.7102
▁tomb	-11.7107
▁rainy	-11.7109
apparently	-11.711
▁refers	-11.7118
highly	-11.7124
▁emerges	-11.7127
zy	-11.7131
burg	-11.7133
mind	-11.7133
▁tool	-11.7134
ook	-11.7137
▁longest	-11.7138
▁dana	-11.714
▁cameraman	-11.7147
▁iq	-11.7149
▁breast	-11.7151
▁mcc	-11.7151
▁betray	-11.7152
▁claus	-11.7154
▁torch	-11.7154
rit	-11.716
▁beau	-11.7161
▁enthusiastic	-11.7167
▁portrayals	-11.7167
▁affleck	-11.7168
▁despicable	-11.7168
▁horizon	-11.7168
▁pfeiffer	-11.7168
▁rochester	-11.7168
▁armstrong	-11.7168
▁gregory	-11.7168
▁duration	-11.7169
▁banter	-11.7169
▁preston	-11.7169
▁tomatoes	-11.717
▁ponyo	-11.717
▁boasts	-11.7171
▁bryan	-11.7171
▁liar	-11.7171
▁naughty	-11.7171
▁mod	-11.7172
▁kiddie	-11.7173
▁romeo	-11.7173
▁homicide	-11.7176
▁fuller	-11.7177
▁eugene	-11.7179
▁kris	-11.7182
▁entirety	-11.7183
▁tossed	-11.7183
▁anytime	-11.7188
rod	-11.7191
▁lens	-11.7196
▁1000	-11.7198
▁tech	-11.72
▁divorced	-11.72
▁trials	-11.7201
game	-11.7202
driven	-11.7207
▁poet	-11.7211
non	-11.7212
▁inherent	-11.7212
▁records	-11.7221
▁outright	-11.7224
ridge	-11.7224
▁drab	-11.7228
▁sur	-11.7229
▁foundation	-11.723
▁enjoys	-11.7232
▁computers	-11.7238
▁wang	-11.7239
▁handy	-11.7244
nik	-11.725
▁garner	-11.7251
thanks	-11.7254
▁fishing	-11.7255
cro	-11.726
chy	-11.7261
▁substantial	-11.7264
▁surrender	-11.7264
▁qualify	-11.7264
▁ricci	-11.7264
▁spencer	-11.7264
▁injustice	-11.7264
▁swift	-11.7264
▁trigger	-11.7264
▁limitations	-11.7265
▁stairs	-11.7265
▁1920	-11.7266
▁election	-11.7266
▁brooding	-11.727
▁carell	-11.7271
▁publicity	-11.7273
▁brainless	-11.7274
▁wo	-11.7276
▁nat	-11.7284
▁outdoor	-11.7285
▁sco	-11.7285
▁survives	-11.729
▁breathe	-11.7293
space	-11.7297
cons	-11.7298
▁switched	-11.7302
▁ivan	-11.7309
▁rides	-11.7313
▁junkie	-11.7318
▁booth	-11.7319
mal	-11.733
▁cracking	-11.733
▁spice	-11.7332
▁peaceful	-11.7333
▁pushe	-11.7334
▁thorn	-11.7334
▁races	-11.7334
1)	-11.734
▁conveys	-11.7341
enchant	-11.7343
outs	-11.7344
▁strict	-11.7349
▁noah	-11.7353
▁dodge	-11.7354
oy	-11.7357
▁echo	-11.7361
▁controversy	-11.7361
▁license	-11.7361
▁monroe	-11.7361
▁transplant	-11.7361
▁ustinov	-11.7361
▁overbearing	-11.7361
▁isolation	-11.7361
▁abstract	-11.7361
▁mccoy	-11.7362
▁infected	-11.7362
▁gilbert	-11.7362
▁rosemary	-11.7362
▁weep	-11.7362
▁jury	-11.7363
▁1971	-11.7363
lb	-11.7363
▁ghoulies	-11.7366
▁uncut	-11.7368
▁stalker	-11.7368
▁satirical	-11.7369
▁shades	-11.737
▁selected	-11.7373
▁cycle	-11.7374
▁sixth	-11.7376
▁lynn	-11.7381
▁casey	-11.7384
▁traits	-11.7387
▁louise	-11.739
▁zo	-11.7391
▁linked	-11.7397
▁grandma	-11.74
winning	-11.7401
▁females	-11.7405
▁exploit	-11.7409
▁nominations	-11.7409
▁gained	-11.7409
▁chip	-11.7413
burn	-11.7419
know	-11.7423
▁indiana	-11.7435
▁exhibit	-11.7443
▁bombs	-11.7444
cross	-11.7444
▁nerve	-11.7447
kee	-11.7449
▁lam	-11.7456
▁brenda	-11.7456
▁deputy	-11.7459
▁escaping	-11.7459
▁galaxy	-11.7459
▁istanbul	-11.7459
▁scrooge	-11.7459
▁spoon	-11.7459
▁streisand	-11.7459
▁vcr	-11.7459
▁preminger	-11.7459
▁sensible	-11.7459
▁sherlock	-11.7459
▁lunatic	-11.746
▁moses	-11.746
▁diverse	-11.746
▁revisit	-11.746
▁ashley	-11.746
nan	-11.7461
▁authenticity	-11.7462
▁cbs	-11.7463
▁moe	-11.7464
lew	-11.7465
▁samantha	-11.7466
whe	-11.7468
▁claw	-11.7469
▁gloria	-11.747
▁lili	-11.7471
▁palma	-11.7479
▁attended	-11.7483
▁july	-11.7487
▁iran	-11.749
indulgent	-11.75
*1/2	-11.7505
▁wanders	-11.7507
▁hoo	-11.7508
sadly	-11.7508
▁justified	-11.7509
▁endlessly	-11.7509
▁wounds	-11.751
▁raid	-11.7516
▁vic	-11.7516
▁dj	-11.7519
▁balanced	-11.7519
▁handles	-11.7519
▁bel	-11.752
eating	-11.7522
▁hatch	-11.7525
▁claiming	-11.7531
had	-11.7535
▁depends	-11.7536
▁linger	-11.7541
▁thug	-11.7542
▁register	-11.7544
fly	-11.7548
▁invest	-11.755
▁accounts	-11.7556
▁morons	-11.7556
▁contempt	-11.7558
▁coppola	-11.7558
▁lecture	-11.7558
▁medicine	-11.7558
▁ominous	-11.7558
▁paranoid	-11.7558
▁pistol	-11.7558
▁thirst	-11.7558
▁bishop	-11.7558
▁hepburn	-11.7558
▁inhabitants	-11.7558
▁gundam	-11.7558
▁stefan	-11.7559
▁chunk	-11.7559
▁mannerisms	-11.7559
▁ingrid	-11.7559
▁championship	-11.7559
▁breakfast	-11.7559
▁pathos	-11.756
▁1981	-11.756
▁1982	-11.756
▁homosexuality	-11.756
▁adaption	-11.756
▁valentine	-11.7561
▁riff	-11.7563
▁artwork	-11.7566
▁morph	-11.7567
▁wan	-11.7568
doo	-11.7572
▁nest	-11.7573
four	-11.758
▁splash	-11.758
▁approaching	-11.7581
▁tapes	-11.7582
oli	-11.7586
▁rewarding	-11.7587
▁colours	-11.7591
▁doris	-11.7598
▁scrap	-11.76
cheek	-11.7601
iro	-11.7604
heads	-11.7606
▁delighted	-11.7607
▁inspirational	-11.7611
ident	-11.7612
▁holm	-11.7612
▁depict	-11.7613
▁valid	-11.7614
▁polar	-11.7618
▁cooking	-11.762
▁fulfill	-11.7623
▁grin	-11.7628
agging	-11.763
▁houses	-11.7639
▁pump	-11.7642
lace	-11.7645
▁verge	-11.7647
▁float	-11.7651
▁interestingly	-11.7657
▁subtext	-11.7658
▁reagan	-11.7659
▁aircraft	-11.7659
▁eyre	-11.7659
▁reliable	-11.7659
▁laurence	-11.7659
tty	-11.7659
▁funding	-11.766
▁1973	-11.766
▁1988	-11.766
▁malone	-11.7661
▁flock	-11.7662
▁madsen	-11.7662
▁beth	-11.7662
▁restrained	-11.7662
▁fiend	-11.7664
▁romanian	-11.7664
▁israeli	-11.7664
▁downfall	-11.7666
▁swept	-11.7666
▁legends	-11.7667
▁ripoff	-11.7667
▁villa	-11.7668
ique	-11.7669
▁horny	-11.7671
▁paulie	-11.7676
▁wider	-11.7677
▁votes	-11.7679
▁unnatural	-11.768
▁tease	-11.7683
▁disguised	-11.7686
▁dorm	-11.7686
▁frat	-11.7686
▁substitute	-11.7686
▁cannes	-11.7688
▁juan	-11.7689
▁coma	-11.7694
▁rang	-11.7695
▁geek	-11.7696
▁formed	-11.7696
▁couples	-11.77
third	-11.7701
▁readers	-11.7703
everyone	-11.7703
▁fools	-11.7704
quin	-11.7713
▁freaking	-11.7713
▁hides	-11.7714
yer	-11.7716
▁render	-11.7728
▁melt	-11.7732
▁avoiding	-11.7735
▁bog	-11.7737
bie	-11.774
▁evolve	-11.7743
▁schedule	-11.7743
▁tactics	-11.7745
▁establish	-11.7747
▁convenient	-11.7747
▁lighter	-11.775
▁immigrant	-11.7752
▁thumb	-11.7753
glo	-11.7753
▁bombing	-11.7755
▁duel	-11.7757
▁informed	-11.7757
▁stella	-11.7758
▁bounce	-11.7759
▁exploding	-11.7759
▁inexplicable	-11.7759
▁pedestrian	-11.7759
▁physics	-11.7759
▁paltrow	-11.776
▁sorrow	-11.776
▁/>10/10	-11.776
▁basinger	-11.776
▁randolph	-11.776
▁dubious	-11.7761
▁firing	-11.7761
▁kurtz	-11.7761
▁tur	-11.7762
▁coupled	-11.7763
▁pounds	-11.7765
▁depardieu	-11.7765
▁kansas	-11.7767
▁(!)	-11.7768
▁plug	-11.7769
▁amitabh	-11.7774
▁factors	-11.7774
▁doubts	-11.7776
▁approaches	-11.7778
lines	-11.7779
▁sf	-11.7779
▁freaky	-11.7782
▁token	-11.7782
▁iconic	-11.7784
▁queens	-11.7785
▁tremendously	-11.7788
▁realities	-11.7789
ffer	-11.7804
▁peters	-11.7807
▁persons	-11.7807
▁sca	-11.7814
shoot	-11.7815
▁relat	-11.7818
▁rub	-11.7822
▁nope	-11.7824
▁politicians	-11.7831
▁pound	-11.7836
▁shout	-11.7844
mie	-11.7845
▁slash	-11.7851
pic	-11.7852
▁deck	-11.7853
▁bash	-11.7855
▁defie	-11.7857
8)	-11.7858
gal	-11.7858
▁nations	-11.786
▁boast	-11.786
▁almighty	-11.7862
▁aztec	-11.7862
▁creek	-11.7862
▁havoc	-11.7862
▁bennett	-11.7862
▁herzog	-11.7862
▁studied	-11.7862
▁hesitate	-11.7862
▁outdated	-11.7862
▁adrian	-11.7862
▁pepper	-11.7862
▁melville	-11.7862
▁lupino	-11.7863
▁dixon	-11.7863
▁garage	-11.7863
▁manipulation	-11.7863
▁posing	-11.7863
▁diaz	-11.7863
▁1978	-11.7863
▁overblown	-11.7864
▁youthful	-11.7864
▁hippies	-11.7865
2)	-11.7865
▁alarm	-11.7867
▁poe	-11.7868
▁programs	-11.7868
aid	-11.787
▁realistically	-11.787
▁slimy	-11.7871
▁daylight	-11.7873
▁ps	-11.7873
▁kor	-11.7875
▁accepting	-11.7875
alan	-11.7875
▁realization	-11.7879
fel	-11.788
▁3)	-11.7881
▁bert	-11.7881
▁cheaply	-11.7882
▁likeable	-11.7884
▁stores	-11.7885
▁anton	-11.7888
olo	-11.7891
▁sinking	-11.7893
close	-11.7897
▁lionel	-11.7899
▁carson	-11.79
▁pub	-11.7901
▁educated	-11.7904
luc	-11.7906
ridden	-11.7906
basically	-11.7906
▁pose	-11.791
▁lon	-11.7911
▁swearing	-11.7911
▁shove	-11.7912
▁vignettes	-11.7913
cam	-11.7915
cru	-11.7916
▁remakes	-11.7917
▁hol	-11.7919
▁pirates	-11.7921
▁opt	-11.7938
▁cheat	-11.794
wer	-11.7942
▁file	-11.7943
flo	-11.7946
▁participate	-11.7948
▁playful	-11.7949
▁tax	-11.7949
▁sane	-11.7952
▁delicious	-11.7952
▁gre	-11.7959
▁cigarette	-11.7961
▁afghanistan	-11.7965
▁atlantis	-11.7965
▁choosing	-11.7965
▁flimsy	-11.7965
▁harrowing	-11.7965
▁mutual	-11.7965
▁persuade	-11.7965
▁pianist	-11.7965
▁shield	-11.7965
▁draft	-11.7965
▁spouse	-11.7965
▁unwilling	-11.7965
▁precede	-11.7965
▁meandering	-11.7965
▁shelter	-11.7965
▁grabbe	-11.7965
▁perverse	-11.7965
▁unconventional	-11.7965
▁whip	-11.7965
▁cram	-11.7965
▁phase	-11.7965
▁:-)	-11.7968
▁brick	-11.7969
▁stardom	-11.797
▁ladder	-11.797
wn	-11.7973
▁cracker	-11.7975
▁filthy	-11.7976
▁published	-11.7977
▁profile	-11.7977
▁aboard	-11.7978
jim	-11.7982
none	-11.7987
▁pursued	-11.7987
▁apt	-11.799
▁indifferent	-11.7992
▁incidentally	-11.7993
▁wwe	-11.7994
exp	-11.7994
▁neatly	-11.7997
▁rack	-11.7997
>	-11.7998
▁sant	-11.801
definitely	-11.801
▁dominic	-11.8012
whatever	-11.8013
obviously	-11.8014
mc	-11.8018
▁russians	-11.8024
▁prepar	-11.8025
▁convention	-11.8027
ille	-11.8028
iko	-11.803
ole	-11.8031
wow	-11.8032
5)	-11.8033
scenes	-11.8034
▁oc	-11.8041
▁sparks	-11.8042
▁rescued	-11.8043
▁sleeper	-11.8048
▁mentions	-11.8061
referred	-11.8064
▁korea	-11.8065
aside	-11.8066
gon	-11.8066
▁kidnap	-11.8067
▁monologue	-11.8068
▁prospect	-11.8068
esquire	-11.8069
▁bimbo	-11.8069
▁curtain	-11.8069
▁rourke	-11.8069
▁filter	-11.8069
▁vintage	-11.8069
▁warehouse	-11.8069
▁collins	-11.8069
▁turtle	-11.8069
▁bacall	-11.8069
▁graveyard	-11.8069
▁existential	-11.8069
▁pornography	-11.8069
▁stamp	-11.8069
▁nauseating	-11.8069
▁segal	-11.807
▁micro	-11.807
▁1989	-11.807
▁stripper	-11.807
▁ebert	-11.8071
▁lena	-11.8072
▁portman	-11.8073
▁rumor	-11.8077
▁stalking	-11.8079
▁growth	-11.808
▁campus	-11.8082
▁screenwriters	-11.8085
▁seedy	-11.809
▁depths	-11.809
▁threatened	-11.8093
▁mobile	-11.8099
▁partners	-11.81
▁defeated	-11.81
▁dumped	-11.8101
roo	-11.8103
fish	-11.8105
▁meyer	-11.8107
▁users	-11.8113
spirited	-11.8118
▁affects	-11.8119
▁carla	-11.8119
cca	-11.812
▁embarrassingly	-11.8121
files	-11.8121
▁hk	-11.8124
80	-11.8127
▁webb	-11.8134
▁log	-11.8147
▁slob	-11.8148
five	-11.8148
▁tra	-11.8153
▁sweep	-11.8154
isha	-11.8158
▁recruit	-11.816
▁georgia	-11.8161
▁crashing	-11.8161
noir	-11.8162
▁approached	-11.8162
▁brazil	-11.8163
▁saddle	-11.8166
▁resolve	-11.8166
▁bun	-11.8168
▁everett	-11.817
▁arquette	-11.8174
▁daffy	-11.8174
▁implied	-11.8174
▁merchant	-11.8174
▁wheelchair	-11.8174
▁whisper	-11.8174
▁bachelor	-11.8174
▁incapable	-11.8174
▁psychologist	-11.8174
▁tolerance	-11.8174
▁begging	-11.8174
▁anxious	-11.8174
▁glamorous	-11.8174
▁(?)	-11.8176
▁hogan	-11.8176
▁alvin	-11.8176
▁shotgun	-11.8178
▁lil	-11.8178
▁unsure	-11.8179
▁advertised	-11.8182
▁satisfaction	-11.8183
▁nicolas	-11.8183
▁novelty	-11.8184
▁archive	-11.8186
▁classy	-11.8189
▁pairing	-11.819
▁dwell	-11.819
▁popping	-11.8192
▁cho	-11.8195
▁detectives	-11.8195
▁jos	-11.82
▁damaged	-11.8207
thin	-11.8208
▁corey	-11.8209
▁factual	-11.821
▁mala	-11.8213
▁gamera	-11.8216
▁awaken	-11.8217
shirt	-11.8223
▁plotting	-11.8226
table	-11.8231
err	-11.8236
▁hmmm	-11.8236
▁wisely	-11.8236
▁trivia	-11.8237
▁longing	-11.8238
▁locals	-11.8239
▁revel	-11.8241
▁comparisons	-11.8241
▁pic	-11.8242
▁whoopi	-11.8244
▁goals	-11.8245
ata	-11.8247
▁ur	-11.8248
▁laws	-11.8248
cool	-11.825
hold	-11.8254
uh	-11.8255
▁seeming	-11.8263
trip	-11.8264
14	-11.8267
▁associate	-11.8267
▁reject	-11.8268
▁proceed	-11.8269
▁chore	-11.8272
▁judged	-11.8273
▁198	-11.8278
▁arguing	-11.828
▁experiencing	-11.828
▁gigantic	-11.828
▁improbable	-11.828
▁macabre	-11.828
▁relevance	-11.828
▁tendency	-11.828
▁nolte	-11.828
▁stabbed	-11.8281
▁travis	-11.8281
▁granger	-11.8281
▁accessible	-11.8281
▁unfamiliar	-11.8281
▁pokemon	-11.8281
▁lizard	-11.8281
▁underwear	-11.8281
▁skinny	-11.8282
▁gein	-11.8282
▁weaver	-11.8282
▁sta	-11.8283
▁billing	-11.8283
▁joyce	-11.8284
▁cries	-11.8285
▁possesses	-11.8285
▁incidents	-11.8286
▁zane	-11.8286
▁firstly	-11.8289
▁75	-11.8292
▁celebrate	-11.8292
half	-11.8293
▁payoff	-11.8295
▁95	-11.8295
▁dumbest	-11.8295
▁blob	-11.8298
▁reviewed	-11.8309
▁raven	-11.831
▁ugh	-11.8313
dog	-11.8313
▁flowers	-11.8314
blood	-11.8316
▁confronted	-11.8316
▁dove	-11.8324
final	-11.8324
▁fanatic	-11.8326
mba	-11.8326
▁aiming	-11.8328
adventure	-11.8329
▁safely	-11.8331
three	-11.8333
office	-11.8335
logical	-11.8342
25	-11.8346
▁regularly	-11.8347
▁sober	-11.835
▁pipe	-11.8354
hur	-11.8357
▁mold	-11.8358
▁nap	-11.8359
ona	-11.836
chan	-11.8363
midst	-11.8367
▁esp	-11.8373
uch	-11.8374
▁extensive	-11.8376
▁relentless	-11.8376
▁weaker	-11.838
boat	-11.8381
▁demonstrate	-11.8382
ose	-11.8383
▁blamed	-11.8386
▁staple	-11.8387
▁meteor	-11.8388
▁regime	-11.8388
▁parallels	-11.8388
▁complications	-11.8388
▁dazzling	-11.8388
▁estranged	-11.8388
▁horrified	-11.8388
▁inclusion	-11.8388
▁kurosawa	-11.8388
▁malkovich	-11.8388
▁mediocrity	-11.8388
▁phoenix	-11.8388
▁redundant	-11.8388
▁scorsese	-11.8388
▁undeniably	-11.8388
▁understatement	-11.8388
▁dietrich	-11.8388
▁niven	-11.8388
▁admission	-11.8388
▁mitch	-11.8388
▁fritz	-11.8388
nar	-11.8389
▁marlow	-11.8389
▁1998	-11.839
▁redford	-11.8391
▁1994	-11.8391
▁quasi	-11.8391
▁vibe	-11.8392
▁lester	-11.8393
▁christianity	-11.8393
▁employee	-11.8394
lift	-11.8395
▁stylized	-11.8397
▁isabelle	-11.8397
▁divided	-11.8398
▁cartoonish	-11.8399
▁conveniently	-11.8401
▁babes	-11.8403
▁porter	-11.8405
▁distracted	-11.8407
▁rewarded	-11.841
lane	-11.8417
aki	-11.8417
complete	-11.8417
mis	-11.8426
▁kit	-11.843
brien	-11.8431
▁boob	-11.8432
▁uniforms	-11.8434
▁skilled	-11.8439
▁surfer	-11.8442
eric	-11.8444
wash	-11.8444
▁praised	-11.8457
lian	-11.8459
▁characteristics	-11.8465
▁gosh	-11.8465
▁smiles	-11.8468
▁invent	-11.847
true	-11.8471
▁croc	-11.8474
▁colleagues	-11.8474
bat	-11.8475
ado	-11.8475
late	-11.8479
▁seasoned	-11.8484
▁reverse	-11.8487
▁explode	-11.8489
▁fran	-11.8492
▁update	-11.8494
▁bleed	-11.8495
▁republic	-11.8495
▁chamber	-11.8497
▁cerebral	-11.8497
▁collaboration	-11.8497
▁miranda	-11.8497
▁rhett	-11.8497
▁ritchie	-11.8497
▁schneider	-11.8497
▁werewolves	-11.8497
▁supplie	-11.8497
▁whining	-11.8497
▁aftermath	-11.8497
▁harvest	-11.8497
▁/>8/10	-11.8497
▁tokyo	-11.8497
▁senator	-11.8497
▁bloke	-11.8497
▁branch	-11.8497
▁terminal	-11.8497
▁canyon	-11.8497
▁jolie	-11.8497
▁1959	-11.8497
▁polite	-11.8497
▁1987	-11.8497
▁jew	-11.8498
▁landmark	-11.8498
▁shelley	-11.8498
▁sought	-11.8498
▁stir	-11.8498
▁replacement	-11.8498
▁alison	-11.8499
▁rory	-11.85
▁crippled	-11.8502
▁sly	-11.8504
▁norton	-11.8505
▁windows	-11.8506
▁chow	-11.8508
▁strengths	-11.8508
▁crooked	-11.8509
▁adjust	-11.8511
▁exploits	-11.8512
ched	-11.8514
▁insert	-11.8516
▁sweeping	-11.8518
cum	-11.8519
sized	-11.8526
▁evan	-11.8528
▁bitten	-11.8529
▁janet	-11.8532
▁gestures	-11.8534
aries	-11.8536
rg	-11.8536
▁cock	-11.8541
▁convinces	-11.8544
cept	-11.8545
culture	-11.8549
▁sheep	-11.8552
▁spelling	-11.8555
▁sour	-11.8559
▁(193	-11.8563
▁midst	-11.8567
▁chronicles	-11.8568
▁gunfight	-11.8571
▁kent	-11.8572
▁intensely	-11.8581
▁28	-11.8591
▁expand	-11.8592
▁punish	-11.8593
quality	-11.8594
level	-11.8601
aw	-11.8605
▁slam	-11.8605
▁abomination	-11.8607
▁applied	-11.8607
▁complement	-11.8607
▁fragile	-11.8607
▁lansbury	-11.8607
▁pizza	-11.8607
▁spectator	-11.8607
▁unsympathetic	-11.8607
▁kermit	-11.8607
▁plodding	-11.8607
▁parrot	-11.8607
▁sterling	-11.8607
▁sabrina	-11.8607
▁feeble	-11.8607
▁repair	-11.8607
▁hawn	-11.8607
▁barrier	-11.8608
▁theories	-11.8609
music	-11.8609
▁franklin	-11.861
▁believability	-11.8611
▁agony	-11.8611
▁revolve	-11.8613
▁lois	-11.8614
▁scenarios	-11.8617
▁ensue	-11.8618
▁offbeat	-11.8619
▁slot	-11.8619
▁insights	-11.862
▁letdown	-11.8621
▁duff	-11.8622
lk	-11.8628
▁preacher	-11.8628
zu	-11.8631
▁dashing	-11.8632
sci	-11.8635
▁chucky	-11.8636
▁rea	-11.8638
▁mack	-11.8639
▁8.	-11.8645
▁conveyed	-11.8652
▁fuss	-11.8654
▁questioning	-11.8659
▁messing	-11.8661
▁outsider	-11.8663
via	-11.8664
▁finishing	-11.8665
▁shameless	-11.8666
▁distinguish	-11.8666
remember	-11.8666
tell	-11.867
▁decid	-11.8676
▁arise	-11.8678
▁inform	-11.8682
▁poses	-11.8684
▁cru	-11.8686
▁interests	-11.8688
▁tower	-11.8691
full	-11.8696
▁amaze	-11.8701
same	-11.8702
roy	-11.8704
▁verbal	-11.8706
early	-11.8716
phe	-11.8716
▁sensual	-11.8717
▁frantic	-11.8717
▁300	-11.8718
▁gandhi	-11.8718
▁mermaid	-11.8718
▁othello	-11.8718
▁parodies	-11.8718
▁sleeve	-11.8718
▁historian	-11.8718
▁sissy	-11.8718
▁whiny	-11.8718
▁arriving	-11.8718
▁determination	-11.8718
▁puppy	-11.8718
▁maximum	-11.8718
▁unattractive	-11.8718
▁rodney	-11.8718
▁antonioni	-11.8718
▁sweden	-11.8718
▁mortal	-11.8719
▁1974	-11.8719
▁stern	-11.872
▁otto	-11.872
▁protection	-11.8721
▁scout	-11.8721
▁subway	-11.8722
▁judgement	-11.8723
▁joanna	-11.8723
▁peril	-11.8723
▁dante	-11.8725
▁suitabl	-11.8726
▁vanessa	-11.8728
▁vanity	-11.8728
▁absorbing	-11.8729
▁monica	-11.8729
▁omen	-11.8731
evil	-11.8731
▁boone	-11.8733
▁organized	-11.8741
▁boarding	-11.8743
▁lola	-11.8744
▁chu	-11.8744
▁promoted	-11.8746
▁subsequently	-11.8746
▁heels	-11.8747
▁btw	-11.8749
▁meantime	-11.875
▁abbott	-11.875
▁brett	-11.8751
jun	-11.8754
▁locke	-11.8755
▁cultures	-11.8757
▁refugee	-11.8758
▁cape	-11.8768
numbing	-11.8771
christopher	-11.8772
should	-11.8772
sometimes	-11.8772
smith	-11.8772
▁elliott	-11.8774
jones	-11.8774
▁laser	-11.8776
7)	-11.8778
▁encountered	-11.8779
phone	-11.8779
▁richards	-11.8779
angelo	-11.8781
▁preach	-11.8783
▁*1/2	-11.8784
oooo	-11.8789
ick	-11.8793
pun	-11.8801
genre	-11.8804
▁cy	-11.8808
▁suspected	-11.8812
▁reports	-11.8813
▁locate	-11.8814
70	-11.8815
▁neglect	-11.8815
▁inherit	-11.8816
breaking	-11.8816
▁joint	-11.8818
ern	-11.8819
lapse	-11.882
▁excess	-11.8826
aaa	-11.8829
▁bakshi	-11.883
▁boogie	-11.883
▁pompous	-11.883
▁rhyme	-11.883
▁casper	-11.883
▁ordeal	-11.883
▁nutshell	-11.883
▁kahn	-11.8831
▁rugby	-11.8831
▁1945	-11.8831
▁coburn	-11.8832
▁patty	-11.8833
▁pbs	-11.8833
▁artistry	-11.8834
▁undermine	-11.8834
▁andrea	-11.8836
▁sync	-11.8837
▁sniper	-11.8838
▁replay	-11.884
max	-11.8841
▁wtf	-11.8844
characterisation	-11.885
suit	-11.885
▁transferr	-11.8851
▁establishing	-11.8853
camp	-11.8854
▁clarke	-11.8855
▁raging	-11.8858
▁rightly	-11.8859
div	-11.886
▁propose	-11.8864
▁swinging	-11.8869
▁terr	-11.887
▁farley	-11.8871
▁feeding	-11.8872
▁/>7	-11.8873
▁shameful	-11.8873
▁newer	-11.8884
sexual	-11.8885
death	-11.8885
▁dec	-11.8889
▁interior	-11.8889
stick	-11.8892
▁stud	-11.8898
▁critters	-11.8899
▁40'	-11.8906
▁sensation	-11.8906
▁nit	-11.8909
▁mae	-11.8919
▁refus	-11.8919
▁ponder	-11.8931
▁immense	-11.8931
▁literal	-11.8931
offs	-11.8932
ago	-11.8932
▁arty	-11.8932
witted	-11.8933
▁viva	-11.8933
▁insomnia	-11.8941
rising	-11.8942
▁blossom	-11.8944
▁detroit	-11.8944
▁furniture	-11.8944
▁mclaglen	-11.8944
▁phoebe	-11.8944
▁sebastian	-11.8944
▁vigilante	-11.8944
▁repressed	-11.8944
▁regain	-11.8944
▁tattoo	-11.8944
▁battling	-11.8944
ivity	-11.8944
▁electronic	-11.8944
▁auteur	-11.8944
▁lucille	-11.8944
▁kinski	-11.8944
▁alicia	-11.8944
▁falcon	-11.8944
▁madison	-11.8945
▁nathan	-11.8945
▁battlefield	-11.8947
▁graves	-11.8947
▁lightning	-11.8948
▁runaway	-11.8948
▁sack	-11.8948
▁warhol	-11.8948
▁lighthearted	-11.8949
▁emmy	-11.8949
▁reno	-11.8953
▁promptly	-11.8955
▁manipulate	-11.8957
dark	-11.896
▁updated	-11.8961
▁principals	-11.8961
▁tormented	-11.8963
▁/>4.	-11.8964
their	-11.8965
▁eagerly	-11.8967
▁speaker	-11.8968
▁teams	-11.8969
▁masterfully	-11.897
eu	-11.8972
hat	-11.8979
▁assist	-11.8979
▁tickets	-11.8983
▁remembering	-11.8985
believe	-11.8985
▁wholesome	-11.8989
ova	-11.8989
walk	-11.8998
▁degenerate	-11.9
perfect	-11.9
rene	-11.9002
young	-11.9005
around	-11.9008
▁interviewed	-11.9008
▁mechanic	-11.9008
sick	-11.9015
talk	-11.9018
▁gasp	-11.9023
▁carr	-11.9026
▁paints	-11.9032
▁qui	-11.9032
▁patriot	-11.9038
turn	-11.9041
000	-11.9041
bag	-11.9049
▁stoned	-11.905
▁bias	-11.9055
door	-11.9057
▁innuendo	-11.9059
▁poirot	-11.9059
▁replies	-11.9059
▁rookie	-11.9059
▁sergio	-11.9059
▁shanghai	-11.9059
▁vaughn	-11.9059
▁balloon	-11.9059
▁crosby	-11.9059
▁videotape	-11.9059
▁bittersweet	-11.9059
▁graduation	-11.9059
▁summarize	-11.9059
▁quant	-11.9059
▁groundbreaking	-11.9059
▁scarier	-11.9059
▁surgeon	-11.9059
▁slapped	-11.9059
▁void	-11.906
▁sharon	-11.906
▁roam	-11.906
▁instructor	-11.906
▁taut	-11.906
▁cease	-11.906
▁fuzzy	-11.9061
▁sentimentality	-11.9061
▁guardian	-11.9062
▁sanity	-11.9063
▁secure	-11.9063
▁scam	-11.9064
▁leaders	-11.9065
▁exclusively	-11.9065
▁vehicles	-11.9065
goers	-11.9066
▁captivated	-11.9067
▁vance	-11.9068
▁scored	-11.9069
ked	-11.9072
▁dern	-11.9073
▁springer	-11.9075
▁routines	-11.9078
sub	-11.9079
▁landed	-11.908
▁barber	-11.908
▁grit	-11.9081
▁contestants	-11.9081
post	-11.9081
▁vividly	-11.9084
▁summe	-11.9087
save	-11.9089
▁manic	-11.9091
▁hysterically	-11.9091
▁que	-11.9093
ace	-11.9099
▁baddies	-11.9101
bab	-11.9104
▁kerr	-11.9104
pot	-11.9106
▁wee	-11.9108
through	-11.9115
would	-11.9117
▁bing	-11.9121
▁dock	-11.9124
▁experts	-11.9129
▁accepts	-11.9134
▁rebels	-11.9135
▁triple	-11.9136
▁prof	-11.9139
▁joker	-11.9147
18	-11.915
▁dragons	-11.9153
▁barn	-11.9154
▁jude	-11.9154
▁hawke	-11.9155
▁gaps	-11.9158
▁orphan	-11.9159
case	-11.916
▁mysteriously	-11.916
▁crossed	-11.9165
▁deliberate	-11.917
▁economic	-11.917
▁endings	-11.917
▁shocker	-11.9171
▁tackle	-11.9175
▁eisenstein	-11.9175
▁fabric	-11.9175
▁carnival	-11.9175
▁ceiling	-11.9175
▁cronenberg	-11.9175
▁dahmer	-11.9175
▁lombard	-11.9175
▁portuguese	-11.9175
▁releasing	-11.9175
▁ghastly	-11.9175
▁cheerleader	-11.9175
▁manifest	-11.9175
▁atomic	-11.9175
▁lorre	-11.9175
▁decay	-11.9175
▁enigmatic	-11.9175
▁sundance	-11.9175
▁spray	-11.9175
▁email	-11.9176
▁darling	-11.9177
▁intact	-11.9177
anger	-11.9178
▁salesman	-11.9178
▁offense	-11.9181
▁straw	-11.9181
▁boots	-11.9191
▁frances	-11.9192
due	-11.9196
▁/>3/10	-11.9197
▁ul	-11.9198
▁colleague	-11.9199
▁robertson	-11.9202
▁knee	-11.9204
▁hor	-11.9204
▁howling	-11.9207
vie	-11.9207
▁cord	-11.9207
▁item	-11.9209
▁settled	-11.9211
▁stereotyped	-11.9211
▁plants	-11.9213
uri	-11.9214
▁holland	-11.9215
▁pilots	-11.9217
▁biting	-11.9218
▁covering	-11.9219
lay	-11.9221
▁hercules	-11.9224
arch	-11.9228
▁poll	-11.9231
girlfriend	-11.9234
flick	-11.9235
▁tightly	-11.9236
▁outcast	-11.9238
interesting	-11.9241
▁cliched	-11.9243
hir	-11.9243
▁boobs	-11.9244
ann	-11.9245
▁pow	-11.9247
rill	-11.925
▁benny	-11.9256
amato	-11.9274
▁declare	-11.9276
▁joining	-11.9279
▁statements	-11.9284
vic	-11.9285
gn	-11.9287
▁sto	-11.9292
▁cunning	-11.9292
▁admiration	-11.9293
▁denouement	-11.9293
▁fontaine	-11.9293
▁lopez	-11.9293
▁lundgren	-11.9293
▁monotonous	-11.9293
▁rebecca	-11.9293
▁recipe	-11.9293
▁sabotage	-11.9293
▁slept	-11.9293
▁spontaneous	-11.9293
▁timberlake	-11.9293
▁turmoil	-11.9293
▁injury	-11.9293
▁psychedelic	-11.9293
▁sophie	-11.9293
▁chemical	-11.9293
▁barbarian	-11.9293
▁essay	-11.9293
▁wendy	-11.9293
▁bunuel	-11.9293
▁hurry	-11.9293
▁miami	-11.9293
▁nanny	-11.9294
▁paycheck	-11.9294
▁noteworthy	-11.9295
▁1991	-11.9295
▁grier	-11.9295
▁cecil	-11.9295
▁nonexistent	-11.9296
▁dandy	-11.9297
▁sketches	-11.9297
▁desk	-11.9298
▁melissa	-11.9299
▁30'	-11.93
▁dramatically	-11.93
sex	-11.9301
▁posey	-11.9302
▁retro	-11.9303
▁lurking	-11.9305
▁acquired	-11.9305
▁wonderland	-11.9309
▁betrayed	-11.9311
▁gam	-11.9312
▁loan	-11.9313
▁patriotic	-11.9313
▁faded	-11.9314
▁frames	-11.9322
western	-11.9324
▁severed	-11.9327
▁lung	-11.9327
▁gathering	-11.9329
▁arguments	-11.9331
▁expertly	-11.9331
▁affecting	-11.9332
▁stable	-11.9334
▁stupidest	-11.9336
▁daytime	-11.9342
hhh	-11.9352
▁sec	-11.9352
camera	-11.9353
▁clouds	-11.9354
▁photograph	-11.9357
▁mirrors	-11.936
▁starters	-11.9363
wit	-11.9364
▁>	-11.9369
▁goodman	-11.937
▁unusually	-11.9371
▁retrieve	-11.9376
til	-11.9378
▁stages	-11.9379
killer	-11.9382
▁theatres	-11.9383
▁charms	-11.9388
▁stro	-11.9389
lou	-11.939
▁mouths	-11.9391
▁entertainer	-11.9394
scape	-11.9395
▁bass	-11.9396
alien	-11.9397
▁enlist	-11.9398
▁extend	-11.9399
▁sells	-11.9409
▁stereo	-11.9411
▁coyote	-11.9412
▁dungeon	-11.9412
▁marvellous	-11.9412
▁salvation	-11.9412
▁seinfeld	-11.9412
▁monkees	-11.9412
▁reckless	-11.9412
▁murky	-11.9412
▁venom	-11.9412
▁lumet	-11.9412
▁rogue	-11.9412
▁kilmer	-11.9412
▁hooper	-11.9412
▁bodyguard	-11.9412
▁marlon	-11.9413
▁lonesome	-11.9413
▁unconscious	-11.9415
▁jurassi	-11.9418
▁download	-11.9418
▁wayans	-11.9418
▁immigrants	-11.942
▁reserved	-11.9421
▁noticeable	-11.9421
▁nuanced	-11.9422
▁assembled	-11.9422
erman	-11.9425
▁goldie	-11.9426
▁indicate	-11.9427
▁exploited	-11.943
▁reid	-11.943
▁vow	-11.943
tony	-11.9433
▁texture	-11.9433
▁(195	-11.9436
▁discussed	-11.9441
▁lange	-11.9443
▁reflected	-11.9449
hoe	-11.9451
baked	-11.9453
▁potent	-11.9455
▁stake	-11.946
▁admired	-11.9462
▁michel	-11.9466
▁lucio	-11.9468
hall	-11.9473
meanwhile	-11.9474
could	-11.9474
▁needle	-11.9475
▁sleepy	-11.9478
▁steele	-11.9482
▁hyped	-11.9488
eau	-11.9488
▁slaves	-11.9493
▁resulted	-11.9495
▁dia	-11.9496
▁bait	-11.9499
trap	-11.95
▁rounded	-11.9501
▁photographs	-11.9504
▁flirt	-11.9512
▁revolt	-11.9512
▁condemn	-11.9517
▁parking	-11.9519
bed	-11.9522
firmly	-11.9522
hoo	-11.9528
▁rejects	-11.9528
▁grounds	-11.9528
▁marines	-11.9529
▁shifts	-11.9532
▁association	-11.9532
▁cocaine	-11.9532
▁inclined	-11.9532
▁unsuccessful	-11.9532
▁railroad	-11.9532
▁shannon	-11.9532
▁enchanting	-11.9532
▁sassy	-11.9532
▁vault	-11.9532
▁slut	-11.9532
▁doyle	-11.9532
▁anguish	-11.9532
▁mythology	-11.9532
▁comprise	-11.9532
▁entries	-11.9533
▁sunset	-11.9533
▁midget	-11.9534
▁garland	-11.9534
▁clunky	-11.9534
▁rouge	-11.9534
▁diary	-11.9534
▁blur	-11.9535
▁gloomy	-11.9535
▁costner	-11.9535
▁zoey	-11.9536
▁waist	-11.9536
▁chaney	-11.9536
▁spies	-11.9537
▁magician	-11.954
▁hackman	-11.9541
▁interrupted	-11.9541
body	-11.9541
▁heath	-11.9542
▁cody	-11.9543
▁convict	-11.9547
▁neglected	-11.9548
arm	-11.9549
▁raines	-11.9549
une	-11.955
▁alba	-11.9556
3)	-11.9557
▁giggle	-11.9565
▁commando	-11.9566
.........	-11.9568
▁stuffed	-11.9569
▁males	-11.9575
▁robbers	-11.9576
▁defy	-11.9576
▁herbert	-11.9577
▁rolls	-11.9582
matt	-11.9582
▁insults	-11.9584
oops	-11.9585
nam	-11.9587
▁lick	-11.959
▁smarter	-11.9593
▁shan	-11.9594
possible	-11.9595
▁pegg	-11.9597
bird	-11.9597
▁mandy	-11.96
▁flames	-11.961
atory	-11.961
?????	-11.9615
▁packs	-11.9617
▁excellently	-11.9618
gene	-11.9619
▁flows	-11.962
▁boyer	-11.9621
▁om	-11.9626
mus	-11.9627
▁circles	-11.9628
▁barr	-11.963
▁satanic	-11.9631
lots	-11.9632
▁pans	-11.9633
▁select	-11.9636
▁jose	-11.9642
▁employ	-11.9643
▁determine	-11.9645
fans	-11.9646
shaw	-11.9648
▁benefits	-11.9652
▁assumption	-11.9654
▁chaotic	-11.9654
▁compound	-11.9654
▁feminine	-11.9654
▁monitor	-11.9654
▁oblivious	-11.9654
▁streak	-11.9654
▁carnage	-11.9654
▁ebay	-11.9654
▁sincerity	-11.9654
▁kinnear	-11.9654
▁marathon	-11.9654
▁foremost	-11.9654
▁shuttle	-11.9654
▁fraud	-11.9655
▁captive	-11.9655
▁enduring	-11.9655
▁cater	-11.9655
▁owl	-11.9655
▁jules	-11.9655
▁patron	-11.9655
▁lump	-11.9655
▁underdeveloped	-11.9656
▁knightley	-11.9656
▁ninety	-11.9656
▁popped	-11.9656
▁snail	-11.9658
▁unclear	-11.9659
▁2008	-11.9659
friend	-11.966
▁predictably	-11.9662
▁camping	-11.9663
17	-11.9666
turned	-11.9667
▁origins	-11.9667
▁/>**	-11.9672
▁overboard	-11.9674
▁nuances	-11.9675
▁buffy	-11.9676
lop	-11.9677
▁awakening	-11.9678
▁dino	-11.9678
▁climbing	-11.969
▁politician	-11.969
▁gina	-11.9693
▁moran	-11.9696
▁scratching	-11.97
▁85	-11.97
▁dealers	-11.9704
▁squeeze	-11.9705
▁astronaut	-11.9707
zing	-11.9707
boring	-11.9712
fred	-11.9716
▁fry	-11.9717
frame	-11.9719
▁hardest	-11.9721
▁bru	-11.9722
telling	-11.9725
▁fills	-11.9727
▁veterans	-11.9727
▁shemp	-11.9731
▁characteristic	-11.9734
▁slack	-11.9736
kk	-11.974
▁customers	-11.9741
▁witnessing	-11.9743
▁fetched	-11.9743
dance	-11.9746
zen	-11.9748
▁pranks	-11.9752
▁eliminate	-11.9761
▁undergo	-11.9761
▁pervert	-11.9763
▁recreate	-11.9763
▁sources	-11.9764
▁prompt	-11.9765
▁gel	-11.9766
▁pur	-11.9767
▁crank	-11.9769
▁toni	-11.9775
▁brynner	-11.9777
▁corbett	-11.9777
▁fodder	-11.9777
▁inaccuracies	-11.9777
▁liberty	-11.9777
▁misunderstood	-11.9777
▁pamela	-11.9777
▁remorse	-11.9777
▁squirm	-11.9777
▁strung	-11.9777
▁unanswered	-11.9777
▁varied	-11.9777
esteem	-11.9777
▁consequently	-11.9777
▁temptation	-11.9777
▁dodgy	-11.9778
▁nifty	-11.9778
▁witchcraft	-11.9778
▁advertisement	-11.9778
▁carrot	-11.9778
arian	-11.9778
▁darren	-11.9778
▁resistance	-11.9778
▁distinctive	-11.9779
▁subconscious	-11.9779
▁honey	-11.978
▁ramones	-11.978
▁pickford	-11.978
dling	-11.9781
▁brendan	-11.9782
▁debra	-11.9782
▁tara	-11.9783
▁exec	-11.9783
▁chef	-11.9783
▁staging	-11.9787
▁deliciously	-11.9792
▁enable	-11.9793
kim	-11.9793
▁preaching	-11.98
▁ricky	-11.9801
▁sentences	-11.9802
▁rendering	-11.9802
▁lt	-11.9803
▁followers	-11.9807
▁spinal	-11.9811
▁frontal	-11.9813
▁client	-11.9816
imo	-11.982
▁switche	-11.982
▁brass	-11.9822
▁wartime	-11.9823
▁glove	-11.9824
▁sgt	-11.9827
▁trains	-11.9829
▁temper	-11.983
▁sr	-11.984
▁peep	-11.9842
▁evokes	-11.9843
▁gates	-11.9844
pathetic	-11.9844
pretty	-11.9844
stay	-11.985
▁ignor	-11.9851
▁hateful	-11.9856
▁hunted	-11.986
▁fires	-11.9861
▁stoner	-11.9862
▁apologize	-11.9863
▁glimpses	-11.9864
ryan	-11.9866
inter	-11.9872
▁entrance	-11.9887
?!?	-11.9887
▁avenge	-11.9889
▁bava	-11.9898
▁respects	-11.9899
▁romania	-11.9901
disc	-11.9902
▁capacity	-11.9902
▁excellence	-11.9902
▁facility	-11.9902
▁gravity	-11.9902
▁inadvertent	-11.9902
▁inconsistencies	-11.9902
▁kaufman	-11.9902
▁puerto	-11.9902
▁thirties	-11.9902
▁thurman	-11.9902
▁uncanny	-11.9902
▁verdict	-11.9902
▁woven	-11.9902
▁gulliver	-11.9902
▁abroad	-11.9903
▁kingsley	-11.9903
delusion	-11.9903
▁yank	-11.9903
▁array	-11.9903
▁motif	-11.9903
▁rousing	-11.9903
▁courtroom	-11.9903
▁renaissance	-11.9903
▁clara	-11.9903
▁grease	-11.9903
▁feather	-11.9903
▁establishment	-11.9903
▁burke	-11.9903
▁elicit	-11.9904
▁spotlight	-11.9905
▁republican	-11.9905
▁consciousness	-11.9905
▁hunk	-11.9906
▁liu	-11.9908
▁rail	-11.9908
▁bondage	-11.9908
▁overweight	-11.9908
▁stalked	-11.9911
▁existing	-11.9911
▁grain	-11.9914
▁fascist	-11.9918
gate	-11.9918
▁reviewing	-11.992
▁invested	-11.9921
▁197	-11.9921
▁ming	-11.9922
▁achieves	-11.9924
▁crosses	-11.9927
▁rev	-11.9928
▁jen	-11.993
▁2-	-11.994
▁wherever	-11.9945
working	-11.9945
▁mobster	-11.9946
▁seats	-11.9947
hit	-11.9949
▁complained	-11.9951
▁tuned	-11.9964
jeff	-11.9973
laugh	-11.9973
anyone	-11.9974
oooooo	-11.9976
▁gum	-11.9976
team	-11.9977
▁reruns	-11.9977
▁grind	-11.9984
feel	-11.9984
▁directions	-11.9985
▁forrest	-11.999
▁breathing	-11.999
▁kir	-11.9991
▁denis	-11.9993
▁maintains	-11.9993
▁flowing	-11.9998
▁nico	-12.0004
rah	-12.0004
gee	-12.0007
▁muni	-12.0008
pie	-12.0011
▁employees	-12.0022
▁gerald	-12.0028
▁attenborough	-12.0029
▁fishburne	-12.0029
▁identified	-12.0029
▁nielsen	-12.0029
▁obscurity	-12.0029
▁prevail	-12.0029
▁salvage	-12.0029
▁volunteer	-12.0029
▁atrocity	-12.0029
▁buffoon	-12.0029
▁framing	-12.0029
▁occult	-12.0029
▁incestuous	-12.0029
▁sandwich	-12.0029
▁erupt	-12.0029
▁toxic	-12.0029
▁hostile	-12.003
▁cyber	-12.003
▁archetyp	-12.003
▁finney	-12.003
▁rudy	-12.0031
▁mystical	-12.0031
▁zeta	-12.0031
▁believer	-12.0031
▁wak	-12.0033
▁nina	-12.0034
mary	-12.0035
▁bearable	-12.0035
▁tailor	-12.0037
▁stretches	-12.0039
▁godard	-12.0039
▁digging	-12.0039
▁tipp	-12.0039
▁micheal	-12.0041
▁heather	-12.0041
▁distributed	-12.0041
▁sammy	-12.0043
▁commend	-12.0044
trust	-12.0051
▁bashing	-12.0054
▁cells	-12.0056
▁forties	-12.0061
▁cheering	-12.0065
zel	-12.0067
▁imply	-12.007
▁attending	-12.0072
▁sak	-12.0073
▁uma	-12.0077
▁stab	-12.0079
jane	-12.0084
odd	-12.0085
ural	-12.0086
▁worm	-12.0089
▁fal	-12.009
▁capt	-12.0091
▁brush	-12.0094
!).<	-12.0099
enjoy	-12.0099
better	-12.0099
father	-12.01
warning	-12.01
▁bury	-12.01
▁flame	-12.0107
▁combs	-12.0109
whose	-12.0111
▁pap	-12.0113
count	-12.0113
mph	-12.0114
tale	-12.0117
▁math	-12.0122
▁eater	-12.0126
waiting	-12.0128
▁diver	-12.0134
▁glow	-12.0141
▁juice	-12.0142
▁blo	-12.0143
▁bolt	-12.0147
tron	-12.0154
▁greene	-12.0156
▁octopus	-12.0157
▁ambiguity	-12.0157
▁applause	-12.0157
▁athletic	-12.0157
▁capote	-12.0157
▁einstein	-12.0157
▁espionage	-12.0157
▁fugitive	-12.0157
▁govinda	-12.0157
▁guinness	-12.0157
▁influential	-12.0157
▁melancholy	-12.0157
▁occurrence	-12.0157
▁optimistic	-12.0157
▁tierney	-12.0157
▁demille	-12.0157
▁firth	-12.0157
▁melody	-12.0157
▁asterix	-12.0157
▁lestat	-12.0157
▁paranormal	-12.0157
▁resonate	-12.0157
▁representative	-12.0158
▁alliance	-12.0158
▁cassie	-12.0159
▁hug	-12.0159
▁posse	-12.0159
▁stargate	-12.016
▁/>1)	-12.0163
▁193	-12.0163
▁villainous	-12.0165
track	-12.0165
▁incorporate	-12.0165
▁readily	-12.0167
▁vivian	-12.0168
▁momentum	-12.017
▁penis	-12.0171
▁ads	-12.0172
rgen	-12.0174
▁inserted	-12.0174
▁tru	-12.0179
▁cain	-12.0181
▁hare	-12.0183
▁roach	-12.0185
tory	-12.0186
▁versa	-12.0189
▁addressed	-12.0189
▁ariel	-12.0191
▁progressed	-12.0191
▁/>8	-12.0194
neill	-12.0196
▁peek	-12.0198
drawn	-12.0199
▁forgetting	-12.0204
▁travell	-12.0205
▁mur	-12.0207
▁consequence	-12.0207
▁sporting	-12.0216
ites	-12.022
▁roughly	-12.022
▁fable	-12.022
▁rounds	-12.0227
modern	-12.0228
charles	-12.0229
until	-12.023
during	-12.0231
▁vega	-12.0231
aker	-12.0234
▁discipline	-12.0235
▁rivals	-12.0236
dir	-12.0236
direction	-12.0237
▁buttons	-12.024
▁wink	-12.0243
▁anyhow	-12.0244
▁voiced	-12.0246
nard	-12.0252
▁erase	-12.0253
▁assumes	-12.0258
heart	-12.026
▁churn	-12.0267
▁shakes	-12.0268
▁precise	-12.0275
▁alleged	-12.0275
!!)	-12.0275
lover	-12.0276
aking	-12.028
▁springs	-12.0282
gli	-12.0283
▁executives	-12.0285
▁scandal	-12.0287
▁acquaintance	-12.0287
▁celebrities	-12.0287
▁component	-12.0287
▁dynamite	-12.0287
▁groove	-12.0287
▁hypnotic	-12.0287
▁liberties	-12.0287
▁meredith	-12.0287
▁rathbone	-12.0287
▁satellite	-12.0287
▁klein	-12.0287
▁policy	-12.0287
▁programming	-12.0287
▁banana	-12.0288
▁flipping	-12.0288
▁chin	-12.0288
▁1985	-12.0288
▁investment	-12.0288
▁genetic	-12.0288
▁edison	-12.0288
▁envy	-12.0288
▁1933	-12.0289
▁strive	-12.0289
▁rewrite	-12.0289
▁courageous	-12.0289
▁juliette	-12.0289
aro	-12.0289
▁1977	-12.0289
▁dustin	-12.029
plots	-12.029
▁stating	-12.0291
▁punchline	-12.0294
▁inmates	-12.0294
▁improvised	-12.0295
▁effortlessly	-12.0295
▁congo	-12.0296
▁digest	-12.0296
▁anticipated	-12.0297
▁sleeps	-12.0297
▁sirk	-12.0298
▁weekly	-12.0299
▁awareness	-12.0299
▁narrated	-12.03
▁tide	-12.0307
▁slo	-12.0308
rac	-12.0308
def	-12.031
▁fairness	-12.0311
▁transported	-12.0315
▁celebrated	-12.0317
▁upbeat	-12.0318
▁hob	-12.0319
▁rever	-12.032
▁unfolding	-12.0324
▁bless	-12.0325
▁counting	-12.0325
▁ple	-12.0325
▁peers	-12.0331
▁shave	-12.0342
live	-12.0345
▁extract	-12.0349
▁sm	-12.0351
▁prayer	-12.0353
standing	-12.0354
▁len	-12.0357
inducing	-12.036
▁coaster	-12.0361
100	-12.0363
ional	-12.0364
jason	-12.0365
▁nan	-12.0368
▁worms	-12.037
lord	-12.0371
▁fleshed	-12.0373
▁mol	-12.0374
▁bats	-12.0375
found	-12.0375
▁dynamics	-12.0377
▁ideals	-12.0378
▁outset	-12.0379
▁herman	-12.0384
▁dug	-12.0384
▁construct	-12.0402
fin	-12.0403
▁coal	-12.0404
boiled	-12.0404
ulation	-12.0404
ancy	-12.0407
▁explodes	-12.0409
▁restore	-12.041
▁youngsters	-12.0413
opera	-12.0417
fun	-12.0418
▁anonymous	-12.0419
▁centuries	-12.0419
▁cheadle	-12.0419
▁chupacabra	-12.0419
▁correspond	-12.0419
▁deneuve	-12.0419
▁intersperse	-12.0419
▁nightmarish	-12.0419
▁norwegian	-12.0419
▁october	-12.0419
▁prostitution	-12.0419
▁rukh	-12.0419
▁sensibility	-12.0419
▁stadium	-12.0419
▁suicidal	-12.0419
▁unappealing	-12.0419
▁vapid	-12.0419
▁zealand	-12.0419
▁looney	-12.0419
▁shriek	-12.0419
▁subdued	-12.0419
▁basil	-12.0419
▁merry	-12.0419
▁macdonald	-12.0419
▁suppress	-12.0419
▁snappy	-12.0419
▁robbed	-12.0419
▁sample	-12.042
▁sidewalk	-12.0421
▁teddy	-12.0421
▁traitor	-12.0422
▁burge	-12.0422
▁distinction	-12.0423
▁fido	-12.0423
▁skeptical	-12.0424
▁spotted	-12.0424
▁chocolate	-12.0425
mme	-12.0426
▁glee	-12.0426
▁atlantic	-12.0428
▁mindset	-12.0431
▁exam	-12.0432
▁crypt	-12.0434
▁attic	-12.0441
▁lara	-12.0442
▁listing	-12.0445
▁prank	-12.0446
▁relaxed	-12.0447
▁hound	-12.0449
hill	-12.045
▁dominated	-12.0451
▁smoothly	-12.0452
▁servants	-12.0457
mail	-12.0461
▁pierre	-12.0461
▁clad	-12.0469
▁diamonds	-12.047
▁screened	-12.0473
▁attribute	-12.0474
▁magically	-12.0478
▁solved	-12.048
▁tilly	-12.0481
▁elliot	-12.0485
happy	-12.0487
loving	-12.0495
kevin	-12.0495
▁marketed	-12.0497
▁masked	-12.0497
........	-12.05
ante	-12.0501
released	-12.0509
main	-12.0509
▁bombed	-12.0511
▁mm	-12.0513
▁threads	-12.0514
▁wilde	-12.0514
▁vamp	-12.0524
ddle	-12.0529
▁comm	-12.053
▁creeps	-12.053
▁products	-12.0532
▁lambs	-12.0532
plane	-12.0532
▁reunite	-12.0536
▁goo	-12.0537
care	-12.0538
▁weirdo	-12.0542
wig	-12.0542
▁keeper	-12.0542
▁listened	-12.0544
▁cancel	-12.0546
▁cloth	-12.0547
▁loren	-12.055
▁kil	-12.0551
▁admirably	-12.0552
▁beethoven	-12.0552
▁comparable	-12.0552
▁gromit	-12.0552
▁hellraiser	-12.0552
▁malcolm	-12.0552
▁mccarthy	-12.0552
▁philadelphia	-12.0552
▁prologue	-12.0552
▁robocop	-12.0552
▁superfluous	-12.0552
▁anthology	-12.0552
▁closure	-12.0552
▁shearer	-12.0552
95	-12.0552
▁hungarian	-12.0552
▁gallery	-12.0552
▁awry	-12.0552
▁byrne	-12.0552
▁therapy	-12.0552
▁arrangement	-12.0553
▁recurr	-12.0553
▁burden	-12.0553
▁sweetheart	-12.0553
▁1934	-12.0553
▁troopers	-12.0553
▁timon	-12.0555
▁edith	-12.0555
▁infant	-12.0556
▁brink	-12.0556
▁midler	-12.0557
▁zany	-12.0558
▁hopeful	-12.0559
▁tacked	-12.0562
▁brent	-12.0563
▁elected	-12.0563
▁fanny	-12.0564
▁elmer	-12.0564
▁colored	-12.0565
▁sunk	-12.0566
▁understandably	-12.0567
▁funky	-12.0568
▁judges	-12.0568
▁polly	-12.057
▁sinks	-12.0571
▁kristin	-12.0573
▁bitchy	-12.0575
▁cos	-12.0575
▁civilians	-12.0575
itude	-12.0576
▁pros	-12.0582
▁officially	-12.0582
▁demonstrated	-12.0583
stand	-12.0585
▁puzzled	-12.0588
▁ranting	-12.059
▁shocks	-12.0591
▁sexist	-12.0591
▁loner	-12.0591
path	-12.0593
▁crook	-12.0597
▁scripting	-12.0609
▁counterpart	-12.0612
▁tess	-12.0617
▁scarlet	-12.0621
yan	-12.0624
daughter	-12.0628
jan	-12.0629
twist	-12.0629
▁symbols	-12.0631
ida	-12.0637
▁obstacles	-12.064
stu	-12.0645
adam	-12.0646
▁/>2)	-12.0647
▁drown	-12.0653
scale	-12.0656
pal	-12.0659
tley	-12.0663
iva	-12.0665
him	-12.0668
▁bearing	-12.0669
▁officials	-12.0671
▁compromise	-12.0671
garde	-12.0672
lot	-12.0674
▁sufficient	-12.0675
▁dictat	-12.0684
▁occupation	-12.0687
▁reinforce	-12.0687
▁transvestite	-12.0687
▁cohesive	-12.0687
▁custody	-12.0687
▁economy	-12.0687
▁estevez	-12.0687
▁huppert	-12.0687
▁keanu	-12.0687
▁lieutenant	-12.0687
▁moriarty	-12.0687
▁pixar	-12.0687
▁pursuing	-12.0687
▁radiation	-12.0687
▁redgrave	-12.0687
▁winchester	-12.0687
▁combining	-12.0687
▁smirk	-12.0687
▁suave	-12.0687
▁overtones	-12.0687
▁enchanted	-12.0687
▁beetle	-12.0687
▁laboratory	-12.0687
▁henson	-12.0687
▁annoyance	-12.0687
▁tempest	-12.0688
▁crass	-12.0688
▁hannah	-12.0688
▁padding	-12.0688
▁feud	-12.0688
▁brazilian	-12.0688
▁viking	-12.0688
▁accomplishment	-12.0688
▁gillian	-12.0689
▁mentor	-12.0689
▁drawback	-12.069
bone	-12.0691
▁sway	-12.0695
▁mice	-12.0699
▁continent	-12.07
▁foreigner	-12.0703
▁similarity	-12.0704
▁puke	-12.0704
▁collar	-12.0705
▁socially	-12.0705
▁syn	-12.0706
▁nerdy	-12.0706
▁nero	-12.0707
▁evolved	-12.0709
▁restraint	-12.071
▁demi	-12.0711
▁confirmed	-12.0711
▁overnight	-12.0715
dell	-12.0717
▁gathered	-12.0717
▁produces	-12.0718
iled	-12.072
.5/10	-12.072
▁labeled	-12.0722
▁targets	-12.0723
▁christy	-12.0723
ility	-12.0727
▁slower	-12.0727
▁sheets	-12.0728
overs	-12.073
ement	-12.0731
rak	-12.0736
ami	-12.0745
▁allies	-12.0751
usually	-12.0751
person	-12.076
▁cursed	-12.0761
related	-12.0763
daniel	-12.0765
▁targeted	-12.0766
prop	-12.0767
▁insulted	-12.0768
▁reads	-12.077
tag	-12.0773
▁flashing	-12.0779
packed	-12.078
▁goth	-12.0781
vol	-12.0781
▁environmental	-12.0791
▁/>****	-12.0799
▁lex	-12.0799
▁stoic	-12.0803
▁paths	-12.0808
▁ridicule	-12.0808
▁privilege	-12.0808
▁alot	-12.082
nel	-12.0821
▁admitted	-12.0822
▁aristocrat	-12.0823
▁cigar	-12.0824
▁athlete	-12.0824
▁berkeley	-12.0824
▁confined	-12.0824
▁devotion	-12.0824
▁endeavor	-12.0824
▁guinea	-12.0824
▁henchmen	-12.0824
▁hockey	-12.0824
▁impersonation	-12.0824
▁penelope	-12.0824
▁perpetual	-12.0824
▁pivotal	-12.0824
▁schizophrenic	-12.0824
▁succumb	-12.0824
▁naschy	-12.0824
▁carlito	-12.0824
▁dialect	-12.0824
▁butterfly	-12.0824
▁irwin	-12.0824
▁reprise	-12.0824
▁marilyn	-12.0824
▁exploitative	-12.0824
▁interlude	-12.0824
▁mcqueen	-12.0824
▁myrna	-12.0824
▁gym	-12.0825
▁discount	-12.0825
▁earliest	-12.0825
▁jacques	-12.0825
▁stomp	-12.0825
▁chevy	-12.0825
▁1957	-12.0825
▁joking	-12.0825
▁rio	-12.0827
▁grayson	-12.0827
▁deadpan	-12.0828
▁biko	-12.0829
pack	-12.0829
▁backyard	-12.083
▁forgiveness	-12.0831
▁rickman	-12.0832
▁terrorism	-12.0833
▁cuban	-12.0834
▁ample	-12.0834
▁progression	-12.0834
▁faye	-12.0837
▁perceived	-12.0837
▁cousins	-12.0838
▁domain	-12.0839
▁propel	-12.0839
▁relentlessly	-12.084
ggle	-12.0841
ucci	-12.0844
▁milland	-12.0846
▁skirt	-12.0846
▁criticized	-12.085
▁casually	-12.085
▁projection	-12.0851
▁surround	-12.0855
▁bosses	-12.0856
▁employer	-12.0857
▁filmography	-12.086
▁chiller	-12.0862
▁morse	-12.0862
▁detect	-12.0867
▁observations	-12.0867
lost	-12.087
ended	-12.0872
▁maze	-12.0875
▁evoke	-12.0877
▁seriousness	-12.0878
▁billion	-12.0878
▁500	-12.0883
▁hinted	-12.0884
inda	-12.0885
▁reeve	-12.0892
▁drawings	-12.0898
▁headline	-12.0899
beautiful	-12.0905
hollywood	-12.0905
bury	-12.0908
▁artful	-12.0912
voiced	-12.0912
!!!!!!	-12.0912
meaning	-12.0913
▁laying	-12.0915
▁awfulness	-12.0915
▁cummings	-12.0921
pet	-12.0921
term	-12.0925
▁hark	-12.0928
▁cent	-12.0931
▁pod	-12.0937
▁ratio	-12.0944
▁/>1	-12.0945
▁nash	-12.095
▁cheers	-12.0952
▁pra	-12.0957
▁professionals	-12.0959
▁amuse	-12.0959
lio	-12.0959
▁giants	-12.096
▁honour	-12.0962
▁decency	-12.0963
▁district	-12.0963
▁edmund	-12.0963
▁gielgud	-12.0963
▁graffiti	-12.0963
▁lubitsch	-12.0963
▁penalty	-12.0963
▁sasquatch	-12.0963
▁sensitivity	-12.0963
▁violin	-12.0963
▁/>9/10	-12.0963
▁conceit	-12.0963
▁daisy	-12.0963
▁federal	-12.0963
▁outlandish	-12.0963
▁escort	-12.0963
▁ramsey	-12.0963
▁bicycle	-12.0963
▁loretta	-12.0963
▁brunette	-12.0963
▁clarity	-12.0963
▁mcdonald	-12.0963
▁lurid	-12.0963
▁cancelled	-12.0964
▁selleck	-12.0964
▁hijack	-12.0964
▁chopper	-12.0964
▁motel	-12.0964
▁gossip	-12.0964
▁jagger	-12.0964
▁chock	-12.0964
▁pope	-12.0964
▁faux	-12.0964
▁dragging	-12.0965
▁weary	-12.0965
▁haircut	-12.0966
▁recite	-12.0966
▁charity	-12.0966
▁preparation	-12.0967
▁passive	-12.097
▁leland	-12.097
▁abundance	-12.0971
▁glenda	-12.0972
▁data	-12.0972
piece	-12.0975
▁irritated	-12.0976
▁robotic	-12.0976
▁melv	-12.0979
▁perverted	-12.098
▁stations	-12.0981
▁excuses	-12.0986
▁rewind	-12.0986
▁mun	-12.0992
step	-12.0993
▁dope	-12.1005
tig	-12.1007
▁10/10.	-12.1008
▁berry	-12.1008
rex	-12.1012
agn	-12.1015
▁attain	-12.1017
▁suggesting	-12.1023
natured	-12.1025
▁begun	-12.103
▁gripe	-12.1033
thought	-12.1037
front	-12.1039
▁notices	-12.104
▁insanely	-12.1041
▁pann	-12.1042
literally	-12.1045
excellent	-12.1045
shock	-12.1047
▁openly	-12.105
igan	-12.105
▁ambitions	-12.1055
45	-12.1057
shine	-12.1063
▁lighten	-12.1063
▁chops	-12.1069
▁hmm	-12.1069
kate	-12.1071
scott	-12.1083
▁indulge	-12.1092
▁lilli	-12.1095
▁spoiling	-12.1096
▁sucking	-12.1097
gary	-12.1101
▁wool	-12.1102
▁murderers	-12.1102
▁spoofs	-12.1103
▁ufo	-12.1103
▁retrospect	-12.1103
▁reception	-12.1104
▁arizona	-12.1104
▁audrey	-12.1104
▁goldblum	-12.1104
▁hilary	-12.1104
▁napoleon	-12.1104
▁patterson	-12.1104
▁predicament	-12.1104
▁puzzling	-12.1104
▁zellweger	-12.1104
▁applies	-12.1104
▁peasant	-12.1104
▁shelves	-12.1104
▁hispanic	-12.1104
▁honeymoon	-12.1104
▁prestig	-12.1104
▁sparse	-12.1104
▁paragraph	-12.1104
▁raptor	-12.1104
▁shepard	-12.1104
▁granny	-12.1104
▁division	-12.1104
▁mustache	-12.1104
▁compassionate	-12.1105
▁helmet	-12.1105
▁disappearance	-12.1105
▁devour	-12.1105
▁tissue	-12.1105
▁wrist	-12.1105
▁stripped	-12.1105
▁raunchy	-12.1106
▁shady	-12.1106
▁scum	-12.1106
▁retelling	-12.1107
▁eggs	-12.1107
▁elementary	-12.1107
▁oddball	-12.1107
▁swanson	-12.1108
▁troll	-12.1108
▁casablanca	-12.1108
▁chapters	-12.111
▁infinitely	-12.111
▁shah	-12.111
▁omar	-12.1113
▁gown	-12.1115
▁alexandra	-12.1116
▁sarcasm	-12.1117
▁borders	-12.1117
▁8/10.	-12.1118
▁latino	-12.1119
filmed	-12.1124
▁stabbing	-12.1125
▁pointing	-12.1126
▁fleeting	-12.1127
▁distinctly	-12.1128
▁lament	-12.113
earth	-12.1133
▁garr	-12.1133
▁sickness	-12.1134
▁coolest	-12.1135
▁fr	-12.1136
▁sail	-12.1141
▁predicted	-12.1142
▁madman	-12.1145
▁clinic	-12.1147
omi	-12.1147
▁keys	-12.1148
▁principles	-12.1154
▁switching	-12.1155
arious	-12.1157
▁hale	-12.116
sided	-12.1166
▁linear	-12.1172
release	-12.1172
▁dv	-12.1173
▁imper	-12.1175
▁vent	-12.1175
▁puns	-12.1178
▁techno	-12.1178
▁crooks	-12.1184
▁astronauts	-12.1185
▁willard	-12.1186
▁gangs	-12.1187
wrenching	-12.1188
technically	-12.1188
murder	-12.1188
average	-12.1188
appreciated	-12.1188
▁dien	-12.119
▁pigs	-12.1191
▁27	-12.1194
▁crashed	-12.1195
............	-12.1195
▁dangerously	-12.1198
▁ei	-12.12
▁instances	-12.1201
▁slashers	-12.1202
among	-12.1206
▁marrying	-12.1212
▁dale	-12.1214
▁deed	-12.1217
▁repeats	-12.1221
chen	-12.1222
keep	-12.123
dale	-12.1232
▁contradict	-12.124
fact	-12.1241
phon	-12.1242
▁import	-12.1247
▁chronological	-12.1247
▁pulse	-12.1247
▁dedication	-12.1247
▁detached	-12.1247
▁fathom	-12.1247
▁flamboyant	-12.1247
▁homicidal	-12.1247
▁potato	-12.1247
▁psychiatric	-12.1247
▁sprinkle	-12.1247
▁sylvester	-12.1247
▁yourselves	-12.1247
▁reckon	-12.1247
▁/>2/10	-12.1247
▁reiser	-12.1247
mercifully	-12.1247
▁infectious	-12.1247
▁swiss	-12.1247
▁chamberlain	-12.1247
▁perkins	-12.1247
▁obscene	-12.1247
▁shaggy	-12.1247
▁raimi	-12.1247
▁chalk	-12.1247
▁serum	-12.1248
▁interplay	-12.1248
▁pep	-12.1249
▁campfire	-12.1249
▁remainder	-12.1249
▁delay	-12.125
state	-12.1251
▁glossy	-12.1253
▁uptight	-12.1253
osh	-12.1254
▁coleman	-12.1254
doing	-12.1254
▁momma	-12.1255
▁watcher	-12.1256
▁grating	-12.1256
▁occupied	-12.1262
mac	-12.1262
round	-12.1263
▁reluctantly	-12.1268
home	-12.1271
▁yearning	-12.1272
org	-12.1273
▁ep	-12.1273
▁manipulated	-12.1277
▁martino	-12.1283
bear	-12.1283
iya	-12.1285
▁silverman	-12.1288
cula	-12.129
▁achievements	-12.1291
▁outrageously	-12.1291
▁sparkle	-12.1291
▁yuk	-12.1293
▁placement	-12.1294
▁ker	-12.1298
strange	-12.1299
▁transitions	-12.1302
▁cutter	-12.1303
▁excels	-12.1303
▁kra	-12.1304
▁tasteful	-12.1305
▁cla	-12.1307
▁tricked	-12.1309
slow	-12.131
▁coen	-12.1313
seen	-12.132
▁foe	-12.1321
▁cracks	-12.1322
▁edwards	-12.1323
▁unf	-12.1326
▁10)	-12.1329
jennifer	-12.1333
won	-12.1335
.99	-12.1335
▁sup	-12.1343
▁mastermind	-12.1349
▁bid	-12.1349
▁rab	-12.135
▁conduct	-12.1353
talking	-12.1359
▁watered	-12.136
▁ninjas	-12.1372
albe	-12.1373
▁accuse	-12.1376
▁kh	-12.1376
▁permanent	-12.1379
▁increasing	-12.1379
ila	-12.1381
▁depictions	-12.1382
▁rigg	-12.1385
aime	-12.1385
animator	-12.1391
▁avail	-12.1391
▁adventurous	-12.1392
▁arrogance	-12.1392
▁autobiography	-12.1392
▁carriage	-12.1392
▁comrade	-12.1392
▁deception	-12.1392
▁exaggeration	-12.1392
▁fiasco	-12.1392
▁impeccable	-12.1392
▁masquerad	-12.1392
▁olympic	-12.1392
▁overwrought	-12.1392
▁phantasm	-12.1392
▁playwright	-12.1392
▁quibble	-12.1392
▁rebellion	-12.1392
▁revolving	-12.1392
▁saloon	-12.1392
▁spectrum	-12.1392
▁sylvia	-12.1392
▁unnecessarily	-12.1392
▁unnerving	-12.1392
▁fairbanks	-12.1392
▁kristofferson	-12.1392
▁mcdowell	-12.1392
▁neutral	-12.1392
▁overshadowed	-12.1392
▁randall	-12.1392
▁houston	-12.1392
▁seattle	-12.1392
▁nominee	-12.1392
▁rumble	-12.1392
▁evelyn	-12.1392
▁stepmother	-12.1392
▁traumatic	-12.1392
▁crane	-12.1392
▁stirring	-12.1392
▁denver	-12.1392
▁revival	-12.1393
▁scoop	-12.1393
▁attendant	-12.1393
▁keyboard	-12.1393
▁angelina	-12.1393
▁monologues	-12.1393
cover	-12.1393
▁patent	-12.1394
▁electricity	-12.1394
▁rapper	-12.1394
▁fellini	-12.1394
▁skipping	-12.1394
▁deliverance	-12.1395
▁plantation	-12.1396
▁villagers	-12.1396
▁breathless	-12.1396
▁tent	-12.1397
▁lemon	-12.1398
▁overacts	-12.1398
▁dopey	-12.14
▁deanna	-12.1401
▁accidental	-12.1402
▁letterman	-12.1403
▁derived	-12.1403
▁agreement	-12.1405
▁shack	-12.1405
▁downtown	-12.141
▁cassel	-12.1411
ulous	-12.1413
▁drifter	-12.1416
▁fleet	-12.1416
wh	-12.1418
▁strained	-12.1419
saw	-12.1423
▁blockbusters	-12.1426
▁emil	-12.1426
(!)	-12.1429
spot	-12.1434
plan	-12.1434
▁shin	-12.1443
pick	-12.1447
loved	-12.1448
47	-12.1449
worker	-12.1452
▁noel	-12.1452
▁degrees	-12.1454
color	-12.1459
▁yells	-12.1464
original	-12.1465
worn	-12.1466
▁kei	-12.1466
edge	-12.1472
▁cou	-12.1478
centered	-12.148
zombie	-12.148
wrote	-12.148
scary	-12.1482
▁shawn	-12.1482
▁advances	-12.1484
▁novelist	-12.1491
iously	-12.15
▁tread	-12.1501
▁bout	-12.1502
▁reside	-12.1503
▁analyze	-12.1506
▁pains	-12.151
▁marcel	-12.1518
▁roar	-12.1521
▁finance	-12.1523
▁searched	-12.1523
pac	-12.1526
seeing	-12.1535
▁incidental	-12.1535
semblance	-12.1536
characters	-12.1538
▁reservation	-12.1539
▁academic	-12.1539
▁beowulf	-12.1539
▁blaxploitation	-12.1539
▁chipmunk	-12.1539
▁fassbinder	-12.1539
▁kazan	-12.1539
▁platoon	-12.1539
▁scheming	-12.1539
▁schwarzenegger	-12.1539
▁soderbergh	-12.1539
▁sponsor	-12.1539
▁stubborn	-12.1539
▁sweeney	-12.1539
▁tepid	-12.1539
▁vessel	-12.1539
▁dispatch	-12.1539
▁galactica	-12.1539
▁sentinel	-12.1539
▁rhys	-12.1539
▁transparent	-12.1539
▁miniature	-12.1539
▁scarface	-12.1539
▁kinky	-12.1539
▁choir	-12.1539
▁ernie	-12.1539
▁harlow	-12.1539
▁britney	-12.1539
▁olsen	-12.154
▁arnie	-12.154
▁aspire	-12.154
▁labour	-12.154
▁bogus	-12.154
▁idealistic	-12.154
▁dudley	-12.154
▁kidnaps	-12.154
▁vader	-12.154
▁borderline	-12.1541
▁groom	-12.1541
▁katie	-12.1542
▁suggestive	-12.1545
▁proportions	-12.1545
▁stance	-12.1545
▁hail	-12.1546
▁scattered	-12.1546
▁consumed	-12.1546
▁denied	-12.1546
▁cough	-12.1549
▁peggy	-12.1549
▁subtitled	-12.155
▁arranged	-12.1552
▁allegedly	-12.1553
▁policemen	-12.1553
▁spat	-12.1553
▁skateboarding	-12.1556
▁distinguished	-12.1558
▁prostitutes	-12.1558
▁flo	-12.156
▁excel	-12.1561
▁holden	-12.1562
▁revolting	-12.1564
▁csi	-12.1567
▁instruction	-12.1567
given	-12.1568
▁russ	-12.157
▁adequately	-12.1572
▁crushed	-12.1577
▁oriented	-12.1583
▁nickname	-12.1584
▁winston	-12.1585
▁annoy	-12.1592
▁dreaming	-12.1607
▁rivers	-12.1608
▁chuckles	-12.1613
sort	-12.1614
▁talentless	-12.1624
▁virtue	-12.1626
ctor	-12.1629
▁traditions	-12.163
▁europeans	-12.1631
lewis	-12.1632
jar	-12.1632
▁brooke	-12.1632
▁carly	-12.1633
▁jab	-12.1641
wich	-12.1641
▁slum	-12.1642
rat	-12.1649
▁plea	-12.1651
▁shaped	-12.1651
bomb	-12.1653
▁poop	-12.1655
▁kai	-12.1661
pur	-12.1663
▁woke	-12.1672
▁swords	-12.1678
▁spook	-12.168
▁motions	-12.1683
▁truthful	-12.1686
▁ambiance	-12.1688
▁ceremony	-12.1688
▁diabolical	-12.1688
▁duchovny	-12.1688
▁gershwin	-12.1688
▁poitier	-12.1688
▁scheider	-12.1688
▁connecticut	-12.1688
▁oriental	-12.1688
▁diversity	-12.1688
▁diploma	-12.1688
▁handicapped	-12.1688
▁biological	-12.1688
▁thespian	-12.1688
▁blazing	-12.1688
▁cedric	-12.1688
▁pornographic	-12.1688
▁supermarket	-12.1688
▁boundaries	-12.1688
▁retirement	-12.1689
▁stephanie	-12.1689
▁tedium	-12.1689
▁animators	-12.1689
slav	-12.1689
▁demeanor	-12.169
▁mabel	-12.169
▁drugged	-12.169
▁ledger	-12.1691
▁barbra	-12.1691
▁jud	-12.1691
▁patrol	-12.1693
▁consumer	-12.1693
▁exc	-12.1693
▁halt	-12.1694
▁supportive	-12.1695
▁veronica	-12.1696
▁mixe	-12.1697
▁spawned	-12.1699
▁bigfoot	-12.1699
▁banks	-12.1699
lig	-12.17
▁courtesy	-12.1701
▁lindsay	-12.1702
▁avenger	-12.1704
▁awarded	-12.1705
▁condemned	-12.1706
▁downward	-12.1712
▁sheila	-12.1712
▁proclaim	-12.1714
▁lingering	-12.1719
character	-12.1722
▁talky	-12.1725
▁manga	-12.1725
▁geniuses	-12.1728
rain	-12.1729
▁flu	-12.1732
▁disappearing	-12.1737
▁conn	-12.1739
▁bomber	-12.174
▁fold	-12.1742
▁endured	-12.1742
pm	-12.1742
lene	-12.1743
▁justification	-12.1743
wl	-12.1751
▁brow	-12.1756
▁advised	-12.1757
rose	-12.1759
▁commanding	-12.1762
meter	-12.1763
▁dispose	-12.1764
▁monumental	-12.1766
▁rocker	-12.177
▁dreadfully	-12.1776
▁muslims	-12.178
barbara	-12.1781
stupid	-12.1781
▁numbing	-12.1785
edited	-12.1786
▁mus	-12.1787
ald	-12.1795
▁tops	-12.1797
▁assort	-12.18
▁promo	-12.1805
ego	-12.1808
lessness	-12.1822
▁ongoing	-12.1822
▁eyed	-12.1823
▁qualifie	-12.1823
cute	-12.1827
store	-12.1827
▁continuous	-12.1827
▁coincidences	-12.1833
▁spears	-12.1833
▁butch	-12.1835
▁submit	-12.1839
▁anatomy	-12.1839
▁competing	-12.1839
▁dafoe	-12.1839
▁elusive	-12.1839
▁external	-12.1839
▁fitzgerald	-12.1839
▁gilliam	-12.1839
▁unfinished	-12.1839
▁versatile	-12.1839
▁antwone	-12.1839
▁disrupt	-12.1839
▁wrath	-12.1839
▁implies	-12.184
▁sociopath	-12.184
▁networks	-12.184
▁lorenzo	-12.184
▁seuss	-12.184
▁plunge	-12.184
▁recreation	-12.184
▁cynicism	-12.184
▁drool	-12.184
▁digress	-12.184
▁lightweight	-12.1841
▁finch	-12.1841
▁1955	-12.1841
ua	-12.1841
▁levy	-12.1841
▁beef	-12.1841
▁skipped	-12.1842
▁1975	-12.1842
▁naval	-12.1842
forget	-12.1842
▁stoop	-12.1843
▁hairstyle	-12.1843
▁nell	-12.1843
▁hustler	-12.1844
▁brew	-12.1844
▁disconnected	-12.1844
▁rko	-12.1844
▁hostel	-12.1845
▁nana	-12.1845
▁voyager	-12.1847
▁staggering	-12.1849
▁hometown	-12.185
▁swan	-12.1856
▁drowned	-12.1856
▁favourites	-12.1859
▁masterson	-12.1861
▁mia	-12.1862
rap	-12.1862
▁dusty	-12.1864
open	-12.1865
▁overused	-12.1871
▁lightly	-12.1872
▁enormously	-12.1874
▁slop	-12.1876
▁services	-12.1882
soon	-12.1886
▁drone	-12.1886
▁lawn	-12.1887
▁pals	-12.1887
▁gaze	-12.1888
▁cub	-12.1889
▁significantly	-12.1893
▁stem	-12.1895
enter	-12.1898
▁defending	-12.1902
0000	-12.1905
aunt	-12.1911
rier	-12.1911
▁rene	-12.1915
▁portions	-12.1919
▁worrying	-12.1922
bob	-12.1924
▁participants	-12.1924
▁counterparts	-12.1925
▁ruled	-12.1927
▁walters	-12.1928
▁ridden	-12.1928
▁robber	-12.1933
stephen	-12.1935
imagine	-12.1935
danny	-12.1937
▁amoral	-12.194
▁zombi	-12.194
▁nef	-12.1942
ador	-12.1949
▁atwill	-12.1953
▁crowded	-12.1954
▁knees	-12.1962
date	-12.1969
▁vel	-12.1971
▁grandpa	-12.1971
▁presume	-12.1977
▁acclaim	-12.1979
formed	-12.1981
workers	-12.1981
▁pok	-12.1981
▁baddie	-12.1985
▁cowboys	-12.1989
cock	-12.1992
▁armageddon	-12.1993
▁avenue	-12.1993
▁capsule	-12.1993
▁carnosaur	-12.1993
▁circuit	-12.1993
▁identities	-12.1993
▁innovation	-12.1993
▁komodo	-12.1993
▁minnelli	-12.1993
▁monstrous	-12.1993
▁ounce	-12.1993
▁quintessential	-12.1993
▁roosevelt	-12.1993
▁vaudeville	-12.1993
▁loony	-12.1993
▁whimsical	-12.1993
▁goldsworthy	-12.1993
▁culprit	-12.1993
▁unstable	-12.1993
▁quaint	-12.1993
▁bachchan	-12.1993
▁theodore	-12.1994
▁laurie	-12.1994
▁circa	-12.1994
▁perversion	-12.1994
▁cockney	-12.1994
▁slumber	-12.1994
▁assistance	-12.1994
▁gilmore	-12.1994
▁misfire	-12.1994
▁gruff	-12.1994
▁uncertain	-12.1994
▁kitsch	-12.1994
▁spinning	-12.1994
▁snowball	-12.1994
▁yarn	-12.1994
▁cheung	-12.1994
▁resurrection	-12.1995
▁uneasy	-12.1995
▁voting	-12.1995
▁engagement	-12.1996
▁lodge	-12.1996
▁carpet	-12.1996
▁caroline	-12.1996
▁featurette	-12.1996
▁hallway	-12.1997
▁farewell	-12.1999
▁homo	-12.2001
▁miraculously	-12.2002
▁cheaper	-12.2005
▁ellis	-12.2005
▁arkin	-12.2006
▁marcus	-12.2006
thus	-12.2009
▁plead	-12.2011
▁hicks	-12.2015
▁zoo	-12.2015
▁genie	-12.2016
▁sigh	-12.2017
▁integra	-12.2017
▁waltz	-12.2017
▁swell	-12.2018
effects	-12.2019
▁paula	-12.2019
▁seth	-12.2021
horn	-12.2022
▁nuns	-12.2024
▁careless	-12.2035
▁qu	-12.2037
▁praying	-12.204
▁4)	-12.2042
▁vu	-12.2042
▁criticisms	-12.2042
▁weigh	-12.2046
▁absorbed	-12.2048
▁eg	-12.2052
▁cass	-12.2052
▁lesbians	-12.2053
▁loos	-12.2056
▁guil	-12.2059
▁swat	-12.2068
▁sham	-12.2072
▁raf	-12.2077
▁sonny	-12.2078
▁deeds	-12.2082
developed	-12.2086
personal	-12.2087
short	-12.2091
dramatic	-12.2092
brilliant	-12.2092
▁shiver	-12.2092
▁instrument	-12.2093
▁bynes	-12.2093
▁gesture	-12.2096
▁martian	-12.2096
often	-12.2097
▁mobsters	-12.2097
ood	-12.2097
upon	-12.2098
exist	-12.2099
▁risks	-12.2103
steve	-12.2103
▁slips	-12.2105
▁hooks	-12.211
someone	-12.2111
▁imo	-12.2112
alice	-12.2114
▁clo	-12.2117
▁strangle	-12.2118
▁figur	-12.2125
▁kan	-12.2132
▁oppos	-12.2135
▁terrorize	-12.2135
▁convert	-12.2135
▁monte	-12.2142
liness	-12.2143
▁dye	-12.2143
▁cleaner	-12.2145
▁layer	-12.2147
player	-12.2147
▁intellect	-12.2149
▁amnesia	-12.215
▁benjamin	-12.215
▁categories	-12.215
▁chavez	-12.215
▁communism	-12.215
▁gardner	-12.215
▁harriet	-12.215
▁katherine	-12.215
▁mathieu	-12.215
▁maturity	-12.215
▁millennium	-12.215
▁necessity	-12.215
▁schrader	-12.215
▁switzerland	-12.215
▁sydow	-12.215
▁visceral	-12.215
▁vulnerability	-12.215
▁eleanor	-12.215
▁rampant	-12.215
▁thirteen	-12.215
▁conjure	-12.215
▁floyd	-12.215
▁saddest	-12.215
▁bloodshed	-12.215
▁censorship	-12.215
▁/>1/10	-12.215
▁prue	-12.215
▁grammar	-12.215
▁rabid	-12.215
▁yankee	-12.215
▁predictability	-12.215
▁kitten	-12.215
▁rudd	-12.215
▁shylock	-12.215
▁sacrifices	-12.215
▁throne	-12.215
▁skating	-12.215
▁backwoods	-12.215
▁aerial	-12.215
▁chong	-12.215
▁rehearsal	-12.2151
▁esther	-12.2151
▁solomon	-12.2151
▁breakthrough	-12.2151
▁irresistible	-12.2151
▁carlyle	-12.2152
▁apollo	-12.2152
▁dressler	-12.2152
▁erik	-12.2152
▁truman	-12.2153
gel	-12.2155
▁honorable	-12.2156
cket	-12.2156
▁ostensibly	-12.2156
▁carroll	-12.2156
▁unleashed	-12.216
??)	-12.216
▁downbeat	-12.2161
▁stones	-12.2161
▁deborah	-12.2162
▁wrongly	-12.2165
▁kisses	-12.2166
▁blessed	-12.2167
▁judd	-12.2168
▁motivated	-12.2168
▁hugo	-12.2168
▁chic	-12.217
▁fantastically	-12.217
▁intelligently	-12.2172
▁flea	-12.2174
▁tits	-12.2177
▁pastor	-12.2179
▁chewing	-12.2197
▁kindly	-12.2197
▁mona	-12.2209
starring	-12.2212
▁harmon	-12.2215
▁inducing	-12.222
direct	-12.2221
▁mash	-12.2222
▁revelations	-12.2225
▁gram	-12.2227
▁traps	-12.223
▁reduce	-12.223
▁pia	-12.2232
▁illustrate	-12.224
present	-12.2247
cream	-12.2249
together	-12.2249
honestly	-12.225
▁telly	-12.225
▁refuge	-12.2251
decent	-12.2253
▁dublin	-12.2255
candy	-12.2256
▁winners	-12.2257
▁heir	-12.2259
▁menu	-12.2262
een	-12.2263
▁fend	-12.2263
▁conflicted	-12.2266
▁papers	-12.2268
digger	-12.2269
▁burnt	-12.2278
fighting	-12.2282
▁sas	-12.2286
aked	-12.229
▁trusted	-12.2292
either	-12.2293
▁whack	-12.2294
▁assert	-12.2299
▁culminat	-12.2304
▁hawaii	-12.2306
▁snob	-12.2308
▁bartender	-12.2308
▁concentration	-12.2308
▁exorcism	-12.2308
▁fiennes	-12.2308
▁knack	-12.2308
▁misplaced	-12.2308
▁sophistication	-12.2308
▁unremarkable	-12.2308
▁confederate	-12.2308
▁sensibilities	-12.2308
▁agonizing	-12.2308
▁lukas	-12.2308
▁whistle	-12.2308
▁wreak	-12.2308
▁keitel	-12.2308
▁capshaw	-12.2309
▁goddess	-12.2309
▁stride	-12.2309
▁aniston	-12.2309
▁placing	-12.2309
▁drummer	-12.2309
▁testing	-12.2309
▁singular	-12.2309
▁monday	-12.2309
▁marvin	-12.231
▁iranian	-12.231
▁barb	-12.2311
▁delta	-12.2312
▁decoration	-12.2312
▁reese	-12.2314
▁cliffhanger	-12.2314
▁mj	-12.2316
▁imprisoned	-12.2317
▁ditch	-12.2317
▁dung	-12.2317
▁horde	-12.2318
▁kathleen	-12.2318
▁misty	-12.2319
▁announced	-12.232
▁perspectives	-12.2322
▁expresses	-12.2324
▁warped	-12.2325
▁shamelessly	-12.2326
▁robe	-12.2327
▁beforehand	-12.2327
pieces	-12.2327
▁legion	-12.2329
(?)	-12.233
▁drowning	-12.2332
▁crispin	-12.2339
▁zen	-12.2343
empt	-12.2349
▁logo	-12.2351
▁nailed	-12.2353
▁marsh	-12.2356
▁armor	-12.2359
greg	-12.236
▁deco	-12.2361
▁maintained	-12.2361
▁output	-12.2365
▁paz	-12.2367
▁chile	-12.2368
▁fixed	-12.237
▁boxes	-12.237
▁mira	-12.2375
▁wrenching	-12.2381
▁minimalist	-12.2389
rai	-12.2395
▁chips	-12.2404
▁fee	-12.2406
▁charges	-12.2406
▁interpretations	-12.241
worst	-12.2411
bruce	-12.2412
▁soo	-12.2412
▁protecting	-12.2413
actresses	-12.2413
buster	-12.2414
▁passenger	-12.2421
▁ste	-12.2423
▁mug	-12.2424
▁conform	-12.2426
▁zap	-12.2437
eeee	-12.2438
▁contributes	-12.2441
secondly	-12.2444
▁hairy	-12.2445
▁lions	-12.2449
holes	-12.2452
▁responds	-12.2453
stead	-12.2453
▁narrate	-12.2454
?!?!	-12.2454
▁mach	-12.2455
▁counted	-12.2459
fect	-12.246
▁rig	-12.2467
▁agatha	-12.247
▁bathtub	-12.247
▁bloodthirsty	-12.247
▁colonial	-12.247
▁conniving	-12.247
▁contemplate	-12.247
▁delirious	-12.247
▁desolate	-12.247
▁dolemite	-12.247
▁earthquake	-12.247
▁evocative	-12.247
▁foreboding	-12.247
▁irrational	-12.247
▁kathryn	-12.247
▁luxury	-12.247
▁mishima	-12.247
▁oblivion	-12.247
▁quigley	-12.247
▁sophomoric	-12.247
▁soylent	-12.247
▁torturing	-12.247
▁wynorski	-12.247
▁solving	-12.247
▁caretaker	-12.247
▁belgian	-12.247
▁rowlands	-12.247
▁lennon	-12.247
▁cotton	-12.247
▁flounder	-12.247
▁mockery	-12.247
▁sunrise	-12.247
▁vinnie	-12.247
▁cocktail	-12.247
▁mumble	-12.247
▁bind	-12.247
▁scarred	-12.247
▁babysitter	-12.247
▁irving	-12.2471
▁retreat	-12.2471
▁governor	-12.2471
▁slavery	-12.2471
bbed	-12.2471
▁1947	-12.2472
▁imho	-12.2473
▁classified	-12.2473
▁conductor	-12.2474
deemed	-12.2475
▁cheats	-12.2476
▁distorted	-12.2476
respect	-12.2477
▁contradiction	-12.2477
witch	-12.2477
▁tenderness	-12.2477
▁slugs	-12.2477
▁trump	-12.2477
▁devious	-12.2478
▁baffled	-12.2478
▁mendes	-12.2478
▁pathetically	-12.2479
▁overwhelmed	-12.248
▁failures	-12.248
▁hunky	-12.248
▁lyrical	-12.2483
▁publisher	-12.2484
▁correctness	-12.2485
▁varying	-12.2486
▁expressive	-12.2486
▁succession	-12.2489
▁starlet	-12.2494
▁destructive	-12.2501
▁dismissed	-12.2502
wo	-12.2505
affe	-12.2507
▁formal	-12.2511
▁snowy	-12.2513
▁weirdness	-12.2514
hiro	-12.2515
▁widowed	-12.2518
ease	-12.2519
▁encouraged	-12.2519
▁irre	-12.2523
▁bergen	-12.2524
▁fighters	-12.2526
▁veer	-12.253
▁representing	-12.2531
▁yul	-12.2535
▁volumes	-12.2538
▁250	-12.2543
atic	-12.2544
cott	-12.2546
whom	-12.2548
▁neu	-12.255
▁sox	-12.2558
▁dani	-12.2562
ground	-12.2565
▁lovingly	-12.2568
▁influences	-12.2569
induced	-12.2571
▁classmates	-12.2573
educated	-12.2575
thomas	-12.2575
husband	-12.2575
julie	-12.2576
▁10!	-12.2588
▁(199	-12.2588
▁soprano	-12.2588
▁sibling	-12.2588
hence	-12.2589
▁stakes	-12.2595
billy	-12.2595
▁eu	-12.2595
▁mills	-12.26
▁sheet	-12.2602
▁matin	-12.2604
▁crowe	-12.261
wyn	-12.2616
▁diminish	-12.2619
into	-12.2619
thical	-12.2619
▁bil	-12.2624
▁patriarch	-12.2634
▁anxiety	-12.2634
▁appalled	-12.2634
▁constraints	-12.2634
▁eccleston	-12.2634
▁eclipse	-12.2634
▁greece	-12.2634
▁histrionic	-12.2634
▁implement	-12.2634
▁incessant	-12.2634
▁incompetence	-12.2634
▁monstrosity	-12.2634
▁piranha	-12.2634
▁prolonged	-12.2634
▁saboteur	-12.2634
▁schumacher	-12.2634
▁stalwart	-12.2634
▁superlative	-12.2634
▁colony	-12.2634
semitism	-12.2634
▁cringing	-12.2634
▁oprah	-12.2634
▁padded	-12.2634
▁irresponsible	-12.2634
▁pupil	-12.2634
▁ooze	-12.2634
▁beaver	-12.2634
▁robbing	-12.2634
▁tornado	-12.2634
▁007	-12.2634
▁strut	-12.2635
▁schemes	-12.2635
▁radar	-12.2635
▁tennis	-12.2635
▁percent	-12.2635
▁commendable	-12.2635
▁inflict	-12.2635
▁langdon	-12.2635
▁grape	-12.2636
▁summon	-12.2636
▁charley	-12.2636
▁worldwide	-12.2637
▁bullies	-12.2638
▁stunk	-12.2639
▁botched	-12.264
▁peer	-12.2642
▁norma	-12.2643
▁timmy	-12.2645
▁diesel	-12.2645
▁controlling	-12.2646
▁shakespearean	-12.265
▁rockne	-12.265
▁expanded	-12.2656
▁amid	-12.2659
▁blessing	-12.2659
▁stain	-12.266
▁observed	-12.2664
▁amok	-12.2665
▁adored	-12.267
▁bigot	-12.2672
chu	-12.2673
▁slaughtered	-12.2675
▁bikers	-12.2676
▁healing	-12.2676
▁jerky	-12.2681
▁darkly	-12.2682
marisa	-12.2683
▁prim	-12.2683
▁smallest	-12.2686
themed	-12.2687
▁flare	-12.2689
iii	-12.2696
▁stalin	-12.2699
▁fades	-12.2699
▁intellectually	-12.27
▁usage	-12.2704
▁outlook	-12.2705
▁harlin	-12.2706
▁bridget	-12.2711
▁earns	-12.2711
▁anita	-12.2713
▁reasoning	-12.2717
misunderstanding	-12.272
budding	-12.2723
▁structured	-12.2727
▁toned	-12.2728
▁vil	-12.2732
green	-12.2733
▁thereafter	-12.2737
▁nerds	-12.2737
▁dial	-12.274
coaster	-12.2741
political	-12.2742
social	-12.2743
▁professionally	-12.2752
▁lastly	-12.2753
▁trait	-12.2763
kick	-12.2772
▁contend	-12.2778
▁entertains	-12.2782
▁preserve	-12.2784
▁irritate	-12.2784
▁divide	-12.2784
▁sg	-12.2787
▁scarecrows	-12.2787
▁revive	-12.2791
▁sins	-12.2792
▁thankful	-12.2794
▁ghostly	-12.2795
print	-12.2795
▁aura	-12.2799
▁activist	-12.28
▁anniversary	-12.28
▁baffling	-12.28
▁beckinsale	-12.28
▁bloodbath	-12.28
▁clutter	-12.28
▁constitute	-12.28
▁idiocy	-12.28
▁incarnation	-12.28
▁infidelity	-12.28
▁january	-12.28
▁krueger	-12.28
▁liotta	-12.28
▁platform	-12.28
▁ravishing	-12.28
▁suzanne	-12.28
▁talbot	-12.28
▁uninspiring	-12.28
▁upstairs	-12.28
▁vegetable	-12.28
▁wolves	-12.28
▁cursing	-12.28
▁judith	-12.28
loathing	-12.28
▁automatic	-12.28
▁zhang	-12.28
▁emilio	-12.28
▁conquest	-12.2801
▁signature	-12.2801
▁gently	-12.2801
▁jolt	-12.2801
▁colbert	-12.2801
▁raving	-12.2801
▁ploy	-12.2801
▁kidnapper	-12.2801
▁0/10	-12.2801
▁dismay	-12.2801
▁hutton	-12.2801
▁dirk	-12.2802
▁stitches	-12.2802
▁rotting	-12.2803
▁tucker	-12.2803
▁rivalry	-12.2803
▁duckling	-12.2804
▁recount	-12.2804
▁litter	-12.2804
▁liam	-12.2805
▁leak	-12.2805
▁commenter	-12.2806
▁typecast	-12.2806
▁klaus	-12.2806
▁surrealism	-12.2806
▁choke	-12.2807
▁gusto	-12.2807
▁sections	-12.2808
▁slayer	-12.2808
▁della	-12.2809
▁prone	-12.281
▁grandson	-12.281
▁diva	-12.2811
▁sammo	-12.2811
▁continuously	-12.2814
▁dunn	-12.2814
▁starship	-12.2814
▁lea	-12.2815
▁shiny	-12.2816
▁peaks	-12.2819
▁jedi	-12.2819
▁connor	-12.282
nell	-12.2821
▁eliminated	-12.2822
▁bites	-12.2823
▁contender	-12.2824
leo	-12.2824
▁fulfilled	-12.2825
▁punks	-12.2826
▁hosts	-12.2827
rang	-12.283
▁encourages	-12.2831
▁searches	-12.2831
▁saints	-12.2833
▁finishes	-12.2839
▁lind	-12.284
▁shooter	-12.2841
▁downside	-12.2842
▁moss	-12.2846
enti	-12.2847
joan	-12.2849
▁northwest	-12.2849
▁butchered	-12.2849
▁locker	-12.2852
▁chen	-12.2854
▁sentenced	-12.2854
▁instruments	-12.2859
▁fave	-12.286
▁sacrificed	-12.2864
▁barbie	-12.2866
▁riches	-12.2867
▁meek	-12.2868
▁pressed	-12.2871
▁tools	-12.2873
▁yea	-12.2874
▁tha	-12.2876
▁capitalize	-12.2879
sister	-12.2889
▁steppe	-12.2894
▁conveying	-12.2895
▁instincts	-12.2897
!!!)	-12.2897
liner	-12.2897
▁deservedly	-12.29
▁badness	-12.2904
lance	-12.2904
▁realises	-12.2904
▁forbid	-12.2906
-80	-12.2908
apocalyptic	-12.2911
between	-12.2911
boyfriend	-12.2912
▁tyra	-12.2912
▁dukes	-12.2913
▁daft	-12.2923
▁42	-12.2925
▁spi	-12.2927
▁disturb	-12.2934
keeper	-12.2934
▁leone	-12.2935
▁sock	-12.2937
▁beam	-12.2944
leg	-12.2945
fiery	-12.2945
▁skateboard	-12.2949
▁lamp	-12.2951
▁monks	-12.2957
13	-12.2957
▁spec	-12.2959
▁manson	-12.2961
▁wimp	-12.2962
▁verse	-12.2964
▁baxter	-12.297
▁emergency	-12.297
▁englund	-12.297
▁extraordinari	-12.297
▁lumber	-12.297
▁marijuana	-12.297
▁november	-12.297
▁prevalent	-12.297
▁seduction	-12.297
▁stimulating	-12.297
▁unfaithful	-12.297
▁vertigo	-12.297
▁wahlberg	-12.297
▁aficionado	-12.297
▁librarian	-12.297
▁adept	-12.297
▁muscular	-12.297
▁sordid	-12.297
▁overseas	-12.297
▁duncan	-12.297
▁discern	-12.297
▁garcia	-12.297
▁textbook	-12.297
▁forehead	-12.297
▁firefighter	-12.2971
▁unforgivable	-12.2971
▁interrogation	-12.2971
▁jodie	-12.2971
▁minnie	-12.2971
▁freddie	-12.2971
▁unlucky	-12.2971
▁ironside	-12.2972
▁rejection	-12.2972
▁surpasses	-12.2973
▁cement	-12.2973
▁standpoint	-12.2973
avier	-12.2974
▁wildlife	-12.2976
▁luther	-12.2976
▁artistically	-12.2977
▁canvas	-12.2978
▁recap	-12.2978
▁battlestar	-12.2978
▁laud	-12.2978
▁zach	-12.2982
▁elijah	-12.2982
lack	-12.2983
▁ott	-12.2984
▁skater	-12.2984
▁unrated	-12.2984
▁kindness	-12.2985
▁violently	-12.2985
▁exceeding	-12.2988
▁aptly	-12.299
▁reunited	-12.299
▁habits	-12.2991
▁ballad	-12.2992
▁punished	-12.2993
▁rou	-12.2996
▁interpreted	-12.2997
▁hunger	-12.2998
▁sab	-12.2999
▁trier	-12.3002
▁inhabited	-12.3002
▁inventor	-12.3005
▁carrier	-12.3005
rag	-12.3006
▁'50	-12.3006
▁tub	-12.3008
▁strangest	-12.3009
beck	-12.3012
▁mannered	-12.3016
▁curl	-12.3017
▁swank	-12.3018
▁reg	-12.302
promoting	-12.3021
▁powerfully	-12.3028
shin	-12.303
▁stumbl	-12.303
▁billie	-12.3034
luck	-12.3041
numbers	-12.3045
▁thro	-12.3046
temp	-12.3047
▁feared	-12.3047
pec	-12.3048
rope	-12.3048
etic	-12.305
▁functions	-12.3059
▁emotionless	-12.3062
▁franc	-12.3064
▁freely	-12.3064
▁dogma	-12.3068
▁attributes	-12.307
▁bliss	-12.3071
▁indulgent	-12.3072
▁predecessors	-12.3075
▁corridors	-12.3075
ctu	-12.3078
dream	-12.308
▁expressing	-12.3084
dropping	-12.3084
english	-12.3084
▁airing	-12.3084
otherwise	-12.3085
holland	-12.3085
ense	-12.3085
▁clients	-12.3088
▁creations	-12.309
lize	-12.3094
▁convicts	-12.3096
handedly	-12.3097
▁befriend	-12.31
dolph	-12.3102
▁dreamed	-12.3104
▁moo	-12.3104
▁stooge	-12.3106
aux	-12.3107
▁reels	-12.3111
▁censors	-12.3113
▁numb	-12.3115
▁vip	-12.3117
▁pip	-12.3117
▁hut	-12.3118
▁throats	-12.3121
▁locale	-12.3123
▁perceive	-12.3126
warming	-12.3127
classic	-12.313
▁pond	-12.3133
▁visitor	-12.3133
▁disrespect	-12.3136
▁congress	-12.314
▁dreamy	-12.314
▁moan	-12.314
▁siege	-12.314
▁achieving	-12.3142
▁administration	-12.3142
▁artifact	-12.3142
▁cheesiness	-12.3142
▁climate	-12.3142
▁concrete	-12.3142
▁crummy	-12.3142
▁democracy	-12.3142
▁enforcement	-12.3142
▁epitome	-12.3142
▁glamour	-12.3142
▁grenade	-12.3142
▁haggard	-12.3142
▁henchman	-12.3142
▁intimacy	-12.3142
▁jigsaw	-12.3142
▁negotiat	-12.3142
▁renowned	-12.3142
▁requisite	-12.3142
▁vengeful	-12.3142
▁erratic	-12.3142
▁janitor	-12.3142
▁kutcher	-12.3142
▁pryor	-12.3142
▁shrek	-12.3142
▁dassin	-12.3142
▁brisk	-12.3142
▁gwyne	-12.3142
▁relieved	-12.3142
▁memento	-12.3142
▁ventura	-12.3142
▁vienna	-12.3142
▁curve	-12.3142
▁diversion	-12.3142
▁committee	-12.3142
▁rugged	-12.3143
▁shrill	-12.3143
▁jolly	-12.3143
▁shaft	-12.3143
▁chimp	-12.3143
▁tiring	-12.3143
▁guru	-12.3143
▁wanda	-12.3144
▁requirement	-12.3144
▁adultery	-12.3144
▁dario	-12.3144
▁presidential	-12.3144
▁1944	-12.3145
▁nutty	-12.3145
▁bsg	-12.3145
▁loot	-12.3145
▁undeveloped	-12.3145
▁noticing	-12.3145
▁tomei	-12.3146
▁counselor	-12.3146
▁massey	-12.3146
▁midway	-12.3147
zzzz	-12.3147
▁underused	-12.3148
▁tragically	-12.3149
▁panel	-12.3149
▁jovi	-12.3155
▁cocky	-12.3158
indulgence	-12.316
hind	-12.3161
▁limbs	-12.3162
▁observer	-12.3162
▁supremely	-12.3165
▁fling	-12.3166
▁declared	-12.3166
▁brandon	-12.3169
▁neighbours	-12.3172
▁/>5.	-12.3174
need	-12.3176
▁tourists	-12.3183
marc	-12.3184
▁hadley	-12.3186
▁socks	-12.3188
▁refund	-12.319
▁collecting	-12.319
▁mocking	-12.3194
▁premiered	-12.3199
fed	-12.3201
▁slacker	-12.3202
▁penned	-12.3203
▁afro	-12.3206
▁hai	-12.3208
▁coco	-12.3208
▁vir	-12.3212
▁troop	-12.3216
▁organic	-12.3217
sad	-12.3219
▁orbit	-12.3219
▁restless	-12.3227
▁committ	-12.3236
▁chronic	-12.3238
mul	-12.324
dad	-12.3242
▁goofs	-12.3249
ured	-12.325
▁/>3)	-12.3251
▁files	-12.3251
▁simpler	-12.3256
▁solar	-12.3256
serving	-12.3257
sensitive	-12.3259
194	-12.326
79	-12.3262
▁rad	-12.3265
▁locales	-12.3266
crafted	-12.3267
clock	-12.3267
blue	-12.327
mask	-12.3271
▁thereof	-12.3278
▁opponent	-12.3283
▁criticise	-12.3284
▁contestant	-12.3285
77	-12.3295
▁arrange	-12.3302
▁informs	-12.3302
................	-12.3303
bee	-12.3304
▁recognise	-12.3307
change	-12.3312
▁tart	-12.3316
clusive	-12.3317
▁stylistic	-12.3317
▁caribbean	-12.3318
▁debacle	-12.3318
▁enthralling	-12.3318
▁gladiator	-12.3318
▁optimism	-12.3318
▁prehistoric	-12.3318
▁replacing	-12.3318
▁smarmy	-12.3318
▁sorority	-12.3318
▁stereotyping	-12.3318
▁turgid	-12.3318
▁allegory	-12.3318
▁bankrupt	-12.3318
▁dakota	-12.3318
▁daphne	-12.3318
▁heterosexual	-12.3318
▁maureen	-12.3318
▁nevsky	-12.3318
▁rodriguez	-12.3318
▁warfare	-12.3318
▁gypo	-12.3318
▁hitchhiker	-12.3318
▁monotone	-12.3318
[...]
