<unk>	0
<s>	0
</s>	0
▁the	-3.03493
.	-3.1846
▁a	-3.70117
▁and	-3.76201
s	-3.82548
▁of	-3.87085
▁to	-3.93834
'	-4.01874
▁is	-4.1886
▁it	-4.25002
▁i	-4.29851
▁in	-4.30229
▁this	-4.48273
▁that	-4.56756
▁was	-4.93862
▁movie	-4.98391
t	-4.99128
-	-5.02049
▁for	-5.05341
▁with	-5.07582
▁as	-5.11411
▁but	-5.11412
▁film	-5.11575
▁	-5.23247
▁you	-5.27054
▁on	-5.30996
▁(	-5.40225
▁not	-5.42595
▁are	-5.46445
▁he	-5.48771
▁be	-5.50153
▁have	-5.50338
▁his	-5.52019
▁one	-5.52137
)	-5.64448
▁all	-5.67512
▁they	-5.74115
▁at	-5.74237
▁by	-5.75256
▁an	-5.76037
▁so	-5.78968
▁who	-5.81962
▁like	-5.82738
▁from	-5.84262
▁there	-5.92917
▁just	-5.96226
▁about	-5.99476
▁out	-5.996
▁her	-5.99867
▁or	-5.99955
▁if	-6.00798
▁has	-6.03193
▁what	-6.06476
▁some	-6.08258
▁good	-6.09854
!	-6.12404
▁can	-6.12976
?	-6.14717
ing	-6.15981
▁very	-6.18828
▁more	-6.19739
▁when	-6.2137
▁she	-6.25426
▁my	-6.27135
▁no	-6.28079
▁time	-6.29144
▁up	-6.29791
▁would	-6.31585
▁even	-6.32764
▁me	-6.35399
▁see	-6.35866
▁really	-6.36323
▁story	-6.36704
▁only	-6.38988
▁their	-6.42018
d	-6.42587
▁had	-6.42693
▁were	-6.46442
▁we	-6.47284
▁which	-6.47666
▁well	-6.47701
ed	-6.49078
▁-	-6.54233
▁do	-6.55709
▁much	-6.56258
...	-6.57648
▁than	-6.57731
▁bad	-6.57817
▁get	-6.58013
▁great	-6.58994
▁other	-6.60494
▁people	-6.60766
▁will	-6.61187
▁been	-6.62166
▁don	-6.62249
▁how	-6.65358
▁also	-6.65849
:	-6.66016
▁first	-6.66111
▁because	-6.66193
ly	-6.66709
▁into	-6.67819
▁most	-6.68459
▁him	-6.70889
m	-6.71986
▁make	-6.72733
▁made	-6.73937
▁way	-6.75581
▁could	-6.77341
▁then	-6.78821
▁too	-6.79684
▁think	-6.81897
▁any	-6.81929
▁them	-6.82095
▁watch	-6.84316
▁after	-6.84675
▁characters	-6.86858
▁character	-6.87521
▁movies	-6.89962
▁seen	-6.89976
▁love	-6.91195
▁plot	-6.91474
▁many	-6.92896
▁acting	-6.93199
▁show	-6.93366
▁two	-6.94362
▁over	-6.94805
▁being	-6.96187
▁know	-6.9645
▁'	-6.96547
▁never	-6.96668
▁best	-6.97033
▁did	-6.98426
▁little	-6.99327
ve	-6.99665
▁life	-6.99765
▁ever	-7.00715
re	-7.00756
▁where	-7.0132
▁films	-7.04305
▁man	-7.04376
▁your	-7.05471
▁better	-7.05826
y	-7.06204
▁off	-7.07978
▁its	-7.08021
▁end	-7.08761
▁does	-7.08876
▁say	-7.11003
▁still	-7.13268
▁here	-7.13343
▁scene	-7.14206
▁go	-7.15243
).	-7.15378
▁these	-7.17852
a	-7.19722
▁why	-7.2005
i	-7.20352
▁scenes	-7.21044
e	-7.21872
▁while	-7.22637
▁should	-7.22669
▁back	-7.228
▁something	-7.22858
▁such	-7.26304
▁through	-7.26493
▁thing	-7.26843
▁real	-7.27444
▁watching	-7.27458
▁those	-7.29594
▁funny	-7.31903
▁actors	-7.32504
▁didn	-7.32969
▁now	-7.33111
▁doesn	-7.33645
the	-7.34801
/	-7.34946
er	-7.35421
▁years	-7.36279
▁work	-7.36445
▁lot	-7.37766
▁look	-7.37984
▁find	-7.38849
▁actually	-7.39274
▁director	-7.39581
▁nothing	-7.40051
▁new	-7.40063
▁another	-7.40199
▁though	-7.40884
▁before	-7.409
▁old	-7.40919
▁going	-7.4246
▁every	-7.4276
▁same	-7.43102
▁part	-7.43379
▁few	-7.43907
▁big	-7.43991
▁makes	-7.45454
▁cast	-7.46253
ll	-7.47126
▁again	-7.47768
▁want	-7.4879
▁world	-7.50409
▁pretty	-7.51319
▁down	-7.52952
▁horror	-7.53424
▁quite	-7.5388
and	-7.54383
▁us	-7.54826
▁thought	-7.5505
▁got	-7.5599
▁young	-7.5624
▁take	-7.56738
▁things	-7.56867
▁give	-7.575
▁fact	-7.57677
▁around	-7.58297
▁long	-7.58941
▁enough	-7.59549
▁seems	-7.601
▁however	-7.60489
in	-7.60696
▁may	-7.62134
▁saw	-7.6243
▁must	-7.63049
▁right	-7.63675
▁comedy	-7.64214
▁action	-7.64264
▁music	-7.64301
▁own	-7.64751
▁both	-7.6548
▁far	-7.6588
▁come	-7.66133
▁role	-7.66382
▁between	-7.66746
▁guy	-7.67036
▁original	-7.67093
▁always	-7.67845
▁series	-7.6809
▁interesting	-7.68255
▁isn	-7.68416
▁script	-7.68978
▁without	-7.69006
▁&	-7.69028
▁whole	-7.69686
▁bit	-7.70074
▁point	-7.70987
▁least	-7.70987
▁almost	-7.71194
▁done	-7.7198
▁feel	-7.7242
▁times	-7.74048
▁minutes	-7.74509
▁family	-7.74571
▁am	-7.74695
▁last	-7.74775
▁might	-7.76033
▁gets	-7.7608
▁fun	-7.7706
▁anything	-7.77253
▁kind	-7.78117
▁since	-7.78721
▁girl	-7.79251
▁performance	-7.79333
▁tv	-7.80001
▁worst	-7.81343
▁probably	-7.81972
▁anyone	-7.82641
▁sure	-7.84084
▁away	-7.84109
▁hard	-7.84244
▁found	-7.85046
▁dvd	-7.86803
▁woman	-7.8685
▁believe	-7.87375
or	-7.87495
▁each	-7.88423
▁day	-7.88706
▁yet	-7.88712
▁rather	-7.89144
▁making	-7.903
n	-7.91576
▁book	-7.92054
▁ending	-7.92323
▁put	-7.93133
o	-7.93462
▁worth	-7.93861
▁our	-7.94131
▁trying	-7.94187
▁course	-7.94412
▁having	-7.94532
▁let	-7.94771
▁screen	-7.95029
▁set	-7.95631
--	-7.95661
▁everything	-7.96289
▁actor	-7.96649
▁main	-7.97078
▁watched	-7.97183
▁goes	-7.97482
▁sense	-7.97911
▁different	-7.98128
▁play	-7.98178
▁place	-7.98275
▁reason	-7.98553
▁played	-7.9859
▁money	-7.98656
r	-7.98791
▁job	-7.98979
▁someone	-7.99517
▁wasn	-8.00269
▁three	-8.00339
▁looking	-8.00573
▁true	-8.00591
▁maybe	-8.00671
▁everyone	-8.01344
▁effects	-8.01753
▁black	-8.01871
▁especially	-8.02049
▁once	-8.02172
▁comes	-8.02324
▁high	-8.02426
▁war	-8.02523
▁although	-8.03518
▁special	-8.03728
▁together	-8.039
▁shows	-8.0416
▁fan	-8.04489
▁night	-8.06217
▁seem	-8.06379
▁american	-8.06753
▁plays	-8.06988
▁half	-8.06988
▁beautiful	-8.07205
▁audience	-8.07224
▁looks	-8.0736
▁excellent	-8.07461
it	-8.0756
▁instead	-8.07818
▁said	-8.08075
▁seeing	-8.08372
▁2	-8.08706
▁idea	-8.09284
▁during	-8.09461
▁version	-8.09547
(	-8.09861
▁left	-8.10152
▁short	-8.11127
▁later	-8.11425
es	-8.11491
▁mind	-8.11654
▁else	-8.12866
▁john	-8.13442
▁shot	-8.13703
▁star	-8.13848
▁year	-8.13865
▁takes	-8.14239
▁death	-8.14386
▁nice	-8.14647
▁poor	-8.14674
▁wife	-8.14862
▁house	-8.14925
▁himself	-8.15316
▁home	-8.15347
▁read	-8.1641
▁enjoy	-8.16528
▁father	-8.16556
▁10	-8.17135
▁second	-8.1719
▁along	-8.18127
▁completely	-8.18429
▁low	-8.18608
▁boring	-8.1863
▁b	-8.19482
▁stupid	-8.19792
▁simply	-8.20216
▁men	-8.2023
▁need	-8.2051
▁line	-8.20564
▁help	-8.20745
▁used	-8.20799
▁recommend	-8.20831
▁classic	-8.21388
▁wrong	-8.21709
▁school	-8.21722
▁re	-8.21787
▁kids	-8.21918
▁hollywood	-8.22197
▁try	-8.22842
al	-8.23146
▁friends	-8.23564
▁rest	-8.24404
▁either	-8.24549
▁dead	-8.24589
▁production	-8.24771
▁camera	-8.24789
▁less	-8.25127
▁full	-8.25293
▁women	-8.25742
▁use	-8.25747
▁mean	-8.26054
▁start	-8.26183
▁couple	-8.26502
▁understand	-8.26502
▁sex	-8.26677
▁tell	-8.27081
▁truly	-8.27262
▁video	-8.27354
▁given	-8.27871
▁remember	-8.27948
▁awful	-8.28117
▁terrible	-8.28399
c	-8.2857
▁top	-8.28697
▁performances	-8.28723
▁--	-8.2877
on	-8.29275
▁budget	-8.29471
▁came	-8.29502
▁un	-8.29599
▁next	-8.29612
▁until	-8.29617
g	-8.29676
▁won	-8.31599
▁head	-8.31817
▁keep	-8.32019
▁getting	-8.32508
▁wonderful	-8.32517
▁episode	-8.32796
▁person	-8.32847
▁sound	-8.33069
▁mother	-8.34213
▁laugh	-8.34692
man	-8.34902
▁moments	-8.35201
▁name	-8.35234
▁definitely	-8.3567
▁small	-8.35685
▁boy	-8.35874
▁perfect	-8.36115
▁human	-8.36248
▁piece	-8.36532
▁dialogue	-8.36574
▁face	-8.36763
▁itself	-8.37115
▁live	-8.3774
▁under	-8.38308
▁couldn	-8.38786
▁playing	-8.39034
▁absolutely	-8.39326
▁car	-8.39552
▁children	-8.39589
▁perhaps	-8.3982
▁waste	-8.40142
▁title	-8.40357
▁doing	-8.40426
▁went	-8.40961
▁hope	-8.41319
▁entertaining	-8.41328
▁cinema	-8.4135
▁worse	-8.41408
▁friend	-8.41477
▁early	-8.41582
▁stars	-8.41654
▁case	-8.41664
▁picture	-8.41693
▁lines	-8.42109
▁often	-8.42208
▁loved	-8.42355
▁liked	-8.42475
▁dark	-8.43112
▁sort	-8.43585
th	-8.43705
▁3	-8.44031
▁certainly	-8.44557
▁style	-8.44722
k	-8.45735
▁felt	-8.45759
▁overall	-8.46125
▁finally	-8.46216
ness	-8.47071
▁care	-8.47284
▁mr	-8.47325
▁direction	-8.47387
▁supposed	-8.4739
▁written	-8.47454
▁gives	-8.47488
▁beginning	-8.47586
▁several	-8.47819
▁drama	-8.47823
▁lost	-8.47903
as	-8.48017
▁become	-8.48066
▁problem	-8.48122
▁humor	-8.48197
▁game	-8.48506
▁entire	-8.48844
▁lead	-8.497
▁white	-8.50068
▁totally	-8.50451
l	-8.50685
▁based	-8.50917
▁seemed	-8.50981
▁guess	-8.51256
▁oh	-8.51307
▁guys	-8.51496
▁turn	-8.51684
▁1	-8.51862
▁others	-8.52139
▁de	-8.5245
▁yes	-8.52565
▁evil	-8.53207
▁heart	-8.53687
▁side	-8.53997
▁example	-8.54127
▁flick	-8.54129
▁wanted	-8.54522
▁fans	-8.5454
▁horrible	-8.54585
▁son	-8.55153
▁fine	-8.55771
▁against	-8.55825
▁lives	-8.55991
▁throughout	-8.56406
▁killer	-8.56577
▁quality	-8.56679
▁amazing	-8.56787
▁already	-8.57001
▁final	-8.57112
▁called	-8.5723
▁today	-8.57248
▁writing	-8.57701
▁art	-8.58079
▁past	-8.5829
▁expect	-8.58332
▁god	-8.5841
▁close	-8.58635
▁run	-8.5903
▁history	-8.59101
▁town	-8.59175
▁unfortunately	-8.59207
▁despite	-8.59282
▁enjoyed	-8.59318
▁favorite	-8.59618
▁kid	-8.59704
▁able	-8.59843
to	-8.59986
▁stuff	-8.60901
▁matter	-8.61021
▁act	-8.61329
▁gave	-8.61366
▁days	-8.61681
▁kill	-8.61795
up	-8.62105
▁child	-8.62508
▁viewer	-8.62759
▁becomes	-8.62909
▁etc	-8.63775
but	-8.64125
p	-8.6439
▁brilliant	-8.64505
▁michael	-8.64628
▁tries	-8.649
▁slow	-8.65079
▁genre	-8.65209
▁hand	-8.65291
▁late	-8.66772
▁blood	-8.66848
an	-8.66961
▁myself	-8.67074
▁decent	-8.68065
▁wants	-8.68188
▁eyes	-8.68451
▁actress	-8.68692
▁city	-8.6879
▁highly	-8.68814
▁group	-8.68947
▁behind	-8.69047
▁anyway	-8.69315
▁thinking	-8.69614
▁girls	-8.69946
▁turns	-8.69953
▁strong	-8.70302
ers	-8.70302
▁parts	-8.70336
▁soon	-8.70426
▁works	-8.70514
▁killed	-8.70743
▁sometimes	-8.70743
▁directed	-8.70902
▁themselves	-8.70916
▁voice	-8.71
▁crap	-8.71092
▁hour	-8.71293
▁feeling	-8.71604
▁obviously	-8.71727
▁self	-8.71959
▁heard	-8.72078
▁daughter	-8.72213
▁fight	-8.72281
▁experience	-8.72358
▁type	-8.73057
▁cool	-8.73664
▁took	-8.73934
▁murder	-8.73939
▁happen	-8.741
▁wonder	-8.74364
▁)	-8.7455
▁hit	-8.74898
▁hell	-8.75028
▁ok	-8.75118
▁starts	-8.7529
▁score	-8.75301
▁chance	-8.75308
▁hilarious	-8.75413
▁lack	-8.75616
▁simple	-8.75852
▁stop	-8.76093
▁sad	-8.76258
▁coming	-8.76317
▁happens	-8.76459
▁wouldn	-8.76474
▁please	-8.76572
▁cut	-8.76866
▁extremely	-8.76954
▁leave	-8.77078
▁involved	-8.77348
!!	-8.77465
▁looked	-8.77466
▁moment	-8.77753
▁save	-8.77787
▁stories	-8.77802
▁told	-8.77955
▁brother	-8.78444
▁ago	-8.7875
▁violence	-8.78842
en	-8.7886
le	-8.78904
▁song	-8.7909
▁husband	-8.79112
▁o	-8.79449
▁happened	-8.79731
▁cannot	-8.80028
▁writer	-8.80061
▁attempt	-8.80076
▁wish	-8.80083
▁complete	-8.8038
▁living	-8.80436
ic	-8.8073
▁gore	-8.80745
▁huge	-8.81017
▁police	-8.81204
▁obvious	-8.81265
▁serious	-8.81787
▁call	-8.82247
▁seriously	-8.82556
▁interest	-8.82595
▁age	-8.82621
fi	-8.82807
▁yourself	-8.83512
▁cheap	-8.83543
▁4	-8.83564
▁cinematography	-8.83617
▁light	-8.83635
▁jokes	-8.84098
▁roles	-8.84402
b	-8.8444
▁talent	-8.84449
▁shown	-8.8452
▁opinion	-8.84574
▁career	-8.84666
▁annoying	-8.8472
▁david	-8.84809
▁...	-8.84918
▁released	-8.84985
▁except	-8.85362
▁hero	-8.85374
▁ten	-8.85391
▁taken	-8.85412
▁5	-8.85561
▁word	-8.85682
▁english	-8.85836
▁order	-8.85941
▁documentary	-8.86253
▁number	-8.86411
h	-8.86527
▁relationship	-8.86635
▁none	-8.86849
▁known	-8.87079
▁ridiculous	-8.87173
▁particularly	-8.87279
▁alone	-8.87334
▁view	-8.87345
▁usually	-8.87575
▁james	-8.87593
▁rating	-8.8768
▁disappointed	-8.87682
▁hours	-8.87688
▁across	-8.87909
▁exactly	-8.87917
▁saying	-8.87976
▁reality	-8.88061
▁power	-8.88308
▁robert	-8.88613
▁usual	-8.88925
▁female	-8.89065
▁started	-8.89167
▁change	-8.89264
▁possible	-8.89534
▁says	-8.89724
▁middle	-8.89929
▁scary	-8.89949
▁major	-8.90043
▁body	-8.90298
▁non	-8.90332
▁silly	-8.90396
▁opening	-8.90746
▁country	-8.90815
▁attention	-8.90869
▁running	-8.91002
▁knew	-8.91221
he	-8.9152
▁beyond	-8.91582
ther	-8.91661
▁four	-8.91936
▁due	-8.92247
▁miss	-8.92319
▁jack	-8.92336
▁add	-8.9236
▁level	-8.92388
▁strange	-8.92468
▁musical	-8.92507
▁among	-8.92916
▁television	-8.93207
▁single	-8.93328
▁20	-8.93493
▁somewhat	-8.93516
▁novel	-8.93735
▁important	-8.93879
▁happy	-8.93891
▁co	-8.94104
▁local	-8.94192
▁turned	-8.94249
▁modern	-8.94321
▁taking	-8.94638
like	-8.9475
▁king	-8.94764
▁earth	-8.94814
▁dialog	-8.94856
ie	-8.94904
▁die	-8.94917
▁basically	-8.9492
▁shots	-8.95364
▁room	-8.95548
▁words	-8.95746
▁near	-8.95781
▁predictable	-8.95785
▁dull	-8.95919
▁fast	-8.95977
which	-8.96116
▁team	-8.9636
!!!	-8.96555
▁talking	-8.96564
▁d	-8.96749
f	-8.96979
▁soundtrack	-8.97156
▁dr	-8.97259
*	-8.97305
▁hate	-8.97339
▁whose	-8.97526
▁clich	-8.97907
▁f	-8.97978
▁space	-8.98003
▁enjoyable	-8.98067
▁review	-8.98309
▁french	-8.98347
▁subject	-8.98383
▁eye	-8.98429
▁mostly	-8.98574
▁buy	-8.98752
▁entertainment	-8.98816
▁romantic	-8.98879
▁c	-8.99124
▁straight	-8.99141
▁talk	-8.99487
▁clearly	-8.99509
▁rock	-8.99541
▁british	-8.99588
▁episodes	-8.99661
▁aren	-8.99844
▁sequel	-9.0008
▁thriller	-9.00082
▁future	-9.00167
▁apparently	-9.00227
▁haven	-9.00245
▁comic	-9.00334
▁la	-9.00377
▁problems	-9.00684
▁*	-9.01153
▁events	-9.01358
▁upon	-9.0138
▁message	-9.01425
▁whe	-9.01476
▁including	-9.01657
▁storyline	-9.01748
▁clear	-9.01807
▁bring	-9.01815
▁avoid	-9.02048
▁songs	-9.02078
▁stand	-9.02146
▁george	-9.02177
▁surprised	-9.02338
▁mention	-9.02417
who	-9.02588
▁above	-9.02929
▁fall	-9.02942
▁theater	-9.03115
▁monster	-9.03128
▁bunch	-9.03198
▁supporting	-9.03572
▁similar	-9.0374
▁moving	-9.03909
▁red	-9.0394
▁five	-9.04068
▁dog	-9.04194
is	-9.04292
▁sequence	-9.04478
▁sister	-9.04646
el	-9.04788
▁material	-9.04958
▁doubt	-9.05066
▁easily	-9.05093
▁ends	-9.05198
!)	-9.0521
▁rent	-9.05393
▁stay	-9.05822
▁suspense	-9.06098
▁effort	-9.06154
ting	-9.06163
▁check	-9.06212
w	-9.06489
▁giving	-9.06609
▁tried	-9.06759
▁sit	-9.0678
▁parents	-9.06987
▁release	-9.07169
▁certain	-9.07234
▁easy	-9.07244
able	-9.07327
▁oscar	-9.07672
▁falls	-9.07743
▁follow	-9.07781
▁viewing	-9.08066
▁tells	-9.08138
▁fantastic	-9.08324
▁forget	-9.08518
▁class	-9.08541
▁lady	-9.08586
▁deal	-9.08657
▁comments	-9.08658
▁showing	-9.08674
▁kept	-9.08701
▁theme	-9.09172
▁imagine	-9.09264
ch	-9.0969
▁finds	-9.09728
▁hot	-9.09795
▁tale	-9.09863
no	-9.09905
▁editing	-9.10306
▁premise	-9.10486
▁sorry	-9.10604
▁feature	-9.10625
▁greatest	-9.10692
▁realistic	-9.1073
▁lame	-9.10778
▁decided	-9.10818
▁period	-9.10926
▁animation	-9.11068
▁hear	-9.11074
▁sets	-9.11144
▁working	-9.11358
▁gone	-9.11462
▁19	-9.11594
▁typical	-9.1163
▁move	-9.1179
▁p	-9.11808
▁g	-9.11912
▁weak	-9.11927
▁appears	-9.11983
▁believable	-9.1231
▁needs	-9.12427
3	-9.12602
▁general	-9.12629
▁mystery	-9.12689
▁wait	-9.12727
▁okay	-9.12916
▁famous	-9.13052
▁within	-9.13171
▁filmed	-9.13231
▁crime	-9.13346
▁gay	-9.13447
▁doctor	-9.13497
▁reviews	-9.13773
out	-9.14288
▁lots	-9.14338
▁using	-9.14426
▁open	-9.14536
▁learn	-9.14567
▁romance	-9.14615
▁nearly	-9.1468
▁knows	-9.14712
▁named	-9.1476
▁dance	-9.14793
▁deep	-9.14819
▁actual	-9.14921
▁sci	-9.1495
est	-9.154
▁elements	-9.15439
▁viewers	-9.15484
▁imdb	-9.15525
▁surprise	-9.15781
▁peter	-9.15819
▁e	-9.16012
▁season	-9.16183
▁shame	-9.16418
▁weird	-9.16579
▁average	-9.16676
▁brought	-9.16726
▁pay	-9.16911
▁dumb	-9.16968
▁paul	-9.16978
▁richard	-9.17003
▁somehow	-9.17018
▁truth	-9.17029
▁air	-9.17099
▁atmosphere	-9.17264
▁america	-9.17435
▁poorly	-9.1754
if	-9.17609
▁third	-9.18291
▁figure	-9.1831
▁spend	-9.1845
at	-9.18589
▁box	-9.18648
▁street	-9.18713
▁expected	-9.18781
▁situation	-9.19089
▁cop	-9.19099
▁york	-9.19182
▁form	-9.19284
▁killing	-9.19467
▁free	-9.19552
▁t	-9.19586
▁comment	-9.1966
▁herself	-9.19704
▁copy	-9.19858
▁western	-9.20251
▁dream	-9.20444
▁leads	-9.20483
▁crew	-9.21049
▁means	-9.21182
▁sequences	-9.21202
▁write	-9.21507
▁reading	-9.21635
0	-9.21702
▁particular	-9.21872
▁superb	-9.21922
▁minute	-9.22025
this	-9.22223
▁cheesy	-9.22248
▁begin	-9.22571
1	-9.22573
▁question	-9.2271
▁water	-9.22803
ra	-9.22848
▁begins	-9.2294
▁admit	-9.23049
▁fire	-9.23154
▁male	-9.23253
▁lee	-9.23279
▁nor	-9.23304
less	-9.23321
▁difficult	-9.23617
▁island	-9.24023
▁cat	-9.24079
v	-9.24171
▁became	-9.24205
▁points	-9.2427
z	-9.24305
▁mark	-9.24373
be	-9.24497
▁mess	-9.24621
▁screenplay	-9.24626
▁masterpiece	-9.2463
▁society	-9.24794
▁forward	-9.24823
▁disney	-9.25045
▁otherwise	-9.25064
▁bill	-9.25092
▁stage	-9.25129
for	-9.25135
▁feels	-9.25292
▁interested	-9.25432
▁whatever	-9.2544
▁eventually	-9.25467
na	-9.25499
▁footage	-9.25621
▁indeed	-9.25714
▁!	-9.25739
not	-9.25745
▁meet	-9.25762
▁potential	-9.25787
so	-9.25851
▁possibly	-9.25892
▁break	-9.26019
of	-9.26035
▁needed	-9.26558
▁total	-9.26658
▁forced	-9.26674
▁cover	-9.26868
▁sexual	-9.27045
▁joke	-9.27066
▁u	-9.27125
▁effect	-9.27193
▁beauty	-9.27224
▁boys	-9.27247
▁plus	-9.27271
▁development	-9.27316
▁memorable	-9.27565
▁girlfriend	-9.27949
▁emotional	-9.28148
▁agree	-9.28159
▁plain	-9.28259
▁result	-9.28309
▁ex	-9.28434
▁previous	-9.28555
▁badly	-9.28592
▁incredibly	-9.28697
▁nature	-9.28779
▁realize	-9.28848
ish	-9.29035
▁credits	-9.29061
▁features	-9.29374
▁rich	-9.29508
▁gun	-9.29752
▁laughs	-9.29892
▁personal	-9.29896
▁background	-9.30022
▁front	-9.30338
▁perfectly	-9.30398
▁leaves	-9.30418
▁twist	-9.30438
▁baby	-9.30443
▁acted	-9.3055
▁van	-9.30752
▁setting	-9.30794
▁note	-9.30903
▁crazy	-9.30967
time	-9.31018
▁plenty	-9.31236
▁hands	-9.31598
▁mad	-9.3168
▁super	-9.31752
▁creepy	-9.31766
▁unless	-9.31841
▁inside	-9.31918
ism	-9.31991
▁meets	-9.32002
▁directing	-9.32062
▁business	-9.32081
▁quickly	-9.32187
▁italian	-9.32573
▁unique	-9.3277
▁worked	-9.33092
▁battle	-9.3311
▁ask	-9.33442
▁wasted	-9.33515
▁present	-9.33589
▁ways	-9.33605
ist	-9.33979
ion	-9.34112
▁keeps	-9.34251
▁flat	-9.34327
?)	-9.3433
▁earlier	-9.3437
▁japanese	-9.34383
▁appear	-9.34421
▁fairly	-9.34473
▁cartoon	-9.34498
▁odd	-9.34503
▁list	-9.34629
▁spent	-9.34645
us	-9.34764
▁older	-9.34811
▁j	-9.34836
▁towards	-9.34971
▁cute	-9.35136
▁powerful	-9.35188
▁large	-9.35299
▁era	-9.35564
ation	-9.35577
▁sounds	-9.35733
▁expecting	-9.35744
▁writers	-9.35918
▁deserves	-9.36
▁public	-9.36
▁following	-9.3603
▁dramatic	-9.36063
▁secret	-9.36096
▁portrayed	-9.36197
ian	-9.36556
▁leading	-9.36624
▁fails	-9.36841
ity	-9.36924
one	-9.37073
▁sub	-9.37199
▁laughing	-9.37267
▁r	-9.37419
▁pure	-9.3749
▁recently	-9.37539
▁villain	-9.37555
la	-9.37689
▁various	-9.38097
▁clever	-9.38329
▁success	-9.38485
u	-9.38548
2	-9.38635
▁german	-9.38743
▁zombie	-9.38745
▁pace	-9.38795
▁talented	-9.38848
▁train	-9.38921
son	-9.38925
▁remake	-9.39048
▁caught	-9.39242
▁hair	-9.39378
▁joe	-9.39448
▁band	-9.39603
▁hold	-9.39725
by	-9.39759
▁missing	-9.39871
▁create	-9.39937
▁apart	-9.39953
co	-9.40009
▁camp	-9.40045
▁sweet	-9.40109
▁brings	-9.40182
▁bar	-9.40204
▁tom	-9.4046
▁sick	-9.40527
▁anti	-9.40632
▁l	-9.40646
▁nudity	-9.40703
▁brain	-9.40718
▁30	-9.40732
▁escape	-9.40909
??	-9.40912
de	-9.40984
▁fighting	-9.41044
▁store	-9.41122
▁focus	-9.41221
▁8	-9.41254
▁hardly	-9.41495
▁incredible	-9.41589
▁return	-9.41682
▁party	-9.41782
▁win	-9.42101
▁trash	-9.42102
▁visual	-9.4216
▁meant	-9.42265
▁manages	-9.42369
ne	-9.42765
▁language	-9.42878
▁missed	-9.42912
▁ended	-9.42975
▁speak	-9.43066
▁cold	-9.43107
▁casting	-9.4317
▁tension	-9.43261
▁fantasy	-9.43281
▁fit	-9.43304
▁appreciate	-9.434
▁value	-9.43414
▁reasons	-9.43531
▁political	-9.43565
▁fear	-9.43572
▁unlike	-9.43592
▁william	-9.43648
▁whom	-9.43752
▁post	-9.43863
▁7	-9.43977
▁married	-9.43998
▁bored	-9.44026
▁outside	-9.44033
▁waiting	-9.44191
ment	-9.44232
▁fake	-9.443
ri	-9.44368
▁telling	-9.44378
▁credit	-9.44502
▁scott	-9.4464
▁project	-9.44732
▁road	-9.44792
▁pre	-9.44952
x	-9.44964
▁members	-9.45007
▁college	-9.45184
ies	-9.45281
▁attempts	-9.4555
▁rate	-9.45604
▁science	-9.4581
▁trouble	-9.45826
▁channel	-9.45887
▁company	-9.45891
▁pick	-9.45935
▁al	-9.46061
▁state	-9.46198
▁pointless	-9.46603
da	-9.46678
▁consider	-9.46864
gest	-9.46958
▁created	-9.47096
▁considering	-9.47134
▁common	-9.47134
▁portrayal	-9.47167
▁awesome	-9.47235
▁9	-9.47236
▁recommended	-9.47249
▁master	-9.47285
ma	-9.4735
▁ben	-9.47418
▁familiar	-9.47442
▁further	-9.47442
▁christmas	-9.47553
▁office	-9.47572
▁match	-9.47572
▁slightly	-9.47688
▁wrote	-9.47689
▁sadly	-9.47931
▁filmmakers	-9.47939
ge	-9.48026
▁convincing	-9.48055
▁basic	-9.48589
▁choice	-9.48757
▁track	-9.4882
▁amount	-9.48873
▁control	-9.48926
▁positive	-9.49003
▁gang	-9.49009
▁park	-9.49054
▁k	-9.49086
▁popular	-9.49126
▁died	-9.49146
ha	-9.49284
▁dancing	-9.49471
do	-9.49678
▁15	-9.49759
▁intelligent	-9.4997
▁solid	-9.50152
▁pathetic	-9.50226
▁produced	-9.50319
▁century	-9.50646
▁tough	-9.50687
▁concept	-9.50713
▁amusing	-9.50714
▁social	-9.5074
te	-9.50955
▁ideas	-9.50986
▁exciting	-9.5105
▁bizarre	-9.51266
▁directors	-9.51274
▁garbage	-9.51375
▁neither	-9.51592
▁compared	-9.5171
▁mentioned	-9.51752
▁bother	-9.51816
▁respect	-9.5186
▁conclusion	-9.51918
▁force	-9.52152
with	-9.52383
▁glad	-9.52464
▁humour	-9.52465
go	-9.52471
▁trip	-9.52488
ter	-9.52521
▁sam	-9.52554
▁studio	-9.52741
▁decide	-9.52803
ine	-9.53052
▁spirit	-9.5314
▁former	-9.53247
▁accent	-9.53395
▁alive	-9.53449
▁impressive	-9.53463
▁h	-9.53617
▁appeal	-9.53689
▁cult	-9.53695
com	-9.53827
▁walk	-9.53889
▁younger	-9.53925
▁entirely	-9.53928
▁drug	-9.5394
▁decides	-9.53977
▁jane	-9.54214
▁violent	-9.54235
▁week	-9.54241
▁fair	-9.54257
▁producers	-9.54547
▁situations	-9.54631
▁follows	-9.54663
▁mood	-9.5472
▁cause	-9.55125
mo	-9.5518
il	-9.55248
▁culture	-9.55292
....	-9.55391
▁honest	-9.55596
▁filled	-9.55611
▁bo	-9.55679
un	-9.5572
▁con	-9.55747
▁edge	-9.55816
well	-9.56055
▁moves	-9.56108
▁bought	-9.5615
▁depth	-9.56179
ur	-9.56246
▁successful	-9.56255
▁disturbing	-9.56276
▁adult	-9.56378
ling	-9.56445
▁recent	-9.56485
▁brothers	-9.568
▁remind	-9.56877
▁shoot	-9.56977
▁touch	-9.57111
ar	-9.57194
▁vampire	-9.57222
▁effective	-9.57288
▁chemistry	-9.57292
▁opera	-9.5734
▁shooting	-9.57503
▁meaning	-9.57641
▁images	-9.57918
▁west	-9.57984
▁south	-9.58027
▁weren	-9.58051
▁genius	-9.58185
▁showed	-9.58373
▁yeah	-9.5839
▁stick	-9.58494
▁suddenly	-9.58508
▁ultimately	-9.58512
▁values	-9.58636
▁longer	-9.58684
▁alien	-9.58761
▁bed	-9.58866
▁dad	-9.58875
▁impression	-9.59142
▁impossible	-9.59153
▁changed	-9.5925
▁jim	-9.59389
▁revenge	-9.59395
▁prison	-9.59437
▁taste	-9.59636
▁club	-9.59641
▁barely	-9.59662
▁silent	-9.59737
▁law	-9.59815
▁tone	-9.59865
▁smart	-9.59904
▁?	-9.60226
▁failed	-9.60417
▁green	-9.60497
▁explain	-9.60536
off	-9.6058
land	-9.60592
4	-9.60732
▁blue	-9.6082
▁somewhere	-9.60993
▁chase	-9.61034
▁adventure	-9.61072
ton	-9.61144
▁honestly	-9.61295
▁frank	-9.61328
movie	-9.61351
▁starring	-9.61448
▁90	-9.61538
▁stunning	-9.6164
▁added	-9.61664
▁singing	-9.61768
that	-9.6184
▁uses	-9.61876
▁wild	-9.61911
▁questions	-9.61944
▁festival	-9.62001
▁kills	-9.62141
▁fiction	-9.62148
▁pass	-9.62194
▁bottom	-9.62507
▁considered	-9.6254
▁journey	-9.62849
▁sexy	-9.63204
▁planet	-9.6323
▁involving	-9.63347
▁80'	-9.63368
▁catch	-9.63454
▁sea	-9.63471
▁computer	-9.63511
▁normal	-9.6362
▁personally	-9.63659
▁aside	-9.63676
▁charming	-9.64023
▁disappointing	-9.64138
▁leaving	-9.64208
▁available	-9.64443
▁twists	-9.6451
you	-9.64634
▁scenery	-9.64639
▁sitting	-9.6496
▁nobody	-9.64967
▁land	-9.65024
▁army	-9.65104
▁ray	-9.65107
▁mary	-9.65166
▁100	-9.65188
ro	-9.65311
▁innocent	-9.65318
▁government	-9.65445
▁soul	-9.6545
▁standard	-9.65682
▁slasher	-9.65684
▁immediately	-9.65704
▁charles	-9.6585
▁purpose	-9.65934
▁london	-9.65936
▁aspect	-9.66032
▁ghost	-9.66066
old	-9.6618
▁surprisingly	-9.6642
▁issues	-9.66501
▁beautifully	-9.66556
▁photography	-9.66708
▁jones	-9.66762
▁plan	-9.66855
▁ride	-9.66971
▁terrific	-9.67191
▁loud	-9.67496
▁heavy	-9.67602
▁thanks	-9.67617
▁rare	-9.67743
▁appearance	-9.67849
▁excuse	-9.67863
▁laughable	-9.67877
▁magic	-9.67952
▁disappointment	-9.67964
▁subtle	-9.6797
▁everybody	-9.67979
▁nowhere	-9.68035
▁door	-9.68395
▁throw	-9.68397
▁soldiers	-9.68514
▁attack	-9.68539
ally	-9.68669
▁adaptation	-9.68898
▁boyfriend	-9.68903
▁comedies	-9.69003
▁date	-9.69073
even	-9.69084
▁thank	-9.69087
lo	-9.69158
▁touching	-9.69229
▁teen	-9.69251
▁ability	-9.69253
▁smith	-9.6957
▁giant	-9.696
▁lovely	-9.69602
▁wow	-9.6972
▁ed	-9.6973
j	-9.69787
▁suppose	-9.69869
▁unbelievable	-9.69901
▁natural	-9.69926
▁animated	-9.69931
▁books	-9.69996
▁drive	-9.70111
▁generally	-9.70125
▁cry	-9.70138
all	-9.70163
▁pain	-9.70228
ia	-9.70243
▁managed	-9.70296
▁rip	-9.70307
▁naked	-9.70323
▁spoilers	-9.70375
▁manner	-9.70513
▁support	-9.70562
ley	-9.70579
▁charm	-9.70643
▁painful	-9.70831
▁victim	-9.70901
▁presence	-9.70949
▁finish	-9.71083
▁color	-9.71173
▁outstanding	-9.71235
▁summer	-9.71238
▁remains	-9.71443
▁cinematic	-9.71482
▁utterly	-9.71565
▁bond	-9.71603
▁award	-9.71742
▁complex	-9.71864
▁terms	-9.71869
▁narrative	-9.71876
ul	-9.7222
▁thrown	-9.72581
▁indian	-9.72766
▁content	-9.72812
ry	-9.72903
▁happening	-9.72975
▁literally	-9.73147
▁details	-9.73197
▁costumes	-9.73203
▁double	-9.73227
▁ship	-9.73277
ta	-9.73359
▁likely	-9.734
making	-9.73676
▁wood	-9.73698
▁detective	-9.73786
▁building	-9.73812
▁m	-9.73924
▁hurt	-9.74019
▁hospital	-9.74165
▁student	-9.74198
▁80	-9.74239
age	-9.74308
▁grade	-9.74381
▁emotions	-9.74501
▁expectations	-9.74633
▁mistake	-9.74675
▁grace	-9.74844
▁producer	-9.74969
▁10.	-9.74984
▁historical	-9.75
▁runs	-9.75007
▁knowing	-9.75098
▁climax	-9.7511
em	-9.75261
▁le	-9.7533
▁chris	-9.75353
▁charlie	-9.75556
▁tired	-9.75564
▁minor	-9.75569
▁hoping	-9.7558
▁pictures	-9.75608
▁martin	-9.75677
▁beat	-9.75701
▁gem	-9.7583
▁constantly	-9.75902
▁intended	-9.75983
▁sent	-9.76049
▁fresh	-9.7606
▁laughed	-9.76154
▁zombies	-9.76181
▁brief	-9.76257
▁walking	-9.76353
▁mysterious	-9.76388
▁military	-9.76393
▁mom	-9.76442
▁emotion	-9.76892
▁fascinating	-9.76925
budget	-9.7695
▁boss	-9.76951
▁makers	-9.77091
▁phone	-9.77145
▁paris	-9.77404
▁fell	-9.7746
▁bruce	-9.77526
▁pop	-9.77626
▁serial	-9.77628
ce	-9.77738
▁contains	-9.77793
▁forever	-9.77959
ous	-9.77994
▁confusing	-9.78051
▁race	-9.78128
▁folks	-9.78224
▁presented	-9.78287
▁slowly	-9.78302
▁notice	-9.78383
▁suggest	-9.78478
5	-9.78775
▁changes	-9.78778
▁steve	-9.7878
▁x	-9.78787
▁harry	-9.78936
▁exception	-9.79018
▁answer	-9.7903
▁direct	-9.7908
▁shock	-9.79149
▁audiences	-9.7934
ey	-9.79416
▁spot	-9.7945
me	-9.79456
▁shocking	-9.79545
▁equally	-9.79679
▁st	-9.79741
▁current	-9.79764
she	-9.798
ized	-9.80046
▁compelling	-9.80053
ive	-9.80186
▁n	-9.80205
▁jean	-9.80257
▁pull	-9.80267
▁quick	-9.80289
there	-9.80312
▁collection	-9.80344
▁sat	-9.80443
▁mid	-9.80665
▁stands	-9.8072
▁central	-9.80777
▁offer	-9.80797
▁marriage	-9.80931
▁detail	-9.80939
9	-9.81259
▁sleep	-9.81299
▁thus	-9.81396
▁fully	-9.81455
▁critics	-9.81535
▁justice	-9.81563
ke	-9.81671
▁students	-9.81785
▁negative	-9.81801
▁surely	-9.81835
▁rated	-9.81893
▁w	-9.82027
▁hey	-9.82031
ant	-9.82044
▁system	-9.82252
▁ahead	-9.82258
▁names	-9.82315
▁six	-9.82366
▁creative	-9.8241
▁torture	-9.82524
▁impact	-9.82561
▁motion	-9.82565
▁step	-9.82594
▁tony	-9.82656
▁besides	-9.8268
▁stewart	-9.82709
▁agent	-9.82766
▁fashion	-9.82834
▁se	-9.82882
▁include	-9.82886
▁opportunity	-9.82983
▁aspects	-9.83019
▁extreme	-9.83037
▁ground	-9.83095
▁compare	-9.8312
▁disaster	-9.83294
▁mix	-9.8334
▁funniest	-9.83441
▁confused	-9.83457
▁million	-9.83554
▁trailer	-9.83688
▁50	-9.83714
▁hitchcock	-9.83721
▁affair	-9.83816
▁image	-9.83831
▁ma	-9.83932
▁extra	-9.83941
▁location	-9.83996
▁likable	-9.84042
▁church	-9.8418
▁gorgeous	-9.8418
▁industry	-9.8418
▁rented	-9.84213
am	-9.84253
▁feelings	-9.84257
▁mainly	-9.8429
▁treat	-9.84301
▁impressed	-9.84378
men	-9.84509
▁fellow	-9.84635
▁pieces	-9.84798
▁batman	-9.8482
▁sight	-9.84884
▁holes	-9.84955
▁:	-9.84962
▁radio	-9.85026
▁porn	-9.85077
rs	-9.85156
▁twice	-9.85253
▁epic	-9.85256
▁grand	-9.85274
um	-9.8539
▁da	-9.85593
▁finding	-9.85736
▁ha	-9.85793
▁gold	-9.85865
▁random	-9.85876
▁damn	-9.85915
▁lover	-9.8602
▁wondering	-9.86033
▁themes	-9.86145
▁process	-9.86156
▁imagination	-9.86309
▁paid	-9.86341
▁russian	-9.86491
▁anymore	-9.86508
▁count	-9.86566
▁noir	-9.86743
▁difference	-9.86771
▁mediocre	-9.86777
▁fox	-9.86917
▁share	-9.86965
▁dreams	-9.8709
▁suicide	-9.87097
▁stone	-9.87097
▁lived	-9.87098
▁billy	-9.8713
ba	-9.87258
▁reminded	-9.87295
▁appeared	-9.87337
▁fat	-9.87417
▁plane	-9.87468
my	-9.8753
▁developed	-9.87551
▁born	-9.87819
▁passion	-9.87877
▁moral	-9.87914
▁drawn	-9.87958
▁wind	-9.88021
▁key	-9.88113
▁lighting	-9.88144
▁ms	-9.88291
se	-9.88361
▁per	-9.88422
▁forgotten	-9.88506
▁acts	-9.88643
▁trust	-9.88703
▁falling	-9.88825
▁scientist	-9.88856
▁mine	-9.88907
▁hasn	-9.89105
▁machine	-9.89186
▁speaking	-9.89199
▁station	-9.89208
▁flicks	-9.8922
▁attractive	-9.89284
▁listen	-9.89444
led	-9.8953
▁accident	-9.89574
▁ugly	-9.89591
▁stuck	-9.89594
▁cross	-9.89601
▁intense	-9.89624
▁loose	-9.89631
▁drugs	-9.89767
▁delivers	-9.89811
▁joy	-9.89874
▁places	-9.89883
▁hotel	-9.90095
▁wall	-9.90176
▁christopher	-9.90441
line	-9.9046
8	-9.90605
ner	-9.90608
▁relationships	-9.90722
▁latter	-9.9087
▁information	-9.90871
ful	-9.90923
▁absolute	-9.91066
▁soap	-9.91134
▁putting	-9.91152
▁creature	-9.91162
▁adults	-9.9119
▁wooden	-9.91216
ni	-9.91283
▁deliver	-9.91349
dy	-9.9136
▁12	-9.91368
▁lord	-9.91399
▁lacks	-9.91434
▁tragic	-9.91435
▁member	-9.91489
▁captain	-9.91533
▁tend	-9.91644
ted	-9.91649
▁lose	-9.91658
▁brown	-9.91732
▁soft	-9.91789
▁flaws	-9.91875
▁cops	-9.91967
▁soldier	-9.91981
▁ready	-9.92011
▁puts	-9.92098
▁struggle	-9.9212
▁theatre	-9.92132
▁mouth	-9.92252
▁dies	-9.92261
▁allowed	-9.92301
▁spoiler	-9.92366
▁shouldn	-9.92403
▁approach	-9.92424
▁addition	-9.92473
▁kelly	-9.92493
▁animals	-9.92539
▁search	-9.92589
▁teenage	-9.92656
year	-9.92941
▁board	-9.93094
▁cgi	-9.93179
▁teacher	-9.93299
▁40	-9.9334
▁horse	-9.93424
▁element	-9.93458
▁moon	-9.93539
▁describe	-9.93634
▁independent	-9.93643
ty	-9.9365
▁victims	-9.93713
▁supposedly	-9.93718
▁seven	-9.93793
▁adds	-9.93801
▁whatsoever	-9.93809
▁angry	-9.93809
▁picked	-9.93887
di	-9.93944
▁becoming	-9.93957
▁bright	-9.93973
▁dirty	-9.94019
▁price	-9.94035
see	-9.94079
▁apartment	-9.94155
▁stock	-9.94178
▁therefore	-9.94308
bo	-9.94327
▁superior	-9.94465
we	-9.94566
▁worthy	-9.94624
▁childhood	-9.94646
▁shop	-9.94763
▁actresses	-9.94806
▁build	-9.94956
▁thoroughly	-9.94985
▁pleasure	-9.94992
▁christian	-9.95025
▁zero	-9.95184
▁seemingly	-9.95334
▁jackson	-9.95337
▁design	-9.95348
▁blame	-9.95499
▁criminal	-9.9552
▁par	-9.95588
▁offers	-9.95631
▁standards	-9.95869
vi	-9.9601
▁queen	-9.9606
&	-9.9613
▁carry	-9.96156
▁led	-9.96177
▁moved	-9.96193
ler	-9.96248
▁tim	-9.96434
▁faces	-9.9645
li	-9.96458
▁personality	-9.96513
▁followed	-9.96522
▁favourite	-9.96547
▁judge	-9.96565
▁rape	-9.96654
▁afraid	-9.96679
▁sucks	-9.96718
▁deserve	-9.96729
▁commentary	-9.96845
▁nasty	-9.96852
con	-9.96942
▁martial	-9.97008
▁desert	-9.9703
▁boat	-9.97125
▁friendship	-9.97189
▁area	-9.97449
▁professional	-9.975
▁absurd	-9.97505
▁intriguing	-9.97522
▁draw	-9.97563
▁ball	-9.97569
▁watchable	-9.97612
don	-9.97695
▁lies	-9.97708
▁70	-9.97759
▁woods	-9.97863
▁proves	-9.97946
▁onto	-9.97947
▁suspect	-9.9797
they	-9.9798
▁mc	-9.98089
▁memory	-9.98213
▁helped	-9.98237
▁ring	-9.98257
▁mike	-9.98371
▁skip	-9.98393
ring	-9.98398
▁redeeming	-9.98444
▁turning	-9.98606
▁explanation	-9.98734
▁clothes	-9.98738
▁jason	-9.98792
▁vs	-9.99019
▁comedic	-9.99087
▁dis	-9.99134
7	-9.99145
▁ryan	-9.99153
▁jr	-9.99178
▁ho	-9.99194
▁continue	-9.99205
▁provide	-9.99208
▁energy	-9.99257
▁pair	-9.99402
▁anybody	-9.99445
▁inspired	-9.99521
▁tears	-9.99623
▁jerry	-9.99629
ca	-9.99666
▁henry	-9.99821
▁willing	-9.99879
▁smile	-9.99929
▁animal	-9.99932
▁en	-9.99958
▁unknown	-9.99971
ka	-9.99994
▁games	-10.0003
life	-10.0005
▁accept	-10.0006
▁hall	-10.0012
▁uncle	-10.0021
▁filming	-10.0025
▁provides	-10.0039
▁tragedy	-10.0049
▁page	-10.0052
per	-10.0064
▁rarely	-10.0067
▁artistic	-10.0087
▁realized	-10.0108
▁dying	-10.012
▁asked	-10.0125
▁priest	-10.0138
▁helps	-10.0145
▁70'	-10.0147
▁food	-10.0159
▁anywhere	-10.0161
▁physical	-10.0161
▁na	-10.0161
▁kevin	-10.0161
▁witch	-10.0167
▁twenty	-10.0174
hi	-10.018
▁national	-10.0183
▁mission	-10.0184
▁length	-10.0196
▁wanting	-10.0205
▁news	-10.0219
▁murders	-10.0231
▁stephen	-10.0232
▁moore	-10.0247
her	-10.0256
▁delightful	-10.0258
▁bob	-10.0258
▁ice	-10.0258
played	-10.0276
▁blind	-10.0287
▁surprising	-10.0287
▁held	-10.0294
▁floor	-10.0301
▁warning	-10.0301
▁allow	-10.0301
▁brutal	-10.0305
▁roll	-10.0306
▁heaven	-10.0307
▁intelligence	-10.0318
▁religious	-10.0339
▁artist	-10.0342
▁nick	-10.0348
▁states	-10.0351
▁bloody	-10.0352
▁favor	-10.0353
especially	-10.0356
▁devil	-10.0365
▁allen	-10.038
▁flying	-10.0391
▁thin	-10.04
▁river	-10.0428
top	-10.0431
▁vhs	-10.0431
▁began	-10.0446
ci	-10.0446
▁13	-10.0468
▁bland	-10.0469
▁filmmaker	-10.047
▁accurate	-10.0471
▁returns	-10.0472
ga	-10.0479
▁wearing	-10.0483
▁destroy	-10.0484
▁dangerous	-10.0508
▁hidden	-10.0522
▁shakespeare	-10.0538
▁thomas	-10.0544
▁relate	-10.0546
▁wide	-10.0548
▁wonderfully	-10.0555
▁pacing	-10.0558
director	-10.056
▁recall	-10.058
▁dan	-10.0595
▁memories	-10.0595
▁below	-10.0599
▁mere	-10.0606
▁generation	-10.0606
▁necessary	-10.0614
▁opposite	-10.0614
▁kick	-10.0614
star	-10.0621
▁rubbish	-10.0633
▁issue	-10.0636
▁ka	-10.0648
▁author	-10.0653
▁gags	-10.0661
po	-10.0663
.....	-10.0669
▁****	-10.0673
▁mo	-10.0693
▁wit	-10.0698
▁player	-10.0699
ize	-10.0699
▁deeply	-10.0702
what	-10.0708
▁jump	-10.0708
▁buddy	-10.0711
▁anne	-10.0724
▁chinese	-10.0729
▁unusual	-10.0733
▁scared	-10.0745
▁1950	-10.0747
▁understanding	-10.0761
▁eddie	-10.0765
▁noticed	-10.0768
▁field	-10.0772
▁1970	-10.0785
▁numbers	-10.0793
▁tape	-10.0801
▁behavior	-10.0803
▁engaging	-10.0822
▁johnny	-10.0827
▁hated	-10.0828
▁williams	-10.083
▁lynch	-10.0841
▁somebody	-10.0844
▁president	-10.086
▁cash	-10.0861
▁ran	-10.0863
although	-10.0867
▁curious	-10.088
▁cable	-10.0884
▁crowd	-10.0887
▁limited	-10.0888
▁arts	-10.0901
▁fame	-10.0901
▁danny	-10.0904
▁chan	-10.0908
▁academy	-10.0938
▁introduced	-10.0946
▁utter	-10.0961
der	-10.0965
▁commercial	-10.0976
▁americans	-10.1004
▁lets	-10.1012
whilst	-10.1015
▁apparent	-10.1022
▁constant	-10.1022
▁debut	-10.1024
▁comparison	-10.1033
▁locations	-10.1043
▁singer	-10.1043
▁nicely	-10.1046
▁manage	-10.105
▁seconds	-10.1053
▁remarkable	-10.1055
▁arthur	-10.1058
▁record	-10.106
▁technical	-10.1061
▁leader	-10.1065
▁round	-10.1065
▁officer	-10.1069
▁learned	-10.1074
▁speed	-10.1076
▁holds	-10.1102
▁normally	-10.1114
▁finished	-10.1116
▁range	-10.112
▁desperate	-10.112
▁thinks	-10.1124
▁unnecessary	-10.1133
▁clean	-10.1139
▁months	-10.1145
▁discover	-10.1148
▁captured	-10.1148
▁owner	-10.1152
▁site	-10.1154
▁humorous	-10.1156
▁regular	-10.116
▁cost	-10.1165
side	-10.1167
▁rob	-10.117
▁davis	-10.1173
▁dealing	-10.1174
▁fault	-10.1176
▁conflict	-10.1179
▁witty	-10.1193
▁village	-10.1195
▁starting	-10.1198
▁monsters	-10.1198
▁mental	-10.1199
▁magnificent	-10.12
▁advice	-10.1232
ated	-10.1233
▁morning	-10.1252
▁crappy	-10.1253
▁taylor	-10.1254
▁media	-10.1261
▁heroine	-10.1262
▁includes	-10.1264
▁eat	-10.1266
▁exist	-10.1267
ier	-10.127
▁ii	-10.127
▁youth	-10.1291
▁driving	-10.1292
▁alan	-10.1293
▁loves	-10.1298
▁max	-10.1302
▁vote	-10.1306
▁drunk	-10.1313
▁pro	-10.1317
▁vision	-10.1317
▁survive	-10.1321
▁pilot	-10.1321
▁heroes	-10.1327
▁references	-10.1329
▁knowledge	-10.1331
▁responsible	-10.1333
house	-10.1334
ster	-10.1334
▁fail	-10.1343
▁sing	-10.1346
▁18	-10.1353
lin	-10.1355
▁gross	-10.1375
▁mixed	-10.1375
▁players	-10.1378
▁connection	-10.1379
▁howard	-10.1383
▁partner	-10.1386
▁suit	-10.1391
▁saving	-10.1396
nd	-10.1399
▁quiet	-10.1401
ti	-10.1402
▁sign	-10.1412
▁lacking	-10.1416
good	-10.1422
les	-10.1423
▁trek	-10.1434
▁fu	-10.1434
▁bigger	-10.1438
▁loving	-10.1449
▁community	-10.1454
▁ordinary	-10.1456
▁robin	-10.1462
over	-10.1465
▁creating	-10.1476
▁hadn	-10.1479
▁asks	-10.1481
▁fate	-10.1493
mi	-10.1494
▁growing	-10.1495
▁mini	-10.15
▁sharp	-10.1503
▁castle	-10.1509
▁seat	-10.151
▁kinda	-10.1515
▁test	-10.1523
▁wayne	-10.1525
▁individual	-10.1526
!!!!	-10.1531
ber	-10.1536
▁travel	-10.1538
▁rose	-10.155
▁scream	-10.1551
▁terribly	-10.1557
way	-10.1557
▁mar	-10.1559
▁adam	-10.1563
▁sell	-10.1565
▁program	-10.1566
▁window	-10.1567
▁legend	-10.1569
▁private	-10.1578
▁african	-10.158
▁genuine	-10.1585
▁deserved	-10.1588
▁bank	-10.16
▁dick	-10.1601
▁gotten	-10.1601
▁humanity	-10.1603
▁warm	-10.1607
▁hang	-10.161
▁sucked	-10.161
▁prove	-10.1614
▁wise	-10.1615
though	-10.1618
▁treated	-10.1619
▁alex	-10.1624
▁nonsense	-10.1624
▁explained	-10.1625
▁steal	-10.1629
▁v	-10.1641
▁finest	-10.1647
▁brian	-10.1647
▁capture	-10.1656
▁formula	-10.1656
▁lovers	-10.1658
▁irritating	-10.166
▁england	-10.166
▁grow	-10.1678
▁murdered	-10.1681
▁faith	-10.1681
▁sean	-10.1684
▁ford	-10.1686
▁australian	-10.1687
▁unrealistic	-10.1702
ho	-10.1703
▁golden	-10.1706
▁gary	-10.1712
▁international	-10.1723
▁keeping	-10.1731
▁winning	-10.1735
▁north	-10.1736
▁bomb	-10.1741
▁unfunny	-10.1744
▁luck	-10.1749
▁dreadful	-10.1752
▁shallow	-10.1765
▁parody	-10.1767
▁calls	-10.178
▁rescue	-10.1791
▁realism	-10.1806
▁empty	-10.1807
▁met	-10.1814
▁whenever	-10.1816
▁according	-10.182
▁angel	-10.1828
▁desire	-10.1829
▁frankly	-10.1831
▁rain	-10.1833
▁psycho	-10.1834
ary	-10.1842
▁skin	-10.1848
▁paper	-10.1849
▁fly	-10.1852
just	-10.1857
▁wedding	-10.1875
▁hunter	-10.1878
▁drag	-10.1882
pa	-10.1888
some	-10.1888
▁protagonist	-10.1932
▁satire	-10.1935
▁contain	-10.1939
▁wars	-10.1944
▁lesson	-10.1949
▁numerous	-10.1956
▁france	-10.196
▁powers	-10.1965
▁dressed	-10.197
▁spoil	-10.1979
▁consist	-10.198
▁fill	-10.1998
▁pulled	-10.2
▁european	-10.2002
▁guns	-10.2004
▁ill	-10.2022
▁driver	-10.2032
▁instance	-10.2041
▁asian	-10.2043
▁included	-10.2044
▁broken	-10.2044
▁corny	-10.2047
▁efforts	-10.2049
▁11	-10.205
▁reviewers	-10.2052
▁foreign	-10.2061
0'	-10.2062
▁gangster	-10.2065
▁z	-10.2068
▁heck	-10.207
▁bits	-10.2071
▁dated	-10.2071
▁hill	-10.2071
▁originally	-10.2072
▁ya	-10.2075
▁texas	-10.2085
▁visit	-10.209
▁event	-10.2096
▁skills	-10.2106
▁truck	-10.2108
▁joan	-10.2113
▁portray	-10.2113
▁cage	-10.2123
bu	-10.2131
▁model	-10.2137
▁occasionally	-10.2139
▁practical	-10.2151
▁chick	-10.2153
▁stereotypes	-10.2155
???	-10.216
▁finale	-10.2161
▁higher	-10.2165
▁teenagers	-10.2166
rely	-10.2173
▁gory	-10.2191
▁loss	-10.2193
▁universal	-10.2194
looking	-10.2195
▁develop	-10.2205
▁remembered	-10.2212
iness	-10.2212
▁sun	-10.2214
▁pretentious	-10.2214
▁/	-10.2215
▁screaming	-10.2217
▁psychological	-10.2226
▁insane	-10.2227
▁correct	-10.2238
▁terror	-10.2238
▁study	-10.2243
▁disgusting	-10.2244
▁hat	-10.2258
▁regret	-10.2259
▁grown	-10.227
▁concerned	-10.2272
▁ba	-10.2282
sh	-10.2293
▁context	-10.2305
▁spanish	-10.2305
▁saved	-10.2307
▁nightmare	-10.231
▁cameo	-10.2312
screen	-10.2317
▁lucky	-10.2318
▁discovered	-10.2323
ate	-10.2327
▁sheer	-10.2331
▁hunt	-10.2332
▁essentially	-10.2334
▁flesh	-10.2334
▁combination	-10.2349
▁blonde	-10.235
▁aware	-10.2352
▁awkward	-10.2357
▁ta	-10.2363
▁julie	-10.2367
!).	-10.2372
▁featuring	-10.2374
▁naturally	-10.2375
▁li	-10.2379
▁meeting	-10.2383
▁teenager	-10.2385
▁football	-10.2394
▁ladies	-10.2394
▁frame	-10.2395
▁eric	-10.2402
▁reaction	-10.2403
▁pet	-10.2404
▁perform	-10.2417
▁lewis	-10.2424
▁feet	-10.2426
▁fights	-10.2437
▁evidence	-10.2439
▁hitler	-10.2441
▁spectacular	-10.2473
▁underrated	-10.2486
▁rental	-10.2493
▁choose	-10.2494
▁unexpected	-10.2494
▁villains	-10.2504
▁sheriff	-10.2507
▁tedious	-10.2507
▁grew	-10.2507
▁miles	-10.2509
▁received	-10.2514
▁actions	-10.2535
▁sake	-10.2536
▁deals	-10.2542
▁fish	-10.2543
▁vampires	-10.2548
▁hits	-10.2549
gi	-10.255
▁douglas	-10.2552
ance	-10.256
▁attitude	-10.2563
▁steven	-10.2569
▁research	-10.2576
▁contrived	-10.2576
▁heads	-10.2577
▁decade	-10.2579
▁graphic	-10.2586
ac	-10.26
▁display	-10.2602
▁strength	-10.2604
▁crash	-10.2606
ably	-10.2615
▁talents	-10.2618
▁ann	-10.262
▁gonna	-10.262
▁perspective	-10.2633
▁failure	-10.2633
▁genuinely	-10.2635
▁toward	-10.2635
▁seagal	-10.2644
▁sky	-10.2645
▁anthony	-10.2646
▁fred	-10.2647
▁join	-10.2656
ja	-10.2662
▁rise	-10.2664
ru	-10.2669
▁laughter	-10.2672
▁alice	-10.2673
▁network	-10.268
ities	-10.2682
▁amateurish	-10.269
id	-10.2692
▁ko	-10.2694
▁reach	-10.2698
▁bbc	-10.2713
▁matt	-10.2713
▁dry	-10.2726
▁blow	-10.2728
▁promise	-10.2735
▁revealed	-10.2748
▁send	-10.2749
▁forces	-10.2757
▁center	-10.2761
▁edited	-10.2773
▁sympathetic	-10.2782
▁jimmy	-10.2783
▁results	-10.2785
ah	-10.279
▁regard	-10.2793
▁ultimate	-10.2796
▁decision	-10.2799
ph	-10.2802
▁europe	-10.2803
▁court	-10.2805
▁keaton	-10.2805
▁logic	-10.2809
▁beach	-10.2823
▁turkey	-10.2829
▁involves	-10.2831
▁jennifer	-10.2836
▁handsome	-10.2854
▁cars	-10.2854
▁jesus	-10.2854
▁overly	-10.2856
▁bear	-10.2858
▁candy	-10.2869
▁native	-10.2871
▁product	-10.2873
▁san	-10.2878
▁reviewer	-10.2894
▁tight	-10.2902
im	-10.291
▁japan	-10.2923
▁assume	-10.2926
▁visually	-10.2929
▁louis	-10.2945
▁described	-10.2946
▁jeff	-10.2954
rd	-10.2956
▁gene	-10.2958
che	-10.2961
▁flashbacks	-10.297
▁families	-10.297
▁existence	-10.2971
▁sees	-10.2971
ad	-10.2972
▁provided	-10.2976
ut	-10.299
▁freedom	-10.2994
▁meanwhile	-10.2995
▁traditional	-10.2999
▁cuts	-10.3016
▁costs	-10.3016
▁lousy	-10.3018
▁jungle	-10.3018
▁relief	-10.3019
▁executed	-10.3023
▁unable	-10.3026
▁visuals	-10.3038
▁robot	-10.3039
▁depressing	-10.3042
▁breaks	-10.3043
▁hopes	-10.306
ee	-10.3062
▁simon	-10.3086
▁gratuitous	-10.3089
▁danger	-10.3092
▁).	-10.3105
▁pity	-10.3105
▁print	-10.3107
▁horribly	-10.3114
▁treatment	-10.3115
▁chief	-10.3116
▁gordon	-10.3117
▁semi	-10.3118
?!	-10.3125
▁lake	-10.3127
▁eating	-10.3129
▁hide	-10.314
▁prince	-10.3144
▁streets	-10.3151
▁***	-10.3154
▁delivered	-10.316
mon	-10.3163
▁mountain	-10.3165
▁sh	-10.3167
▁mrs	-10.317
▁contrast	-10.3174
▁department	-10.3186
op	-10.3188
▁halloween	-10.3189
va	-10.3197
▁clue	-10.32
▁humans	-10.3206
▁costume	-10.3214
▁ruin	-10.3218
▁walked	-10.3219
▁creatures	-10.322
▁recognize	-10.3222
▁prefer	-10.3233
▁larry	-10.3235
▁capable	-10.3235
▁kong	-10.3236
▁el	-10.3243
▁mask	-10.3247
▁proper	-10.3249
▁brilliantly	-10.3254
▁theatrical	-10.326
▁excited	-10.326
▁built	-10.3262
▁nurse	-10.3267
▁continues	-10.3268
▁endless	-10.3271
▁prime	-10.3272
▁rules	-10.329
▁bat	-10.3291
▁embarrassing	-10.3298
▁foot	-10.3298
▁viewed	-10.3299
▁cruel	-10.3307
▁identity	-10.3308
▁fool	-10.3321
▁strongly	-10.3323
▁till	-10.3333
▁refreshing	-10.3334
▁barbara	-10.3339
ran	-10.3342
▁pleasant	-10.3344
par	-10.3349
▁entertained	-10.3369
▁aliens	-10.3371
day	-10.3372
▁dude	-10.3373
▁pa	-10.3374
▁market	-10.3375
▁surreal	-10.3383
▁tiny	-10.3386
▁gi	-10.3388
▁twisted	-10.34
▁insult	-10.3401
▁remain	-10.3402
american	-10.3403
▁levels	-10.3405
▁discovers	-10.3405
▁religion	-10.3407
▁promising	-10.3408
▁wolf	-10.341
▁em	-10.3411
▁bringing	-10.3411
▁praise	-10.3415
▁sudden	-10.3419
▁10/10	-10.343
▁canadian	-10.3433
▁bodies	-10.3437
work	-10.3439
▁jo	-10.3446
▁subtitles	-10.3452
▁table	-10.3457
▁exploitation	-10.3459
▁scare	-10.3475
▁slapstick	-10.3481
▁chaplin	-10.3481
▁surface	-10.3482
▁stopped	-10.3482
▁albert	-10.3486
▁lesbian	-10.3491
▁bus	-10.3492
▁hearing	-10.3504
▁jackie	-10.3514
▁bore	-10.3514
▁standing	-10.352
▁lo	-10.3522
▁uk	-10.3548
▁pile	-10.3549
▁harris	-10.3554
▁substance	-10.3556
▁dollars	-10.3563
▁lower	-10.3565
▁produce	-10.3571
▁proved	-10.3576
▁target	-10.3578
▁majority	-10.3585
▁theaters	-10.3589
▁reporter	-10.3589
▁beast	-10.3589
▁service	-10.3593
back	-10.3601
▁portrays	-10.3605
▁shocked	-10.3608
▁dubbed	-10.3613
war	-10.3618
▁patient	-10.362
▁rough	-10.362
ence	-10.3623
▁ancient	-10.3632
▁kung	-10.3633
▁saturday	-10.3633
▁enemy	-10.3634
▁enter	-10.3639
▁morgan	-10.3653
ent	-10.3655
que	-10.3656
▁harsh	-10.3658
▁cell	-10.3661
▁arm	-10.3664
bi	-10.3668
▁steals	-10.3668
▁routine	-10.367
▁evening	-10.3677
▁grave	-10.3682
▁naive	-10.3683
bad	-10.3684
▁demon	-10.3686
▁ages	-10.3691
▁loses	-10.3694
nt	-10.3702
▁cares	-10.3703
ard	-10.3705
▁germany	-10.3706
▁asking	-10.3716
▁peace	-10.3716
▁root	-10.3723
▁appealing	-10.3732
▁haunting	-10.3742
▁bag	-10.3748
▁safe	-10.3748
ger	-10.3755
▁qualities	-10.376
▁interview	-10.3765
▁hopefully	-10.3766
▁sisters	-10.378
▁speech	-10.3781
▁idiot	-10.3782
▁portraying	-10.3785
▁treasure	-10.3785
▁circumstances	-10.3788
▁junk	-10.3797
▁ruined	-10.3801
▁core	-10.3805
▁factor	-10.3809
▁scale	-10.3823
▁amateur	-10.3826
▁asleep	-10.3828
▁sports	-10.3834
▁nevertheless	-10.3837
**	-10.3843
▁emotionally	-10.385
▁vehicle	-10.3853
▁painfully	-10.3862
▁highlight	-10.3867
▁awards	-10.3874
▁abuse	-10.3876
▁drop	-10.3884
▁universe	-10.3889
▁sequels	-10.3896
▁suck	-10.3909
▁werewolf	-10.3917
▁hal	-10.3923
▁account	-10.3933
et	-10.3933
▁2.	-10.3935
au	-10.3939
▁spoof	-10.3941
▁friday	-10.3941
▁professor	-10.3942
▁types	-10.3956
▁roy	-10.3958
▁offensive	-10.3973
▁anna	-10.3978
▁irish	-10.3984
▁ignore	-10.3985
▁propaganda	-10.3993
▁urban	-10.402
▁passed	-10.4027
ial	-10.4028
▁po	-10.4031
▁caused	-10.4031
▁path	-10.4034
▁kate	-10.4038
▁source	-10.4041
▁suffering	-10.4044
▁dean	-10.4049
▁mob	-10.4058
▁losing	-10.4062
▁cartoons	-10.4062
▁flow	-10.4063
▁teens	-10.4064
▁nominated	-10.4079
▁knock	-10.4081
▁creates	-10.4082
▁hood	-10.4085
▁worthwhile	-10.41
▁chosen	-10.4103
▁weeks	-10.411
ron	-10.4119
▁fare	-10.4134
▁satisfying	-10.4135
▁extras	-10.4137
▁eight	-10.4147
▁sympathy	-10.4152
▁washington	-10.4153
▁jail	-10.4155
▁east	-10.4157
▁marry	-10.4159
▁experienced	-10.416
▁su	-10.4171
▁classics	-10.4174
▁edward	-10.4177
▁makeup	-10.4178
▁united	-10.4189
▁roger	-10.4195
▁hip	-10.4203
▁execution	-10.4206
▁false	-10.4207
▁base	-10.4208
▁suspenseful	-10.4211
▁position	-10.4211
▁storm	-10.4213
▁gas	-10.4225
▁holmes	-10.4234
▁tarzan	-10.4235
▁encounter	-10.4244
ki	-10.4252
mer	-10.4253
▁veteran	-10.4259
▁broadway	-10.4262
mar	-10.4265
▁training	-10.4265
▁angles	-10.4268
ex	-10.4271
▁vi	-10.4281
▁di	-10.4283
▁mst	-10.4283
made	-10.4284
▁technology	-10.4287
▁excitement	-10.4287
▁joseph	-10.4291
▁guilty	-10.4292
▁erotic	-10.4293
▁winner	-10.4293
▁contemporary	-10.4314
▁min	-10.4315
▁depicted	-10.4318
red	-10.4325
▁ne	-10.4328
▁flight	-10.4346
mm	-10.435
rate	-10.4355
▁unfortunate	-10.4356
▁darkness	-10.4357
▁appropriate	-10.4359
▁wear	-10.436
▁1.	-10.4361
▁ca	-10.4365
▁term	-10.4367
▁lawyer	-10.4368
▁massive	-10.4369
▁stereotypical	-10.4369
▁committed	-10.4371
▁california	-10.4396
▁sum	-10.44
▁virtually	-10.4401
▁dennis	-10.4402
cy	-10.4412
▁anime	-10.4423
▁weekend	-10.4424
▁mexican	-10.4424
ko	-10.4425
▁segment	-10.4426
▁figured	-10.4428
ck	-10.4433
▁inter	-10.4437
▁influence	-10.4437
▁fi	-10.4441
▁opens	-10.4443
▁exact	-10.4447
▁environment	-10.4448
▁grant	-10.4449
▁conversation	-10.4454
ney	-10.4456
▁mass	-10.4464
▁14	-10.4465
▁crying	-10.4468
ol	-10.4468
▁shut	-10.4474
▁lie	-10.4477
▁prior	-10.4478
▁task	-10.4479
▁china	-10.448
▁welcome	-10.4489
▁talks	-10.4495
▁25	-10.4496
his	-10.4498
▁parker	-10.4499
bb	-10.45
▁commit	-10.4502
▁southern	-10.4506
▁lane	-10.4523
ak	-10.4525
▁mel	-10.4531
▁melodrama	-10.4533
▁russell	-10.4534
▁renting	-10.4536
▁sir	-10.4538
▁bothered	-10.4544
ir	-10.4558
▁pat	-10.4561
▁claim	-10.4562
▁dogs	-10.4562
▁1980	-10.4576
▁mi	-10.4582
▁kim	-10.4583
▁spy	-10.4598
▁convince	-10.4608
▁performed	-10.4608
▁concern	-10.4609
ious	-10.4612
▁calling	-10.4614
▁continuity	-10.4617
▁mature	-10.4618
ise	-10.4619
▁haunted	-10.4623
▁degree	-10.4624
▁cutting	-10.463
▁structure	-10.4632
▁anger	-10.4637
▁silver	-10.4637
▁allows	-10.4642
▁jewish	-10.4645
▁wilson	-10.4645
▁drew	-10.4645
▁cave	-10.4646
▁patrick	-10.4652
▁obsessed	-10.4652
▁latest	-10.4654
▁previously	-10.4658
lu	-10.466
chi	-10.466
▁shark	-10.4668
▁code	-10.4668
▁atrocious	-10.4673
▁supernatural	-10.4674
▁murphy	-10.4674
▁anderson	-10.4677
▁du	-10.4682
▁spin	-10.4685
▁guide	-10.4688
ite	-10.4692
▁fits	-10.4693
▁row	-10.4698
pe	-10.4699
mp	-10.4699
▁believed	-10.4721
▁witness	-10.4727
▁brave	-10.4728
▁variety	-10.473
▁che	-10.4735
▁expression	-10.4735
▁wake	-10.4738
▁johnson	-10.4739
▁largely	-10.474
▁chose	-10.4754
▁ja	-10.476
▁experiment	-10.4765
▁sword	-10.4771
▁movement	-10.4771
▁extraordinary	-10.4786
▁summary	-10.4786
▁inept	-10.4787
▁vietnam	-10.4789
▁featured	-10.4793
▁indie	-10.4799
▁studios	-10.4806
down	-10.4809
end	-10.4812
▁category	-10.4815
▁reputation	-10.4815
can	-10.4816
▁jerk	-10.4822
▁captures	-10.4826
▁brooks	-10.4843
▁frightening	-10.4846
▁daniel	-10.4848
▁proud	-10.486
▁demons	-10.4868
***	-10.4871
su	-10.4872
▁contact	-10.4872
▁4/10	-10.4876
▁unlikely	-10.488
▁donald	-10.488
▁touches	-10.488
lan	-10.4882
gu	-10.4885
▁granted	-10.4888
▁santa	-10.4895
▁description	-10.4901
▁forgettable	-10.4901
▁ted	-10.4902
▁punch	-10.4908
▁raw	-10.4912
▁walks	-10.4914
car	-10.4923
pi	-10.4928
▁ludicrous	-10.493
▁cheese	-10.493
▁eastwood	-10.493
▁tour	-10.493
▁holding	-10.4935
▁sensitive	-10.4938
▁inner	-10.4938
▁remotely	-10.4941
▁blockbuster	-10.4944
▁belief	-10.4944
▁speaks	-10.4949
▁forest	-10.495
▁india	-10.4951
▁breath	-10.4956
▁massacre	-10.4958
▁profound	-10.4959
▁elizabeth	-10.4963
▁deadly	-10.4963
▁birth	-10.4963
▁host	-10.4964
▁suffers	-10.4965
▁shadow	-10.4973
▁accents	-10.4974
▁mis	-10.4985
▁amazingly	-10.4988
▁hanging	-10.4988
including	-10.4992
▁reveal	-10.4996
▁insight	-10.5001
▁handled	-10.5011
oh	-10.5016
▁vacation	-10.5016
▁accidentally	-10.502
▁curse	-10.5029
▁usa	-10.5035
▁kiss	-10.5038
▁unconvincing	-10.5046
▁quirky	-10.5046
▁buck	-10.5046
▁voices	-10.5049
kin	-10.5051
▁screening	-10.5054
▁league	-10.5069
ana	-10.5069
▁crude	-10.5069
▁security	-10.5075
▁coach	-10.5076
ya	-10.5079
▁ga	-10.5083
▁forgot	-10.5094
▁assistant	-10.5104
▁metal	-10.5111
▁politics	-10.5117
▁breaking	-10.5133
▁fulci	-10.5134
▁flash	-10.5135
▁required	-10.5142
za	-10.5145
▁scenario	-10.5153
▁blend	-10.5154
zz	-10.5165
▁gritty	-10.5165
▁everywhere	-10.5168
▁whoever	-10.5182
▁paced	-10.5188
▁section	-10.5188
▁honor	-10.5192
▁trilogy	-10.5193
▁multi	-10.5193
▁alright	-10.5193
cha	-10.5195
▁plans	-10.5196
▁blah	-10.5197
▁stranger	-10.52
nic	-10.5201
cing	-10.5206
▁tree	-10.5215
os	-10.5217
▁delight	-10.5219
▁lifetime	-10.5223
▁amazed	-10.5227
▁format	-10.5227
▁sin	-10.5229
tic	-10.5229
▁shape	-10.5236
▁warner	-10.5243
▁africa	-10.5248
▁rule	-10.5249
▁gruesome	-10.5252
▁mainstream	-10.5255
▁chuck	-10.5259
▁dig	-10.5268
▁initial	-10.5269
▁covered	-10.5275
▁**	-10.5278
▁concert	-10.5282
▁narration	-10.5282
▁guard	-10.5284
▁suffer	-10.5299
▁gain	-10.5304
▁cooper	-10.5306
▁repeated	-10.5312
▁dracula	-10.5314
▁pan	-10.5328
film	-10.5334
▁depiction	-10.5336
▁funnier	-10.5342
▁baseball	-10.5342
istic	-10.5344
▁stolen	-10.5345
field	-10.5347
▁kane	-10.535
▁focused	-10.5358
▁grim	-10.5364
▁learns	-10.5366
▁statement	-10.5368
▁stomach	-10.5372
▁bull	-10.5374
▁julia	-10.5374
▁dragon	-10.5375
▁warn	-10.5392
▁dare	-10.5397
▁multiple	-10.5402
▁susan	-10.5408
▁abandoned	-10.5408
yes	-10.5412
▁listening	-10.5413
▁snow	-10.5422
▁ham	-10.5426
▁destroyed	-10.5427
▁directly	-10.5429
▁sch	-10.543
▁afternoon	-10.5433
▁trapped	-10.5433
▁uninteresting	-10.5433
▁sunday	-10.5433
▁teeth	-10.5433
▁stayed	-10.5439
▁mildly	-10.5441
▁prepared	-10.5442
tv	-10.5446
▁combined	-10.5446
▁warned	-10.545
▁occasional	-10.5452
▁ron	-10.5453
▁entertain	-10.5456
▁intellectual	-10.5456
min	-10.5462
▁disagree	-10.5462
ating	-10.5464
▁mickey	-10.5467
▁spite	-10.5467
▁buying	-10.5472
izing	-10.5477
▁convinced	-10.5481
▁express	-10.5483
▁via	-10.549
▁blown	-10.5502
▁surprises	-10.5507
▁holiday	-10.5524
▁civil	-10.5527
▁adventures	-10.5528
▁westerns	-10.5529
▁dozen	-10.5529
▁tear	-10.5531
▁seasons	-10.5534
▁interviews	-10.5536
▁seek	-10.5545
▁campy	-10.5551
▁luke	-10.5559
▁pretend	-10.5564
▁experiences	-10.5568
▁originality	-10.557
▁smoke	-10.5574
▁obnoxious	-10.5585
▁underground	-10.5586
▁separate	-10.5589
▁chain	-10.559
▁lay	-10.5592
▁killers	-10.5594
▁serve	-10.5609
▁closer	-10.561
▁carpenter	-10.5616
▁columbo	-10.5616
▁tommy	-10.5619
▁rolling	-10.5622
▁walter	-10.5626
▁drink	-10.5626
▁risk	-10.5639
▁equal	-10.564
▁hire	-10.564
▁flashback	-10.5648
▁goofy	-10.5651
▁protect	-10.5652
▁forth	-10.566
den	-10.566
▁skill	-10.5666
▁hi	-10.5677
▁paint	-10.5688
ng	-10.5698
▁broad	-10.5703
▁magical	-10.5703
▁clark	-10.5705
▁chair	-10.5708
▁heavily	-10.571
▁understood	-10.571
▁complicated	-10.5716
▁changing	-10.5718
▁nazi	-10.5721
boy	-10.573
▁weapons	-10.5734
▁mistakes	-10.5735
fa	-10.5739
▁revolution	-10.574
▁downright	-10.5744
▁matters	-10.5745
dimensional	-10.575
▁focuses	-10.5751
hearted	-10.5752
▁remote	-10.5759
▁cor	-10.5769
▁fabulous	-10.5772
▁imagery	-10.5773
▁rival	-10.5774
called	-10.5775
▁dear	-10.5781
▁letter	-10.5787
from	-10.5788
▁bound	-10.5794
▁claims	-10.5797
sen	-10.5797
▁victor	-10.5798
▁legendary	-10.5804
▁halfway	-10.5808
▁cultural	-10.5809
▁murderer	-10.5815
▁balance	-10.5819
jo	-10.582
▁charge	-10.5821
▁presents	-10.5827
gen	-10.5836
▁guest	-10.584
▁corner	-10.585
▁favorites	-10.5859
▁paying	-10.5859
▁driven	-10.5862
▁deeper	-10.5862
▁17	-10.5864
▁facial	-10.5867
▁nonetheless	-10.5867
▁status	-10.5867
▁plague	-10.5867
▁mirror	-10.5872
▁device	-10.5872
▁jon	-10.5875
▁sitcom	-10.5875
▁reference	-10.5876
▁farm	-10.588
▁hired	-10.5884
ped	-10.5887
▁critical	-10.5888
▁block	-10.5902
▁bitter	-10.5911
ble	-10.5912
style	-10.5916
fest	-10.5917
▁princess	-10.5926
▁ocean	-10.593
▁struggling	-10.593
▁brand	-10.5932
▁bush	-10.5932
▁handle	-10.5943
▁rush	-10.595
ups	-10.5956
▁pulls	-10.5961
▁hoffman	-10.5962
wood	-10.5962
▁fbi	-10.5964
ised	-10.5966
▁miller	-10.5968
▁timing	-10.597
▁stan	-10.5971
very	-10.5979
▁closing	-10.5994
▁nude	-10.5995
▁:)	-10.5999
▁roberts	-10.6001
▁wreck	-10.6002
▁hole	-10.6015
▁scares	-10.6017
▁dress	-10.6018
▁internet	-10.6027
▁appreciated	-10.6028
▁raised	-10.6041
▁choices	-10.6042
▁del	-10.6051
▁reminiscen	-10.6055
▁racist	-10.6059
ten	-10.6059
▁sarah	-10.6065
tro	-10.6066
cur	-10.6071
▁theory	-10.6079
▁philip	-10.6096
▁mindless	-10.6111
▁decades	-10.6117
law	-10.6119
▁pie	-10.6119
▁stylish	-10.6124
▁dinner	-10.6124
▁thankfully	-10.6132
▁touched	-10.6134
▁helen	-10.6135
▁criticism	-10.6135
▁nose	-10.6136
let	-10.6136
▁bell	-10.6139
▁technically	-10.6145
▁faithful	-10.6145
▁pregnant	-10.6156
▁serves	-10.6157
▁blair	-10.6157
▁colors	-10.6167
▁broke	-10.6168
▁fourth	-10.6168
▁upset	-10.6169
▁tune	-10.6169
▁inspiration	-10.6174
ach	-10.6177
):	-10.6178
rated	-10.6181
du	-10.6184
▁magazine	-10.6189
▁silence	-10.6189
▁y	-10.6191
except	-10.6201
▁throwing	-10.621
▁hack	-10.6213
▁passing	-10.6214
ud	-10.6218
▁placed	-10.6218
▁designed	-10.6218
▁text	-10.6222
▁comical	-10.6222
▁freddy	-10.6222
▁offered	-10.6224
▁wwii	-10.6226
▁everyday	-10.623
▁comedian	-10.6235
▁desperately	-10.6243
▁cook	-10.6244
▁tongue	-10.6255
▁daily	-10.6257
▁effectively	-10.6258
▁lonely	-10.6264
▁carried	-10.6265
▁nuclear	-10.629
relatively	-10.6297
▁stupidity	-10.6297
ham	-10.6299
▁laura	-10.6301
▁delivery	-10.6305
when	-10.6307
▁drinking	-10.631
▁introduction	-10.6321
▁authentic	-10.6322
▁lights	-10.6327
written	-10.6331
john	-10.6333
ping	-10.6335
▁pitch	-10.6338
▁prevent	-10.6339
▁woody	-10.6342
▁learning	-10.6348
iest	-10.6348
how	-10.6351
▁starred	-10.6363
▁object	-10.6364
▁greater	-10.6383
▁wanna	-10.6384
▁gag	-10.6385
▁achieve	-10.6387
▁disbelief	-10.6387
▁beloved	-10.6394
▁superman	-10.6396
▁screenwriter	-10.6412
▁trick	-10.6414
▁hong	-10.6422
▁3/10	-10.6422
low	-10.6425
▁quest	-10.6428
▁hint	-10.6431
▁cant	-10.6441
▁bride	-10.6454
▁plastic	-10.6454
▁ashamed	-10.6454
▁succeeds	-10.6455
▁barry	-10.6462
▁8/10	-10.6471
▁solve	-10.6472
▁craft	-10.6478
fu	-10.6481
▁bollywood	-10.6488
▁greek	-10.6488
▁karen	-10.649
▁mac	-10.6492
▁explains	-10.6494
▁chilling	-10.6502
▁sleeping	-10.6503
▁arms	-10.6506
▁200	-10.6509
▁condition	-10.651
▁expressions	-10.651
▁connect	-10.6512
ric	-10.6519
▁medical	-10.6522
▁relie	-10.6523
▁arrives	-10.6538
▁betty	-10.6542
▁adding	-10.6552
▁pitt	-10.6554
king	-10.6554
after	-10.6572
▁storytelling	-10.6594
▁topic	-10.6604
▁dislike	-10.661
▁wins	-10.6616
vo	-10.6617
▁manager	-10.6623
▁mgm	-10.6624
▁catherine	-10.6629
ot	-10.6636
ris	-10.6645
▁cousin	-10.6646
▁tense	-10.6651
▁jay	-10.6659
▁oliver	-10.6663
▁retarded	-10.6663
▁monkey	-10.6682
tion	-10.6683
▁poignant	-10.6692
▁racism	-10.6692
▁extent	-10.6692
▁sides	-10.6693
▁presentation	-10.6697
▁related	-10.6706
▁angle	-10.6709
▁realizes	-10.6712
▁mentally	-10.6714
▁believes	-10.6717
▁ni	-10.6726
▁sinatra	-10.6727
▁soviet	-10.673
▁sp	-10.6742
▁si	-10.6745
head	-10.6754
▁dollar	-10.6757
▁basis	-10.6761
▁lazy	-10.6762
▁entry	-10.6763
class	-10.6768
▁weight	-10.6772
▁idiotic	-10.6786
▁7/10	-10.6789
▁exceptional	-10.679
▁necessarily	-10.6796
▁pacino	-10.6796
▁stanwyck	-10.6796
▁gripping	-10.6796
▁caine	-10.68
▁glass	-10.68
▁overcome	-10.6801
10	-10.6801
▁italy	-10.6804
▁madness	-10.6804
▁flaw	-10.6807
part	-10.6811
▁nation	-10.6817
▁significant	-10.6818
▁marie	-10.682
ff	-10.6823
▁breathtaking	-10.6831
▁embarrassed	-10.6834
▁zone	-10.684
▁lou	-10.6842
▁union	-10.6847
▁fianc	-10.6848
▁press	-10.6851
▁iron	-10.6854
▁cowboy	-10.6861
▁artists	-10.6863
▁advantage	-10.6866
▁corrupt	-10.6868
▁sold	-10.6869
▁bird	-10.6875
▁char	-10.6876
▁initially	-10.6881
▁graphics	-10.6883
▁size	-10.6887
▁served	-10.6888
▁revolves	-10.69
▁striking	-10.6901
▁sutherland	-10.6901
▁foster	-10.6901
▁credible	-10.6903
▁flawed	-10.6916
▁enjoying	-10.6918
▁disc	-10.693
▁bergman	-10.6936
▁countries	-10.6937
▁1/10	-10.6938
io	-10.6953
▁properly	-10.6955
ily	-10.6956
▁khan	-10.6956
▁walker	-10.6966
▁lion	-10.6969
▁caring	-10.6969
▁horrific	-10.6971
▁lloyd	-10.6972
han	-10.6981
art	-10.6984
▁meat	-10.6987
▁pe	-10.6992
▁sha	-10.6994
▁versions	-10.6996
▁throws	-10.7001
▁stunt	-10.7001
▁rings	-10.7002
characterization	-10.7006
▁attempting	-10.7006
▁hundred	-10.7006
▁credibility	-10.7007
▁franchise	-10.7007
▁1940	-10.7009
▁bugs	-10.7011
▁helping	-10.7013
▁bridge	-10.7015
▁fictional	-10.7019
▁brad	-10.7022
▁reveals	-10.7023
something	-10.7025
▁ironic	-10.7025
▁australia	-10.7034
ow	-10.7038
▁pool	-10.7038
▁ninja	-10.7039
ell	-10.7042
▁matrix	-10.7043
▁aunt	-10.7057
grade	-10.7063
▁accepted	-10.7073
▁strip	-10.7075
▁sinister	-10.7078
▁obsession	-10.7078
▁attraction	-10.708
▁nine	-10.708
▁repeat	-10.708
▁specific	-10.7082
▁strangely	-10.7082
▁hardy	-10.7085
▁purely	-10.7091
▁christ	-10.7095
wa	-10.7104
▁useless	-10.7104
▁fairy	-10.7106
▁2)	-10.7112
▁succeed	-10.7113
▁0	-10.7113
▁confusion	-10.7114
▁innocence	-10.7114
▁nowadays	-10.7114
▁sleazy	-10.7114
▁shower	-10.7116
▁ra	-10.7118
▁perfection	-10.7123
writer	-10.7124
▁guessing	-10.7125
▁carries	-10.7126
▁pg	-10.7134
▁burn	-10.7146
▁convey	-10.7149
▁happiness	-10.715
▁controversial	-10.715
▁burton	-10.7153
▁causes	-10.7158
▁blade	-10.7159
▁satan	-10.7162
▁challenge	-10.7163
▁slight	-10.7174
▁thousands	-10.7181
▁lovable	-10.7187
▁backdrop	-10.7187
ny	-10.7187
▁stunts	-10.719
▁burns	-10.719
▁determined	-10.7195
▁sand	-10.7196
▁roman	-10.7204
▁wears	-10.7222
▁interpretation	-10.7223
▁answers	-10.7225
▁cynical	-10.7225
ze	-10.7229
ette	-10.723
ions	-10.7231
▁clips	-10.7243
▁criminals	-10.7253
▁horrendous	-10.7259
▁thief	-10.7259
▁argue	-10.7259
ending	-10.7261
▁lessons	-10.7263
▁attacked	-10.7265
ball	-10.7273
▁val	-10.7283
▁identify	-10.7295
▁fortune	-10.7295
▁boredom	-10.7296
▁creation	-10.7301
▁ken	-10.7301
▁angels	-10.7303
▁notable	-10.7312
▁tu	-10.7315
▁combine	-10.7316
ville	-10.7316
▁oz	-10.7318
▁views	-10.7322
▁assassin	-10.7332
▁ultra	-10.7332
▁glimpse	-10.7335
▁bare	-10.7341
▁lisa	-10.7342
▁searching	-10.7343
▁shy	-10.7349
▁ratings	-10.7355
▁push	-10.7367
▁minds	-10.7367
▁sentimental	-10.7378
ship	-10.7385
▁pack	-10.7387
▁settings	-10.7387
▁rank	-10.739
▁expert	-10.7397
▁los	-10.7401
▁lust	-10.7403
▁raise	-10.7404
ab	-10.7406
▁gen	-10.741
▁thousand	-10.7411
▁sorts	-10.7416
▁stays	-10.742
▁card	-10.7421
hard	-10.744
▁welles	-10.7441
▁flynn	-10.7443
▁opened	-10.7443
▁wealthy	-10.7448
▁michelle	-10.7449
▁vincent	-10.745
▁hooked	-10.7456
...)	-10.7468
▁react	-10.7477
▁steam	-10.748
▁hbo	-10.7481
▁tradition	-10.7482
▁cameron	-10.7483
▁proof	-10.7489
▁meaningful	-10.7491
▁neck	-10.7492
ened	-10.7502
▁bin	-10.7502
▁wave	-10.7502
ward	-10.7515
▁atmospheric	-10.7517
▁exercise	-10.7517
▁portrait	-10.7517
▁savage	-10.7517
▁tribute	-10.7517
▁toilet	-10.7518
▁catholic	-10.7519
▁oil	-10.7526
▁3.	-10.7526
▁weapon	-10.7527
▁guts	-10.7527
too	-10.7528
▁freeman	-10.7528
more	-10.7533
▁gal	-10.7545
▁trail	-10.7548
▁beer	-10.755
▁quote	-10.7552
▁1990	-10.7557
▁regardless	-10.7559
▁crack	-10.7562
▁fallen	-10.7563
▁worry	-10.7571
ov	-10.7588
▁aired	-10.7592
▁imaginative	-10.7592
▁ripped	-10.7593
▁alas	-10.7593
▁bobby	-10.7594
▁laid	-10.7594
har	-10.7602
▁struggles	-10.7603
also	-10.7612
▁fix	-10.7615
▁virgin	-10.7624
▁homage	-10.763
▁investigate	-10.763
▁tarantino	-10.763
▁ego	-10.763
▁stiff	-10.763
▁jamie	-10.7635
▁fortunately	-10.7637
▁string	-10.7641
wise	-10.7651
▁tea	-10.7667
▁kennedy	-10.7668
▁matthau	-10.7668
▁mexico	-10.7668
▁clown	-10.7668
▁spell	-10.767
▁sexuality	-10.7672
light	-10.7674
our	-10.7676
▁spoken	-10.7678
▁technique	-10.7679
▁resort	-10.7683
▁marvelous	-10.7693
ft	-10.7708
▁complain	-10.7712
▁replaced	-10.7716
▁baker	-10.7718
▁pen	-10.7731
▁threat	-10.7736
▁exists	-10.7738
ens	-10.7739
▁rachel	-10.7744
▁restaurant	-10.7744
▁nancy	-10.7744
▁checking	-10.7746
▁va	-10.7748
▁stealing	-10.7748
▁tall	-10.7759
▁cringe	-10.7766
bar	-10.7772
▁attacks	-10.7775
▁intensity	-10.7782
▁competition	-10.7782
▁dawn	-10.7783
where	-10.7783
▁discussion	-10.7784
▁carrying	-10.7792
▁admire	-10.7793
▁trial	-10.7798
▁dave	-10.7805
▁je	-10.7819
▁britain	-10.7821
▁uninspired	-10.7821
nie	-10.7823
00	-10.7825
▁colour	-10.7828
▁bath	-10.783
action	-10.7834
▁shines	-10.7837
---	-10.7837
▁neighbor	-10.7837
▁month	-10.7838
▁tank	-10.7839
known	-10.7843
▁gift	-10.7845
▁web	-10.7849
▁sings	-10.7852
▁lacked	-10.7858
▁reynolds	-10.7859
▁rid	-10.7861
bel	-10.7861
▁bible	-10.7862
▁jessica	-10.7863
▁hitch	-10.7874
tu	-10.7876
▁ram	-10.7876
▁thrilling	-10.7876
▁broadcast	-10.788
▁drives	-10.788
▁surrounding	-10.7881
▁minimal	-10.7881
▁pi	-10.7884
▁competent	-10.7886
tch	-10.7886
▁figures	-10.7888
▁bu	-10.7888
▁pal	-10.7895
▁courage	-10.7898
▁invisible	-10.7898
▁miserably	-10.7898
▁thirty	-10.7898
▁disease	-10.7898
▁needless	-10.79
▁upper	-10.7901
▁grey	-10.7902
▁examples	-10.7904
▁mouse	-10.7906
▁snakes	-10.7909
▁miscast	-10.7916
horror	-10.7922
▁consequences	-10.7924
ig	-10.7925
▁parent	-10.7925
▁cure	-10.7928
▁imp	-10.7929
ps	-10.7931
▁wicked	-10.7937
▁bi	-10.7938
▁instantly	-10.7946
▁seeking	-10.795
▁sally	-10.7951
▁suffered	-10.7957
▁plots	-10.7969
▁trap	-10.7976
▁mummy	-10.7976
▁contract	-10.7977
▁blank	-10.798
▁endearing	-10.798
▁predator	-10.798
▁ghosts	-10.798
▁gotta	-10.7997
▁whereas	-10.7998
school	-10.8001
▁response	-10.8015
▁picks	-10.8016
▁heat	-10.8016
▁intent	-10.8017
▁attempted	-10.8025
▁colorful	-10.8025
▁enjoyment	-10.8026
yn	-10.8031
hy	-10.8032
▁troubled	-10.8038
▁measure	-10.8038
▁greatly	-10.804
▁screw	-10.804
ization	-10.8042
▁friendly	-10.8043
▁neat	-10.8044
▁deaths	-10.8047
▁arnold	-10.8055
▁birthday	-10.8055
▁owen	-10.8058
▁lying	-10.8062
▁q	-10.8063
▁frequently	-10.8063
▁gra	-10.8067
▁march	-10.8071
▁von	-10.8074
▁heist	-10.8076
▁hammer	-10.8079
▁facts	-10.8094
fl	-10.8094
▁uncomfortable	-10.8094
▁unforgettable	-10.8095
▁midnight	-10.8095
▁melodramatic	-10.8095
▁liberal	-10.8098
▁holly	-10.8099
▁escapes	-10.8099
?).	-10.8103
▁productions	-10.8103
▁sa	-10.8103
▁blast	-10.8108
▁busy	-10.8108
▁relative	-10.8108
▁shorts	-10.8115
▁knight	-10.8121
▁sneak	-10.8134
▁neighborhood	-10.8134
series	-10.8142
▁link	-10.8143
▁teach	-10.8143
▁intentions	-10.8144
▁appearing	-10.8146
girl	-10.8157
▁riding	-10.8163
▁stretch	-10.8174
▁chasing	-10.8174
▁lesser	-10.8177
▁annoyed	-10.8178
▁bucks	-10.8178
ji	-10.8178
ky	-10.8192
▁millions	-10.8193
▁pulp	-10.8214
▁notorious	-10.8214
▁hiding	-10.8214
▁editor	-10.8216
▁tales	-10.8221
▁boot	-10.8223
▁performers	-10.8225
▁rap	-10.8228
watch	-10.8233
key	-10.824
▁outrageous	-10.8241
▁techniques	-10.8242
cat	-10.8248
cut	-10.8251
▁navy	-10.8254
▁sole	-10.8263
▁pink	-10.8266
▁notch	-10.8268
▁corn	-10.828
aka	-10.8282
die	-10.8283
▁knife	-10.8294
▁connery	-10.8294
▁basement	-10.8295
▁personalities	-10.8296
▁andrews	-10.8297
▁acceptable	-10.8297
▁90'	-10.8297
▁burt	-10.8302
▁stinker	-10.8304
▁insist	-10.8306
▁thoughts	-10.8318
▁tied	-10.8318
▁noble	-10.8319
▁motivation	-10.8321
ou	-10.8323
▁essential	-10.8326
▁trade	-10.8327
▁2001	-10.8329
▁belongs	-10.8333
▁frankenstein	-10.8335
▁newspaper	-10.8335
▁kidnapped	-10.8335
▁45	-10.8337
▁hundreds	-10.8339
▁adapted	-10.8342
▁novels	-10.8351
▁ri	-10.8353
▁2000	-10.8353
▁maker	-10.8354
▁offering	-10.8354
▁pit	-10.8358
done	-10.8358
maybe	-10.8361
▁spending	-10.8364
▁4.	-10.8365
ung	-10.8371
▁merit	-10.8371
▁investigation	-10.8375
▁library	-10.8375
▁jonathan	-10.8378
▁ralph	-10.8379
▁protagonists	-10.838
net	-10.8381
▁dancer	-10.8386
▁forgive	-10.8388
▁poster	-10.8388
pl	-10.8399
▁scientists	-10.8405
▁garden	-10.8407
▁finger	-10.8411
▁spiritual	-10.8416
▁ensemble	-10.8416
▁mitchell	-10.8416
▁powell	-10.8417
▁duck	-10.8421
▁successfully	-10.8421
▁connected	-10.8435
run	-10.8435
▁physically	-10.8445
▁crafted	-10.8447
pro	-10.8447
▁closely	-10.8455
▁happily	-10.8457
▁cardboard	-10.8457
▁sidekick	-10.8458
▁korean	-10.8459
rn	-10.8459
▁command	-10.8461
▁loser	-10.8461
▁legs	-10.8463
▁drags	-10.8463
▁farce	-10.8471
play	-10.8474
ver	-10.8479
▁intention	-10.8479
▁border	-10.8487
▁curiosity	-10.8498
▁ourselves	-10.8498
ugh	-10.8502
▁gray	-10.8507
▁lab	-10.8519
▁(19	-10.8528
▁benefit	-10.8529
▁incident	-10.8534
▁eccentric	-10.854
▁piano	-10.854
▁trite	-10.8541
▁aged	-10.8542
▁jet	-10.8561
▁torn	-10.8569
why	-10.857
▁split	-10.858
▁laurel	-10.8581
▁practice	-10.8581
▁struck	-10.8581
▁superficial	-10.8581
▁sidney	-10.8581
▁dragged	-10.8581
▁lugosi	-10.8584
▁dubbing	-10.8584
▁irony	-10.8591
ku	-10.8592
▁blows	-10.8596
lon	-10.8597
▁24	-10.8607
▁coast	-10.8614
▁jumps	-10.8615
▁critic	-10.8618
▁beating	-10.862
▁glory	-10.8623
▁outer	-10.8625
▁bra	-10.863
▁freak	-10.8631
▁hype	-10.8644
▁dealt	-10.8649
▁health	-10.8657
▁nelson	-10.8665
▁repetitive	-10.8665
▁eerie	-10.8665
▁airplane	-10.8665
▁eve	-10.8665
ep	-10.8667
▁emily	-10.8668
liners	-10.8669
cle	-10.8673
ker	-10.8682
▁cha	-10.8693
▁carol	-10.8694
▁typically	-10.8696
▁concerns	-10.8696
▁insulting	-10.87
▁steps	-10.8702
▁clint	-10.8704
▁stole	-10.8705
▁rick	-10.8706
▁afford	-10.8707
▁chi	-10.8707
▁gothic	-10.8707
▁wax	-10.8707
▁load	-10.8709
▁punk	-10.8711
▁cried	-10.8712
▁emma	-10.8713
▁swear	-10.8728
spoilers	-10.8734
gan	-10.8736
▁appearances	-10.8745
▁ward	-10.8746
▁triumph	-10.8748
▁incoherent	-10.8749
▁disappoint	-10.8754
▁lift	-10.8755
str	-10.8757
▁leg	-10.8758
▁cia	-10.8759
rk	-10.876
▁bug	-10.8761
▁talked	-10.8763
▁bone	-10.8767
▁ear	-10.8769
▁pot	-10.8769
▁hills	-10.877
▁te	-10.8774
▁intrigue	-10.8775
▁spring	-10.8777
▁appalling	-10.8778
▁penn	-10.8779
▁1)	-10.8787
▁essence	-10.8791
▁generous	-10.8791
▁redemption	-10.8791
▁inspector	-10.8792
vin	-10.8793
▁rushed	-10.8811
▁sexually	-10.8812
▁persona	-10.8814
▁kudos	-10.8834
▁montage	-10.8834
▁elsewhere	-10.8837
▁chases	-10.8838
▁fe	-10.884
▁shoes	-10.8842
▁wannabe	-10.8844
▁breasts	-10.8845
rie	-10.8846
▁established	-10.8846
▁ruthless	-10.8846
▁sends	-10.8848
cast	-10.8857
▁twin	-10.8865
▁pin	-10.8866
▁1930	-10.8868
▁cup	-10.887
▁cameos	-10.887
type	-10.8876
▁charisma	-10.8876
▁relevant	-10.8877
▁virus	-10.8877
▁precious	-10.8877
▁cabin	-10.888
town	-10.8887
▁achieved	-10.8897
▁faced	-10.8898
▁shirt	-10.8898
▁maria	-10.8899
▁doll	-10.8908
▁mile	-10.8908
rr	-10.891
▁packed	-10.8911
▁tons	-10.8916
▁subplot	-10.8918
▁chicago	-10.8919
▁medium	-10.8919
▁fx	-10.8925
▁lu	-10.8927
▁leslie	-10.8927
hu	-10.895
▁snake	-10.895
existent	-10.895
video	-10.8952
▁bon	-10.8958
ino	-10.8962
▁companion	-10.8962
▁cinderella	-10.8963
▁easier	-10.8963
▁obscure	-10.8963
▁album	-10.8963
▁bleak	-10.8963
▁hence	-10.8967
▁expensive	-10.8967
▁thick	-10.8967
▁rocket	-10.8984
▁suits	-10.8992
▁definite	-10.8993
▁hoped	-10.8994
▁spare	-10.8995
▁mu	-10.8997
▁slap	-10.9005
▁bottle	-10.9006
▁funeral	-10.9006
▁installment	-10.9006
▁assault	-10.9006
▁cruise	-10.9006
▁godfather	-10.9006
▁eva	-10.9008
▁depend	-10.9016
▁larger	-10.9022
▁oddly	-10.9022
▁repeatedly	-10.9024
▁logical	-10.9028
aged	-10.9029
▁wishes	-10.9031
▁heroic	-10.9032
▁confront	-10.9032
now	-10.9038
▁develops	-10.9043
▁briefly	-10.9045
▁hunting	-10.9047
▁grandfather	-10.905
ina	-10.9052
▁opposed	-10.9054
▁puppet	-10.9054
▁staff	-10.9055
▁winter	-10.9055
▁photographer	-10.9056
▁suggests	-10.9059
▁fonda	-10.9059
▁mill	-10.9061
▁outcome	-10.9065
cu	-10.9067
tan	-10.9067
▁tricks	-10.9072
▁showcase	-10.9087
▁musicals	-10.9087
/10	-10.9091
▁stood	-10.9093
▁mate	-10.9094
▁importantly	-10.9096
▁titles	-10.9098
▁guilt	-10.9106
▁locked	-10.911
ek	-10.9112
▁hook	-10.9114
ass	-10.9115
▁horses	-10.9115
▁refuses	-10.912
▁crush	-10.9124
▁tremendous	-10.9124
▁shi	-10.9128
spoiler	-10.9132
▁threw	-10.9137
▁unpleasant	-10.9137
▁audio	-10.9137
▁wing	-10.9137
▁sophisticated	-10.9139
▁landscape	-10.914
▁slick	-10.914
▁accused	-10.9142
▁duke	-10.9142
▁citizen	-10.9143
▁mansion	-10.9144
▁1/2	-10.9144
▁ju	-10.9145
▁racial	-10.9146
▁carefully	-10.9147
om	-10.915
▁wire	-10.9156
▁handful	-10.916
▁journalist	-10.9164
▁hysterical	-10.9168
▁maintain	-10.9171
▁jazz	-10.9173
▁9/10	-10.9175
ju	-10.9182
▁spike	-10.9183
▁2005	-10.9183
▁thumbs	-10.9187
▁creators	-10.9189
▁rabbit	-10.9189
▁selling	-10.9191
wi	-10.9198
▁rogers	-10.92
▁spoiled	-10.9212
!!!!!	-10.9214
minute	-10.9216
▁complaint	-10.9223
▁fifteen	-10.9225
▁madonna	-10.9225
▁resolution	-10.9225
▁altogether	-10.9225
▁jake	-10.9226
▁requires	-10.9228
▁hudson	-10.9228
▁flop	-10.9233
▁shall	-10.9234
▁sandra	-10.9234
▁highlights	-10.924
▁pointed	-10.9245
▁mild	-10.9254
▁sport	-10.9255
ible	-10.9267
▁swedish	-10.927
▁horrid	-10.927
▁pride	-10.9271
▁ideal	-10.9275
▁linda	-10.9282
ok	-10.9283
▁engaged	-10.9284
▁infamous	-10.929
▁shadows	-10.9291
▁thrills	-10.9292
▁wine	-10.9305
▁loosely	-10.9305
▁tie	-10.9306
▁grows	-10.9307
▁francis	-10.9314
▁hamlet	-10.9315
▁ambitious	-10.9317
▁commercials	-10.9319
▁jumping	-10.9319
▁drunken	-10.932
▁attracted	-10.9327
ren	-10.9327
▁timeless	-10.9327
q	-10.9328
▁smoking	-10.9328
▁possessed	-10.9328
▁norman	-10.9328
ang	-10.9334
▁kicks	-10.9337
▁burning	-10.9341
▁germans	-10.9342
▁pearl	-10.9344
▁souls	-10.9347
▁splendid	-10.9359
▁wondered	-10.936
▁hopper	-10.936
▁realise	-10.9361
▁failing	-10.9361
▁2/10	-10.9362
▁increasingly	-10.9363
▁fancy	-10.9365
▁blake	-10.9365
▁destruction	-10.9366
▁resist	-10.9368
▁carl	-10.9369
▁cow	-10.9373
▁fitting	-10.9376
▁suspects	-10.9383
face	-10.9385
▁stated	-10.9386
berg	-10.9387
▁rat	-10.939
▁goal	-10.9392
▁jealous	-10.9396
▁noise	-10.9397
▁altman	-10.9404
▁dropped	-10.9405
▁urge	-10.9405
▁terrifying	-10.9406
▁translation	-10.9407
▁explosions	-10.9408
▁lucy	-10.941
▁reasonably	-10.9411
▁bullet	-10.9414
lam	-10.9414
▁kar	-10.9418
▁porno	-10.942
tra	-10.9424
gra	-10.9426
▁woo	-10.9426
▁provid	-10.943
▁daughters	-10.9441
▁brilliance	-10.9449
▁frost	-10.9449
▁documentaries	-10.9449
▁exchange	-10.945
▁frustrated	-10.9451
▁et	-10.9454
▁returning	-10.9456
cent	-10.9456
▁buff	-10.9459
get	-10.9459
▁stooges	-10.9461
▁cap	-10.9468
▁daring	-10.9468
▁pleasantly	-10.9473
ists	-10.9476
ning	-10.9481
▁cole	-10.9483
movies	-10.9485
▁jewel	-10.9491
▁dialogs	-10.9495
▁celluloid	-10.9495
▁menacing	-10.9495
▁splatter	-10.9498
▁tortured	-10.9499
▁indians	-10.95
▁beaten	-10.9502
▁elaborate	-10.9504
▁corpse	-10.9507
▁raped	-10.951
▁fa	-10.9512
▁ver	-10.9515
▁fatal	-10.952
▁jobs	-10.9531
▁yo	-10.9533
▁gentle	-10.9537
▁carrey	-10.9541
▁symbolism	-10.9541
▁hideous	-10.9542
▁walken	-10.9547
▁drivel	-10.9547
▁pleased	-10.9548
fe	-10.9551
▁revelation	-10.9552
▁interaction	-10.9554
▁jan	-10.9558
coming	-10.9569
only	-10.9573
uck	-10.9573
▁sal	-10.9575
ford	-10.9583
▁russia	-10.9583
▁nazis	-10.9584
▁poverty	-10.9586
▁cusack	-10.9586
▁helicopter	-10.9586
▁crisis	-10.9587
▁accompanie	-10.9588
▁spots	-10.959
▁angeles	-10.9593
ub	-10.9597
▁lifestyle	-10.96
▁strike	-10.96
▁angela	-10.9607
stop	-10.9614
pre	-10.9619
▁flawless	-10.9624
▁remaining	-10.9626
▁victoria	-10.9631
▁believing	-10.9632
▁pseudo	-10.9632
▁luckily	-10.9633
▁valley	-10.9633
▁importance	-10.9636
▁photographed	-10.9639
▁watches	-10.9639
▁associated	-10.964
▁boom	-10.9647
▁button	-10.9648
▁notion	-10.9648
▁lone	-10.9655
▁discovery	-10.9657
gh	-10.9661
▁explicit	-10.9666
▁ignored	-10.9667
▁chest	-10.9677
▁cliff	-10.9679
▁disjointed	-10.9679
▁austen	-10.9679
ical	-10.9681
▁picking	-10.9681
▁elderly	-10.9686
▁stops	-10.9687
▁accomplished	-10.969
▁aimed	-10.9691
▁lend	-10.9693
▁occur	-10.9694
row	-10.9695
▁evident	-10.9713
▁vague	-10.9713
▁mario	-10.9724
▁inevitable	-10.9725
▁distance	-10.9725
▁charismatic	-10.9726
▁ke	-10.9728
▁countless	-10.9728
▁surrounded	-10.973
▁tap	-10.9733
▁21	-10.9734
▁unintentionally	-10.9736
minded	-10.9737
▁tr	-10.9739
▁canada	-10.974
▁idiots	-10.9744
▁pulling	-10.9747
▁saves	-10.9747
set	-10.9753
michael	-10.9765
▁alexander	-10.9772
▁dentist	-10.9772
▁territory	-10.9772
▁popcorn	-10.9772
▁inventive	-10.9772
▁liking	-10.9772
▁kirk	-10.9773
▁randy	-10.9773
▁encounters	-10.9774
▁gabriel	-10.9775
▁attached	-10.9775
▁admittedly	-10.9781
▁willis	-10.9785
ane	-10.9786
▁reasonable	-10.9795
hour	-10.9801
ide	-10.9802
▁duo	-10.9805
paced	-10.9809
▁meaningless	-10.9812
▁terrorist	-10.9814
ever	-10.9816
dr	-10.9818
▁reflect	-10.9818
▁giallo	-10.9819
▁conspiracy	-10.9819
▁vicious	-10.9819
▁antics	-10.982
av	-10.9822
▁narrator	-10.9822
▁amanda	-10.9824
▁thrillers	-10.9832
▁carter	-10.9835
▁hanks	-10.9837
▁fond	-10.9842
▁travels	-10.9843
▁shortly	-10.9854
such	-10.9855
▁phil	-10.9858
▁lit	-10.9864
▁cannibal	-10.9865
▁astonishing	-10.9866
▁buried	-10.9866
▁dinosaurs	-10.9868
▁spooky	-10.9869
▁recording	-10.987
▁lawrence	-10.987
▁combat	-10.987
▁phrase	-10.9873
▁bold	-10.9877
eg	-10.9879
▁diamond	-10.9886
▁uniform	-10.9886
▁preview	-10.9887
▁glenn	-10.9887
long	-10.9887
▁tender	-10.9887
▁dire	-10.989
are	-10.9896
▁solo	-10.9896
▁def	-10.9899
▁revealing	-10.99
▁firm	-10.9902
▁myth	-10.9907
▁elephant	-10.9913
▁argento	-10.9914
▁generic	-10.9914
▁detailed	-10.9915
▁murray	-10.9917
▁50'	-10.9919
▁worthless	-10.9924
▁albe	-10.9924
▁prize	-10.9928
▁yard	-10.9929
comedy	-10.9931
▁argument	-10.9934
▁ticket	-10.9935
▁sadistic	-10.9936
▁mann	-10.994
▁impress	-10.9941
letting	-10.9946
▁mor	-10.9953
▁rely	-10.9955
ini	-10.9958
worthy	-10.9959
▁homosexual	-10.996
▁university	-10.9961
▁unwatchable	-10.9961
▁yesterday	-10.9961
▁abc	-10.9964
▁der	-10.997
▁childish	-10.9971
▁factory	-10.998
▁demands	-10.9982
uff	-10.9983
▁individuals	-10.9984
then	-10.9989
▁bre	-10.999
▁listed	-10.9992
▁reactions	-10.9993
▁dimension	-10.9995
▁counter	-10.9997
▁ch	-10.9997
▁unit	-10.9998
▁grab	-10.9998
▁todd	-10.9999
▁franco	-11.0003
▁goodness	-11.0003
50	-11.0005
▁continued	-11.0005
▁royal	-11.0006
▁hamilton	-11.0009
▁hatred	-11.001
▁distant	-11.0013
▁dorothy	-11.0013
▁receive	-11.0016
bal	-11.0018
▁arrested	-11.002
▁overdone	-11.002
▁videos	-11.0022
▁cases	-11.0023
▁allowing	-11.003
▁cared	-11.0031
night	-11.0032
▁afterwards	-11.0033
▁killings	-11.0033
iv	-11.0034
▁thrill	-11.0037
ising	-11.004
▁quit	-11.0042
▁dump	-11.0042
▁smooth	-11.0044
▁nights	-11.0049
▁shoots	-11.005
▁ranks	-11.0051
▁kitchen	-11.0057
▁grandmother	-11.0057
▁rural	-11.0057
▁sandler	-11.0058
▁cd	-11.0058
▁operation	-11.0058
▁wrestling	-11.0059
▁inspiring	-11.0064
▁chicken	-11.0065
▁ridiculously	-11.0068
▁bump	-11.0071
▁offended	-11.0073
▁hitting	-11.0078
und	-11.0088
▁segments	-11.01
▁tag	-11.0102
▁abysmal	-11.0105
▁reunion	-11.0105
▁unbelievably	-11.0105
▁wallace	-11.0106
▁involvement	-11.0106
▁transformation	-11.0107
▁spider	-11.0107
▁hardcore	-11.0109
▁arrive	-11.0115
▁directorial	-11.0117
▁cons	-11.0117
nn	-11.0118
▁painting	-11.0119
▁bang	-11.012
▁dee	-11.0126
▁burned	-11.0126
mann	-11.013
▁achievement	-11.0132
▁superbly	-11.0133
▁purchase	-11.0138
▁digital	-11.0141
▁defeat	-11.0144
▁performing	-11.0151
▁comfort	-11.0152
▁depression	-11.0154
▁illegal	-11.0154
▁juvenile	-11.0154
▁spielberg	-11.0154
▁causing	-11.0154
▁chaos	-11.0154
▁tracy	-11.0156
nu	-11.0161
▁matthew	-11.0164
▁nu	-11.0177
▁subsequent	-11.019
▁nut	-11.0194
▁winds	-11.0195
▁lincoln	-11.0203
▁devoid	-11.0203
▁damme	-11.0203
▁diane	-11.0203
▁lol	-11.0203
▁dutch	-11.0204
▁comfortable	-11.0204
▁traveling	-11.0204
▁devoted	-11.0205
▁reflection	-11.0206
▁additional	-11.0208
▁sentence	-11.0215
▁alternate	-11.0223
▁iii	-11.0225
▁displays	-11.0226
▁returned	-11.023
▁tunes	-11.0234
▁escaped	-11.0235
▁transfer	-11.024
▁plant	-11.0241
▁hu	-11.0244
tes	-11.0246
▁crystal	-11.0252
▁quinn	-11.0252
▁derek	-11.0252
▁kidding	-11.0252
▁campbell	-11.0252
lie	-11.0253
▁duty	-11.0253
▁brando	-11.0255
▁overwhelming	-11.0256
▁extended	-11.0258
▁neil	-11.0261
▁fest	-11.0264
je	-11.0266
▁conventional	-11.0271
ned	-11.0278
▁widow	-11.0279
▁boll	-11.0279
▁scripted	-11.0282
▁improve	-11.0292
▁implausible	-11.0301
▁glover	-11.0303
▁trio	-11.0306
▁reed	-11.0306
▁claire	-11.0308
▁col	-11.0311
▁abilities	-11.0312
air	-11.0319
▁slice	-11.0321
▁highest	-11.0323
▁advise	-11.0325
▁gar	-11.0327
▁shine	-11.0329
tom	-11.0339
because	-11.0347
az	-11.0348
▁lyrics	-11.0348
▁poison	-11.035
▁synopsis	-11.035
▁grasp	-11.0351
▁unbearable	-11.0352
▁margaret	-11.0353
▁thoughtful	-11.0355
▁andy	-11.0359
▁classical	-11.0373
▁hearts	-11.0376
▁executive	-11.0384
▁kinds	-11.0385
▁prostitute	-11.0385
▁square	-11.0387
most	-11.0388
▁mag	-11.0389
▁oscars	-11.039
right	-11.0394
len	-11.0394
▁wrap	-11.04
▁streep	-11.04
▁survival	-11.04
▁worried	-11.04
▁ireland	-11.0401
▁stanley	-11.0401
▁affection	-11.0403
▁temple	-11.0404
▁pressure	-11.0404
▁rubber	-11.0405
▁disturbed	-11.0405
qui	-11.0413
▁bears	-11.0416
▁sadness	-11.0421
▁milk	-11.0424
▁fer	-11.0429
than	-11.0429
▁resembles	-11.0432
▁invite	-11.0434
▁trans	-11.0443
▁clues	-11.0446
▁fired	-11.045
▁miserable	-11.045
▁bathroom	-11.045
▁estate	-11.0451
▁planning	-11.0451
▁secretary	-11.0452
▁alternative	-11.0453
▁represents	-11.0453
py	-11.0453
▁crimes	-11.0456
▁craig	-11.0456
▁selfish	-11.0458
▁overlooked	-11.0461
▁tame	-11.0464
▁tit	-11.0464
eyed	-11.0467
▁ned	-11.0473
▁vice	-11.0477
▁bay	-11.0481
▁strikes	-11.0486
▁defend	-11.0487
▁peak	-11.0494
ties	-11.0497
▁emperor	-11.05
▁contrary	-11.0501
▁dedicated	-11.0502
▁menace	-11.0502
▁lin	-11.0506
▁strictly	-11.0507
▁foul	-11.0508
▁fo	-11.0509
▁delivering	-11.0516
▁tin	-11.0517
▁pushed	-11.0521
▁improved	-11.0521
▁misses	-11.0527
▁principal	-11.0536
▁commented	-11.0547
▁fed	-11.055
▁clumsy	-11.0551
▁psychiatrist	-11.0551
▁rendition	-11.0551
▁website	-11.0551
▁furthermore	-11.0552
van	-11.0557
▁jar	-11.0563
▁intrigued	-11.057
▁affected	-11.0571
▁carrie	-11.0572
▁teaching	-11.0578
▁occurs	-11.0585
▁riot	-11.0587
▁photo	-11.0589
away	-11.0599
▁captivating	-11.0602
▁exotic	-11.0602
▁unoriginal	-11.0603
▁loyal	-11.0604
▁staying	-11.0605
ug	-11.0608
▁politically	-11.0615
▁prisoner	-11.0616
bs	-11.0617
▁dust	-11.0626
▁rage	-11.0632
▁beats	-11.0641
▁butcher	-11.0646
▁gut	-11.0647
ez	-11.0647
▁user	-11.0648
▁ol	-11.065
▁buddies	-11.0653
▁junior	-11.0653
▁producing	-11.0653
▁absence	-11.0653
▁sloppy	-11.0653
▁troma	-11.0653
▁elvis	-11.0653
▁slightest	-11.0654
▁explore	-11.0659
▁stereotype	-11.0676
▁masters	-11.0691
▁endure	-11.0696
fer	-11.0696
▁builds	-11.0697
▁vast	-11.0697
▁waters	-11.0697
▁notably	-11.0699
▁folk	-11.0702
▁branagh	-11.0704
▁kubrick	-11.0704
▁mixture	-11.0704
▁philosophy	-11.0704
▁punishment	-11.0704
▁psychotic	-11.0705
▁yellow	-11.0708
▁calm	-11.0708
▁scientific	-11.071
▁sue	-11.071
▁removed	-11.0719
elli	-11.0725
▁buster	-11.0728
▁secondly	-11.0728
hop	-11.0738
▁turner	-11.0739
will	-11.0742
▁provoking	-11.0744
tz	-11.0745
sky	-11.0746
▁hollow	-11.0756
▁tribe	-11.0756
▁choreography	-11.0756
▁eighties	-11.0757
▁performer	-11.076
▁aka	-11.078
ray	-11.0783
▁enters	-11.0784
▁dramas	-11.0787
▁settle	-11.079
▁engage	-11.0791
▁damage	-11.0792
▁parallel	-11.0798
▁battles	-11.0803
▁squad	-11.0807
▁coffee	-11.0807
▁curtis	-11.0807
▁possibility	-11.0807
▁simplistic	-11.0807
▁gradually	-11.0809
▁falk	-11.081
▁ah	-11.0811
vy	-11.0811
▁exaggerated	-11.0812
▁jeremy	-11.0813
▁stronger	-11.0824
ator	-11.0824
▁rights	-11.0827
▁doc	-11.0829
ability	-11.0832
▁awe	-11.0832
▁sacrifice	-11.0836
story	-11.0843
▁blond	-11.0847
▁explaining	-11.0848
▁scheme	-11.0851
jack	-11.0851
▁pants	-11.0859
▁kurt	-11.0859
▁artificial	-11.0859
▁innovative	-11.0859
▁poetry	-11.086
▁mtv	-11.0861
▁les	-11.0865
▁communist	-11.0865
▁cox	-11.0866
▁nearby	-11.0866
▁steel	-11.0869
▁clothing	-11.0869
▁metaphor	-11.088
▁walls	-11.0889
▁vegas	-11.0895
▁bette	-11.0896
pping	-11.0896
read	-11.0902
plot	-11.0905
▁warrior	-11.0905
place	-11.0907
▁leonard	-11.0908
▁5.	-11.091
▁favour	-11.0912
▁arrogant	-11.0912
▁depressed	-11.0912
▁ironically	-11.0913
▁resemblance	-11.0913
▁harder	-11.0918
▁blues	-11.0921
lar	-11.0923
gy	-11.0929
▁errors	-11.093
▁fighter	-11.0933
▁fears	-11.0937
▁involve	-11.0942
was	-11.0943
▁bud	-11.0946
▁reached	-11.0946
cho	-11.0947
zi	-11.0951
▁dim	-11.0953
▁holy	-11.0954
ged	-11.0955
▁recorded	-11.0957
▁establish	-11.0958
pper	-11.0959
▁colonel	-11.0964
▁judging	-11.0964
▁mafia	-11.0964
▁solution	-11.0965
▁population	-11.0965
▁throat	-11.0965
▁staged	-11.0965
▁anyways	-11.0968
press	-11.0973
▁shining	-11.0973
▁distracting	-11.0978
▁tri	-11.0982
▁bow	-11.1006
▁explosion	-11.1013
▁detract	-11.1017
▁convoluted	-11.1017
▁frustration	-11.1017
▁proceedings	-11.1018
▁occurred	-11.1018
▁murderous	-11.1023
▁coherent	-11.1027
love	-11.1031
▁tan	-11.1034
human	-11.1036
▁ki	-11.1037
▁headed	-11.1039
▁recognized	-11.1053
▁existed	-11.1058
▁blatant	-11.1058
▁alter	-11.1061
bit	-11.1063
▁rod	-11.1063
▁nail	-11.1063
▁aging	-11.1064
▁agreed	-11.1064
▁scarecrow	-11.1069
▁cards	-11.107
▁bargain	-11.1071
▁dignity	-11.1071
▁isolated	-11.1071
▁museum	-11.1071
▁trademark	-11.1071
▁homeless	-11.1072
▁cliche	-11.1072
▁robinson	-11.1073
▁andrew	-11.1076
▁alert	-11.1078
▁mistaken	-11.1082
▁cheating	-11.1082
▁represent	-11.1084
guy	-11.1086
ay	-11.1089
▁poetic	-11.1092
▁creep	-11.1094
▁props	-11.1103
▁terrorists	-11.1107
▁guarantee	-11.1108
▁prepare	-11.1108
▁scratch	-11.1109
▁closed	-11.1112
▁dinosaur	-11.1122
▁frustrating	-11.1124
▁recognition	-11.1124
▁baldwin	-11.1124
▁norris	-11.1126
▁subtlety	-11.1126
▁morality	-11.1127
▁copies	-11.113
▁wagon	-11.1134
▁doors	-11.1136
▁panic	-11.1136
ap	-11.1138
▁ought	-11.1139
▁din	-11.1144
▁confess	-11.1145
▁cheek	-11.1153
core	-11.1155
▁motives	-11.1157
▁areas	-11.1158
▁flee	-11.116
▁attract	-11.116
▁beg	-11.1162
▁official	-11.1163
▁wont	-11.1167
val	-11.117
▁suspicious	-11.1178
▁beneath	-11.1178
▁versus	-11.1178
▁stellar	-11.118
▁tonight	-11.1181
▁eaten	-11.1182
still	-11.1183
▁bates	-11.1188
▁cats	-11.1191
▁alfred	-11.1196
▁exposed	-11.1197
nia	-11.1198
▁reel	-11.1198
▁succeeded	-11.1201
▁package	-11.1203
▁scarlett	-11.1205
▁screams	-11.1206
▁influenced	-11.1212
▁predict	-11.1215
......	-11.1217
▁enormous	-11.1219
▁*****	-11.1219
▁instant	-11.1219
▁dev	-11.1229
▁pale	-11.1231
▁lemmon	-11.1232
▁manhattan	-11.1232
▁primarily	-11.1232
▁shirley	-11.1232
▁differences	-11.1232
▁marty	-11.1234
▁emphasis	-11.1235
▁marks	-11.1235
▁countryside	-11.1236
▁report	-11.1236
▁tad	-11.1237
▁secrets	-11.124
▁rocks	-11.1242
▁consistently	-11.1244
▁dar	-11.1255
▁arc	-11.1257
▁aid	-11.126
▁witnessed	-11.1261
gue	-11.1262
▁fooled	-11.1265
acted	-11.1268
▁ze	-11.1271
▁darker	-11.1272
▁divorce	-11.1275
▁conversations	-11.1279
▁morris	-11.1284
▁comparing	-11.1286
▁edition	-11.1288
▁bonus	-11.1288
▁robbery	-11.1289
white	-11.1292
▁reaches	-11.1294
▁depicts	-11.1295
▁sheen	-11.1298
▁circle	-11.13
▁justify	-11.13
hand	-11.1301
▁inappropriate	-11.1302
port	-11.1304
▁mayor	-11.1304
▁vivid	-11.1328
▁projects	-11.1328
▁unintentional	-11.1329
▁titled	-11.133
shot	-11.1336
▁enemies	-11.1341
▁statue	-11.1341
▁undoubtedly	-11.1342
▁blew	-11.1343
▁terry	-11.1345
drama	-11.1347
▁leap	-11.1349
▁region	-11.1352
▁belong	-11.1354
▁psychic	-11.1354
▁passes	-11.1355
▁lips	-11.1356
zo	-11.1363
▁sen	-11.1363
▁awake	-11.1365
▁huh	-11.1367
▁stark	-11.1373
▁adequate	-11.1383
▁programme	-11.1391
▁myers	-11.1392
▁harm	-11.1393
▁contest	-11.1395
▁aforementioned	-11.1396
▁nervous	-11.1396
▁shelf	-11.1396
▁miracle	-11.1396
▁garfield	-11.1396
▁feed	-11.1402
wing	-11.1406
▁fla	-11.141
▁bela	-11.1411
▁forty	-11.1413
▁ty	-11.1416
▁prisoners	-11.1418
▁threatening	-11.1423
▁contribute	-11.143
▁signs	-11.1433
qua	-11.1436
hr	-11.1437
▁honesty	-11.1437
▁spark	-11.1437
ea	-11.1441
▁mall	-11.1444
▁hung	-11.1445
▁education	-11.1448
▁excruciating	-11.1451
▁elegant	-11.1451
▁imitation	-11.1451
▁gear	-11.1451
▁planned	-11.1452
▁nicole	-11.1453
▁downhill	-11.1453
robert	-11.1454
▁mason	-11.1454
view	-11.1454
▁keen	-11.1456
hood	-11.1459
▁brains	-11.146
ai	-11.1466
ates	-11.1469
ries	-11.1469
gar	-11.1471
▁classes	-11.1476
ure	-11.1481
▁agents	-11.1483
▁inspire	-11.149
▁messages	-11.1493
▁hart	-11.1495
▁interact	-11.1498
br	-11.15
▁similarly	-11.15
▁sleaze	-11.1507
▁spiral	-11.1507
▁intimate	-11.1507
▁venture	-11.1507
▁objective	-11.1508
▁comics	-11.1513
▁fri	-11.1516
▁keith	-11.1517
▁doomed	-11.1521
iff	-11.1523
▁overrated	-11.1523
▁mars	-11.1524
▁gu	-11.1533
▁spread	-11.1548
▁nightmares	-11.1548
▁trained	-11.1549
ified	-11.1549
▁bullets	-11.1551
▁ross	-11.1551
▁masterful	-11.1552
▁wonders	-11.1553
hero	-11.1554
▁las	-11.1555
▁offend	-11.1558
▁pun	-11.1561
make	-11.1561
▁gangsters	-11.1562
▁bourne	-11.1562
▁compliment	-11.1562
▁35	-11.1563
▁barney	-11.1564
nce	-11.1566
▁unfolds	-11.1566
▁closet	-11.1567
▁frankie	-11.1569
▁immensely	-11.1569
▁runner	-11.1569
▁prejudice	-11.1569
awful	-11.1571
▁loads	-11.1571
▁eastern	-11.1574
both	-11.1577
▁decisions	-11.1578
▁maniac	-11.158
▁trace	-11.1586
▁shake	-11.1588
▁notes	-11.1588
real	-11.1592
sta	-11.1603
▁graham	-11.1612
▁equipment	-11.1619
▁grotesque	-11.1619
▁horrifying	-11.1619
▁bruno	-11.162
▁satisfied	-11.1622
▁formulaic	-11.1623
▁dynamic	-11.1627
▁mistress	-11.1627
▁span	-11.1631
▁sim	-11.1631
▁macy	-11.1634
▁fingers	-11.1636
▁pla	-11.1638
▁method	-11.1641
▁whit	-11.1642
vis	-11.1642
▁superhero	-11.1644
▁limits	-11.1647
▁pushing	-11.1651
▁progress	-11.1652
ular	-11.1657
▁tripe	-11.1657
▁displayed	-11.1657
ali	-11.1658
▁josh	-11.1666
▁label	-11.1667
▁smaller	-11.1668
▁switch	-11.167
▁models	-11.1671
▁ro	-11.1673
▁guitar	-11.1673
▁mode	-11.1674
▁cagney	-11.1675
▁debate	-11.1675
▁rotten	-11.1675
▁tramp	-11.1675
▁bronson	-11.1675
world	-11.1676
▁specifically	-11.1676
▁airport	-11.1676
▁fever	-11.1677
▁philosophical	-11.168
about	-11.168
roll	-11.1681
▁clone	-11.1682
▁presumably	-11.1683
▁slave	-11.1686
▁cake	-11.1686
▁trees	-11.1692
▁ali	-11.1705
▁romp	-11.1706
▁officers	-11.1711
▁legal	-11.1723
ano	-11.1727
▁adorable	-11.1732
▁cassavetes	-11.1732
▁creativity	-11.1732
▁empire	-11.1732
▁stilted	-11.1732
▁pitiful	-11.1732
▁flood	-11.1732
▁primary	-11.1732
▁seventies	-11.1733
▁edgar	-11.1733
▁karate	-11.1734
▁lucas	-11.1734
▁cinematographer	-11.1735
▁reduced	-11.1738
▁wore	-11.1738
▁cheated	-11.1741
▁mil	-11.1747
▁th	-11.1748
▁imagined	-11.1748
▁partly	-11.175
▁ease	-11.1751
ically	-11.1755
▁covers	-11.1757
▁transform	-11.177
ski	-11.1776
list	-11.1781
▁ruins	-11.1784
▁florida	-11.1789
▁nostalgia	-11.1789
▁illogical	-11.1789
▁vocal	-11.1789
▁wrapped	-11.1789
▁composer	-11.179
▁subplots	-11.1792
▁describes	-11.1794
▁illness	-11.1796
handed	-11.1798
sp	-11.18
its	-11.1805
▁rebel	-11.181
nk	-11.1811
regarding	-11.1814
▁cue	-11.1816
▁hilariously	-11.1818
ien	-11.182
board	-11.1824
▁ps	-11.1828
ations	-11.183
▁recommendation	-11.1831
▁sons	-11.1832
▁consistent	-11.1835
▁edit	-11.1838
▁trashy	-11.1839
▁ears	-11.1839
▁advance	-11.1844
▁martha	-11.1847
▁bean	-11.1847
▁smell	-11.1847
▁workers	-11.1847
▁feast	-11.1847
▁flies	-11.1847
▁sappy	-11.1848
great	-11.1851
▁uneven	-11.1858
dis	-11.186
ative	-11.1865
▁solely	-11.1865
▁alike	-11.1873
acting	-11.1874
▁hy	-11.1884
mb	-11.1886
▁bust	-11.1888
▁kicked	-11.1893
▁swing	-11.1903
▁crawford	-11.1904
▁jordan	-11.1904
▁pattern	-11.1904
▁riveting	-11.1904
▁scooby	-11.1904
▁swimming	-11.1904
▁embarrassment	-11.1905
▁rita	-11.1906
▁priceless	-11.1908
▁noted	-11.1908
▁nerd	-11.1911
▁coat	-11.1916
▁doug	-11.1916
▁borrowed	-11.1919
ella	-11.1919
▁pig	-11.1923
▁cream	-11.1923
master	-11.1941
▁addict	-11.1945
▁slaughter	-11.1947
▁passionate	-11.1951
▁inane	-11.1952
▁gus	-11.1957
▁historically	-11.1959
▁grudge	-11.1963
▁huston	-11.1963
▁rude	-11.1964
▁2004	-11.1966
▁similarities	-11.1966
▁considerable	-11.1969
▁wi	-11.1969
▁constructed	-11.197
▁tracks	-11.1983
▁function	-11.1985
▁parties	-11.1999
▁movements	-11.1999
act	-11.1999
▁desired	-11.2007
show	-11.2007
under	-11.2014
▁address	-11.2016
win	-11.2018
▁griffith	-11.2021
▁harvey	-11.2021
▁absent	-11.2021
▁aussie	-11.2021
▁felix	-11.2021
▁composed	-11.2024
▁progresses	-11.2024
▁titanic	-11.2025
▁suitable	-11.2028
▁dating	-11.2029
▁mentioning	-11.2031
makers	-11.2031
▁centre	-11.2034
▁cannon	-11.2034
▁wound	-11.2035
▁stinks	-11.2039
esh	-11.2044
▁fields	-11.2046
▁sticks	-11.2051
▁pretending	-11.2061
sses	-11.2061
▁tail	-11.2063
ura	-11.2065
▁financial	-11.2067
▁eager	-11.2067
▁survived	-11.2068
▁cg	-11.2069
▁frequent	-11.2074
▁crucial	-11.208
▁plausible	-11.208
▁tyler	-11.208
esque	-11.2082
▁gentleman	-11.2083
▁dozens	-11.2084
▁mankind	-11.2086
▁corman	-11.2089
▁chased	-11.2101
▁introduces	-11.2107
mel	-11.2107
▁ab	-11.2114
▁puzzle	-11.2123
▁darn	-11.2123
▁define	-11.2124
▁moody	-11.2125
▁survivors	-11.2127
▁contained	-11.2128
▁trend	-11.2132
▁developing	-11.2137
▁dimensional	-11.2139
▁tunnel	-11.2139
▁vengeance	-11.2139
▁fought	-11.2139
point	-11.2143
▁glasses	-11.2144
▁gate	-11.2147
▁fist	-11.2147
▁leo	-11.2151
pol	-11.2156
▁discuss	-11.2156
▁topless	-11.2158
▁portion	-11.216
▁ru	-11.217
form	-11.2171
▁drawing	-11.2172
▁traffic	-11.2176
ita	-11.2179
lock	-11.2179
going	-11.218
▁ranger	-11.2181
▁lately	-11.2182
fire	-11.2185
▁suited	-11.2187
▁spoke	-11.2195
▁twelve	-11.2199
▁circus	-11.2199
▁nicholson	-11.2199
▁garbo	-11.22
▁perry	-11.2201
▁wizard	-11.2203
▁yawn	-11.2209
▁sullivan	-11.2211
▁convincingly	-11.2211
room	-11.2211
▁catches	-11.2215
▁explored	-11.2217
▁thru	-11.2218
▁chances	-11.2224
▁odds	-11.2229
▁7.	-11.2238
▁replace	-11.2245
▁ingredients	-11.2248
▁dirt	-11.2251
▁saga	-11.2256
▁ruth	-11.2257
▁incompetent	-11.2258
▁inferior	-11.2258
▁nostalgic	-11.2258
▁advertising	-11.2258
▁turkish	-11.2259
▁bullock	-11.2259
▁ignorant	-11.2259
▁safety	-11.226
▁chuckle	-11.2263
▁careers	-11.2266
▁rave	-11.2269
wan	-11.2272
▁disappeared	-11.2273
▁earned	-11.2279
did	-11.2279
▁nomination	-11.2286
▁butler	-11.2291
▁dud	-11.2292
uc	-11.2294
▁brutally	-11.23
▁brit	-11.2303
▁affect	-11.2303
▁mail	-11.2304
▁shaw	-11.2305
▁guessed	-11.2306
▁wealth	-11.2311
▁mon	-11.2311
▁annie	-11.2312
▁resemble	-11.2312
ium	-11.2318
▁challenging	-11.2319
▁chainsaw	-11.2319
dom	-11.232
▁davies	-11.2328
gged	-11.2333
▁doom	-11.2335
▁transition	-11.2343
▁strangers	-11.2343
▁clip	-11.2345
▁relation	-11.2347
▁har	-11.2356
mart	-11.2357
▁justin	-11.2358
▁wished	-11.237
maker	-11.2377
▁delicate	-11.2379
▁mysteries	-11.2379
▁defense	-11.2379
▁banned	-11.2379
▁quaid	-11.238
▁sailor	-11.2381
▁faster	-11.2381
▁suggested	-11.2383
▁conservative	-11.2385
▁roommate	-11.2386
far	-11.239
▁leigh	-11.239
fully	-11.2391
▁dolls	-11.2394
▁crisp	-11.2398
▁rocky	-11.2399
▁jaw	-11.2399
ches	-11.2402
des	-11.2405
▁boo	-11.2412
▁careful	-11.2412
▁den	-11.2422
▁subjects	-11.2425
▁dame	-11.2429
▁disappear	-11.2431
▁mountains	-11.2433
▁3000	-11.2435
▁fl	-11.244
▁capturing	-11.244
▁vein	-11.2442
▁prey	-11.2444
▁karloff	-11.2445
▁ties	-11.2445
▁auto	-11.2447
thriller	-11.2448
▁sincere	-11.2448
book	-11.2452
▁avoided	-11.2458
▁lowest	-11.2465
▁attend	-11.2465
▁borrow	-11.2465
▁wil	-11.2466
▁roller	-11.2473
▁painted	-11.2473
▁bite	-11.2475
▁hum	-11.2475
▁relations	-11.2476
▁useful	-11.2482
▁lock	-11.2486
▁senseless	-11.2493
▁mal	-11.2495
▁er	-11.2499
climactic	-11.2501
▁damned	-11.2501
▁global	-11.2501
▁campaign	-11.2502
▁rifle	-11.2502
▁samurai	-11.2502
▁twilight	-11.2502
▁understated	-11.2502
▁despair	-11.2502
▁sixties	-11.2502
▁corruption	-11.2503
▁confrontation	-11.2504
▁map	-11.2506
▁deliberately	-11.2508
probably	-11.251
▁walt	-11.251
▁rope	-11.2514
▁purchased	-11.2522
▁electric	-11.2525
▁occasion	-11.2528
▁newman	-11.2531
▁rag	-11.2532
▁underly	-11.254
▁bam	-11.2545
ett	-11.2554
nny	-11.2557
look	-11.256
▁asylum	-11.2563
▁destiny	-11.2563
▁phantom	-11.2563
▁taught	-11.2563
▁dreary	-11.2563
▁obtain	-11.2563
▁wig	-11.2564
▁dread	-11.2564
▁appreciation	-11.2564
▁harold	-11.2564
▁aim	-11.2565
▁neo	-11.257
▁warmth	-11.257
▁handed	-11.2574
▁alcoholic	-11.2575
▁limit	-11.2579
▁deny	-11.2586
▁adams	-11.259
tte	-11.2592
▁jaws	-11.2598
▁uh	-11.2606
▁sara	-11.261
▁burst	-11.2612
▁pays	-11.2616
30	-11.2617
▁amazon	-11.2625
▁valuable	-11.2625
▁jeffrey	-11.2625
▁flip	-11.2625
▁tiger	-11.2625
▁passage	-11.2628
▁passable	-11.2631
▁labor	-11.2635
▁thugs	-11.2638
▁---	-11.2646
▁awhile	-11.2649
▁ob	-11.265
▁scripts	-11.2655
▁muppet	-11.2658
▁unreal	-11.266
▁remained	-11.2664
ual	-11.2664
ks	-11.267
▁rolled	-11.2678
pr	-11.268
▁sentiment	-11.268
▁puppets	-11.2686
▁responsibility	-11.2688
▁skull	-11.2688
▁deaf	-11.2688
▁pursuit	-11.2688
▁descent	-11.2688
▁improvement	-11.2689
▁greed	-11.2689
▁stale	-11.269
▁waited	-11.2692
▁outfit	-11.2692
▁charlotte	-11.2693
▁bridges	-11.2694
▁marion	-11.2697
▁bla	-11.2699
▁floating	-11.2701
bra	-11.2702
▁stress	-11.2703
▁wounded	-11.2704
hl	-11.2723
▁donna	-11.2723
paul	-11.2731
▁staring	-11.2731
▁opinions	-11.2731
itz	-11.2734
▁concentrate	-11.2734
▁port	-11.2735
spiring	-11.2742
▁glorious	-11.275
▁communicate	-11.2751
▁irrelevant	-11.2751
▁skeleton	-11.2751
▁phony	-11.2751
▁cancer	-11.2751
power	-11.2751
▁unsettling	-11.2751
▁revolutionary	-11.2752
▁kingdom	-11.2752
▁marshall	-11.2752
▁futuristic	-11.2754
▁belt	-11.2755
▁demand	-11.2756
▁groups	-11.2761
▁blowing	-11.2762
box	-11.2763
use	-11.2767
▁wandering	-11.2767
▁fisher	-11.2769
▁spacey	-11.2772
hara	-11.2773
▁introduce	-11.2776
▁seeks	-11.2779
▁trailers	-11.2782
matic	-11.2782
▁lip	-11.2788
▁sar	-11.2789
▁spade	-11.2789
ery	-11.2789
lia	-11.2793
▁polish	-11.2799
▁disguise	-11.2803
▁armed	-11.2804
▁cu	-11.2814
▁carradine	-11.2814
▁desperation	-11.2814
▁minimum	-11.2814
▁soccer	-11.2814
▁bumbling	-11.2814
▁weather	-11.2814
▁watson	-11.2814
▁tiresome	-11.2814
▁frog	-11.2815
▁hokey	-11.2815
▁wacky	-11.2815
▁addiction	-11.2816
▁crocodile	-11.2819
nate	-11.2824
▁commander	-11.2828
▁yelling	-11.283
▁overacting	-11.2831
▁fra	-11.2832
▁stroke	-11.2833
▁conceived	-11.2835
▁cleverly	-11.2835
▁arrived	-11.2835
▁motivations	-11.2836
ben	-11.2837
▁doo	-11.2841
▁amounts	-11.2841
▁rising	-11.2842
▁correctly	-11.2851
tta	-11.2852
▁ny	-11.2862
▁mute	-11.2863
▁buffs	-11.2864
▁pete	-11.2864
▁excessive	-11.2865
▁promote	-11.2871
▁nuts	-11.2876
▁bur	-11.2876
▁wishing	-11.2876
▁domestic	-11.2878
▁paranoia	-11.2878
▁remarkably	-11.2878
▁humble	-11.2878
▁misery	-11.2878
▁civilization	-11.2878
▁miniseries	-11.2878
▁retain	-11.288
▁nyc	-11.288
▁twins	-11.2882
▁teaches	-11.2883
▁access	-11.2885
▁amy	-11.2889
▁gr	-11.289
ncomprehensible	-11.2892
oo	-11.2893
pp	-11.2895
▁drops	-11.2899
▁understandable	-11.2901
▁hank	-11.2906
ving	-11.291
▁breed	-11.2914
laughably	-11.2916
▁threaten	-11.2919
▁lily	-11.2921
▁premiere	-11.293
▁tourist	-11.2938
▁definition	-11.2942
▁possibilities	-11.2942
▁blunt	-11.2942
▁spock	-11.2942
▁golf	-11.2942
▁angst	-11.2942
▁hartley	-11.2943
▁contribution	-11.2943
▁channels	-11.2945
▁educational	-11.2945
▁taxi	-11.2948
▁christie	-11.2949
▁gere	-11.2949
ong	-11.2951
▁secondary	-11.2951
▁musician	-11.2951
▁carmen	-11.2952
▁scope	-11.2954
▁checked	-11.2954
lit	-11.2961
▁clock	-11.2963
lly	-11.2968
▁redeem	-11.2969
▁sw	-11.2969
▁stink	-11.297
ix	-11.2979
-13	-11.2981
▁3)	-11.2984
cher	-11.2986
gle	-11.2989
▁behave	-11.299
▁owe	-11.2993
▁casual	-11.2994
▁cal	-11.2996
▁guests	-11.2997
▁celebrity	-11.3006
▁invasion	-11.3006
▁patience	-11.3006
▁vomit	-11.3006
▁austin	-11.3006
▁facing	-11.3007
▁qua	-11.3007
▁romero	-11.3007
▁glance	-11.3007
▁agenda	-11.3007
▁betrayal	-11.3008
▁daddy	-11.3009
▁warren	-11.3011
▁1999	-11.3012
▁experimental	-11.3012
▁proceeds	-11.3013
▁engineer	-11.3019
▁realizing	-11.3021
ack	-11.3023
fr	-11.3024
▁boris	-11.3026
▁exceptionally	-11.3033
▁hints	-11.3036
▁enhance	-11.3039
▁bitch	-11.3044
▁mat	-11.3047
▁pour	-11.3049
▁landing	-11.3052
▁remove	-11.306
pot	-11.3062
▁intend	-11.3062
▁buildings	-11.3069
▁widmark	-11.3071
▁enthusiasm	-11.3071
▁equivalent	-11.3071
▁jews	-11.3071
▁craven	-11.3072
▁francisco	-11.3073
▁niro	-11.3073
▁barrel	-11.3081
woman	-11.3085
▁cab	-11.3085
▁vaguely	-11.3089
▁directs	-11.309
▁ji	-11.3093
▁gifted	-11.3097
▁beliefs	-11.3104
▁nolan	-11.3108
ria	-11.3111
▁joined	-11.3114
▁saint	-11.3116
▁promised	-11.3117
▁boxing	-11.3117
▁prop	-11.3125
▁nbc	-11.3137
▁ritual	-11.3137
▁triangle	-11.3137
▁champion	-11.3137
▁sink	-11.3137
▁kitty	-11.3137
▁roof	-11.3137
▁bedroom	-11.3138
▁enterprise	-11.3138
▁aaron	-11.3138
▁selection	-11.3138
▁underworld	-11.3139
▁authority	-11.314
▁heartbreaking	-11.3143
brazil	-11.3149
▁species	-11.315
again	-11.3151
▁represented	-11.3155
faced	-11.3159
▁dancers	-11.3163
▁stevens	-11.3168
▁bowl	-11.3173
nor	-11.3175
▁greatness	-11.3176
▁satisfy	-11.3181
▁chapter	-11.3183
▁ku	-11.3183
fan	-11.3185
▁conclude	-11.3186
▁habit	-11.3187
▁suspend	-11.3187
▁lar	-11.3187
▁marketing	-11.3193
▁julian	-11.3195
▁joel	-11.3196
▁disgrace	-11.3199
used	-11.3202
▁mundane	-11.3202
▁narrow	-11.3202
▁arrival	-11.3202
▁behaviour	-11.3202
▁spaghetti	-11.3202
▁travesty	-11.3202
▁smiling	-11.3203
▁velvet	-11.3203
▁warrant	-11.3203
▁ensues	-11.3203
▁orange	-11.3203
▁edgy	-11.3203
▁2007	-11.3205
ola	-11.3211
▁acid	-11.3212
▁weakest	-11.3212
mouth	-11.3215
▁wal	-11.3216
▁severe	-11.322
lee	-11.3224
▁treats	-11.3226
▁expressed	-11.3235
▁gather	-11.3235
▁mighty	-11.3237
ology	-11.324
▁filler	-11.3247
▁catchy	-11.3249
sion	-11.3251
stone	-11.3251
▁catching	-11.3252
▁expose	-11.3252
▁quotes	-11.3254
▁encourage	-11.3256
ama	-11.3261
kel	-11.3266
teen	-11.3267
▁holocaust	-11.3269
▁rhythm	-11.3269
▁ritter	-11.3269
▁uplifting	-11.3269
▁adolescent	-11.3269
▁loneliness	-11.3269
▁corporate	-11.3269
▁bravo	-11.327
▁plight	-11.3271
▁popularity	-11.3274
▁crossing	-11.3291
▁relatives	-11.3293
▁musicians	-11.3294
▁ian	-11.3296
▁claimed	-11.3305
ification	-11.3306
▁shell	-11.3313
▁origin	-11.3314
▁cope	-11.3315
▁hoot	-11.332
▁alcohol	-11.3322
▁unfair	-11.3323
40	-11.3324
headed	-11.3328
▁han	-11.3328
▁pr	-11.3334
▁audition	-11.3335
▁belushi	-11.3335
▁exorcist	-11.3335
▁exploration	-11.3335
▁literature	-11.3335
▁sarandon	-11.3335
▁suffice	-11.3335
▁tomorrow	-11.3335
▁wives	-11.3336
▁barrymore	-11.3336
▁drill	-11.3337
▁household	-11.3337
▁hostage	-11.3337
▁jackass	-11.3338
▁vulnerable	-11.3338
▁....	-11.334
▁exposure	-11.334
▁maid	-11.334
▁scottish	-11.3342
▁berlin	-11.3345
▁dialogues	-11.3345
ara	-11.3349
▁depicting	-11.335
▁flag	-11.3358
notch	-11.3359
▁conditions	-11.3363
▁patients	-11.3369
▁clueless	-11.337
▁complaining	-11.3372
▁babe	-11.3377
▁pee	-11.338
▁horn	-11.338
▁sucker	-11.3381
▁crawl	-11.3381
hole	-11.3389
▁ger	-11.3392
ied	-11.3397
-1	-11.3397
▁citizens	-11.3398
ari	-11.3398
▁psychopath	-11.3401
▁fruit	-11.3402
▁astounding	-11.3402
▁deranged	-11.3402
▁timothy	-11.3402
▁conquer	-11.3403
▁ernest	-11.3403
▁april	-11.3403
▁compelled	-11.3403
▁simultaneously	-11.3404
▁property	-11.3404
cl	-11.3405
▁worker	-11.3405
▁foxx	-11.3406
▁forbidden	-11.3406
▁spain	-11.3407
▁questionable	-11.3412
▁lasted	-11.3412
ice	-11.3414
uk	-11.3419
▁sho	-11.342
note	-11.3422
ight	-11.3428
ero	-11.3437
▁bones	-11.3438
ev	-11.3438
▁refer	-11.3444
▁rome	-11.3448
▁tasteless	-11.3452
▁overlook	-11.3464
▁chicks	-11.3464
▁testament	-11.347
▁thompson	-11.347
▁wisdom	-11.347
▁conrad	-11.347
▁kyle	-11.347
▁construction	-11.3471
▁awfully	-11.3471
▁biography	-11.3471
▁unhappy	-11.3471
▁stack	-11.3471
▁june	-11.3472
▁lang	-11.3472
▁online	-11.3476
▁chess	-11.3483
bert	-11.3486
ns	-11.3487
▁climb	-11.3489
▁um	-11.349
▁matches	-11.349
▁fur	-11.3501
eur	-11.3502
▁attitudes	-11.3505
▁mock	-11.3506
▁capital	-11.3506
▁document	-11.3509
▁comedians	-11.351
▁eats	-11.3526
▁gil	-11.3527
▁creator	-11.3532
▁tooth	-11.3532
▁cuba	-11.3538
▁eternal	-11.3538
▁profanity	-11.3538
▁divine	-11.3538
▁mayhem	-11.3538
▁purple	-11.3538
▁beware	-11.3538
▁manipulative	-11.3538
▁flair	-11.3539
▁samuel	-11.3539
▁diana	-11.3539
▁muddled	-11.3541
▁hopeless	-11.3542
▁discovering	-11.3543
▁'70	-11.3544
▁colin	-11.355
▁internal	-11.355
provoking	-11.3553
motion	-11.3553
▁virginia	-11.3553
▁pray	-11.3556
ile	-11.356
▁forms	-11.356
▁closest	-11.3562
name	-11.3563
▁relax	-11.357
▁challenged	-11.3576
▁pu	-11.3589
▁likewise	-11.3591
▁arrest	-11.3591
▁messed	-11.3596
▁shift	-11.3598
zer	-11.3599
▁willie	-11.36
▁hippie	-11.3604
▁swim	-11.3606
▁integrity	-11.3607
▁dylan	-11.3607
▁session	-11.3607
▁assigned	-11.3607
▁bunny	-11.3607
▁hop	-11.3607
▁gender	-11.3607
▁assassination	-11.3609
▁steer	-11.3614
▁wa	-11.3615
▁kicking	-11.3615
▁ellen	-11.3621
▁washed	-11.3621
▁drove	-11.3624
▁vera	-11.3624
nes	-11.3624
take	-11.3626
▁loaded	-11.3631
▁behold	-11.3632
▁realm	-11.3639
▁generations	-11.3644
▁fashioned	-11.3648
▁trivial	-11.3651
(..	-11.3655
▁embrace	-11.3658
bell	-11.3658
▁schlock	-11.3667
ening	-11.3669
▁arab	-11.3673
▁euro	-11.3674
▁ren	-11.3674
▁seldom	-11.3676
▁simplicity	-11.3676
▁protest	-11.3676
▁unaware	-11.3676
▁1995	-11.3677
▁cruelty	-11.3677
▁petty	-11.3677
▁representation	-11.3678
▁cobb	-11.3679
▁wildly	-11.3679
▁aesthetic	-11.3679
▁robots	-11.368
▁meryl	-11.3681
▁stranded	-11.3681
▁'80	-11.3682
ple	-11.3691
▁secretly	-11.3701
▁respected	-11.3703
▁egg	-11.3706
gr	-11.3707
▁cube	-11.3709
▁nun	-11.3723
▁net	-11.3729
▁transport	-11.373
▁chew	-11.373
lton	-11.373
▁virtual	-11.3732
▁coincidence	-11.3736
▁modest	-11.3739
▁reaching	-11.3739
▁gems	-11.3742
▁abusive	-11.3745
▁fifth	-11.3745
▁judgment	-11.3745
▁kenneth	-11.3745
▁sublime	-11.3745
▁bernard	-11.3745
▁surviving	-11.3745
▁composition	-11.3745
▁femme	-11.3745
pin	-11.3745
▁nonsensical	-11.3745
▁rational	-11.3745
▁decline	-11.3746
▁rehash	-11.3746
▁egyptian	-11.3746
▁marine	-11.3748
▁retired	-11.3751
▁natalie	-11.3751
▁jesse	-11.3752
▁masses	-11.3753
▁23	-11.3757
▁patricia	-11.3758
wife	-11.3759
production	-11.3762
▁dolph	-11.3762
▁standout	-11.3763
▁designer	-11.3764
▁showdown	-11.3769
▁referr	-11.3778
▁disliked	-11.3778
▁alley	-11.3778
▁sale	-11.378
▁meg	-11.3782
▁prom	-11.3785
▁ape	-11.3786
fight	-11.3787
▁neighbors	-11.3788
▁widely	-11.3793
▁moron	-11.3793
era	-11.3794
ena	-11.3802
▁spit	-11.3802
▁heap	-11.3811
▁voyage	-11.3812
▁letters	-11.3812
▁marvel	-11.3814
▁stunned	-11.3815
▁suspicion	-11.3815
▁ginger	-11.3815
▁visible	-11.3816
▁parade	-11.3818
▁fascinated	-11.3818
▁jacket	-11.3819
▁arguably	-11.3819
▁maggie	-11.3819
▁complexity	-11.3819
▁profit	-11.3821
▁hyde	-11.3822
▁poem	-11.3825
▁molly	-11.3825
pass	-11.3827
▁birds	-11.3828
▁couch	-11.3828
come	-11.3829
tain	-11.383
james	-11.3832
forward	-11.3832
▁photos	-11.3833
another	-11.3835
god	-11.3836
▁comp	-11.3836
yo	-11.3837
▁centers	-11.3838
▁haunt	-11.3849
.......	-11.3851
▁reward	-11.3854
▁hooker	-11.3855
▁spa	-11.3855
www	-11.3858
▁heston	-11.3861
ala	-11.3862
ale	-11.3863
▁namely	-11.3866
▁toys	-11.3869
▁faults	-11.3873
new	-11.3874
▁ww	-11.3875
▁raises	-11.3876
▁quarter	-11.3879
▁complaints	-11.3881
▁gap	-11.3885
▁accuracy	-11.3885
▁akshay	-11.3885
▁dilemma	-11.3885
▁silliness	-11.3885
▁smack	-11.3885
▁moreover	-11.3885
▁prequel	-11.3886
▁unpredictable	-11.3886
▁heartwarming	-11.3886
▁minister	-11.3887
▁harmless	-11.3889
▁agrees	-11.3892
▁helm	-11.3892
▁dresses	-11.3892
▁wong	-11.3892
▁witnesses	-11.3893
cal	-11.3894
▁greedy	-11.3895
▁conan	-11.3897
particularly	-11.3903
▁aids	-11.3904
eau	-11.3906
▁kat	-11.3907
▁advanced	-11.3908
▁refused	-11.3909
based	-11.391
▁juliet	-11.3915
tty	-11.3916
▁unfold	-11.3916
▁hay	-11.3924
nick	-11.3932
▁require	-11.3937
▁distinct	-11.3941
▁jumped	-11.3942
▁waves	-11.3943
mill	-11.3944
▁tar	-11.3954
▁institution	-11.3956
▁cyborg	-11.3956
▁globe	-11.3956
▁motorcycle	-11.3956
▁pioneer	-11.3956
▁wretched	-11.3956
▁distress	-11.3957
▁candidate	-11.3957
▁raymond	-11.3962
▁harrison	-11.3963
▁nicholas	-11.3963
▁para	-11.3964
▁intentionally	-11.3968
▁reader	-11.3968
▁cookie	-11.3972
▁hates	-11.3974
▁stumbled	-11.3975
▁worn	-11.3976
▁resources	-11.3979
▁icon	-11.3983
▁ph	-11.3984
-19	-11.3987
ada	-11.3998
▁realised	-11.3998
▁mum	-11.4001
ching	-11.4009
▁stu	-11.4013
▁methods	-11.4016
dding	-11.4019
ula	-11.402
stars	-11.4023
▁simpson	-11.4026
▁lackluster	-11.4028
▁nephew	-11.4028
▁rooney	-11.4028
▁sunshine	-11.4028
▁respond	-11.4028
▁bogart	-11.4028
▁straightforward	-11.4029
▁conviction	-11.4029
▁barker	-11.4029
▁hughes	-11.4031
cus	-11.4032
▁grainy	-11.4033
▁bands	-11.4033
▁lauren	-11.4039
▁claude	-11.4046
▁surfing	-11.4047
▁promises	-11.4053
▁pops	-11.4054
▁ser	-11.4057
▁monk	-11.4058
▁iraq	-11.4061
▁raj	-11.4066
▁moronic	-11.4069
▁abused	-11.4073
▁backgrounds	-11.4073
oli	-11.4074
▁stra	-11.4076
hal	-11.408
▁writes	-11.4086
ob	-11.4087
▁carlos	-11.4095
ik	-11.4099
▁descend	-11.4099
▁companies	-11.41
▁elvira	-11.41
▁insipid	-11.41
▁miyazaki	-11.41
▁accompany	-11.41
▁robbins	-11.41
▁venice	-11.41
▁kapoor	-11.41
▁click	-11.41
▁static	-11.41
▁sunny	-11.4101
▁blackmail	-11.4101
▁cities	-11.4104
▁zoom	-11.4105
▁candle	-11.4108
▁cheer	-11.411
▁jam	-11.4115
▁option	-11.4119
▁polished	-11.4124
▁shore	-11.4128
▁eli	-11.4129
▁heading	-11.4131
▁policeman	-11.4132
▁sometime	-11.4137
ient	-11.4139
▁disappears	-11.4139
▁pursue	-11.4139
▁greg	-11.4147
rou	-11.4159
▁genres	-11.416
lyn	-11.4165
▁ti	-11.4169
▁bike	-11.417
▁activities	-11.4172
▁brooklyn	-11.4172
▁distribution	-11.4172
▁fantasies	-11.4172
▁ignorance	-11.4172
▁snipes	-11.4173
▁farrell	-11.4173
col	-11.4174
▁apple	-11.418
▁whale	-11.419
▁invited	-11.4196
lic	-11.4203
▁latin	-11.4204
▁objects	-11.4207
stein	-11.4207
pen	-11.4208
▁occasions	-11.421
nal	-11.421
▁balls	-11.4217
▁lively	-11.4218
▁rex	-11.4221
▁rider	-11.4226
▁spine	-11.4226
▁adore	-11.4231
while	-11.4231
▁99	-11.4238
▁landscapes	-11.424
▁vulgar	-11.4244
▁nemesis	-11.4245
▁supply	-11.4245
▁travolta	-11.4245
▁unravel	-11.4245
▁variation	-11.4245
▁wardrobe	-11.4245
▁drake	-11.4245
▁dysfunctional	-11.4246
▁dickens	-11.4246
▁riddle	-11.4246
▁widescreen	-11.4247
▁tacky	-11.4249
▁salman	-11.4249
▁2002	-11.4249
▁2003	-11.425
▁radical	-11.4255
▁pleasing	-11.4255
▁sung	-11.4256
▁ensure	-11.4259
dead	-11.4265
perhaps	-11.4265
rick	-11.4265
▁helpless	-11.4268
▁outline	-11.4268
nar	-11.4274
var	-11.4278
▁collect	-11.4289
bill	-11.429
▁sweat	-11.4293
▁stiller	-11.4294
▁shoulder	-11.4295
▁des	-11.4298
▁dismiss	-11.4304
▁noises	-11.4306
sign	-11.4306
▁hurts	-11.4312
bin	-11.4318
ory	-11.4318
▁attorney	-11.4319
▁godzilla	-11.4319
▁babies	-11.4319
▁astaire	-11.4319
▁corporation	-11.4319
▁hulk	-11.4319
▁northern	-11.4319
▁pimp	-11.4319
▁banal	-11.432
▁spectacle	-11.4322
▁rusty	-11.4322
▁uwe	-11.4323
▁misleading	-11.4324
▁choreographed	-11.4328
▁biased	-11.4329
▁leon	-11.4333
▁severely	-11.4333
▁troops	-11.4337
▁businessman	-11.4338
▁exit	-11.434
▁apes	-11.4344
▁scores	-11.4345
▁lands	-11.4352
fall	-11.4354
rent	-11.4356
▁thunder	-11.4358
▁spirits	-11.4361
▁cary	-11.4362
▁sid	-11.4363
▁nod	-11.4368
▁scr	-11.4369
ail	-11.4372
▁corpses	-11.4375
▁luc	-11.4377
born	-11.4378
▁sketch	-11.4381
▁mega	-11.4382
▁spirited	-11.4384
▁conflicts	-11.4386
▁jill	-11.4389
▁anchor	-11.4391
two	-11.4392
▁compete	-11.4392
▁antonio	-11.4392
▁investigating	-11.4393
▁technicolor	-11.4393
▁snl	-11.4393
▁muscle	-11.4393
▁stuart	-11.4393
▁demise	-11.4393
▁dreck	-11.4394
▁gimmick	-11.4401
▁hungry	-11.4404
▁wipe	-11.4404
▁orders	-11.4405
▁positively	-11.4407
▁gor	-11.4409
▁bread	-11.4409
▁remarks	-11.4416
▁carey	-11.4421
▁drum	-11.4422
▁rear	-11.4423
▁assure	-11.4425
▁setup	-11.4426
▁1980'	-11.4429
▁posted	-11.443
aging	-11.4431
▁wilder	-11.4432
▁idol	-11.4444
▁ordered	-11.4444
▁accurately	-11.4444
▁possess	-11.4449
▁visiting	-11.4465
▁hugh	-11.4467
▁buffalo	-11.4467
▁describing	-11.4467
▁miike	-11.4467
▁preposterous	-11.4467
▁niece	-11.4467
▁fifty	-11.4467
▁voight	-11.4467
▁kramer	-11.4467
▁feat	-11.4469
▁firstly	-11.4473
▁guards	-11.4483
▁sc	-11.4483
▁hunters	-11.4487
length	-11.4489
▁dropping	-11.449
cia	-11.4492
▁sounding	-11.4493
▁disregard	-11.4498
▁gig	-11.4506
▁poke	-11.4507
▁repeating	-11.4512
oy	-11.452
▁alec	-11.4527
▁errol	-11.4528
▁filth	-11.4534
▁boxer	-11.4541
▁august	-11.4542
▁compassion	-11.4542
▁ambiguous	-11.4543
▁inconsistent	-11.4543
▁primitive	-11.4543
▁shoddy	-11.4543
▁ingenious	-11.4543
▁bettie	-11.4543
▁brosnan	-11.4543
▁choppy	-11.4543
▁1972	-11.4544
using	-11.4544
▁cam	-11.4544
▁underwater	-11.4544
▁hindi	-11.4545
▁route	-11.4547
▁gadget	-11.4551
▁warriors	-11.4553
▁suggestion	-11.4557
thing	-11.4562
▁fried	-11.4563
ign	-11.4566
ppy	-11.4566
▁shoe	-11.4569
▁seed	-11.4574
▁defined	-11.4576
▁unre	-11.4577
▁resulting	-11.4577
ade	-11.4577
▁lengthy	-11.4578
▁mul	-11.4579
▁rooms	-11.4579
▁sy	-11.458
▁liners	-11.4583
▁hello	-11.4586
▁experiments	-11.459
▁op	-11.4596
cc	-11.4596
▁tube	-11.4604
▁axe	-11.4605
▁fluff	-11.461
▁tick	-11.4613
▁cr	-11.4613
▁biblical	-11.4618
▁mount	-11.4618
▁lunch	-11.4618
▁faint	-11.4618
▁reign	-11.4621
tech	-11.4622
▁rom	-11.4622
▁monty	-11.4624
▁preachy	-11.4624
▁feminist	-11.4626
rock	-11.4626
▁fuel	-11.4627
▁shouting	-11.4629
▁amused	-11.4633
▁beard	-11.4639
▁passengers	-11.4644
▁generated	-11.4645
▁losers	-11.4646
yet	-11.4652
▁elm	-11.4652
▁hearted	-11.4656
▁receives	-11.4658
ologist	-11.4659
▁knocked	-11.4662
▁reeves	-11.4663
▁pole	-11.4673
▁signed	-11.4675
▁kin	-11.4678
▁generate	-11.4679
cop	-11.4682
▁fog	-11.4685
▁disco	-11.4688
▁someday	-11.4689
▁profession	-11.4691
20	-11.4693
▁ethnic	-11.4694
▁analysis	-11.4695
▁empathy	-11.4695
▁fifties	-11.4695
▁insanity	-11.4695
▁debt	-11.4695
▁unlikable	-11.4695
▁buzz	-11.4695
▁dalton	-11.4695
▁undead	-11.4697
ston	-11.4698
▁beatty	-11.4698
ima	-11.4699
▁unlikeable	-11.4703
▁invented	-11.4705
▁despise	-11.4706
▁supported	-11.4706
▁za	-11.4707
▁thread	-11.4707
any	-11.4708
▁witches	-11.4709
▁minus	-11.4709
▁overlong	-11.471
▁purposes	-11.4712
david	-11.4718
▁tastes	-11.4722
▁lifted	-11.4722
▁differently	-11.4726
▁affairs	-11.4727
▁roots	-11.4731
▁liv	-11.4735
▁newly	-11.4743
pat	-11.4744
▁salt	-11.4769
▁derivative	-11.4772
▁explosive	-11.4772
▁demented	-11.4772
▁collapse	-11.4772
▁conscience	-11.4772
▁pierce	-11.4772
▁loyalty	-11.4772
▁nightclub	-11.4772
▁goldberg	-11.4772
▁sickening	-11.4772
ika	-11.4773
▁ruby	-11.4779
▁worship	-11.478
▁kathy	-11.4781
▁restored	-11.4781
▁ballet	-11.4782
▁dam	-11.4783
▁active	-11.4784
▁bro	-11.4784
▁controlled	-11.4785
▁survivor	-11.4787
▁resident	-11.4787
▁meal	-11.4787
qu	-11.479
▁sensational	-11.4795
beat	-11.4798
▁yu	-11.4798
▁hick	-11.4803
▁wholly	-11.4809
▁vet	-11.4815
▁kay	-11.482
miss	-11.4823
▁sl	-11.4828
▁randomly	-11.4836
▁foolish	-11.4839
▁accomplish	-11.4844
▁visits	-11.4846
▁9/11	-11.4849
▁inaccurate	-11.4849
▁obligatory	-11.4849
▁entitled	-11.4849
▁walsh	-11.4849
▁elevator	-11.485
ock	-11.485
mark	-11.4851
▁judy	-11.4854
▁sits	-11.4855
▁completed	-11.4858
▁playboy	-11.4858
▁fay	-11.4858
▁insightful	-11.4859
▁poker	-11.4862
▁exceptions	-11.4862
▁scifi	-11.4864
▁intro	-11.4865
▁ambition	-11.4865
ux	-11.4866
▁explores	-11.4868
ute	-11.4868
▁sandy	-11.4869
unless	-11.488
▁cameras	-11.4896
kh	-11.49
del	-11.4901
▁industrial	-11.4911
▁inhabit	-11.4912
▁historic	-11.4924
▁tire	-11.4924
▁fascination	-11.4927
▁inevitably	-11.4927
▁literary	-11.4927
▁olivier	-11.4927
▁submarine	-11.4927
▁steady	-11.4927
▁surgery	-11.4927
▁fluid	-11.4927
▁1983	-11.4928
▁simpsons	-11.4929
▁precisely	-11.4935
▁tenant	-11.4935
▁acclaimed	-11.4935
▁difficulties	-11.4935
▁stream	-11.4938
stage	-11.4938
▁damon	-11.494
▁crazed	-11.4942
▁inject	-11.4942
▁shootout	-11.4943
▁caricature	-11.4946
▁teachers	-11.495
▁suspens	-11.4954
▁scar	-11.4956
mu	-11.4958
▁ski	-11.4959
▁jacob	-11.4964
▁dances	-11.4964
pel	-11.4975
▁arch	-11.4988
▁abandon	-11.499
▁lifeless	-11.4992
▁app	-11.4996
▁orchestra	-11.5003
▁columbia	-11.5006
▁dawson	-11.5006
▁hilarity	-11.5006
▁quentin	-11.5006
▁syndrome	-11.5006
▁newcomer	-11.5006
▁drinks	-11.5006
▁shaky	-11.5006
▁redneck	-11.5006
▁mildred	-11.5006
▁dismal	-11.5007
▁lush	-11.5008
▁gentlemen	-11.5008
▁possession	-11.5009
▁recycled	-11.5009
▁dunne	-11.501
▁earl	-11.5013
▁crashes	-11.5017
▁slide	-11.5019
▁foil	-11.5019
▁desires	-11.5024
▁incorrect	-11.5025
▁cloud	-11.5028
ree	-11.5035
▁appropriately	-11.5043
▁evolution	-11.5047
ington	-11.5051
▁quietly	-11.5056
▁painter	-11.5066
ani	-11.5068
▁seduce	-11.5069
▁swallow	-11.507
▁sugar	-11.5077
▁gru	-11.5079
▁sending	-11.5081
▁clan	-11.5085
▁clerk	-11.5085
▁gibson	-11.5085
▁grief	-11.5085
▁hackneyed	-11.5085
▁imaginable	-11.5085
▁montgomery	-11.5085
▁morbid	-11.5085
▁orleans	-11.5085
▁paxton	-11.5085
▁penguin	-11.5085
▁simmons	-11.5085
▁brat	-11.5085
▁beverly	-11.5085
▁hallmark	-11.5086
▁shaking	-11.5086
▁blink	-11.5086
▁busey	-11.5087
▁invention	-11.5088
▁distraction	-11.5088
ire	-11.5088
▁macho	-11.5089
▁frightened	-11.509
▁snowman	-11.5092
▁rupert	-11.5093
▁hyper	-11.5094
▁apocalypse	-11.5095
▁destroying	-11.5097
▁located	-11.5097
▁goof	-11.5098
▁apply	-11.5098
▁consideration	-11.51
▁hopelessly	-11.51
cap	-11.51
▁dish	-11.5104
▁fright	-11.5106
▁loy	-11.5108
▁merits	-11.5112
fo	-11.5115
▁pad	-11.512
utter	-11.5122
vision	-11.5123
ick	-11.5125
▁credited	-11.5125
▁unexpectedly	-11.513
▁chooses	-11.5131
▁!!	-11.5136
ius	-11.5144
▁interactions	-11.5144
ew	-11.5147
▁strain	-11.5156
ken	-11.5158
▁sympathize	-11.5162
▁winters	-11.5164
▁lampoon	-11.5165
▁opportunities	-11.5165
▁mitchum	-11.5166
▁kumar	-11.5166
▁leather	-11.5166
▁doctors	-11.5166
▁compensate	-11.5167
▁eleven	-11.5167
▁demonstrates	-11.5168
▁danish	-11.517
▁modesty	-11.5175
▁plate	-11.5178
▁adopted	-11.518
▁startling	-11.5184
▁dealer	-11.5186
▁delve	-11.5189
▁predecessor	-11.5189
▁muslim	-11.5189
▁surf	-11.5192
▁22	-11.5195
richard	-11.5196
▁eh	-11.5197
▁vis	-11.5198
▁sanders	-11.5199
▁lean	-11.5202
▁sang	-11.5202
▁outfits	-11.5202
▁phillips	-11.5203
▁mama	-11.5214
▁chills	-11.5217
▁farmer	-11.522
▁homer	-11.5221
anti	-11.5222
▁opt	-11.5225
▁engine	-11.523
▁vin	-11.5231
▁voted	-11.5231
▁marked	-11.5232
▁translate	-11.5236
▁sums	-11.5238
99	-11.5238
▁joey	-11.5238
▁palm	-11.524
▁cher	-11.5242
▁immortal	-11.5245
▁antagonist	-11.5246
▁clooney	-11.5246
▁debbie	-11.5246
▁voodoo	-11.5246
▁agency	-11.5246
▁basketball	-11.5246
▁pocket	-11.5246
▁dillon	-11.5246
▁kidnapping	-11.5246
▁scotland	-11.5246
▁unseen	-11.5247
▁russo	-11.5248
▁pam	-11.525
▁collector	-11.525
▁shared	-11.5251
▁ash	-11.5252
▁rejected	-11.5258
ban	-11.526
▁items	-11.5261
▁rates	-11.5264
▁grass	-11.5266
▁danes	-11.527
▁mutant	-11.5271
funny	-11.5271
▁penny	-11.5272
fetched	-11.5273
▁sincerely	-11.5279
mad	-11.5281
▁3-	-11.5281
directed	-11.5281
19	-11.5289
▁ye	-11.529
▁kidman	-11.529
▁ranch	-11.5295
▁chill	-11.5295
▁pirate	-11.5296
▁machines	-11.5301
▁lure	-11.5305
▁kissing	-11.5305
▁adopt	-11.5311
od	-11.5312
▁abrupt	-11.5315
▁rot	-11.5316
▁organ	-11.5319
▁counts	-11.5324
▁trauma	-11.5327
▁costello	-11.5327
▁deceased	-11.5327
▁exploring	-11.5327
▁illusion	-11.5327
▁legacy	-11.5327
▁significance	-11.5327
▁sydney	-11.5327
▁assignment	-11.5327
▁denzel	-11.5327
▁wagner	-11.5327
▁exposition	-11.5327
▁vince	-11.5328
▁boston	-11.5328
▁grinch	-11.5329
▁tho	-11.533
▁thrust	-11.5331
▁jaded	-11.5331
▁avid	-11.5331
▁phenomenal	-11.5332
▁sellers	-11.5334
▁showtime	-11.5336
really	-11.5345
▁pages	-11.5345
ters	-11.5348
▁gee	-11.5352
ira	-11.5354
▁demanding	-11.5355
tier	-11.5355
▁instinct	-11.5355
child	-11.5355
15	-11.5356
▁norm	-11.5362
▁muppets	-11.5366
▁previews	-11.5375
put	-11.5376
▁roth	-11.5379
▁regarded	-11.5379
▁heroin	-11.5384
ished	-11.5386
held	-11.5386
▁adaptations	-11.5387
mr	-11.5389
▁camcorder	-11.5409
▁critique	-11.5409
▁intricate	-11.5409
▁odyssey	-11.5409
▁sergeant	-11.5409
▁terminator	-11.5409
▁snuff	-11.541
▁challenges	-11.541
▁biopic	-11.5411
▁viewpoint	-11.5411
▁inexplicably	-11.5411
▁vain	-11.542
▁highway	-11.5422
▁tam	-11.5423
▁richardson	-11.5429
▁vastly	-11.543
foot	-11.5432
here	-11.5435
▁loop	-11.5439
▁skits	-11.5441
▁screwed	-11.5441
▁launch	-11.5443
ue	-11.5445
log	-11.5446
los	-11.5452
▁confession	-11.5454
nder	-11.5458
kind	-11.546
▁viewings	-11.5466
lim	-11.5469
▁info	-11.5472
▁outlaw	-11.5473
........	-11.5478
▁designs	-11.5478
▁exquisite	-11.5479
▁wander	-11.5488
▁wings	-11.5492
▁bounty	-11.5492
▁cemetery	-11.5492
▁devastating	-11.5492
▁frozen	-11.5492
▁olivia	-11.5492
▁chorus	-11.5492
▁obsessive	-11.5492
▁jenny	-11.5492
▁btw	-11.5493
▁deleted	-11.5494
▁commitment	-11.5494
isation	-11.5495
▁caliber	-11.5498
▁symbol	-11.5499
ttp	-11.55
▁flashes	-11.5501
▁dive	-11.5502
▁disgusted	-11.5507
▁peck	-11.5509
▁com	-11.5511
▁transformed	-11.5514
▁guaranteed	-11.5517
▁monkeys	-11.5517
▁presenting	-11.5519
ash	-11.5523
▁shorter	-11.5524
▁motive	-11.5525
▁heights	-11.5531
▁bart	-11.5536
▁yell	-11.5536
▁disgust	-11.5539
lain	-11.554
▁shoulders	-11.5542
▁inability	-11.5542
big	-11.5545
▁abound	-11.5548
▁coup	-11.5553
▁increase	-11.5559
▁pros	-11.556
▁confirm	-11.556
▁reluctant	-11.5562
▁immediate	-11.5562
▁elder	-11.5567
▁chat	-11.5572
▁christians	-11.5572
▁transcend	-11.5575
▁bikini	-11.5575
▁devito	-11.5575
▁flavor	-11.5575
▁immature	-11.5575
▁perception	-11.5575
▁polanski	-11.5575
▁heartfelt	-11.5575
▁injured	-11.5575
▁psychology	-11.5575
▁deniro	-11.5575
▁toronto	-11.5575
▁disorder	-11.5575
▁ronald	-11.5575
▁unexplained	-11.5575
▁organization	-11.5576
▁jarring	-11.5576
▁1979	-11.5576
▁irene	-11.5576
▁hilton	-11.5577
▁paradise	-11.5577
▁elite	-11.5578
▁messy	-11.5578
▁spill	-11.5578
▁brutality	-11.5579
▁stopping	-11.5579
▁bald	-11.558
▁kline	-11.558
▁vital	-11.558
▁piper	-11.5583
▁canceled	-11.5585
▁finn	-11.559
▁bend	-11.5598
▁refuse	-11.5599
▁ble	-11.56
▁tip	-11.5601
sorry	-11.5606
▁beside	-11.5612
▁elevate	-11.5615
▁distract	-11.562
▁matched	-11.5622
illa	-11.5623
▁smash	-11.5623
▁crown	-11.5626
ided	-11.5627
dar	-11.5628
▁vol	-11.563
▁wheel	-11.5632
▁assumed	-11.5633
▁rangers	-11.5633
▁youngest	-11.5635
▁strings	-11.5637
▁freaks	-11.5639
▁logan	-11.5649
▁bio	-11.5655
▁helpful	-11.5659
▁expense	-11.5659
▁provocative	-11.5659
▁september	-11.5659
▁seymour	-11.5659
▁hopkins	-11.5659
▁identical	-11.5659
▁senior	-11.5659
▁paramount	-11.5659
▁furious	-11.566
▁gerard	-11.566
▁suburban	-11.566
://	-11.566
▁racing	-11.566
▁rambo	-11.566
▁troubles	-11.5661
▁ripping	-11.5661
▁dictator	-11.5661
▁yep	-11.5662
▁considerably	-11.5662
▁confidence	-11.5664
▁rapist	-11.5666
▁populate	-11.5666
rin	-11.5668
▁remade	-11.5668
▁respectable	-11.5668
12	-11.5668
▁christina	-11.5669
▁rendered	-11.5672
cam	-11.5674
▁edie	-11.5676
▁melting	-11.5681
▁prot	-11.5681
▁thrilled	-11.5686
▁demonic	-11.5686
brow	-11.5686
▁sooner	-11.5687
▁stretched	-11.5695
high	-11.5696
script	-11.5697
ip	-11.5699
▁cro	-11.5699
▁artsy	-11.57
▁marc	-11.5709
▁fade	-11.5715
▁symbolic	-11.5719
lier	-11.5729
▁leno	-11.5731
▁releases	-11.5734
▁bach	-11.5735
▁studying	-11.5741
▁bastard	-11.5744
▁communication	-11.5744
▁eagle	-11.5744
▁energetic	-11.5744
▁independence	-11.5744
▁investigator	-11.5744
▁underneath	-11.5744
▁abraham	-11.5744
▁glaring	-11.5744
▁resume	-11.5744
▁domino	-11.5744
▁gorilla	-11.5744
▁taboo	-11.5744
▁raising	-11.5745
▁subtly	-11.5745
▁earnest	-11.5745
▁unrelated	-11.5746
▁preferred	-11.5746
▁harbor	-11.5746
rich	-11.5746
▁beatles	-11.5747
▁bully	-11.5747
▁continually	-11.5747
▁assuming	-11.575
▁partially	-11.575
tempted	-11.5751
▁millionaire	-11.5752
▁specially	-11.5753
▁scriptwriter	-11.5755
▁rapidly	-11.5756
▁belle	-11.5757
▁glowing	-11.5758
▁wo	-11.576
▁patch	-11.5762
▁1930'	-11.5763
try	-11.5765
▁victory	-11.5767
▁reported	-11.5768
▁interestingly	-11.5768
▁styles	-11.5768
george	-11.5776
however	-11.5776
▁earn	-11.5776
▁hats	-11.578
▁filmmaking	-11.5782
▁volume	-11.5782
gger	-11.5783
▁mormon	-11.5783
much	-11.5786
▁dose	-11.5802
cky	-11.5811
▁rats	-11.5815
▁prominent	-11.5817
200	-11.5821
▁egypt	-11.5829
▁groan	-11.5829
▁verhoeven	-11.5829
▁dwarf	-11.5829
▁gambling	-11.5829
▁cad	-11.583
▁stallone	-11.583
▁palace	-11.583
▁lambert	-11.583
▁duvall	-11.583
▁celebration	-11.583
▁1997	-11.583
▁waitress	-11.5831
▁jess	-11.5831
▁acceptance	-11.5831
proving	-11.5831
▁frontier	-11.5834
ller	-11.5834
▁hayes	-11.5835
▁stare	-11.5836
▁regards	-11.5838
▁respectively	-11.5842
▁emphasize	-11.5846
▁translated	-11.5849
▁pc	-11.5849
▁weakness	-11.5851
▁serving	-11.5855
gun	-11.5861
▁downey	-11.5862
▁topics	-11.5865
uous	-11.5865
word	-11.5866
▁posters	-11.5872
▁drift	-11.5879
▁bandit	-11.5881
▁hans	-11.5885
ifying	-11.5887
iling	-11.589
▁slip	-11.5891
▁8.	-11.5893
▁minded	-11.5896
moving	-11.5896
oid	-11.5897
▁199	-11.5902
▁uncover	-11.5902
▁respective	-11.5907
▁chap	-11.5909
▁luis	-11.5909
▁fundamental	-11.5912
▁filling	-11.5914
▁razor	-11.5916
▁gypsy	-11.5916
▁misguided	-11.5916
▁terrified	-11.5916
▁exterior	-11.5916
▁deer	-11.5916
▁examination	-11.5916
▁amusement	-11.5916
▁sharing	-11.5917
▁centered	-11.5917
your	-11.5918
▁lethal	-11.592
▁clay	-11.592
▁dash	-11.5922
▁lap	-11.5926
▁marrie	-11.5927
dan	-11.5927
▁turd	-11.5931
▁resolved	-11.5931
▁examine	-11.5935
▁bros	-11.5944
▁stumbles	-11.5944
▁seal	-11.5944
▁befriends	-11.5944
▁mono	-11.5948
▁akin	-11.5949
wick	-11.5951
▁boyle	-11.5954
▁tele	-11.5958
▁recover	-11.596
▁dana	-11.5967
▁slim	-11.5974
▁observe	-11.5976
▁lad	-11.5981
▁afterward	-11.5984
▁morals	-11.5984
▁billed	-11.5987
▁sustain	-11.5987
▁torment	-11.5988
▁devices	-11.5988
mate	-11.5991
▁deserted	-11.5993
▁cohen	-11.6003
▁continuing	-11.6003
▁destination	-11.6003
▁disastrous	-11.6003
▁embark	-11.6003
▁engrossing	-11.6003
▁eternity	-11.6003
▁peculiar	-11.6003
▁python	-11.6003
▁receiving	-11.6003
▁mercy	-11.6003
▁ollie	-11.6003
▁automatically	-11.6003
▁request	-11.6004
▁bucket	-11.6004
▁1984	-11.6004
▁hammy	-11.6004
▁bacon	-11.6004
▁claustrophobic	-11.6005
▁wilderness	-11.6005
▁ships	-11.6005
▁breakdown	-11.6005
eth	-11.6008
hol	-11.6008
▁article	-11.6008
▁mins	-11.6017
▁comeback	-11.6019
▁gris	-11.6022
ress	-11.6023
other	-11.6025
▁addicted	-11.6025
▁evidently	-11.6026
cause	-11.6027
▁altered	-11.6027
kar	-11.6031
chris	-11.604
cor	-11.6045
met	-11.6046
▁snap	-11.6048
▁observation	-11.6048
▁phillip	-11.6048
▁separated	-11.6052
▁milo	-11.6052
▁ros	-11.6054
eff	-11.6064
eck	-11.6066
▁shed	-11.6069
▁morally	-11.6075
tina	-11.608
▁dressing	-11.608
▁soup	-11.6082
▁upside	-11.6085
▁pause	-11.6085
▁czech	-11.609
▁legitimate	-11.609
▁misfortune	-11.609
▁swamp	-11.609
▁youtube	-11.609
▁macbeth	-11.609
▁shortcomings	-11.609
▁swayze	-11.609
▁montana	-11.609
▁spree	-11.6091
▁bonnie	-11.6091
▁studies	-11.6091
▁clive	-11.6091
jay	-11.6092
▁jock	-11.6092
▁shopping	-11.6092
▁authorities	-11.6092
▁mencia	-11.6094
▁amitabh	-11.6095
▁fence	-11.6095
▁bars	-11.6099
▁differ	-11.6099
▁dil	-11.6099
▁stray	-11.6105
▁ban	-11.6109
▁tolerate	-11.6109
▁snatch	-11.6117
▁rant	-11.6118
▁dub	-11.6121
lip	-11.6123
writing	-11.6125
black	-11.6126
▁til	-11.6128
▁charged	-11.6136
bling	-11.6137
▁grabs	-11.6138
▁chop	-11.6139
▁height	-11.6142
▁entered	-11.6143
▁attacking	-11.6147
mostly	-11.6148
char	-11.6149
▁visited	-11.6152
▁ry	-11.6152
▁glen	-11.6154
▁heal	-11.616
▁wash	-11.6166
▁backwards	-11.6172
▁thieves	-11.6179
▁vibrant	-11.6179
▁sarcastic	-11.6179
▁shatner	-11.6179
▁novak	-11.6179
▁headache	-11.6179
▁rambling	-11.6179
▁towers	-11.6179
▁wright	-11.618
▁deserving	-11.618
▁limp	-11.6181
▁whine	-11.6181
▁wesley	-11.6181
▁ethan	-11.6181
▁weaknesses	-11.6182
▁grateful	-11.6183
▁concepts	-11.6183
▁spout	-11.6184
kill	-11.6184
▁shred	-11.6186
rit	-11.6186
▁intentional	-11.6189
ude	-11.6191
▁goat	-11.6193
▁gable	-11.6194
▁nails	-11.6194
▁taped	-11.6195
▁healthy	-11.6197
▁gl	-11.6199
▁blatantly	-11.62
▁rep	-11.6202
▁bent	-11.6204
▁talkie	-11.6205
▁*1/2	-11.6215
▁rises	-11.6217
▁resembl	-11.622
▁freeze	-11.6228
▁principle	-11.6229
▁servant	-11.6229
▁cer	-11.6236
hair	-11.6238
rio	-11.6248
loud	-11.6251
▁dominate	-11.6252
ona	-11.6256
hum	-11.6264
▁mole	-11.6265
▁acknowledge	-11.6265
▁abortion	-11.6268
▁expedition	-11.6268
▁ghetto	-11.6268
▁gloria	-11.6268
▁phenomenon	-11.6268
▁coffin	-11.6268
▁dallas	-11.6268
▁lavish	-11.6268
▁informative	-11.6268
▁cattle	-11.6268
▁election	-11.6269
▁diaz	-11.6269
▁spur	-11.6271
▁marx	-11.6271
eb	-11.6271
▁wrestler	-11.6272
▁curly	-11.6273
▁speeches	-11.6279
▁warden	-11.6283
▁wu	-11.6288
tel	-11.6293
▁flashy	-11.6294
ese	-11.6296
▁assured	-11.6298
water	-11.6304
little	-11.6305
hn	-11.6307
▁mechanical	-11.6307
anne	-11.6313
▁adapt	-11.6319
▁karl	-11.632
▁fre	-11.6327
toole	-11.6328
▁boost	-11.6329
▁framed	-11.6333
▁expectation	-11.634
▁introduc	-11.6342
▁applaud	-11.6343
▁2:	-11.6344
▁supreme	-11.6345
▁lau	-11.6349
▁graduate	-11.6352
▁shares	-11.6357
▁caution	-11.6358
▁comprehend	-11.6358
▁cushing	-11.6358
▁imaginary	-11.6358
▁pacific	-11.6358
▁rainbow	-11.6358
▁repulsive	-11.6358
▁unimaginative	-11.6358
▁rampage	-11.6358
▁hayworth	-11.6358
▁infected	-11.6358
▁bloom	-11.6358
▁gregory	-11.6358
▁cycle	-11.6358
▁arrow	-11.6358
▁copied	-11.636
▁underdog	-11.636
▁collective	-11.6361
▁difficulty	-11.6362
▁minority	-11.6364
▁glued	-11.6366
▁!!!	-11.6369
mes	-11.6369
▁abruptly	-11.6372
▁sales	-11.6374
yr	-11.6375
▁brady	-11.6381
▁siblings	-11.6387
▁sopranos	-11.6387
▁trivia	-11.639
▁101	-11.6394
▁zu	-11.6395
▁lance	-11.6397
▁coke	-11.64
along	-11.6401
▁county	-11.6408
▁surroundings	-11.6413
▁crow	-11.6415
bing	-11.6415
▁iv	-11.6416
4)	-11.6419
▁sting	-11.6419
▁commenting	-11.6419
▁orson	-11.6428
▁dumber	-11.6434
▁coin	-11.6434
self	-11.6446
▁owned	-11.6447
▁architect	-11.6449
▁anticipation	-11.6449
▁departure	-11.6449
▁dexter	-11.6449
▁hapless	-11.6449
▁fetish	-11.6449
▁tcm	-11.6449
▁unsatisfying	-11.6449
▁haines	-11.6449
▁championship	-11.6449
▁indication	-11.645
▁screwball	-11.645
▁hogan	-11.6451
▁ponyo	-11.6451
wall	-11.6451
▁potter	-11.6451
▁spaceship	-11.6452
▁housewife	-11.6453
▁scorpion	-11.6453
▁motor	-11.6453
▁aggressive	-11.6454
▁erika	-11.6454
▁belly	-11.6455
▁incidentally	-11.6458
▁conventions	-11.6459
▁grip	-11.6461
▁confident	-11.6461
▁sap	-11.6462
▁planes	-11.6464
▁employed	-11.6466
▁provoke	-11.6466
▁nerves	-11.6472
▁forgiven	-11.6475
▁enhanced	-11.6476
worth	-11.6476
▁warming	-11.648
mmer	-11.6482
▁mixing	-11.6487
▁visions	-11.6488
fashioned	-11.649
almost	-11.6492
▁spice	-11.6497
▁vile	-11.6502
say	-11.6506
▁hears	-11.6513
coat	-11.6513
oz	-11.6517
▁mud	-11.6518
▁confuse	-11.6525
▁criticize	-11.6525
▁fortunate	-11.6528
▁masks	-11.653
▁skit	-11.654
▁smug	-11.6541
▁shepherd	-11.6541
▁admirable	-11.6541
▁definitive	-11.6541
▁despicable	-11.6541
▁fierce	-11.6541
▁mesmerizing	-11.6541
▁netflix	-11.6541
▁rebellious	-11.6541
▁spencer	-11.6541
▁casino	-11.6541
▁imitate	-11.6541
▁bulk	-11.6541
▁hybrid	-11.6541
▁recognizable	-11.6541
▁1920	-11.6542
▁christine	-11.6543
▁1993	-11.6543
▁missile	-11.6543
▁pushes	-11.6549
▁punches	-11.6551
▁reform	-11.6551
▁convicted	-11.6552
boo	-11.6553
▁handling	-11.6555
▁singers	-11.6556
▁kris	-11.6557
▁victorian	-11.6558
▁woeful	-11.6559
anna	-11.6563
▁lens	-11.6569
▁caper	-11.6584
▁paintings	-11.6586
****	-11.659
▁asset	-11.6591
▁cliches	-11.6593
rob	-11.6596
▁mari	-11.6597
▁reflects	-11.6597
sam	-11.66
▁vo	-11.6602
▁error	-11.6602
▁ace	-11.6603
▁mick	-11.6603
▁dates	-11.661
bound	-11.6611
▁caricatures	-11.6611
▁residents	-11.6616
actors	-11.6616
pan	-11.6616
▁oldest	-11.6617
▁entering	-11.6618
ax	-11.6621
▁eventual	-11.6621
▁rapid	-11.6622
▁psyche	-11.6626
▁masterpieces	-11.663
▁bubble	-11.6633
▁seductive	-11.6633
▁affleck	-11.6633
▁horizon	-11.6633
▁insurance	-11.6633
▁neurotic	-11.6633
▁pfeiffer	-11.6633
▁samantha	-11.6633
▁surrender	-11.6633
destined	-11.6633
▁telephone	-11.6633
▁shrink	-11.6634
▁darwin	-11.6634
▁chopped	-11.6634
▁scariest	-11.6634
▁promotion	-11.6635
▁activity	-11.6635
▁undercover	-11.6635
▁interpret	-11.6639
▁evans	-11.6639
▁homicide	-11.6639
▁eugene	-11.6642
▁crop	-11.6642
▁ants	-11.6644
▁ugh	-11.6645
kov	-11.6646
▁fury	-11.6648
▁jealousy	-11.6651
▁superstar	-11.6653
▁natives	-11.6654
▁emerges	-11.6655
▁wwe	-11.6656
▁fuller	-11.6658
▁diner	-11.666
▁admirer	-11.6662
▁rec	-11.6662
▁reminder	-11.6663
▁bombs	-11.6664
▁mates	-11.6666
▁discussing	-11.6667
▁fatale	-11.6667
▁cheerful	-11.6671
fiction	-11.6673
nothing	-11.6675
▁layers	-11.6675
▁ark	-11.6675
▁harp	-11.6684
▁ivan	-11.6684
▁nat	-11.6685
▁daniels	-11.6686
▁flower	-11.6687
actually	-11.6688
ison	-11.6691
▁booth	-11.6697
▁biker	-11.6701
▁wang	-11.6705
▁remark	-11.6705
▁sticking	-11.6709
▁operate	-11.6712
▁garner	-11.6713
▁hoo	-11.6717
cker	-11.6718
▁asia	-11.6721
▁baron	-11.6722
▁brenda	-11.6723
▁clash	-11.6724
oc	-11.6724
▁cassidy	-11.6727
▁jersey	-11.6727
▁disabled	-11.6727
▁preminger	-11.6727
▁tolerable	-11.6727
▁goodbye	-11.6727
▁duration	-11.6727
▁incest	-11.6727
▁preston	-11.6728
▁lynn	-11.6728
▁mentality	-11.6731
▁absurdity	-11.6732
▁romeo	-11.6732
▁answered	-11.6732
▁cleaning	-11.6734
▁stumble	-11.6734
▁rides	-11.674
▁pill	-11.674
▁signal	-11.6743
▁1000	-11.6743
▁miner	-11.6745
▁carell	-11.6745
▁refers	-11.6746
▁lowe	-11.6748
think	-11.6749
▁anytime	-11.675
▁louise	-11.6757
▁casey	-11.676
load	-11.6762
▁cris	-11.6766
▁israel	-11.6767
takes	-11.6767
▁anton	-11.6771
▁ce	-11.6776
▁conscious	-11.6777
▁cents	-11.6783
▁foundation	-11.6785
▁longest	-11.6792
▁cameraman	-11.68
▁betray	-11.6804
▁dj	-11.6804
▁sitcoms	-11.6806
▁torch	-11.6807
▁enthusiastic	-11.6808
▁drain	-11.6808
▁coward	-11.6812
▁sta	-11.6816
▁owners	-11.6819
mal	-11.6819
▁substantial	-11.6821
▁medieval	-11.6821
▁swift	-11.6821
▁unsuspecting	-11.6821
▁ustinov	-11.6821
▁visconti	-11.6821
▁ricci	-11.6821
▁stefan	-11.6821
▁randolph	-11.6821
▁1939	-11.6822
▁custer	-11.6822
▁ashley	-11.6822
▁banter	-11.6822
▁palance	-11.6822
▁bryan	-11.6823
▁cobra	-11.6823
▁valentine	-11.6823
▁rice	-11.6824
▁claw	-11.6829
produced	-11.6832
▁sixth	-11.6835
▁tossed	-11.6838
rid	-11.684
▁outdoor	-11.6841
11	-11.6845
▁anyhow	-11.6853
▁poet	-11.6854
▁rainy	-11.686
▁inherent	-11.686
▁mod	-11.6862
driven	-11.6863
▁doris	-11.6863
please	-11.6864
▁outright	-11.6869
cious	-11.6876
▁drab	-11.688
▁mcc	-11.6883
▁indiana	-11.6883
▁ven	-11.6888
▁connections	-11.6889
doo	-11.6892
▁tool	-11.6893
▁tomb	-11.6893
▁portrayals	-11.6894
▁survives	-11.6894
▁breast	-11.6902
▁beau	-11.6903
roo	-11.6903
▁4)	-11.691
▁echo	-11.6916
▁atlantis	-11.6916
▁qualify	-11.6916
▁rochester	-11.6916
▁gundam	-11.6916
▁armstrong	-11.6917
▁trigger	-11.6917
▁limitations	-11.6917
▁stairs	-11.6917
▁ghoulies	-11.6917
▁iq	-11.6917
▁tomatoes	-11.6918
▁poo	-11.6919
▁authenticity	-11.6919
▁liar	-11.692
▁naughty	-11.692
vert	-11.6921
▁kiddie	-11.6921
????	-11.6925
ado	-11.6925
▁boasts	-11.693
▁entirety	-11.693
aud	-11.693
▁claus	-11.6936
▁tech	-11.6937
▁attended	-11.694
code	-11.6948
▁divorced	-11.6949
▁bum	-11.6951
gone	-11.6955
▁switched	-11.6955
conscious	-11.6955
▁sur	-11.6957
filled	-11.6959
winning	-11.6959
plus	-11.6961
burg	-11.6963
ros	-11.6964
taking	-11.6973
▁trials	-11.6978
▁peaceful	-11.6983
▁chip	-11.6988
does	-11.6988
▁nerve	-11.6988
▁exhibit	-11.6995
▁noah	-11.6995
▁thorn	-11.6997
▁dodge	-11.6998
▁strict	-11.7
▁handy	-11.7
▁fishing	-11.7006
zar	-11.7009
▁outing	-11.7011
▁controversy	-11.7013
▁coppola	-11.7013
▁galaxy	-11.7013
▁monroe	-11.7013
▁pistol	-11.7013
▁streisand	-11.7013
▁abstract	-11.7013
▁injustice	-11.7013
▁spoon	-11.7013
▁mccoy	-11.7013
▁gilbert	-11.7013
▁rosemary	-11.7013
▁jury	-11.7014
ois	-11.7015
▁records	-11.7017
check	-11.7018
▁brooding	-11.7019
▁satirical	-11.702
▁moe	-11.7021
▁publicity	-11.7022
▁brainless	-11.7022
▁zo	-11.7026
▁paulie	-11.7029
outs	-11.7043
▁exploit	-11.7048
▁linked	-11.705
etc	-11.7052
▁breathe	-11.7054
▁junkie	-11.7065
hot	-11.7072
▁computers	-11.7076
▁cracking	-11.708
▁wounds	-11.708
▁bel	-11.7088
▁pas	-11.7091
▁emerge	-11.7097
▁weep	-11.7098
tim	-11.7099
▁females	-11.71
▁depardieu	-11.711
▁istanbul	-11.711
▁license	-11.711
▁paranoid	-11.711
▁revisit	-11.711
▁transplant	-11.711
▁overbearing	-11.711
▁sensible	-11.711
▁sherlock	-11.711
▁nicolas	-11.711
▁isolation	-11.711
▁chunk	-11.711
▁ingrid	-11.711
▁depends	-11.711
▁1971	-11.7111
▁homosexuality	-11.7111
▁conveys	-11.7112
▁cbs	-11.7113
▁uncut	-11.7116
▁morph	-11.7116
▁stalker	-11.7117
▁selected	-11.7122
▁shades	-11.7122
▁enjoys	-11.7127
▁lili	-11.7127
▁wider	-11.7128
▁substitute	-11.713
▁races	-11.7136
enchant	-11.7137
▁july	-11.7138
▁accounts	-11.7139
▁traits	-11.7139
▁scrap	-11.7141
zu	-11.7147
▁token	-11.7155
▁valid	-11.7157
uel	-11.7158
▁gained	-11.7159
▁delighted	-11.716
▁hatch	-11.7163
without	-11.7164
▁grandma	-11.7164
▁israeli	-11.7167
gal	-11.7168
▁nominations	-11.7169
▁wan	-11.7173
▁nope	-11.7175
▁readers	-11.7178
▁verge	-11.718
▁thug	-11.7181
free	-11.7189
▁evolve	-11.7191
)...	-11.7191
▁pump	-11.7191
▁bash	-11.7192
▁register	-11.7192
▁polar	-11.7195
▁handles	-11.7196
never	-11.7199
▁slash	-11.7202
▁update	-11.7203
▁stella	-11.7206
ose	-11.7207
▁contempt	-11.7208
▁deputy	-11.7208
▁escaping	-11.7208
▁ominous	-11.7208
▁scrooge	-11.7208
▁vcr	-11.7208
▁bishop	-11.7208
▁hepburn	-11.7208
▁lunatic	-11.7208
▁reagan	-11.7208
▁aircraft	-11.7208
▁moses	-11.7208
▁diverse	-11.7208
▁melville	-11.7209
▁adaption	-11.7209
▁malone	-11.7209
▁romanian	-11.7213
▁informed	-11.7215
▁palma	-11.7224
actor	-11.7226
▁splash	-11.7228
bri	-11.7231
▁frat	-11.7231
gon	-11.7233
▁tur	-11.7239
▁liz	-11.7242
▁cannes	-11.7245
▁formed	-11.7252
typical	-11.7252
william	-11.7253
▁justified	-11.7258
▁juan	-11.7258
▁balanced	-11.7259
▁endlessly	-11.7259
▁raid	-11.7267
▁wanders	-11.7269
▁colours	-11.727
playing	-11.727
▁cooking	-11.7272
eating	-11.7272
▁tapes	-11.7275
non	-11.7279
lb	-11.728
▁unnatural	-11.7281
▁claiming	-11.7283
▁linger	-11.7289
▁iran	-11.7293
▁invest	-11.7298
▁tactics	-11.7299
▁duel	-11.73
▁float	-11.7302
▁lecture	-11.7307
▁medicine	-11.7307
▁herzog	-11.7307
▁inhabitants	-11.7307
▁mannerisms	-11.7307
▁breakfast	-11.7307
▁reliable	-11.7307
▁pepper	-11.7307
▁laurence	-11.7308
▁1981	-11.7308
▁pathos	-11.7308
▁1982	-11.7308
▁firing	-11.7308
▁funding	-11.7309
▁1973	-11.7309
▁riff	-11.7309
▁madsen	-11.731
▁downfall	-11.7314
▁artwork	-11.7314
chy	-11.7314
▁slimy	-11.7316
▁morons	-11.7317
▁nest	-11.7322
▁coupled	-11.7323
▁geek	-11.7335
▁approaching	-11.7336
▁rewarding	-11.7337
▁grin	-11.734
▁lionel	-11.7343
space	-11.7347
▁carla	-11.7349
▁depict	-11.7352
indulgent	-11.7353
▁inspirational	-11.7353
cheek	-11.7354
▁legends	-11.7357
▁holm	-11.7366
▁lon	-11.737
▁fulfill	-11.737
▁rang	-11.7373
▁fools	-11.7388
▁immigrant	-11.739
▁boast	-11.7393
▁sane	-11.7397
shin	-11.7397
▁hides	-11.74
▁pedestrian	-11.7407
▁subtext	-11.7407
▁paltrow	-11.7407
▁basinger	-11.7407
▁eyre	-11.7407
▁convenient	-11.7407
▁segal	-11.7407
▁1988	-11.7409
▁restrained	-11.7411
▁fiend	-11.7412
▁kansas	-11.7413
bre	-11.7413
▁villa	-11.7414
▁swept	-11.7414
▁gre	-11.7414
▁youthful	-11.7414
▁ripoff	-11.7415
▁bert	-11.7417
▁sf	-11.7417
▁pounds	-11.7419
▁horny	-11.742
▁rub	-11.7422
▁hippies	-11.7423
▁couples	-11.7425
▁approaches	-11.7426
▁avoiding	-11.7426
▁accepting	-11.7427
▁disguised	-11.7435
▁tremendously	-11.7436
▁coma	-11.7437
▁realities	-11.7437
▁dorm	-11.7438
▁tease	-11.7439
▁gall	-11.7451
heads	-11.7452
adventure	-11.7454
producer	-11.7454
first	-11.7454
▁doubts	-11.7457
▁freaking	-11.7459
app	-11.7459
▁vignettes	-11.746
▁dominic	-11.7463
shoot	-11.7465
▁lena	-11.7466
▁grabbe	-11.7467
▁kil	-11.7467
▁cheat	-11.7468
▁peters	-11.7474
▁render	-11.7475
▁hmmm	-11.7479
▁votes	-11.7486
▁melt	-11.7487
▁pub	-11.7491
▁schedule	-11.7491
▁participate	-11.7491
▁thumb	-11.7494
city	-11.7502
▁defie	-11.7503
▁bounce	-11.7508
▁choosing	-11.7508
▁curtain	-11.7508
▁exploding	-11.7508
▁implied	-11.7508
▁inexplicable	-11.7508
▁persuade	-11.7508
▁physics	-11.7508
▁spouse	-11.7508
▁sorrow	-11.7508
▁dubious	-11.7508
▁cram	-11.7508
▁bombing	-11.7508
▁dixon	-11.7509
▁lupino	-11.7509
▁manipulation	-11.7509
▁lighter	-11.7509
▁1978	-11.7509
▁posing	-11.751
▁kurtz	-11.751
▁plug	-11.751
▁alarm	-11.7511
▁cho	-11.7511
▁brick	-11.7512
▁ladder	-11.7514
may	-11.7515
▁rumor	-11.7515
▁comparisons	-11.7516
▁poe	-11.7518
▁freaky	-11.7528
lace	-11.7532
▁mobile	-11.7534
▁iconic	-11.7536
▁aboard	-11.7537
▁rack	-11.7538
▁cheaply	-11.7539
know	-11.7539
▁defeated	-11.754
▁sinking	-11.7541
game	-11.7542
nik	-11.7543
▁(!)	-11.7544
...........	-11.7554
despite	-11.7556
▁factors	-11.7556
▁screenwriters	-11.7557
▁programs	-11.7559
▁swearing	-11.7559
▁relat	-11.7565
quite	-11.7567
▁pound	-11.7576
▁beth	-11.758
▁queens	-11.7587
▁mala	-11.7587
▁politicians	-11.7588
▁kidnap	-11.7596
▁cigarette	-11.7597
▁lil	-11.7599
▁tax	-11.7602
▁korea	-11.7606
▁almighty	-11.761
▁arquette	-11.761
▁arriving	-11.761
▁aztec	-11.761
▁bachelor	-11.761
▁creek	-11.761
▁flimsy	-11.761
▁havoc	-11.761
▁mutual	-11.761
▁shield	-11.761
▁bennett	-11.761
▁meandering	-11.761
▁shelter	-11.761
▁hesitate	-11.761
▁studied	-11.761
▁travis	-11.761
▁perverse	-11.761
▁outdated	-11.761
▁adrian	-11.761
▁garage	-11.7611
▁alvin	-11.7612
▁overblown	-11.7612
▁harrowing	-11.7614
▁webb	-11.7614
▁stores	-11.7615
▁stardom	-11.7615
▁advertised	-11.7617
pu	-11.7617
▁realistically	-11.7619
▁daylight	-11.762
▁growth	-11.7621
▁published	-11.7622
▁meyer	-11.7628
▁realization	-11.7628
▁educated	-11.7629
▁likeable	-11.7631
▁pursued	-11.7633
▁nations	-11.7634
▁incidents	-11.7636
got	-11.7637
▁indifferent	-11.7638
▁carson	-11.7647
ata	-11.7651
fly	-11.7653
▁playful	-11.7654
fish	-11.7656
ridden	-11.7659
▁remakes	-11.7661
▁convention	-11.7662
mba	-11.7662
▁embarrassingly	-11.7663
▁houses	-11.7664
▁pose	-11.767
▁affects	-11.7671
▁pirates	-11.7679
▁whoopi	-11.7687
▁proceed	-11.7687
▁rescued	-11.7689
▁file	-11.769
▁brazil	-11.7693
▁lastly	-11.7695
▁sleeper	-11.7697
etti	-11.7698
▁extensive	-11.77
▁relentless	-11.77
▁delicious	-11.77
cca	-11.7702
▁sparks	-11.7705
▁everett	-11.7705
▁crashing	-11.7705
▁sly	-11.7707
▁hol	-11.7712
▁afghanistan	-11.7713
▁bacall	-11.7713
▁draft	-11.7713
▁kermit	-11.7713
▁pianist	-11.7713
▁unconventional	-11.7713
▁unwilling	-11.7713
▁vintage	-11.7713
▁nolte	-11.7713
▁precede	-11.7713
▁wtf	-11.7713
▁whip	-11.7713
▁graveyard	-11.7713
▁pornography	-11.7713
▁phase	-11.7713
▁micro	-11.7714
▁stripper	-11.7714
▁:-)	-11.7716
▁saddle	-11.7717
▁persons	-11.7718
▁isabelle	-11.7719
▁stalking	-11.7723
▁profile	-11.7725
▁filthy	-11.7725
▁springer	-11.7729
▁apt	-11.7739
wait	-11.7743
▁fanatic	-11.7745
▁mentions	-11.7746
▁neatly	-11.7746
▁corey	-11.7749
rod	-11.775
▁scan	-11.7761
▁wisely	-11.7777
▁regularly	-11.778
▁users	-11.778
▁pic	-11.7784
▁partners	-11.7786
▁log	-11.7788
▁georgia	-11.7797
▁jos	-11.7798
hey	-11.7803
▁goals	-11.7804
▁monologue	-11.7809
▁kor	-11.7809
▁judged	-11.7812
▁depths	-11.7815
▁prospect	-11.7816
▁meteor	-11.7817
▁bakshi	-11.7817
esquire	-11.7817
▁bimbo	-11.7817
▁daffy	-11.7817
▁filter	-11.7817
▁gandhi	-11.7817
▁merchant	-11.7817
▁rourke	-11.7817
▁schneider	-11.7817
▁whisper	-11.7817
▁anxious	-11.7817
▁vanessa	-11.7817
▁warehouse	-11.7817
▁collins	-11.7817
▁miranda	-11.7817
▁turtle	-11.7817
▁stabbed	-11.7817
▁existential	-11.7817
▁glamorous	-11.7817
▁stamp	-11.7818
▁nauseating	-11.7818
▁1989	-11.7818
▁skinny	-11.7818
▁ebert	-11.7819
brien	-11.7819
▁otto	-11.782
▁portman	-11.7821
▁russians	-11.7822
lines	-11.7824
▁flock	-11.7824
▁75	-11.7828
▁dwell	-11.7828
▁archive	-11.7829
▁campus	-11.7831
▁celebrate	-11.7833
▁seedy	-11.7838
▁seeming	-11.7839
▁threatened	-11.7842
hhh	-11.7843
▁dumped	-11.785
nice	-11.7852
▁aiming	-11.7855
▁awaken	-11.7855
nda	-11.7856
▁shove	-11.786
shirt	-11.787
spirited	-11.7871
files	-11.7875
▁plotting	-11.7877
▁hk	-11.7878
peter	-11.7879
lew	-11.7889
▁revel	-11.7889
▁associate	-11.7899
▁slob	-11.7899
▁recruit	-11.79
▁sweep	-11.7901
cro	-11.7904
▁bru	-11.7904
2)	-11.7908
▁factual	-11.7913
▁resolve	-11.7914
▁approached	-11.7915
▁employee	-11.7917
▁arguing	-11.7922
▁dazzling	-11.7922
▁malkovich	-11.7922
▁tendency	-11.7922
▁gigantic	-11.7922
▁wheelchair	-11.7922
▁begging	-11.7922
▁incapable	-11.7922
▁preparing	-11.7922
▁psychologist	-11.7922
▁sabrina	-11.7922
▁tolerance	-11.7922
▁mitch	-11.7922
▁accessible	-11.7923
▁senator	-11.7923
▁fritz	-11.7923
▁pokemon	-11.7923
▁1987	-11.7923
▁unsure	-11.7925
▁alison	-11.7925
▁redford	-11.7925
▁shotgun	-11.7926
▁joyce	-11.7926
▁vibe	-11.7926
▁joanna	-11.7927
▁christianity	-11.7928
▁zane	-11.7928
▁laws	-11.7928
▁stern	-11.793
▁satisfaction	-11.7931
▁prof	-11.7931
▁novelty	-11.7932
ille	-11.7932
▁conveniently	-11.7936
▁95	-11.7936
▁sant	-11.7938
▁popping	-11.7939
▁oc	-11.7942
▁billing	-11.7942
noir	-11.7943
▁evan	-11.7943
▁classy	-11.7944
▁pairing	-11.7944
▁rewarded	-11.7945
gore	-11.7952
▁longing	-11.7952
▁damaged	-11.7956
▁confronted	-11.7959
80	-11.796
▁reviewed	-11.7962
▁gamera	-11.7963
▁flowers	-11.7965
▁andrea	-11.7965
mind	-11.7966
▁sour	-11.7967
▁(193	-11.7974
▁rea	-11.7975
▁safely	-11.7975
people	-11.7975
sci	-11.7977
thin	-11.798
▁(?)	-11.7982
000	-11.7986
once	-11.7987
▁vic	-11.7993
gling	-11.7999
iko	-11.8002
▁invent	-11.8004
▁reject	-11.8008
quin	-11.8008
midst	-11.8014
wer	-11.8016
▁mold	-11.8018
▁reverse	-11.8019
8)	-11.802
25	-11.802
▁chore	-11.8022
▁detectives	-11.8022
▁colleagues	-11.8023
lian	-11.8023
▁198	-11.8026
▁seasoned	-11.8027
▁republic	-11.8027
▁staple	-11.8028
▁applied	-11.8029
▁cerebral	-11.8029
▁experiencing	-11.8029
▁improbable	-11.8029
▁macabre	-11.8029
▁mediocrity	-11.8029
▁relevance	-11.8029
▁scorsese	-11.8029
▁sissy	-11.8029
▁undeniably	-11.8029
▁understatement	-11.8029
▁unsympathetic	-11.8029
▁dietrich	-11.8029
▁niven	-11.8029
▁complications	-11.8029
▁granger	-11.8029
▁terminal	-11.8029
▁unfamiliar	-11.8029
▁lizard	-11.8029
▁antonioni	-11.8029
▁stir	-11.803
▁barrier	-11.803
▁underwear	-11.803
▁marlow	-11.803
cross	-11.803
▁gein	-11.803
▁weaver	-11.8031
▁rory	-11.8031
▁possesses	-11.8033
▁cries	-11.8035
▁lester	-11.8036
▁divided	-11.8041
▁payoff	-11.8043
▁dumbest	-11.8044
▁blob	-11.8046
▁distracted	-11.8048
▁parallels	-11.8048
▁sweeping	-11.805
▁babes	-11.8055
▁meantime	-11.806
rill	-11.8076
▁gosh	-11.8076
▁skilled	-11.8081
▁windows	-11.8083
▁sober	-11.8084
▁cru	-11.8086
▁insert	-11.8097
aaa	-11.8099
▁deck	-11.81
trip	-11.8101
▁pipe	-11.8104
▁characteristics	-11.8113
▁intensely	-11.8115
▁demonstrate	-11.8123
▁cy	-11.8123
close	-11.813
boat	-11.813
▁jew	-11.813
▁boob	-11.8136
▁ensue	-11.8136
▁weaker	-11.8136
▁regime	-11.8136
▁kurosawa	-11.8136
▁othello	-11.8136
▁phoenix	-11.8136
▁redundant	-11.8136
▁abomination	-11.8136
▁estranged	-11.8136
▁horrified	-11.8136
▁inclusion	-11.8136
▁whining	-11.8136
▁casper	-11.8136
▁admission	-11.8136
▁boogie	-11.8136
▁maximum	-11.8137
▁bloke	-11.8137
▁polite	-11.8137
▁rodney	-11.8137
▁jolie	-11.8137
▁blamed	-11.8138
▁1998	-11.8138
▁hawn	-11.8138
▁1994	-11.8139
▁franklin	-11.814
▁quasi	-11.814
▁locals	-11.8141
▁kit	-11.8142
▁lois	-11.8143
▁stylized	-11.8145
▁chow	-11.8145
▁cartoonish	-11.8147
▁nero	-11.8149
▁dove	-11.8152
▁porter	-11.8154
▁slam	-11.8157
▁smiles	-11.8157
▁dashing	-11.8163
early	-11.8163
▁bitten	-11.8166
▁nap	-11.817
▁interior	-11.8176
wn	-11.8176
ique	-11.8186
▁strengths	-11.8188
▁janet	-11.8188
special	-11.819
▁surfer	-11.8192
scene	-11.8198
zing	-11.8198
▁uniforms	-11.82
▁questioning	-11.82
▁gunfight	-11.8202
▁bun	-11.8206
▁praised	-11.8208
▁chronicles	-11.8209
lift	-11.821
▁poses	-11.8217
▁enthusiast	-11.8218
sure	-11.8219
eu	-11.8219
▁explode	-11.8229
▁28	-11.8229
▁expand	-11.823
dog	-11.8231
▁punish	-11.8231
▁suspected	-11.8232
til	-11.8236
▁esp	-11.8242
▁bleed	-11.8243
▁chamber	-11.8245
▁collaboration	-11.8245
▁complement	-11.8245
▁fragile	-11.8245
▁historian	-11.8245
▁lansbury	-11.8245
▁parodies	-11.8245
▁pizza	-11.8245
▁rhett	-11.8245
▁ritchie	-11.8245
▁verdict	-11.8245
▁werewolves	-11.8245
▁whiny	-11.8245
▁supplie	-11.8245
▁aftermath	-11.8245
▁harvest	-11.8245
▁feeble	-11.8245
▁repair	-11.8245
▁branch	-11.8245
▁tokyo	-11.8245
▁canyon	-11.8246
▁1959	-11.8246
▁sweden	-11.8246
▁landmark	-11.8246
▁shelley	-11.8246
▁sought	-11.8246
▁coburn	-11.8246
▁replacement	-11.8246
▁brett	-11.8246
▁1974	-11.8247
▁theories	-11.8247
▁believability	-11.8248
▁undermine	-11.8249
▁peril	-11.8249
▁crippled	-11.8251
▁croc	-11.8251
glo	-11.8254
▁monica	-11.8254
▁norton	-11.8254
▁boone	-11.8255
▁crooked	-11.8257
▁omen	-11.8257
▁letdown	-11.8259
▁preacher	-11.8267
ridge	-11.8267
▁organized	-11.8267
*****	-11.8269
ggy	-11.8271
▁exploits	-11.8271
have	-11.8272
▁promoted	-11.8273
nz	-11.8274
▁poll	-11.8277
▁scenarios	-11.8283
cum	-11.8283
▁gestures	-11.8288
▁sheep	-11.8299
character	-11.8301
before	-11.8301
culture	-11.8302
▁arise	-11.8303
▁outsider	-11.8304
aki	-11.8305
▁spelling	-11.8306
▁shameless	-11.8306
office	-11.8307
▁finishing	-11.8311
▁midst	-11.8311
▁decid	-11.8312
▁cock	-11.8321
referred	-11.8327
▁convinces	-11.8328
▁replay	-11.8329
sound	-11.833
▁ste	-11.8332
▁suitabl	-11.8337
▁amaze	-11.8338
▁verbal	-11.8342
hell	-11.8345
▁excess	-11.8351
▁slot	-11.8352
▁chu	-11.8353
▁revolve	-11.8354
▁frantic	-11.8354
▁mermaid	-11.8355
▁sebastian	-11.8355
▁spectator	-11.8355
▁plodding	-11.8355
▁sterling	-11.8355
▁parrot	-11.8355
▁reports	-11.8355
▁alicia	-11.8359
▁duff	-11.8359
▁subway	-11.8359
▁agony	-11.836
▁sniper	-11.8362
▁dante	-11.8362
▁absorbing	-11.8366
lane	-11.8367
▁offbeat	-11.8367
▁heels	-11.8369
▁cultures	-11.8372
olo	-11.8373
▁gasp	-11.8374
▁lola	-11.8377
▁kent	-11.8382
▁subsequently	-11.8384
▁chucky	-11.8387
▁abbott	-11.8388
▁farley	-11.8395
▁conveyed	-11.8401
▁fuss	-11.8402
joe	-11.8404
cept	-11.8406
▁insights	-11.8406
▁distinguish	-11.8411
yeah	-11.8413
since	-11.8414
▁encountered	-11.8417
▁preach	-11.8417
mir	-11.8419
ain	-11.842
table	-11.8421
▁messing	-11.8421
via	-11.8422
lapse	-11.8424
logical	-11.8427
▁tower	-11.8429
▁mack	-11.845
▁neglect	-11.8451
▁literal	-11.8453
rg	-11.8453
▁joint	-11.8463
▁300	-11.8463
14	-11.8464
▁sensual	-11.8465
▁sleeve	-11.8466
▁timberlake	-11.8466
▁crosby	-11.8466
▁ordeal	-11.8466
▁determination	-11.8466
▁puppy	-11.8466
▁unattractive	-11.8466
▁mortal	-11.8466
▁kahn	-11.8466
▁zi	-11.8466
▁manic	-11.8467
▁1945	-11.8467
▁taut	-11.8467
▁patty	-11.8469
▁pbs	-11.8469
▁protection	-11.8469
▁scout	-11.847
▁judgement	-11.8471
▁colleague	-11.8472
▁inform	-11.8476
▁vanity	-11.8477
▁shameful	-11.8477
kee	-11.8478
▁manipulate	-11.8479
▁locke	-11.8479
▁reid	-11.8481
▁updated	-11.8485
▁que	-11.8487
▁eagerly	-11.849
▁interests	-11.8496
▁boarding	-11.8498
ram	-11.8498
▁speaker	-11.8499
▁cape	-11.8504
▁refugee	-11.8506
▁item	-11.8508
▁heath	-11.8509
▁hercules	-11.8514
▁qui	-11.852
ident	-11.8522
▁elliott	-11.8523
▁laser	-11.8524
numbing	-11.8524
▁dec	-11.8525
▁tightly	-11.8526
cru	-11.8531
▁interviewed	-11.8532
▁critters	-11.8537
rac	-11.854
▁sensation	-11.8542
▁mae	-11.8547
▁reno	-11.8551
kk	-11.8553
▁patriot	-11.8555
▁newer	-11.856
▁locate	-11.8562
▁inherit	-11.8563
▁immense	-11.8566
suit	-11.8569
▁bias	-11.857
▁arty	-11.8577
▁lombard	-11.8578
▁detroit	-11.8578
▁phoebe	-11.8578
▁pompous	-11.8578
▁rhyme	-11.8578
▁repressed	-11.8578
▁battling	-11.8578
▁sergio	-11.8578
▁wendy	-11.8578
▁auteur	-11.8578
▁nutshell	-11.8578
▁kinski	-11.8578
▁falcon	-11.8579
▁rugby	-11.8579
▁sharon	-11.8579
▁paycheck	-11.858
▁nathan	-11.858
▁cease	-11.858
▁artistry	-11.8582
▁lightning	-11.8582
▁cheers	-11.8584
mie	-11.8588
▁promptly	-11.859
▁bing	-11.8594
▁tackle	-11.8594
uri	-11.8596
▁cater	-11.8601
▁wholesome	-11.8603
▁transferr	-11.8605
▁clarke	-11.8605
▁masterfully	-11.8605
force	-11.8606
▁accepts	-11.8608
▁propose	-11.8611
▁hysterically	-11.8611
▁assist	-11.8615
hold	-11.8617
▁swinging	-11.862
▁graves	-11.862
pun	-11.862
angelo	-11.8621
▁feeding	-11.8622
▁frances	-11.863
70	-11.8637
level	-11.8639
jones	-11.864
▁tickets	-11.8642
▁mechanic	-11.8642
phone	-11.8644
▁outcast	-11.8645
▁rightly	-11.8647
▁remembering	-11.8656
▁dock	-11.8657
▁pilots	-11.8666
▁refus	-11.8667
▁rebels	-11.8667
▁orphan	-11.8676
cool	-11.8678
▁ponder	-11.8679
▁economic	-11.8686
▁terr	-11.8686
▁nit	-11.8686
witted	-11.8688
▁photograph	-11.8689
▁insomnia	-11.8689
breaking	-11.869
▁eisenstein	-11.8692
▁furniture	-11.8692
▁mclaglen	-11.8692
▁poirot	-11.8692
▁replies	-11.8692
▁vaughn	-11.8692
▁vigilante	-11.8692
▁blossom	-11.8692
▁manifest	-11.8692
▁barbarian	-11.8692
▁regain	-11.8692
▁stud	-11.8692
▁bittersweet	-11.8692
▁electronic	-11.8692
▁lucille	-11.8692
wash	-11.8692
▁groundbreaking	-11.8692
▁madison	-11.8693
▁roam	-11.8693
▁quant	-11.8693
▁scam	-11.8694
▁emmy	-11.8694
▁shocker	-11.8694
▁guardian	-11.8695
▁battlefield	-11.8695
▁runaway	-11.8696
▁warhol	-11.8696
▁secure	-11.8697
▁40'	-11.8697
▁lighthearted	-11.8697
▁grit	-11.8699
▁exclusively	-11.8699
▁dramatically	-11.87
offs	-11.8701
▁retro	-11.8702
▁vance	-11.8702
▁goldie	-11.8705
▁sack	-11.8705
▁tru	-11.8706
▁hor	-11.871
uch	-11.8712
▁tormented	-11.8712
best	-11.8712
▁scored	-11.8715
▁contestants	-11.8719
eye	-11.8719
▁principals	-11.8726
▁stereotyped	-11.8728
oooo	-11.8737
▁baddies	-11.874
▁degenerate	-11.8748
▁leaders	-11.8749
ace	-11.8751
▁ramon	-11.8751
▁kerr	-11.8751
▁gam	-11.8752
▁triple	-11.8757
jun	-11.8758
uh	-11.8767
err	-11.8768
▁benny	-11.8768
▁unusually	-11.877
▁joker	-11.8779
▁jude	-11.8782
last	-11.8786
▁hawke	-11.8787
▁richards	-11.8789
▁tara	-11.8793
same	-11.8793
▁ul	-11.8796
▁flo	-11.8796
▁biting	-11.8797
▁joining	-11.8798
▁deliberate	-11.88
▁carr	-11.8803
▁thirst	-11.8806
▁teams	-11.8806
▁fabric	-11.8807
▁cheerleader	-11.8807
▁fontaine	-11.8807
▁innuendo	-11.8807
▁rebecca	-11.8807
▁shanghai	-11.8807
▁spontaneous	-11.8807
▁balloon	-11.8807
▁ghastly	-11.8807
▁sophie	-11.8807
▁lorre	-11.8807
▁rookie	-11.8807
▁videotape	-11.8807
▁bunuel	-11.8807
▁ceiling	-11.8807
▁graduation	-11.8807
▁lumet	-11.8807
▁summarize	-11.8807
ivity	-11.8807
▁enigmatic	-11.8807
▁scarier	-11.8808
▁surgeon	-11.8808
▁slapped	-11.8808
▁void	-11.8808
▁email	-11.8808
▁grier	-11.8809
▁instructor	-11.8809
▁cecil	-11.8809
▁fuzzy	-11.8809
▁sentimentality	-11.881
▁salesman	-11.881
▁sanity	-11.8811
▁sketches	-11.8812
▁stoned	-11.8813
▁captivated	-11.8815
▁paints	-11.8816
▁noticeable	-11.8816
clo	-11.8816
7)	-11.8824
▁dern	-11.8825
▁howling	-11.8825
▁loan	-11.8826
half	-11.8832
▁munch	-11.8833
▁landed	-11.8833
▁vividly	-11.8834
aid	-11.8835
▁pierre	-11.8836
▁origins	-11.8836
mont	-11.8837
▁summe	-11.8838
▁cloth	-11.8839
▁shan	-11.8842
▁settled	-11.8843
▁gathering	-11.8844
ked	-11.8847
▁vehicles	-11.8849
ova	-11.8857
▁barn	-11.8859
ern	-11.8861
▁covering	-11.8864
▁routines	-11.8867
post	-11.8868
▁sto	-11.887
▁arguments	-11.8872
iro	-11.8879
characterisation	-11.888
▁frames	-11.8886
jim	-11.8888
bag	-11.8894
3)	-11.8902
▁bass	-11.8903
chan	-11.8908
▁condemn	-11.8908
▁experts	-11.8909
▁enlist	-11.8909
▁extend	-11.891
aries	-11.8912
▁photographs	-11.8912
▁mysteriously	-11.8913
▁crossed	-11.8918
▁lam	-11.892
▁admiration	-11.8923
▁carnival	-11.8923
▁cronenberg	-11.8923
▁dahmer	-11.8923
▁jurassi	-11.8923
▁lopez	-11.8923
▁lundgren	-11.8923
▁melissa	-11.8923
▁portuguese	-11.8923
▁recipe	-11.8923
▁releasing	-11.8923
▁sabotage	-11.8923
▁turmoil	-11.8923
▁micheal	-11.8923
▁atomic	-11.8923
▁decay	-11.8923
▁sundance	-11.8923
▁spray	-11.8924
▁nanny	-11.8924
▁marlon	-11.8924
door	-11.8924
▁darling	-11.8925
abo	-11.8925
▁ninety	-11.8925
▁intact	-11.8925
▁1991	-11.8925
▁noteworthy	-11.8925
▁unconscious	-11.8926
▁zoey	-11.8927
▁straw	-11.8929
▁offense	-11.8929
▁gaps	-11.8934
▁assembled	-11.8935
▁acquired	-11.8936
▁dragons	-11.8937
▁wonderland	-11.8939
aw	-11.8942
▁shifts	-11.8943
▁knee	-11.8945
▁faded	-11.8946
anger	-11.8947
▁ricky	-11.8947
jean	-11.8947
▁cord	-11.8948
▁robertson	-11.895
▁lung	-11.8951
▁severed	-11.8958
▁holland	-11.896
odd	-11.8965
▁herbert	-11.8967
▁boots	-11.8968
hall	-11.8969
▁daytime	-11.8973
▁lucio	-11.8974
▁sells	-11.8975
gli	-11.8981
▁lei	-11.8986
scenes	-11.8986
girlfriend	-11.8987
▁plants	-11.8987
flick	-11.8988
▁bait	-11.8991
▁goodman	-11.8997
▁starters	-11.8997
▁boobs	-11.9
late	-11.9001
rim	-11.9003
▁cliched	-11.9004
amato	-11.9009
▁clouds	-11.901
▁bog	-11.9011
▁pow	-11.9015
▁flirt	-11.9019
genre	-11.902
▁slaves	-11.9021
▁retrieve	-11.9026
imo	-11.9038
▁cunning	-11.9041
▁compound	-11.9041
▁denouement	-11.9041
▁dungeon	-11.9041
▁monotonous	-11.9041
▁seinfeld	-11.9041
▁slept	-11.9041
▁injury	-11.9041
▁psychedelic	-11.9041
▁chemical	-11.9041
▁essay	-11.9041
▁reckless	-11.9041
▁enchanting	-11.9041
▁murky	-11.9041
▁comprise	-11.9041
▁kilmer	-11.9041
▁hurry	-11.9041
▁miami	-11.9041
▁bodyguard	-11.9042
▁lonesome	-11.9042
▁darren	-11.9042
▁diary	-11.9043
▁dandy	-11.9044
▁fido	-11.9044
▁nonexistent	-11.9045
▁declare	-11.9045
▁predictably	-11.9046
▁desk	-11.9046
▁wayans	-11.9047
▁hackman	-11.9049
▁posey	-11.9051
▁lurking	-11.9054
goers	-11.9056
dling	-11.9057
tell	-11.9057
▁exploited	-11.9059
▁betrayed	-11.906
▁vow	-11.9063
1)	-11.9064
▁statements	-11.9064
▁patriotic	-11.9065
▁lange	-11.9071
▁theatres	-11.9074
▁mouths	-11.9074
▁gina	-11.9074
▁(195	-11.9074
▁expertly	-11.9082
▁stable	-11.9082
▁affecting	-11.9082
agging	-11.9085
▁stupidest	-11.9085
▁robbers	-11.909
▁admired	-11.9091
▁charms	-11.9093
▁stuffed	-11.9094
osh	-11.9098
add	-11.9101
▁8/10.	-11.9103
walk	-11.9104
sexual	-11.9106
burn	-11.9107
dvd	-11.9107
smith	-11.9107
▁goo	-11.9111
▁lt	-11.9112
▁hyped	-11.9115
▁barr	-11.9116
▁shemp	-11.9123
▁30'	-11.9123
ald	-11.9125
killer	-11.9135
18	-11.9137
▁revolt	-11.9139
▁mirrors	-11.9141
▁boyer	-11.9144
▁alba	-11.9144
▁entertainer	-11.9146
ddle	-11.915
dell	-11.9156
▁stereo	-11.916
▁assumption	-11.916
▁chaotic	-11.916
▁cocaine	-11.916
▁coyote	-11.916
▁marvellous	-11.916
▁salvation	-11.916
▁monkees	-11.916
▁venom	-11.916
▁anguish	-11.916
▁rogue	-11.916
▁mythology	-11.916
▁entries	-11.916
▁fraud	-11.916
▁hooper	-11.916
▁potent	-11.9161
▁sunset	-11.9161
▁subconscious	-11.9161
▁lump	-11.9161
bie	-11.9162
▁costner	-11.9163
▁debra	-11.9164
▁2008	-11.9164
▁spies	-11.9165
▁download	-11.9167
▁indicate	-11.9168
▁ur	-11.9168
▁reserved	-11.917
▁cody	-11.917
▁jose	-11.917
▁nuanced	-11.9171
▁sync	-11.9173
▁neglected	-11.9176
▁raines	-11.9178
▁immigrants	-11.918
▁texture	-11.9182
▁giggle	-11.9182
▁buffy	-11.9182
ched	-11.9183
▁discussed	-11.919
▁pans	-11.9191
▁commando	-11.9193
▁stake	-11.9197
▁reflected	-11.9199
▁85	-11.9208
blood	-11.9212
▁needle	-11.9217
atory	-11.9218
▁2-	-11.9219
has	-11.9223
▁pegg	-11.9224
second	-11.9227
arian	-11.9229
▁sleepy	-11.923
baked	-11.9237
▁sec	-11.9238
▁gates	-11.9244
▁barber	-11.9248
super	-11.9248
▁resulted	-11.9251
▁rounded	-11.9253
▁stages	-11.9257
▁wee	-11.9261
pic	-11.9262
▁steele	-11.9262
▁entrance	-11.9264
?????	-11.9267
▁determine	-11.9271
▁rolls	-11.9272
▁crank	-11.9272
▁jen	-11.9277
iya	-11.9278
▁circles	-11.9279
▁association	-11.928
▁govinda	-11.928
▁guinness	-11.928
▁inclined	-11.928
▁monitor	-11.928
▁squirm	-11.928
▁unsuccessful	-11.928
▁sincerity	-11.928
▁slut	-11.928
▁railroad	-11.928
▁shannon	-11.928
▁nifty	-11.928
▁sassy	-11.928
▁vault	-11.9281
▁erupt	-11.9281
▁doyle	-11.9281
▁captive	-11.9281
▁renaissance	-11.9281
▁clara	-11.9281
▁jules	-11.9281
▁patron	-11.9282
▁consequently	-11.9282
▁midget	-11.9282
▁garland	-11.9282
▁parking	-11.9282
▁underdeveloped	-11.9282
▁pickford	-11.9282
▁clunky	-11.9282
▁rouge	-11.9283
▁gloomy	-11.9284
▁waist	-11.9284
turned	-11.9284
▁veterans	-11.9285
▁chaney	-11.9285
▁rejects	-11.9285
trap	-11.9287
▁convict	-11.9287
▁magician	-11.9288
▁interrupted	-11.929
▁narrated	-11.9293
▁marines	-11.9295
▁heather	-11.9302
▁blur	-11.9303
▁dino	-11.9303
▁camping	-11.9303
▁politician	-11.9306
▁nuances	-11.9306
▁benefits	-11.9311
▁brass	-11.9312
▁climbing	-11.9318
max	-11.9322
▁males	-11.9324
▁sgt	-11.9334
▁wak	-11.9335
▁lick	-11.9337
▁defy	-11.9341
▁grounds	-11.9345
▁smarter	-11.9346
▁hardest	-11.9347
▁fry	-11.9348
▁tipp	-11.935
▁tra	-11.9352
▁ignor	-11.9352
▁characteristic	-11.9352
around	-11.9355
bird	-11.9357
▁pranks	-11.9359
nam	-11.9359
▁slack	-11.9359
stick	-11.9361
▁nico	-11.9362
gate	-11.9363
cra	-11.9364
owing	-11.9371
▁insults	-11.9372
▁customers	-11.9372
▁flames	-11.9374
▁moran	-11.9376
▁employ	-11.9382
▁toni	-11.9384
▁select	-11.9384
▁packs	-11.939
▁satanic	-11.939
▁excellently	-11.9393
quality	-11.9395
▁undergo	-11.9397
▁feminine	-11.9402
▁brynner	-11.9402
▁fishburne	-11.9402
▁fodder	-11.9402
▁inaccuracies	-11.9402
▁misunderstood	-11.9402
▁oblivious	-11.9402
▁pamela	-11.9402
▁remorse	-11.9402
▁streak	-11.9402
▁unanswered	-11.9402
▁vivian	-11.9402
▁carnage	-11.9402
▁ebay	-11.9402
▁owl	-11.9402
▁kinnear	-11.9402
▁marathon	-11.9402
▁foremost	-11.9402
▁witchcraft	-11.9402
▁shuttle	-11.9403
▁enduring	-11.9403
▁carrot	-11.9403
▁grease	-11.9403
▁edison	-11.9403
▁zeta	-11.9404
▁knightley	-11.9404
▁honey	-11.9404
▁juliette	-11.9404
▁popped	-11.9404
▁consciousness	-11.9405
▁stargate	-11.9405
▁snail	-11.9406
east	-11.9406
▁brendan	-11.9407
▁unclear	-11.9407
▁nina	-11.9407
▁chef	-11.9408
▁sammy	-11.9408
ional	-11.9409
▁flows	-11.9409
friend	-11.941
▁staging	-11.9412
▁10/10.	-11.9415
▁197	-11.9416
▁deliciously	-11.9417
▁overboard	-11.9423
▁awakening	-11.9427
▁rendering	-11.9428
▁sources	-11.9428
▁wherever	-11.9429
▁client	-11.943
17	-11.9431
▁astronaut	-11.9431
▁nan	-11.9433
▁spinal	-11.9436
phe	-11.9439
▁scratching	-11.9451
▁peep	-11.9452
▁sentences	-11.9456
▁flame	-11.9458
sex	-11.9463
▁tuned	-11.9464
fred	-11.9468
frame	-11.9472
▁hateful	-11.9474
sub	-11.9478
▁squeeze	-11.9479
▁forrest	-11.9482
▁fetched	-11.9484
▁hunted	-11.9487
nan	-11.9489
▁woke	-11.949
▁temper	-11.9492
▁witnessing	-11.9495
▁denis	-11.9495
sick	-11.95
▁eliminate	-11.9509
▁recreate	-11.9511
▁pervert	-11.9511
▁prompt	-11.9513
▁glimpses	-11.9515
five	-11.9518
▁dealers	-11.9521
▁exec	-11.9525
▁inadvertent	-11.9526
▁attenborough	-11.9526
▁berkeley	-11.9526
▁corbett	-11.9526
▁gulliver	-11.9526
▁inconsistencies	-11.9526
▁kaufman	-11.9526
▁liberty	-11.9526
▁nielsen	-11.9526
▁puerto	-11.9526
▁strung	-11.9526
▁thirties	-11.9526
▁thurman	-11.9526
esteem	-11.9526
▁temptation	-11.9526
▁varied	-11.9526
▁woven	-11.9526
▁asterix	-11.9526
▁framing	-11.9526
▁dodgy	-11.9526
▁abroad	-11.9526
▁array	-11.9526
delusion	-11.9526
▁advertisement	-11.9526
alien	-11.9526
▁courtroom	-11.9526
▁distinctive	-11.9527
▁resistance	-11.9527
▁teddy	-11.9528
▁hunk	-11.9529
▁stab	-11.9529
▁ramones	-11.9529
▁gel	-11.953
▁overweight	-11.9532
▁employees	-11.9533
▁fills	-11.9534
tory	-11.9538
ole	-11.9539
▁preaching	-11.9549
iled	-11.9551
▁enable	-11.9552
▁math	-11.9558
▁followers	-11.9558
▁mobster	-11.9559
▁rail	-11.9559
▁pur	-11.9559
▁glove	-11.9561
▁frontal	-11.9563
neill	-11.9564
▁reviewing	-11.9565
▁bashing	-11.9565
▁switche	-11.9565
▁fran	-11.9566
▁uma	-11.957
▁wartime	-11.9572
▁coo	-11.9573
mus	-11.9576
▁trains	-11.9583
▁raf	-11.9586
complete	-11.9587
▁clo	-11.9588
▁achieves	-11.9588
▁roughly	-11.9588
perfect	-11.9597
▁evokes	-11.9598
▁gum	-11.9601
ural	-11.9604
kid	-11.9605
?!?	-11.9609
▁apologize	-11.9614
▁breathing	-11.9617
▁travell	-11.9619
▁stoner	-11.962
rak	-11.9632
▁juice	-11.9635
▁avenge	-11.9638
due	-11.964
rating	-11.9641
▁dustin	-11.9641
▁fires	-11.9643
▁hai	-11.9645
▁bava	-11.9647
▁romania	-11.9649
▁gerald	-11.965
▁ambiguity	-11.9651
▁capacity	-11.9651
▁espionage	-11.9651
▁excellence	-11.9651
▁facility	-11.9651
▁gravity	-11.9651
▁liberties	-11.9651
▁uncanny	-11.9651
▁salvage	-11.9651
▁elicit	-11.9651
▁paranormal	-11.9651
▁basil	-11.9651
▁kingsley	-11.9651
▁toxic	-11.9651
▁yank	-11.9651
▁hostile	-11.9651
▁rousing	-11.9651
▁motif	-11.9651
▁feather	-11.9652
▁burke	-11.9652
▁rudy	-11.9652
▁spotlight	-11.9653
▁establishment	-11.9653
▁republican	-11.9653
▁liu	-11.9655
▁bondage	-11.9656
▁incorporate	-11.9658
▁existing	-11.9658
▁stalked	-11.9659
▁chin	-11.9659
▁digging	-11.9659
▁godard	-11.966
▁stretches	-11.9661
▁slo	-11.9662
▁distributed	-11.9663
▁fascist	-11.9665
▁invested	-11.967
▁grain	-11.9672
bon	-11.9673
▁forgetting	-11.9673
oooooo	-11.9674
▁crosses	-11.9676
▁ariel	-11.9676
▁7/10.	-11.9678
95	-11.9679
▁progressed	-11.9685
▁attribute	-11.9685
▁pap	-11.9687
▁cheering	-11.9688
▁imply	-11.9693
▁cri	-11.9694
▁attending	-11.9695
▁worm	-11.9699
▁complained	-11.9701
disc	-11.9702
▁rev	-11.9705
drawn	-11.9706
arch	-11.971
camp	-11.9711
▁mol	-11.9719
▁capt	-11.9719
▁grind	-11.9726
▁reruns	-11.9728
▁combs	-11.9732
erman	-11.9733
▁hare	-11.9734
▁seats	-11.9741
plots	-11.9741
▁diver	-11.9744
▁voiced	-11.9744
dance	-11.9746
hat	-11.975
waiting	-11.9751
▁respects	-11.9751
▁flowing	-11.9752
vic	-11.9754
▁buttons	-11.9755
mc	-11.9758
▁dug	-11.9759
▁glow	-11.9761
▁roach	-11.9764
▁maintains	-11.9768
▁(199	-11.9768
roy	-11.9769
▁shakes	-11.9771
▁erase	-11.9775
▁blo	-11.9775
▁applause	-11.9777
▁capote	-11.9777
▁celebrities	-11.9777
▁cheadle	-11.9777
▁einstein	-11.9777
▁identified	-11.9777
▁obscurity	-11.9777
▁occurrence	-11.9777
▁optimistic	-11.9777
▁volunteer	-11.9777
▁athletic	-11.9777
▁atrocity	-11.9777
▁melody	-11.9777
▁buffoon	-11.9777
▁prevail	-11.9777
▁occult	-11.9777
▁incestuous	-11.9777
▁sandwich	-11.9777
▁representative	-11.9778
▁archetyp	-11.9778
▁lestat	-11.9778
▁0/10	-11.9778
▁finney	-11.9778
▁mystical	-11.9779
▁traitor	-11.978
▁believer	-11.9783
▁bearable	-11.9784
arm	-11.9784
▁193	-11.9785
▁tailor	-11.9786
overs	-11.9787
▁sirk	-11.9788
▁kristin	-11.9788
▁readily	-11.9788
▁commend	-11.979
▁cain	-11.9793
ility	-11.9795
▁inserted	-11.9795
▁dia	-11.9799
scape	-11.981
▁addressed	-11.9811
▁cracker	-11.9811
▁lara	-11.9814
▁forties	-11.9815
▁brush	-11.9816
hoo	-11.9819
ended	-11.9828
▁vie	-11.9834
ann	-11.9837
▁sporting	-11.9838
▁cells	-11.9841
shaw	-11.9842
▁hmm	-11.9843
▁bury	-11.9862
▁ming	-11.9875
▁eater	-11.9877
▁inmates	-11.9878
▁churn	-11.9884
alan	-11.9885
▁shave	-11.9887
enti	-11.9891
▁alleged	-11.9893
▁rivals	-11.9894
▁greene	-11.9898
each	-11.9899
▁mur	-11.9903
aker	-11.9905
▁octopus	-11.9905
▁comparable	-11.9906
▁deneuve	-11.9906
▁fugitive	-11.9906
▁influential	-11.9906
▁keanu	-11.9906
▁melancholy	-11.9906
▁meredith	-11.9906
▁rathbone	-11.9906
▁tierney	-11.9906
▁demille	-11.9906
▁firth	-11.9906
▁loretta	-11.9906
▁shearer	-11.9906
▁programming	-11.9906
▁rukh	-11.9906
▁resonate	-11.9906
!!)	-11.9906
▁alliance	-11.9906
▁posse	-11.9907
▁envy	-11.9907
▁cassie	-11.9907
▁strive	-11.9907
▁courageous	-11.9907
▁distinction	-11.9909
▁stating	-11.991
div	-11.991
▁villainous	-11.9913
▁atlantic	-11.9914
▁improvised	-11.9914
case	-11.9917
▁momentum	-11.9918
▁penis	-11.9919
▁assumes	-11.9928
hoe	-11.9929
▁versa	-11.9934
▁celebrated	-11.9936
▁upbeat	-11.9937
▁dominated	-11.9937
▁bless	-11.9944
▁consequence	-11.9948
ore	-11.9952
▁peek	-11.9952
▁directions	-11.9953
lover	-11.9956
▁servants	-11.9962
isha	-11.9965
pie	-11.9968
▁solved	-11.9968
▁vega	-11.9969
▁bolt	-11.9969
▁prayer	-11.9972
▁fable	-11.9974
▁tess	-11.9975
▁coaster	-11.9976
▁rever	-11.9979
inducing	-11.9981
father	-11.9984
▁discipline	-11.9985
telling	-11.9987
speaking	-11.9991
▁sleeps	-11.9995
found	-11.9995
whose	-11.9995
▁ads	-12.0004
ulation	-12.0008
osi	-12.0014
▁sunk	-12.0016
▁construct	-12.0019
▁precise	-12.0023
luc	-12.0023
▁weirdo	-12.0026
▁explodes	-12.0035
▁scandal	-12.0035
▁acquaintance	-12.0035
▁alexandra	-12.0035
▁chupacabra	-12.0035
▁component	-12.0035
▁devotion	-12.0035
▁dynamite	-12.0035
▁groove	-12.0035
▁hypnotic	-12.0035
▁nightmarish	-12.0035
▁october	-12.0035
▁penelope	-12.0035
▁prostitution	-12.0035
▁robocop	-12.0035
▁satellite	-12.0035
▁stadium	-12.0035
▁vapid	-12.0035
▁winchester	-12.0035
▁klein	-12.0035
▁merry	-12.0035
▁suppress	-12.0036
▁policy	-12.0036
▁myrna	-12.0036
▁banana	-12.0036
▁flipping	-12.0036
▁extract	-12.0036
▁1985	-12.0036
▁genetic	-12.0036
▁investment	-12.0036
▁1933	-12.0036
▁gillian	-12.0037
▁rewrite	-12.0037
▁sample	-12.0037
▁1977	-12.0038
▁burge	-12.0038
▁rounds	-12.0042
hur	-12.0042
▁brent	-12.0042
▁punchline	-12.0042
▁congo	-12.0044
▁effortlessly	-12.0044
▁digest	-12.0044
▁anticipated	-12.0045
▁wink	-12.0045
▁polly	-12.0046
▁awareness	-12.0048
▁elmer	-12.0048
▁funky	-12.005
▁tide	-12.0052
being	-12.0052
▁weekly	-12.0054
▁hug	-12.0054
▁nerdy	-12.0055
▁mm	-12.0055
▁evolved	-12.0058
▁bitchy	-12.0058
▁fairness	-12.006
▁hound	-12.0062
▁springs	-12.0062
▁transported	-12.0064
dad	-12.0066
▁smoothly	-12.007
▁coal	-12.0074
▁unfolding	-12.0075
tress	-12.0075
▁hob	-12.0075
100	-12.0078
*1/2	-12.0079
▁clad	-12.0081
▁executives	-12.0083
▁counting	-12.0084
▁peers	-12.0087
▁timon	-12.0093
▁magically	-12.0096
firmly	-12.01
▁tilly	-12.01
▁herman	-12.0103
▁outset	-12.0112
▁ple	-12.0113
▁produces	-12.0115
laugh	-12.0116
▁marketed	-12.0116
▁masked	-12.0117
lay	-12.0119
▁hawk	-12.0122
▁fleshed	-12.0125
ami	-12.0126
▁judges	-12.0128
▁worms	-12.0128
sia	-12.0128
▁drown	-12.0131
▁ker	-12.0146
▁dynamics	-12.0148
▁ideals	-12.0154
hit	-12.0155
▁reunite	-12.0157
▁restore	-12.0161
▁cancel	-12.0163
▁dictat	-12.0163
▁listened	-12.0165
▁youngsters	-12.0166
▁anonymous	-12.0167
▁centuries	-12.0167
▁estevez	-12.0167
▁intersperse	-12.0167
▁malcolm	-12.0167
▁norwegian	-12.0167
▁philadelphia	-12.0167
▁pixar	-12.0167
▁prologue	-12.0167
▁sensibility	-12.0167
▁suicidal	-12.0167
▁unappealing	-12.0167
▁zealand	-12.0167
▁shriek	-12.0167
▁subdued	-12.0167
▁macdonald	-12.0167
▁marilyn	-12.0167
▁mcdonald	-12.0167
▁looney	-12.0167
▁snappy	-12.0167
▁annoyance	-12.0167
▁crypt	-12.0167
▁therapy	-12.0167
▁byrne	-12.0167
▁robbed	-12.0167
▁arrangement	-12.0168
▁burden	-12.0168
▁recurr	-12.0168
▁feud	-12.0168
▁sidewalk	-12.0169
▁glee	-12.0171
▁loren	-12.0171
▁officials	-12.0172
▁spotted	-12.0172
▁skeptical	-12.0172
▁hopeful	-12.0173
▁zany	-12.0173
▁infant	-12.0173
▁chocolate	-12.0174
▁elected	-12.0174
▁cos	-12.0176
▁mindset	-12.0177
▁fanny	-12.0179
▁attic	-12.0191
▁confirmed	-12.0191
▁demi	-12.0192
▁overnight	-12.0194
▁relaxed	-12.0196
▁demonstrated	-12.0198
▁bats	-12.02
▁employer	-12.02
evil	-12.0203
▁sexist	-12.0206
▁listing	-12.0209
▁prank	-12.0215
▁fr	-12.0223
▁elliot	-12.0232
▁scarlet	-12.0232
title	-12.0233
dir	-12.0233
tron	-12.0236
uz	-12.0237
talk	-12.024
▁wilde	-12.0242
rah	-12.0243
original	-12.0244
▁diamonds	-12.0245
should	-12.0247
twist	-12.0248
▁insulted	-12.0248
▁symbols	-12.025
▁sigh	-12.025
team	-12.0253
▁screened	-12.0253
rising	-12.0255
ante	-12.0255
▁bombed	-12.0263
▁vamp	-12.0269
pathetic	-12.0269
ssi	-12.0272
▁len	-12.0277
▁threads	-12.0278
▁ridicule	-12.0284
plane	-12.0286
▁rio	-12.0287
▁bearing	-12.0289
▁stoic	-12.0292
▁lambs	-12.0294
▁honour	-12.0299
▁admirably	-12.03
▁beethoven	-12.03
▁cohesive	-12.03
▁confined	-12.03
▁edmund	-12.03
▁gromit	-12.03
▁guinea	-12.03
▁hellraiser	-12.03
▁lieutenant	-12.03
▁mccarthy	-12.03
▁moriarty	-12.03
▁naschy	-12.03
▁pivotal	-12.03
▁smirk	-12.03
▁superfluous	-12.03
▁anthology	-12.03
▁carlito	-12.03
▁chalk	-12.03
▁closure	-12.03
▁irwin	-12.03
▁enchanted	-12.03
▁gallery	-12.03
▁hungarian	-12.03
▁mcqueen	-12.0301
▁awry	-12.0301
▁crass	-12.0301
▁sweetheart	-12.0301
▁pope	-12.0301
▁viking	-12.0301
▁1934	-12.0301
▁accomplishment	-12.0302
▁troopers	-12.0302
▁drawback	-12.0303
▁edith	-12.0304
▁midler	-12.0305
▁forgiveness	-12.0307
▁omar	-12.0309
▁creeps	-12.0309
▁tacked	-12.0311
▁lex	-12.0312
▁perceived	-12.0313
▁shocks	-12.0314
▁understandably	-12.0315
▁keeper	-12.0315
▁colored	-12.032
eric	-12.0321
itude	-12.0327
fin	-12.0327
▁civilians	-12.0329
▁products	-12.0331
▁officially	-12.0332
▁crook	-12.0337
▁puzzled	-12.0337
▁loner	-12.034
▁ranting	-12.0342
▁raven	-12.0342
▁sinks	-12.0344
▁pra	-12.0349
▁counterpart	-12.0353
rgen	-12.0358
working	-12.0358
luck	-12.0366
cour	-12.0367
zen	-12.0375
▁goth	-12.0379
daughter	-12.0381
▁targeted	-12.0381
▁mont	-12.0384
hill	-12.0385
voiced	-12.0389
▁obstacles	-12.0392
▁drawings	-12.0392
dark	-12.0394
▁sca	-12.0394
▁shawn	-12.0405
boiled	-12.0407
scale	-12.0412
▁vent	-12.0418
▁compromise	-12.0419
▁sufficient	-12.0423
mail	-12.043
person	-12.0432
▁admitted	-12.0432
▁melv	-12.0433
▁scripting	-12.0435
▁audrey	-12.0435
▁chavez	-12.0435
▁combining	-12.0435
▁custody	-12.0435
▁economy	-12.0435
▁huppert	-12.0435
▁lubitsch	-12.0435
▁occupation	-12.0435
▁pursuing	-12.0435
▁radiation	-12.0435
▁reception	-12.0435
▁redgrave	-12.0435
▁reinforce	-12.0435
▁schizophrenic	-12.0435
▁sensitivity	-12.0435
▁transvestite	-12.0435
▁suave	-12.0435
▁overtones	-12.0435
▁reprise	-12.0436
▁laboratory	-12.0436
▁henson	-12.0436
▁discount	-12.0436
▁earliest	-12.0436
▁stomp	-12.0436
▁tempest	-12.0436
▁padding	-12.0436
▁chevy	-12.0436
▁hannah	-12.0436
▁1957	-12.0436
▁jagger	-12.0436
▁brazilian	-12.0437
▁mentor	-12.0437
▁grayson	-12.0438
▁biko	-12.044
▁abundance	-12.0442
▁rickman	-12.0443
▁sway	-12.0443
▁glenda	-12.0444
▁ample	-12.0445
▁cuban	-12.0446
▁mice	-12.0447
▁faye	-12.0448
▁propel	-12.0451
▁collar	-12.0452
▁puke	-12.0452
▁similarity	-12.0453
▁ei	-12.0454
▁surround	-12.0454
▁9/10.	-12.0455
▁restraint	-12.0458
▁socially	-12.046
▁criticized	-12.0461
▁foreigner	-12.0461
▁casually	-12.0462
▁gathered	-12.0467
▁mun	-12.0467
▁bosses	-12.0467
▁detect	-12.047
▁hark	-12.0471
▁labeled	-12.0472
▁christy	-12.0473
▁500	-12.0477
▁sheets	-12.0485
▁seriousness	-12.0489
▁slower	-12.0489
▁reeve	-12.0492
mine	-12.0492
tale	-12.05
▁environmental	-12.0502
▁attain	-12.0502
▁shin	-12.0503
meter	-12.0505
▁headline	-12.0509
▁viva	-12.051
▁haha	-12.0511
▁cursed	-12.0512
▁allies	-12.0514
igan	-12.0516
related	-12.0516
▁targets	-12.0518
loving	-12.052
remember	-12.0528
▁cou	-12.0529
▁openly	-12.053
packed	-12.0534
▁flashing	-12.0534
aro	-12.0536
count	-12.0536
▁noel	-12.054
ida	-12.054
▁privilege	-12.0556
cock	-12.0565
▁pod	-12.057
▁aristocrat	-12.0571
chen	-12.0572
▁cigar	-12.0572
▁athlete	-12.0572
▁conceit	-12.0572
▁district	-12.0572
▁endeavor	-12.0572
▁gielgud	-12.0572
▁henchmen	-12.0572
▁hockey	-12.0572
▁impersonation	-12.0572
▁interlude	-12.0572
▁patterson	-12.0572
▁perpetual	-12.0572
▁preparation	-12.0572
▁sasquatch	-12.0572
▁succumb	-12.0572
▁peasant	-12.0572
▁ramsey	-12.0572
▁dialect	-12.0572
▁escort	-12.0572
▁butterfly	-12.0572
▁exploitative	-12.0573
▁gym	-12.0573
▁evelyn	-12.0573
▁division	-12.0573
▁jacques	-12.0573
▁hijack	-12.0573
▁disappearance	-12.0573
▁motel	-12.0573
▁attendant	-12.0574
▁stripped	-12.0574
▁joking	-12.0574
▁faux	-12.0574
▁dudley	-12.0574
rom	-12.0575
▁deadpan	-12.0576
▁casablanca	-12.0577
▁backyard	-12.0578
frank	-12.0579
▁leland	-12.0579
▁terrorism	-12.0582
▁progression	-12.0583
▁domain	-12.0584
▁irritated	-12.0586
▁relentlessly	-12.0589
▁milland	-12.0591
arious	-12.0591
▁skirt	-12.0592
▁rewind	-12.0595
▁distinctly	-12.0597
▁projection	-12.0598
▁robotic	-12.0598
▁artful	-12.0598
▁alot	-12.0602
▁paths	-12.0603
▁morse	-12.0609
▁chiller	-12.0612
▁filmography	-12.0615
▁dope	-12.0615
▁garr	-12.0618
▁evoke	-12.0618
▁cousins	-12.0619
▁maze	-12.0621
ggle	-12.0622
!!!!!!	-12.0623
▁billion	-12.0623
▁pann	-12.0624
▁emil	-12.0628
▁hinted	-12.0635
▁observations	-12.0639
▁suggesting	-12.064
▁begun	-12.0641
ucci	-12.0646
▁cent	-12.0646
▁insanely	-12.0652
wo	-12.0655
▁techno	-12.0656
▁giants	-12.0657
modern	-12.0657
death	-12.0658
▁yuk	-12.0663
feel	-12.0665
▁awfulness	-12.0665
▁stations	-12.0667
▁laying	-12.0669
▁ratio	-12.0672
▁cummings	-12.0673
ryan	-12.0675
▁pointing	-12.0679
▁ambitions	-12.0682
▁lighten	-12.0687
natured	-12.0695
▁indulge	-12.07
▁amuse	-12.0706
▁spoiling	-12.0709
many	-12.0711
▁arizona	-12.0711
▁bicycle	-12.0711
▁decency	-12.0711
▁graffiti	-12.0711
▁hilary	-12.0711
▁penalty	-12.0711
▁predicament	-12.0711
▁raunchy	-12.0711
▁scheider	-12.0711
▁schwarzenegger	-12.0711
▁violin	-12.0711
▁zellweger	-12.0711
▁applies	-12.0711
▁potato	-12.0711
▁outlandish	-12.0711
▁federal	-12.0711
▁raptor	-12.0711
▁gossip	-12.0711
▁brunette	-12.0711
▁chamberlain	-12.0711
▁daisy	-12.0711
▁shepard	-12.0711
▁clarity	-12.0712
▁lurid	-12.0712
▁granny	-12.0712
▁cancelled	-12.0712
▁selleck	-12.0712
▁compassionate	-12.0712
▁chopper	-12.0712
▁swanson	-12.0712
▁interplay	-12.0712
▁wrist	-12.0712
▁recite	-12.0713
▁chock	-12.0713
▁dragging	-12.0713
▁campfire	-12.0713
▁scum	-12.0714
▁delay	-12.0714
▁haircut	-12.0714
▁oddball	-12.0715
▁charity	-12.0715
ush	-12.0715
▁villagers	-12.0716
▁passive	-12.0718
▁coleman	-12.0719
▁data	-12.0719
▁lindsay	-12.072
piece	-12.072
▁nash	-12.0725
▁weary	-12.0728
▁perverted	-12.0728
▁eggs	-12.0731
▁shah	-12.0745
personal	-12.0746
▁martino	-12.0748
▁berry	-12.0753
▁chapters	-12.0754
sized	-12.0754
rine	-12.0764
def	-12.0775
▁gripe	-12.0781
▁adjust	-12.0788
▁professionals	-12.0794
▁dale	-12.0797
bury	-12.0802
pack	-12.0803
▁27	-12.0806
ement	-12.0807
▁chops	-12.0808
45	-12.082
vol	-12.0822
▁marrying	-12.0823
zy	-12.0829
matt	-12.0831
ego	-12.0832
▁finance	-12.0836
▁excuses	-12.0836
▁wool	-12.0848
▁sucking	-12.0849
bed	-12.085
▁ufo	-12.0851
▁retrospect	-12.0852
▁blaxploitation	-12.0852
▁chronological	-12.0852
▁goldblum	-12.0852
▁kazan	-12.0852
▁napoleon	-12.0852
▁puzzling	-12.0852
▁yourselves	-12.0852
▁antwone	-12.0852
▁shelves	-12.0852
▁hispanic	-12.0852
▁honeymoon	-12.0852
▁sparse	-12.0852
▁prestig	-12.0852
▁paragraph	-12.0852
▁obscene	-12.0852
▁boundaries	-12.0852
▁devour	-12.0853
▁stirring	-12.0853
▁mustache	-12.0853
▁helmet	-12.0853
▁tissue	-12.0853
▁serum	-12.0853
▁hale	-12.0853
▁patent	-12.0854
rier	-12.0854
▁electricity	-12.0854
▁shady	-12.0854
▁shaggy	-12.0855
lost	-12.0855
▁retelling	-12.0855
▁deliverance	-12.0855
▁elementary	-12.0855
▁troll	-12.0856
▁consumer	-12.0857
▁infinitely	-12.0858
▁glossy	-12.0859
▁denied	-12.0859
▁letterman	-12.0863
▁gown	-12.0863
▁sarcasm	-12.0864
▁latino	-12.0867
garde	-12.0868
▁lilli	-12.0869
org	-12.087
▁ec	-12.0871
▁stabbing	-12.0872
▁reluctantly	-12.0874
▁fleeting	-12.0876
▁lament	-12.0879
ancy	-12.0879
earth	-12.0882
▁manipulated	-12.0883
▁sickness	-12.0883
▁coolest	-12.0883
▁notices	-12.0886
▁murderers	-12.0887
▁sail	-12.089
▁madman	-12.089
▁silverman	-12.0891
▁borders	-12.0891
▁predicted	-12.0892
▁dye	-12.0893
▁spoofs	-12.0894
▁clinic	-12.0896
had	-12.0901
▁hail	-12.0903
▁switching	-12.0905
47	-12.0906
lance	-12.0909
phon	-12.0912
▁puns	-12.0912
▁principles	-12.0914
term	-12.0917
▁tricked	-12.0917
later	-12.0917
▁linear	-12.0919
release	-12.0925
▁kra	-12.0925
▁willard	-12.0926
▁mandy	-12.0931
▁transitions	-12.0936
▁reads	-12.0937
▁crooks	-12.094
wrenching	-12.0941
possible	-12.0941
appreciated	-12.0941
literally	-12.0941
whatever	-12.0943
▁dv	-12.0945
rex	-12.0946
▁crashed	-12.0947
▁dien	-12.0947
▁sup	-12.0948
▁mastermind	-12.095
▁dangerously	-12.095
▁rene	-12.095
▁kai	-12.0951
meaning	-12.0952
▁carly	-12.0957
bone	-12.0957
stand	-12.0959
▁guil	-12.0959
▁pigs	-12.0959
plan	-12.0961
▁astronauts	-12.0962
▁cracks	-12.0963
doing	-12.097
heart	-12.0971
▁marcel	-12.0973
▁keys	-12.0974
▁deed	-12.0974
▁accuse	-12.0979
cula	-12.098
▁increasing	-12.0982
sided	-12.0986
albe	-12.0987
▁contradict	-12.0989
care	-12.0993
animator	-12.0994
▁import	-12.0995
▁sponsor	-12.0995
▁beowulf	-12.0995
▁dedication	-12.0995
▁detached	-12.0995
▁flamboyant	-12.0995
▁homicidal	-12.0995
▁infectious	-12.0995
▁mcdowell	-12.0995
▁neutral	-12.0995
▁olympic	-12.0995
▁overwrought	-12.0995
▁playwright	-12.0995
▁psychiatric	-12.0995
▁pulse	-12.0995
▁randall	-12.0995
▁reckon	-12.0995
▁revolving	-12.0995
▁saloon	-12.0995
▁sprinkle	-12.0995
▁sylvester	-12.0995
▁unnerving	-12.0995
▁vessel	-12.0995
▁reiser	-12.0995
▁swiss	-12.0995
mercifully	-12.0995
▁perkins	-12.0995
▁rumble	-12.0995
▁uptight	-12.0995
▁raimi	-12.0995
▁crane	-12.0995
▁fathom	-12.0995
▁traumatic	-12.0995
▁scoop	-12.0996
▁cyber	-12.0996
▁harlow	-12.0996
▁ernie	-12.0996
▁labour	-12.0996
▁olsen	-12.0996
▁revival	-12.0996
▁jodie	-12.0996
▁bogus	-12.0996
▁fellini	-12.0997
▁skipping	-12.0997
▁remainder	-12.0998
▁instances	-12.0998
▁tread	-12.0999
▁stance	-12.1001
▁shack	-12.1001
▁grating	-12.1002
▁scattered	-12.1002
▁momma	-12.1003
▁stephanie	-12.1004
▁repeats	-12.1005
▁derived	-12.1006
▁accidental	-12.1006
▁occupied	-12.1009
▁10)	-12.101
lot	-12.1014
▁holden	-12.1018
▁yearning	-12.102
lop	-12.1029
▁russ	-12.1029
▁plea	-12.1031
▁slashers	-12.1035
▁bid	-12.1041
▁sparkle	-12.1041
▁outrageously	-12.1041
▁placement	-12.1044
▁gangs	-12.1045
▁foe	-12.1049
▁cutter	-12.105
inter	-12.1052
▁excels	-12.1059
iva	-12.1059
▁coen	-12.106
▁bomber	-12.1061
▁achievements	-12.1064
▁blockbusters	-12.1069
state	-12.107
give	-12.1075
prop	-12.1075
▁watcher	-12.1094
▁mus	-12.1095
▁conduct	-12.1099
▁grandpa	-12.1103
▁shaped	-12.1104
▁analyze	-12.1107
▁advances	-12.1108
▁reside	-12.1112
▁kh	-12.1112
formed	-12.1113
▁papa	-12.1113
affe	-12.1114
cover	-12.1116
5)	-12.1118
▁watered	-12.112
▁pep	-12.112
▁permanent	-12.1127
▁searched	-12.1129
▁avail	-12.1139
▁academic	-12.114
▁adventurous	-12.114
▁arrogance	-12.114
▁autobiography	-12.114
▁carriage	-12.114
▁comrade	-12.114
▁deception	-12.114
▁exaggeration	-12.114
▁fiasco	-12.114
▁fiennes	-12.114
▁impeccable	-12.114
▁kristofferson	-12.114
▁masquerad	-12.114
▁phantasm	-12.114
▁poitier	-12.114
▁quibble	-12.114
▁rebellion	-12.114
▁soderbergh	-12.114
▁spectrum	-12.114
▁sylvia	-12.114
▁tepid	-12.114
▁unnecessarily	-12.114
▁fairbanks	-12.114
▁overshadowed	-12.114
▁scheming	-12.114
▁stubborn	-12.114
▁houston	-12.114
▁seattle	-12.114
▁handicapped	-12.114
▁nominee	-12.114
▁lorenzo	-12.114
▁seuss	-12.114
▁scarface	-12.114
▁choir	-12.114
▁stepmother	-12.114
▁denver	-12.114
▁arnie	-12.1141
▁retirement	-12.1141
▁britney	-12.1141
▁keyboard	-12.1141
▁angelina	-12.1141
▁idealistic	-12.1141
▁mabel	-12.1142
▁rapper	-12.1142
nel	-12.1142
▁caroline	-12.1142
▁katie	-12.1143
dale	-12.1143
▁imho	-12.1143
▁rigg	-12.1143
▁plantation	-12.1144
▁breathless	-12.1145
▁lemon	-12.1145
▁suggestive	-12.1146
▁consumed	-12.1147
▁deanna	-12.1148
▁dopey	-12.1149
▁peggy	-12.1151
▁overacts	-12.1151
▁courtesy	-12.1151
▁monologues	-12.1152
▁agreement	-12.1153
▁ninjas	-12.1154
▁edwards	-12.1155
true	-12.1157
▁downtown	-12.1158
▁downward	-12.1161
▁sheila	-12.1162
▁drifter	-12.1166
▁fleet	-12.1168
▁strained	-12.1168
▁depictions	-12.1173
pal	-12.1173
▁rivers	-12.1173
▁rab	-12.1175
▁amber	-12.1177
▁annoy	-12.118
▁oriented	-12.118
▁cassel	-12.1182
tig	-12.1182
▁lightly	-12.1185
(!)	-12.1185
▁shout	-12.1186
tley	-12.1186
pur	-12.1186
▁disappearing	-12.1191
▁prostitutes	-12.1194
▁assort	-12.1195
cket	-12.1197
worker	-12.1199
▁defending	-12.1202
▁promo	-12.1204
slav	-12.1206
▁banks	-12.121
▁sonny	-12.1219
▁yells	-12.1225
▁talentless	-12.1226
▁numbing	-12.1228
front	-12.1232
▁conn	-12.1232
centered	-12.1233
murder	-12.1233
wrote	-12.1233
▁brooke	-12.1235
bear	-12.1236
▁dreaming	-12.1236
▁zombi	-12.1236
▁novelist	-12.1239
▁sham	-12.1241
gene	-12.1244
released	-12.125
▁degrees	-12.125
▁bout	-12.1256
poor	-12.1266
▁roar	-12.1268
ibly	-12.128
▁hugo	-12.1282
▁incidental	-12.1284
▁rocker	-12.1284
semblance	-12.1284
▁ambiance	-12.1287
▁chipmunk	-12.1287
▁dafoe	-12.1287
▁dispatch	-12.1287
▁duchovny	-12.1287
▁elijah	-12.1287
▁elusive	-12.1287
▁fassbinder	-12.1287
▁gershwin	-12.1287
▁gilliam	-12.1287
▁minnelli	-12.1287
▁oriental	-12.1287
▁platoon	-12.1287
▁reservation	-12.1287
▁sweeney	-12.1287
▁galactica	-12.1287
▁diversity	-12.1287
▁sentinel	-12.1287
▁rhys	-12.1287
▁transparent	-12.1287
▁beetle	-12.1287
▁cedric	-12.1287
▁miniature	-12.1287
▁kinky	-12.1287
▁monday	-12.1288
▁aspire	-12.1288
▁naval	-12.1288
▁vader	-12.1289
▁demeanor	-12.1289
▁excel	-12.1289
▁borderline	-12.1289
▁1975	-12.1289
▁groom	-12.129
▁disconnected	-12.1291
▁patrol	-12.1292
▁supportive	-12.1293
ying	-12.1295
lessness	-12.1295
▁cough	-12.1296
▁bigfoot	-12.1298
▁spawned	-12.1298
▁marcus	-12.1299
opera	-12.1299
▁subtitled	-12.1299
▁arranged	-12.1301
▁allegedly	-12.1302
▁policemen	-12.1302
▁proportions	-12.1302
▁drowned	-12.1304
▁skateboarding	-12.1305
▁kidnaps	-12.1306
▁condemned	-12.1306
▁tent	-12.1307
▁distinguished	-12.1307
▁csi	-12.1309
▁dusty	-12.1312
▁revolting	-12.1313
▁instruction	-12.1316
▁gaze	-12.1318
▁lingering	-12.1319
▁eu	-12.1319
▁adequately	-12.1321
whi	-12.1324
omi	-12.1325
▁winston	-12.1325
clu	-12.1328
▁sm	-12.1331
▁spat	-12.1331
▁nickname	-12.1333
▁crushed	-12.1338
full	-12.1341
▁significantly	-12.1341
▁endured	-12.1341
▁brow	-12.1343
live	-12.1347
▁weigh	-12.135
▁proclaim	-12.1356
gram	-12.1356
▁pains	-12.1362
▁commanding	-12.1364
▁virtue	-12.1367
▁yeti	-12.1368
kim	-12.1372
standing	-12.1378
▁motions	-12.1378
lou	-12.1379
happy	-12.138
through	-12.1382
▁chuckles	-12.1382
camera	-12.1383
could	-12.1383
shock	-12.1385
▁criticisms	-12.1387
▁sr	-12.1389
aime	-12.1389
wich	-12.1391
▁slum	-12.1393
pet	-12.1397
▁gram	-12.1399
▁jab	-12.1401
▁traditions	-12.1411
▁poop	-12.1413
▁knees	-12.1415
▁brew	-12.1422
▁continuous	-12.1423
▁michel	-12.1426
▁spook	-12.1428
▁nell	-12.1432
▁truthful	-12.1433
▁submit	-12.1436
▁armageddon	-12.1436
▁benjamin	-12.1436
▁ceremony	-12.1436
▁connecticut	-12.1436
▁diabolical	-12.1436
▁external	-12.1436
▁sociopath	-12.1436
▁wynorski	-12.1436
▁diploma	-12.1436
▁biological	-12.1436
▁thespian	-12.1436
▁blazing	-12.1436
▁pornographic	-12.1436
▁supermarket	-12.1437
▁allusion	-12.1437
▁assistance	-12.1437
▁tedium	-12.1437
▁spinning	-12.1437
▁esther	-12.1437
▁1955	-12.1437
▁lightweight	-12.1437
▁animators	-12.1437
▁ostensibly	-12.1437
▁stoop	-12.1438
▁beef	-12.1438
▁drugged	-12.1438
won	-12.1439
▁ledger	-12.1439
▁barbra	-12.1439
▁truman	-12.1439
▁hairstyle	-12.144
▁rko	-12.1441
▁veronica	-12.1443
▁miraculously	-12.1445
▁europeans	-12.1446
▁avenger	-12.1452
▁mixe	-12.1453
pm	-12.1454
ulous	-12.1457
▁awarded	-12.1459
▁overused	-12.1468
▁drone	-12.1469
▁enormously	-12.1472
▁geniuses	-12.1477
▁manga	-12.1478
body	-12.1478
▁loos	-12.1482
▁talky	-12.1485
▁fold	-12.1486
▁nuns	-12.1491
▁swords	-12.1492
▁justification	-12.1495
▁imo	-12.1496
▁stro	-12.1496
▁halt	-12.1501
▁advised	-12.1504
▁tha	-12.1513
▁monumental	-12.1513
▁dispose	-12.1515
▁worrying	-12.1522
bab	-12.1522
▁ruled	-12.1526
0000	-12.1527
▁dreadfully	-12.1528
▁ep	-12.1531
average	-12.1534
sometimes	-12.1534
dramatic	-12.1535
▁atwill	-12.1536
une	-12.1539
▁muslims	-12.1543
▁favourites	-12.1543
▁cub	-12.1544
▁crowded	-12.1556
ech	-12.1556
kate	-12.1562
▁menu	-12.1564
▁ongoing	-12.1565
color	-12.1567
▁qualifie	-12.1571
wow	-12.1572
▁nana	-12.1572
▁eyed	-12.1578
▁tops	-12.1586
▁spears	-12.1586
▁whack	-12.1587
▁anatomy	-12.1588
▁capsule	-12.1588
▁competing	-12.1588
▁disrupt	-12.1588
▁komodo	-12.1588
▁mathieu	-12.1588
▁monstrous	-12.1588
▁quintessential	-12.1588
▁roosevelt	-12.1588
▁thirteen	-12.1588
▁unfinished	-12.1588
▁versatile	-12.1588
▁circuit	-12.1588
▁eleanor	-12.1588
▁fitzgerald	-12.1588
▁wrath	-12.1588
▁implies	-12.1588
▁whimsical	-12.1588
▁goldsworthy	-12.1588
▁culprit	-12.1588
▁saddest	-12.1588
▁unstable	-12.1588
▁bloodshed	-12.1588
▁oprah	-12.1588
▁capshaw	-12.1588
▁loony	-12.1588
▁plunge	-12.1588
▁perversion	-12.1588
▁gilmore	-12.1588
▁digress	-12.1588
▁recreation	-12.1588
▁cynicism	-12.1588
lene	-12.1589
▁finch	-12.1589
▁kitsch	-12.1589
▁cheung	-12.1589
▁resurrection	-12.1589
▁apollo	-12.1589
▁levy	-12.159
▁skipped	-12.159
▁swan	-12.159
▁erik	-12.1591
▁farewell	-12.1592
▁hustler	-12.1592
▁hostel	-12.1594
▁kathleen	-12.1594
▁voyager	-12.1595
▁deborah	-12.1597
▁hometown	-12.1598
▁staggering	-12.1598
▁hunky	-12.1598
▁swell	-12.1604
▁blessed	-12.1606
▁coincidences	-12.1607
▁masterson	-12.1608
▁genie	-12.1609
▁pia	-12.161
▁cheaper	-12.1612
▁intelligently	-12.1617
▁cowboys	-12.1619
▁pok	-12.1626
▁mira	-12.1626
▁slop	-12.1628
▁butch	-12.164
▁lawn	-12.164
▁networks	-12.165
▁tits	-12.1651
jane	-12.1653
▁pals	-12.1661
▁stem	-12.1668
▁ridden	-12.1669
turn	-12.167
▁amoral	-12.1672
▁robber	-12.1674
▁instrument	-12.1675
▁participants	-12.1675
▁services	-12.1679
▁counterparts	-12.1682
nard	-12.1688
apparently	-12.1688
boring	-12.1688
until	-12.1689
▁portions	-12.1689
four	-12.1694
▁cass	-12.1702
▁swat	-12.1702
▁mia	-12.171
▁nef	-12.1723
▁presume	-12.1725
▁acclaim	-12.1726
▁wai	-12.1727
▁assert	-12.1727
▁sg	-12.1729
▁flu	-12.1732
▁baddie	-12.1733
▁bridget	-12.1735
cie	-12.1737
lig	-12.1737
▁paula	-12.1741
▁uncertain	-12.1741
▁carnosaur	-12.1742
▁identities	-12.1742
▁innovation	-12.1742
▁katherine	-12.1742
▁maturity	-12.1742
▁millennium	-12.1742
▁necessity	-12.1742
▁ounce	-12.1742
▁schrader	-12.1742
▁vaudeville	-12.1742
▁avenue	-12.1742
▁harriet	-12.1742
▁lukas	-12.1742
▁quaint	-12.1742
▁rowlands	-12.1742
▁lennon	-12.1742
▁macarthur	-12.1742
▁bachchan	-12.1742
▁kathryn	-12.1742
▁theodore	-12.1742
▁laurie	-12.1742
▁circa	-12.1742
▁rabid	-12.1742
▁slumber	-12.1742
▁cockney	-12.1742
▁vinnie	-12.1742
▁yankee	-12.1742
▁skating	-12.1742
▁scarred	-12.1742
▁misfire	-12.1742
▁chong	-12.1742
store	-12.1742
▁throne	-12.1742
▁snowball	-12.1743
▁yarn	-12.1743
▁marvin	-12.1743
▁irresistible	-12.1743
home	-12.1743
▁gruff	-12.1743
▁uneasy	-12.1743
▁carlyle	-12.1744
▁voting	-12.1744
▁lodge	-12.1744
▁dressler	-12.1744
▁zoo	-12.1744
▁engagement	-12.1744
▁carpet	-12.1744
▁featurette	-12.1745
▁hallway	-12.1745
▁norma	-12.1746
▁sas	-12.1747
▁honorable	-12.1748
▁carroll	-12.1748
▁ditch	-12.1749
▁integra	-12.1749
track	-12.1749
▁homo	-12.1749
▁walters	-12.175
▁arkin	-12.1751
adam	-12.1751
▁unleashed	-12.1752
▁downbeat	-12.1752
▁ellis	-12.1753
▁announced	-12.1754
▁legion	-12.1758
▁kisses	-12.1759
▁plead	-12.1761
▁strangle	-12.1765
▁crispin	-12.1766
▁waltz	-12.1767
▁blessing	-12.1767
▁lions	-12.1768
▁sacrifices	-12.1771
▁sab	-12.1776
▁seth	-12.1789
▁praying	-12.179
▁absorbed	-12.1793
▁careless	-12.1805
▁inducing	-12.1806
gio	-12.1811
▁shiver	-12.1812
vie	-12.1818
▁slips	-12.1822
▁vel	-12.1829
▁martian	-12.1836
.5/10	-12.1836
▁gesture	-12.1837
▁deeds	-12.1839
better	-12.1844
▁hicks	-12.1846
lewis	-12.1846
▁lesbians	-12.1848
young	-12.1848
bomb	-12.1848
▁layer	-12.1854
▁mobsters	-12.1858
▁bynes	-12.1864
▁figur	-12.1873
▁mug	-12.1881
▁hairy	-12.1881
▁reduce	-12.1882
▁pleasures	-12.1883
▁burnt	-12.1884
thought	-12.1884
▁convert	-12.1884
cute	-12.1886
▁yea	-12.1891
▁hooks	-12.1892
▁cla	-12.1892
▁trusted	-12.1893
▁sox	-12.1894
▁culminat	-12.1894
▁intellect	-12.1898
▁yul	-12.1898
▁amnesia	-12.1898
▁categories	-12.1898
▁communism	-12.1898
▁foreboding	-12.1898
▁rampant	-12.1898
▁sophistication	-12.1898
▁switzerland	-12.1898
▁sydow	-12.1898
▁unremarkable	-12.1898
▁visceral	-12.1898
▁vulnerability	-12.1898
▁agonizing	-12.1898
▁earthquake	-12.1898
▁gardner	-12.1898
▁conjure	-12.1898
▁floyd	-12.1898
▁wreak	-12.1898
▁censorship	-12.1898
▁cotton	-12.1898
▁aniston	-12.1898
▁prue	-12.1898
▁grammar	-12.1898
▁gently	-12.1898
▁predictability	-12.1898
▁kitten	-12.1898
▁rudd	-12.1898
▁shylock	-12.1898
▁mumble	-12.1898
▁backwoods	-12.1899
▁placing	-12.1899
▁hutton	-12.1899
▁aerial	-12.1899
▁breakthrough	-12.1899
▁rehearsal	-12.1899
▁singular	-12.1899
▁solomon	-12.1899
▁percent	-12.1899
▁risks	-12.1899
▁tennis	-12.19
▁cleaner	-12.19
▁exude	-12.19
workers	-12.1901
▁winners	-12.1901
▁decoration	-12.1902
▁liam	-12.1902
▁cliffhanger	-12.1903
▁monks	-12.1903
▁testing	-12.1903
▁reg	-12.1903
▁contradiction	-12.1904
▁tenderness	-12.1905
▁imprisoned	-12.1907
▁misty	-12.1908
▁terrorize	-12.1911
lead	-12.1912
▁judd	-12.1913
brian	-12.1914
▁succession	-12.1915
▁beforehand	-12.1916
▁motivated	-12.1916
▁rockne	-12.1918
▁fantastically	-12.1919
▁stain	-12.1923
▁drowning	-12.1923
▁kan	-12.1928
▁emilio	-12.1932
▁flea	-12.1933
▁mona	-12.1935
▁armor	-12.1941
▁wrongly	-12.1942
▁nailed	-12.1943
fect	-12.1946
▁chewing	-12.1947
every	-12.1949
▁bergen	-12.1949
▁deco	-12.1953
▁harmon	-12.1955
▁chic	-12.1964
▁wrenching	-12.1965
▁robe	-12.1965
▁mash	-12.1969
▁perspectives	-12.1969
▁fend	-12.1976
▁illustrate	-12.1981
digger	-12.1981
▁heir	-12.1987
▁kindly	-12.1991
▁vu	-12.1992
?!?!	-12.1993
▁dublin	-12.1997
developed	-12.1998
▁fee	-12.1999
break	-12.1999
▁refuge	-12.1999
everything	-12.2003
▁gul	-12.2004
scary	-12.2004
▁revelations	-12.2016
▁nerds	-12.2017
fact	-12.2017
▁conflicted	-12.2019
▁traps	-12.2021
horn	-12.2021
▁dani	-12.2021
▁telly	-12.2022
thical	-12.2032
▁narrate	-12.204
▁influences	-12.2041
rose	-12.2046
▁rig	-12.2054
liness	-12.2054
▁counted	-12.2054
▁interpretations	-12.2055
▁hawaii	-12.2055
rat	-12.2056
▁snob	-12.2056
▁agatha	-12.2057
▁anxiety	-12.2057
▁bartender	-12.2057
▁concentration	-12.2057
▁confederate	-12.2057
▁delirious	-12.2057
▁exorcism	-12.2057
▁irrational	-12.2057
▁krueger	-12.2057
▁misplaced	-12.2057
▁quigley	-12.2057
▁schumacher	-12.2057
▁sensibilities	-12.2057
▁soylent	-12.2057
▁upstairs	-12.2057
▁knack	-12.2057
▁solving	-12.2057
▁whistle	-12.2057
▁keitel	-12.2057
▁cringing	-12.2057
▁goddess	-12.2057
▁stride	-12.2057
▁mockery	-12.2057
▁kidnapper	-12.2057
▁drummer	-12.2057
▁irving	-12.2058
▁judith	-12.2058
▁iranian	-12.2058
▁delta	-12.206
▁classified	-12.206
▁conductor	-12.2061
▁reese	-12.2062
▁farscape	-12.2063
▁mj	-12.2065
▁baffled	-12.2065
▁mendes	-12.2065
▁horde	-12.2066
▁dung	-12.2066
rang	-12.2067
▁controlling	-12.2067
eeee	-12.2068
▁befriend	-12.207
▁publisher	-12.2071
▁shakespearean	-12.2071
▁starlet	-12.2072
▁expresses	-12.2073
▁warped	-12.2073
ila	-12.2074
▁shamelessly	-12.2075
▁boil	-12.2077
jan	-12.208
▁logo	-12.2084
▁destructive	-12.2085
▁papers	-12.2085
(?)	-12.2086
effects	-12.2089
▁formal	-12.2098
▁pastor	-12.2099
▁downside	-12.21
▁veer	-12.2105
▁output	-12.2106
▁widowed	-12.2106
round	-12.2107
▁encouraged	-12.2107
seen	-12.2108
▁maintained	-12.2112
▁chile	-12.2113
thank	-12.2114
zel	-12.2117
▁5)	-12.2117
▁marsh	-12.2118
▁boxes	-12.2121
▁fixed	-12.2121
▁intellectually	-12.2124
trust	-12.2126
▁pressed	-12.2127
▁minimalist	-12.2128
▁failures	-12.2129
▁irre	-12.2129
▁darkly	-12.2129
▁soo	-12.2131
??)	-12.2138
▁fighters	-12.2139
▁tools	-12.2141
▁volumes	-12.2145
▁zap	-12.2152
▁qu	-12.2152
▁inflict	-12.2155
▁lovingly	-12.2157
▁10!	-12.216
▁passenger	-12.2162
christopher	-12.2164
unfortunately	-12.2164
besides	-12.2164
actresses	-12.2167
▁protecting	-12.2167
candy	-12.2167
edited	-12.2168
▁chips	-12.2169
▁conform	-12.2169
▁bind	-12.2169
▁franc	-12.2174
▁paz	-12.2177
▁sheet	-12.2177
bla	-12.2179
▁zen	-12.218
▁harlin	-12.218
stead	-12.2181
western	-12.2196
▁charges	-12.2199
▁contributes	-12.2213
sort	-12.2217
▁responds	-12.2218
▁activist	-12.2218
▁belgian	-12.2218
▁conniving	-12.2218
▁constraints	-12.2218
▁contemplate	-12.2218
▁desolate	-12.2218
▁dolemite	-12.2218
▁evocative	-12.2218
▁henchman	-12.2218
▁luxury	-12.2218
▁oblivion	-12.2218
▁sophomoric	-12.2218
▁stalwart	-12.2218
▁superlative	-12.2218
▁torturing	-12.2218
▁vegetable	-12.2218
▁bathtub	-12.2218
▁colonial	-12.2218
▁wahlberg	-12.2218
▁caretaker	-12.2218
▁trump	-12.2218
▁mishima	-12.2218
▁flounder	-12.2218
▁sunrise	-12.2218
▁garcia	-12.2218
▁cocktail	-12.2218
▁irresponsible	-12.2218
▁beaver	-12.2218
▁babysitter	-12.2218
▁007	-12.2219
▁robbing	-12.2219
▁bloodthirsty	-12.2219
▁devious	-12.2219
▁radar	-12.2219
▁retreat	-12.2219
hir	-12.2219
▁governor	-12.2219
▁slavery	-12.222
▁summon	-12.222
▁1947	-12.222
▁charley	-12.2221
▁timmy	-12.2223
▁luther	-12.2223
▁scot	-12.2223
▁distorted	-12.2224
avier	-12.2225
aunt	-12.2225
▁slayer	-12.2226
deemed	-12.2226
▁pathetically	-12.2227
▁overwhelmed	-12.2229
▁diesel	-12.223
▁lyrical	-12.2231
▁slugs	-12.2232
▁spi	-12.2233
▁expressive	-12.2233
▁correctness	-12.2233
▁varying	-12.2235
▁renee	-12.2237
▁aura	-12.2239
▁expanded	-12.2241
▁shiny	-12.2243
▁cheats	-12.2243
lize	-12.2245
pieces	-12.2251
▁dismissed	-12.2252
▁rou	-12.2252
▁adored	-12.2254
▁commenter	-12.2257
▁strut	-12.2259
▁healing	-12.2262
▁weirdness	-12.2263
▁snowy	-12.2264
ua	-12.2271
fel	-12.2276
▁billie	-12.2277
▁meek	-12.2278
▁representing	-12.2283
▁instruments	-12.2286
▁usage	-12.2286
▁continent	-12.2291
whom	-12.23
▁divide	-12.2302
mary	-12.2303
him	-12.2304
▁leak	-12.2305
▁indulgent	-12.2306
▁dial	-12.2309
▁structured	-12.2313
▁250	-12.2319
▁lind	-12.2325
cream	-12.2327
▁soprano	-12.2329
▁sibling	-12.2329
▁neu	-12.2329
▁classmates	-12.233
▁peer	-12.233
▁matin	-12.2339
▁fal	-12.2345
▁thereafter	-12.2349
▁crowe	-12.2353
▁stakes	-12.2353
talking	-12.2353
▁barb	-12.2365
▁irritate	-12.2366
▁diminish	-12.2366
tony	-12.2367
▁lib	-12.2369
player	-12.2374
▁moan	-12.2376
▁appalled	-12.2382
▁baffling	-12.2382
▁cheesiness	-12.2382
▁clutter	-12.2382
▁eccleston	-12.2382
▁eclipse	-12.2382
▁extraordinari	-12.2382
▁greece	-12.2382
▁histrionic	-12.2382
▁implement	-12.2382
▁incompetence	-12.2382
▁lumber	-12.2382
▁monstrosity	-12.2382
▁patriarch	-12.2382
▁piranha	-12.2382
▁prolonged	-12.2382
▁saboteur	-12.2382
▁truffaut	-12.2382
▁uninspiring	-12.2382
▁colony	-12.2382
▁automatic	-12.2382
semitism	-12.2382
▁duncan	-12.2382
▁padded	-12.2382
▁stunk	-12.2382
▁cunningham	-12.2382
▁pupil	-12.2382
▁conquest	-12.2382
▁raving	-12.2382
▁tornado	-12.2382
▁langdon	-12.2383
▁minnie	-12.2383
▁commendable	-12.2383
▁grape	-12.2384
▁connor	-12.2384
▁emergency	-12.2385
▁standpoint	-12.2385
▁worldwide	-12.2385
▁litter	-12.2385
▁tucker	-12.2385
▁bullies	-12.2386
▁comm	-12.2387
▁mills	-12.2387
▁klaus	-12.2387
▁gusto	-12.2387
▁surrealism	-12.2388
▁botched	-12.2388
▁artistically	-12.2389
▁recap	-12.2389
▁della	-12.239
▁grandson	-12.2392
▁sammo	-12.2393
▁dunn	-12.2394
▁amid	-12.2398
▁amok	-12.24
▁entertains	-12.2404
▁violently	-12.2405
▁reunited	-12.2406
▁brandon	-12.2407
▁schemes	-12.241
rap	-12.241
▁observed	-12.2413
▁inhabited	-12.2414
induced	-12.2418
▁bigot	-12.2418
▁finishes	-12.2421
▁slaughtered	-12.2425
marisa	-12.2429
▁encourages	-12.243
▁jerky	-12.2431
▁outlook	-12.2432
▁locker	-12.2432
▁flare	-12.2435
▁smallest	-12.2435
▁bikers	-12.2437
▁sections	-12.2438
themed	-12.2438
▁una	-12.2438
numbers	-12.2439
▁stalin	-12.2439
▁dip	-12.2441
▁monte	-12.2445
▁amateurs	-12.2447
chu	-12.2448
need	-12.2452
▁duh	-12.2458
▁toned	-12.2462
step	-12.2465
▁toast	-12.2466
music	-12.2468
dice	-12.2469
▁anita	-12.2471
▁vil	-12.2472
▁earns	-12.2474
▁dogma	-12.2475
saw	-12.2476
▁fades	-12.2477
▁bliss	-12.2484
budding	-12.2488
daniel	-12.2494
coaster	-12.2495
▁tables	-12.2495
▁trait	-12.2499
exist	-12.2504
▁professionally	-12.2506
▁clients	-12.251
▁pip	-12.2512
▁convicts	-12.2514
▁laud	-12.2517
▁contend	-12.2525
fighting	-12.2531
▁beam	-12.2532
▁preserve	-12.2532
▁spec	-12.2536
▁chen	-12.2537
▁verse	-12.2538
▁revive	-12.2539
▁dukes	-12.2539
▁reasoning	-12.254
▁wimp	-12.2541
▁thankful	-12.2542
▁disrespect	-12.2543
▁sock	-12.2545
▁manson	-12.2545
▁aficionado	-12.2548
▁anniversary	-12.2548
▁baxter	-12.2548
▁beckinsale	-12.2548
▁bloodbath	-12.2548
▁constitute	-12.2548
▁englund	-12.2548
▁erratic	-12.2548
▁idiocy	-12.2548
▁incarnation	-12.2548
▁infidelity	-12.2548
▁january	-12.2548
▁liotta	-12.2548
▁maureen	-12.2548
▁negotiat	-12.2548
▁optimism	-12.2548
▁platform	-12.2548
▁ravishing	-12.2548
▁seduction	-12.2548
▁stimulating	-12.2548
▁suzanne	-12.2548
▁talbot	-12.2548
▁vertigo	-12.2548
▁wolves	-12.2548
▁ploy	-12.2548
▁cursing	-12.2548
▁dassin	-12.2549
loathing	-12.2549
▁gwyne	-12.2549
▁zhang	-12.2549
▁babette	-12.2549
▁braveheart	-12.2549
▁signature	-12.2549
▁colbert	-12.2549
▁jolt	-12.2549
▁rugged	-12.2549
▁forehead	-12.2549
▁dismay	-12.2549
▁interrogation	-12.2549
▁guru	-12.255
▁dirk	-12.255
▁freddie	-12.255
▁unlucky	-12.255
▁stitches	-12.255
▁ironside	-12.255
▁moo	-12.2551
▁ghostly	-12.2551
▁dario	-12.2551
▁presidential	-12.2551
▁rotting	-12.2551
▁undeveloped	-12.2551
▁surpasses	-12.2551
▁duckling	-12.2551
▁rivalry	-12.2552
▁recount	-12.2552
▁typecast	-12.2555
▁canvas	-12.2556
▁northwest	-12.2556
▁diva	-12.2557
▁prone	-12.2557
▁prim	-12.2559
▁jedi	-12.2561
▁unrated	-12.2562
▁starship	-12.2562
▁scarecrows	-12.2562
▁continuously	-12.2563
▁kindness	-12.2565
▁choke	-12.2566
▁throats	-12.257
▁eliminated	-12.2571
▁contender	-12.2573
▁fulfilled	-12.2574
▁interpreted	-12.2576
▁inventor	-12.2578
▁searches	-12.2581
edge	-12.2582
believe	-12.2583
▁muni	-12.2585
tag	-12.2586
▁lea	-12.2587
okay	-12.2588
▁strangest	-12.259
▁www	-12.2591
▁moss	-12.2591
▁democratic	-12.2593
▁curl	-12.2593
▁butchered	-12.2599
▁sins	-12.2599
▁bites	-12.26
▁mah	-12.2601
apart	-12.2603
▁peaks	-12.2603
ease	-12.2603
▁saints	-12.2604
▁fave	-12.2604
▁sentenced	-12.2605
▁punks	-12.2609
▁riches	-12.261
▁barbie	-12.2611
▁shooter	-12.2611
ride	-12.2612
▁sacrificed	-12.2614
▁rai	-12.2622
▁sage	-12.2622
having	-12.2624
▁steppe	-12.2626
▁forbid	-12.2627
▁capitalize	-12.2629
bbed	-12.2632
▁hosts	-12.2633
▁jacobi	-12.2638
▁daft	-12.2638
empt	-12.2642
aux	-12.2644
▁conveying	-12.2648
▁tyra	-12.2651
▁deservedly	-12.2653
-80	-12.2657
▁badness	-12.2659
▁corridors	-12.266
▁instincts	-12.266
apocalyptic	-12.2664
political	-12.2664
▁expressing	-12.2666
brain	-12.2666
jeff	-12.2666
rai	-12.2667
▁goofs	-12.2671
▁42	-12.2675
▁leone	-12.2678
keeper	-12.268
▁disturb	-12.2681
▁airing	-12.2681
▁lamp	-12.269
▁realises	-12.2692
fiery	-12.2694
▁skateboard	-12.2697
!!!)	-12.2698
cott	-12.2702
▁perceive	-12.2702
▁dreamed	-12.2702
▁arrange	-12.2702
▁tattoo	-12.2703
79	-12.2703
atic	-12.2703
either	-12.2703
▁congress	-12.2716
▁siege	-12.2716
▁administration	-12.2718
▁climate	-12.2718
▁epitome	-12.2718
▁marijuana	-12.2718
▁november	-12.2718
▁prevalent	-12.2718
▁renowned	-12.2718
▁brisk	-12.2718
▁janitor	-12.2718
▁librarian	-12.2718
▁snoop	-12.2718
▁unfaithful	-12.2718
▁adept	-12.2718
▁gypo	-12.2718
▁haggard	-12.2718
▁muscular	-12.2718
▁sordid	-12.2718
▁enforcement	-12.2718
▁overseas	-12.2718
▁monotone	-12.2718
▁ventura	-12.2718
▁discern	-12.2718
▁textbook	-12.2719
▁firefighter	-12.2719
▁unforgivable	-12.2719
▁dependent	-12.2719
▁adultery	-12.272
▁rejection	-12.272
▁josie	-12.272
ask	-12.2721
gel	-12.2721
▁cement	-12.2721
▁bsg	-12.2721
▁noticing	-12.2721
▁massey	-12.2721
▁midway	-12.2723
▁reels	-12.2724
holes	-12.2724
▁committ	-12.2724
▁wildlife	-12.2724
▁tragically	-12.2725
▁panel	-12.2725
▁battlestar	-12.2726
▁heartily	-12.2728
▁ballad	-12.2731
▁zach	-12.2731
▁skater	-12.2732
raw	-12.2732
indulgence	-12.2736
▁exceeding	-12.2737
▁aptly	-12.2739
respect	-12.2741
▁hunger	-12.2742
▁punished	-12.2742
▁limbs	-12.2743
print	-12.2744
▁disk	-12.2745
▁declared	-12.2747
▁vir	-12.275
▁trier	-12.2754
▁carrier	-12.2754
▁'50	-12.2755
▁neighbours	-12.2759
▁swank	-12.2761
▁habits	-12.2761
▁collecting	-12.2768
▁mannered	-12.2769
▁refund	-12.2771
▁stumbl	-12.2775
▁penned	-12.278
▁thro	-12.278
▁ott	-12.2781
▁vip	-12.2786
▁powerfully	-12.2787
▁afro	-12.2795
▁feared	-12.2806
liner	-12.2812
promoting	-12.2814
▁emotionless	-12.2814
kick	-12.2814
▁tub	-12.2815
▁organic	-12.2819
aris	-12.2823
▁freely	-12.2824
nell	-12.2825
pick	-12.2832
liv	-12.2833
▁simpler	-12.2833
usually	-12.2834
▁functions	-12.2836
witch	-12.2836
jennifer	-12.2837
charles	-12.2838
holland	-12.2838
kevin	-12.2839
▁predecessors	-12.2839
decent	-12.284
▁attributes	-12.2843
crafted	-12.2844
▁solar	-12.2844
▁troop	-12.2845
raff	-12.2846
▁stooge	-12.2847
▁numb	-12.2862
▁ooze	-12.2862
▁censors	-12.2866
wyn	-12.2873
▁locale	-12.2873
▁visitor	-12.2876
▁sak	-12.2879
▁pond	-12.2881
▁creations	-12.2881
ured	-12.2882
date	-12.2882
▁tart	-12.2883
mme	-12.2883
▁informs	-12.2888
▁correspond	-12.289
▁achieving	-12.289
▁artifact	-12.289
▁cleopatra	-12.289
▁concrete	-12.289
▁crummy	-12.289
▁cynthia	-12.289
▁cypher	-12.289
▁dakota	-12.289
▁daphne	-12.289
▁debacle	-12.289
▁democracy	-12.289
▁enthralling	-12.289
▁grenade	-12.289
▁intimacy	-12.289
▁jigsaw	-12.289
▁kutcher	-12.289
▁maverick	-12.289
▁rachael	-12.289
▁requisite	-12.289
▁rohmer	-12.289
▁stereotyping	-12.289
▁tenacious	-12.289
▁vengeful	-12.289
▁pryor	-12.289
▁shrek	-12.289
▁wrestlemania	-12.289
▁zucco	-12.289
▁glamour	-12.289
▁relieved	-12.289
▁memento	-12.2891
▁vienna	-12.2891
▁nigel	-12.2891
▁curve	-12.2891
▁committee	-12.2891
▁blurred	-12.2891
▁diversion	-12.2891
▁shrill	-12.2891
▁jolly	-12.2891
▁grunt	-12.2891
▁diving	-12.2891
▁shaft	-12.2891
▁tiring	-12.2892
▁chimp	-12.2892
▁thelma	-12.2892
▁wanda	-12.2892
warming	-12.2892
▁tomei	-12.2892
▁requirement	-12.2892
▁1944	-12.2893
▁nutty	-12.2893
▁jessie	-12.2893
▁counselor	-12.2894
▁slater	-12.2894
▁1992	-12.2895
wai	-12.2896
▁underused	-12.2897
▁caption	-12.2898
▁purist	-12.29
▁'90	-12.29
▁moderately	-12.2901
▁jovi	-12.2902
▁dreamy	-12.2903
▁cocky	-12.2907
▁observer	-12.291
▁homework	-12.2911
................	-12.2912
▁hur	-12.2914
▁supremely	-12.2915
▁peterson	-12.2916
▁deepest	-12.2916
▁reba	-12.2918
▁hadley	-12.2932
▁icons	-12.2934
▁thereof	-12.2935
▁airline	-12.2936
handedly	-12.2936
▁laden	-12.2937
these	-12.2937
▁mai	-12.294
▁mocking	-12.2945
rain	-12.2948
▁socks	-12.2948
hhhh	-12.2949
▁premiered	-12.2949
▁slacker	-12.2953
▁allison	-12.2954
open	-12.2956
▁tourists	-12.2959
direct	-12.2963
misunderstanding	-12.2964
wig	-12.2967
▁burr	-12.2967
▁fling	-12.297
▁becky	-12.297
▁richly	-12.2971
▁orbit	-12.2971
77	-12.2975
into	-12.2975
▁nora	-12.2977
▁chronic	-12.2978
▁restless	-12.2982
hom	-12.2983
▁fab	-12.2985
▁moviegoers	-12.2992
▁bonding	-12.2995
fun	-12.2996
▁improv	-12.2999
▁magnificently	-12.3003
▁files	-12.3004
elina	-12.3011
husband	-12.3012
social	-12.3012
boyfriend	-12.3013
main	-12.3015
obviously	-12.3017
jason	-12.3019
▁tested	-12.302
▁opponent	-12.3024
▁neighbour	-12.3024
▁locales	-12.3025
mac	-12.3026
▁contestant	-12.3026
unlike	-12.3031
▁denise	-12.3034
▁mach	-12.3037
rian	-12.3041
13	-12.3044
▁prejudices	-12.3045
▁om	-12.3049
jour	-12.305
urb	-12.3052
leg	-12.3052
▁recognise	-12.3055
▁commission	-12.3056
▁bothering	-12.3058
▁counsel	-12.3062
hiro	-12.3063
clusive	-12.3065
▁stylistic	-12.3065
▁ancestor	-12.3066
▁bankrupt	-12.3066
▁caribbean	-12.3066
▁conceal	-12.3066
▁confines	-12.3066
▁disdain	-12.3066
▁eloquent	-12.3066
▁exhausted	-12.3066
▁gladiator	-12.3066
▁griffin	-12.3066
▁kieslowski	-12.3066
▁nevsky	-12.3066
▁notwithstanding	-12.3066
▁prehistoric	-12.3066
▁replacing	-12.3066
▁rodriguez	-12.3066
▁smarmy	-12.3066
▁sorority	-12.3066
▁turgid	-12.3066
▁zorro	-12.3066
▁allegory	-12.3066
▁costuming	-12.3066
▁geisha	-12.3066
▁grandparents	-12.3066
▁heterosexual	-12.3066
▁warfare	-12.3066
▁cardinal	-12.3066
▁defining	-12.3066
▁hitchhiker	-12.3066
▁plummer	-12.3066
▁discernible	-12.3066
▁milligan	-12.3066
▁guidance	-12.3066
▁bauer	-12.3066
▁somber	-12.3066
▁cindy	-12.3066
▁slang	-12.3066
▁loathe	-12.3066
▁marlene	-12.3066
▁unemployed	-12.3066
▁calvin	-12.3066
▁picnic	-12.3067
▁nineties	-12.3067
▁denial	-12.3067
▁conroy	-12.3067
▁geraldine	-12.3067
▁triad	-12.3067
▁waterfront	-12.3067
▁sfx	-12.3067
▁sixteen	-12.3067
▁venus	-12.3067
▁reappear	-12.3068
▁ullman	-12.3068
▁efficient	-12.3068
▁slew	-12.3068
▁1942	-12.3068
▁hiring	-12.3069
▁stepping	-12.3069
▁aimless	-12.3069
▁execute	-12.3069
[...]
