<unk>	0
<s>	0
</s>	0
▁the	-3.06684
.	-3.32885
▁a	-3.72936
▁and	-3.77379
▁of	-3.87963
▁to	-3.95172
'	-4.02493
s	-4.07828
▁is	-4.19164
br	-4.21956
▁it	-4.27767
▁in	-4.32822
▁i	-4.36346
▁this	-4.51845
▁that	-4.57817
▁/><	-4.91665
▁was	-4.94542
▁/>	-4.94866
▁movie	-4.99443
-	-5.03396
▁for	-5.07319
▁with	-5.08814
t	-5.1103
▁as	-5.12298
▁film	-5.12909
▁but	-5.14087
▁	-5.18857
.<	-5.20287
▁you	-5.28434
▁on	-5.32712
▁(	-5.41981
▁not	-5.4415
▁are	-5.47232
▁have	-5.50994
▁he	-5.51261
▁be	-5.53056
▁his	-5.53145
▁one	-5.55907
)	-5.65733
▁all	-5.70329
▁they	-5.7482
▁at	-5.75455
▁by	-5.76762
▁an	-5.78359
▁who	-5.83358
▁like	-5.83943
▁so	-5.84115
▁from	-5.8561
▁just	-5.97676
▁there	-5.98963
▁about	-6.00434
▁her	-6.01371
▁out	-6.01494
▁or	-6.01577
▁has	-6.04259
▁if	-6.07581
▁some	-6.1033
▁what	-6.10694
▁good	-6.11106
▁can	-6.14784
▁very	-6.19839
▁more	-6.20527
!	-6.20936
▁when	-6.24062
▁she	-6.27787
▁time	-6.30858
▁my	-6.31317
▁up	-6.31462
▁no	-6.31713
?	-6.32048
▁would	-6.32431
▁even	-6.35032
▁really	-6.37125
▁see	-6.37515
▁story	-6.37724
the	-6.37926
▁me	-6.3809
▁only	-6.39886
▁their	-6.43056
▁had	-6.43694
ing	-6.44021
▁were	-6.47091
▁which	-6.48886
▁well	-6.50782
▁we	-6.51185
▁much	-6.57309
▁-	-6.58422
▁than	-6.58548
▁get	-6.59302
▁bad	-6.59316
▁great	-6.60203
▁do	-6.60739
i	-6.61836
▁people	-6.61892
▁other	-6.62418
▁will	-6.62578
▁been	-6.62796
▁don	-6.65706
...	-6.66781
▁because	-6.67357
▁how	-6.67835
:	-6.68298
▁into	-6.68621
▁also	-6.68795
▁first	-6.68851
▁most	-6.70396
▁him	-6.71987
▁make	-6.74209
▁made	-6.74587
▁way	-6.76818
▁could	-6.78097
d	-6.78106
▁too	-6.80509
▁then	-6.81328
▁them	-6.82155
▁any	-6.83001
▁think	-6.83323
▁watch	-6.8613
▁characters	-6.87327
▁movies	-6.87456
▁after	-6.88421
▁character	-6.89672
▁seen	-6.90415
m	-6.91838
▁plot	-6.932
▁love	-6.93655
▁acting	-6.94138
▁many	-6.94286
▁show	-6.95118
▁two	-6.96036
▁being	-6.97177
▁<	-6.97447
▁never	-6.98012
▁know	-6.98075
▁best	-6.9813
ed	-6.99149
▁did	-6.99618
▁'	-7.00153
▁little	-7.0022
▁over	-7.00244
▁life	-7.01018
▁films	-7.01752
▁ever	-7.0182
▁its	-7.01997
▁where	-7.03148
▁your	-7.05994
▁better	-7.06466
▁off	-7.09169
▁does	-7.09803
▁man	-7.09833
ve	-7.09968
▁end	-7.1071
ly	-7.1089
▁say	-7.12749
▁still	-7.15598
▁scene	-7.15924
▁here	-7.16321
▁these	-7.19563
▁go	-7.20735
re	-7.21361
▁scenes	-7.21442
▁why	-7.23396
▁should	-7.23529
▁something	-7.23842
▁back	-7.27102
▁such	-7.27336
▁through	-7.27663
▁thing	-7.28088
▁while	-7.28097
▁watching	-7.28615
▁real	-7.2896
▁those	-7.30895
▁funny	-7.32571
▁actors	-7.32953
▁didn	-7.33752
a	-7.34079
▁doesn	-7.34399
).	-7.3601
▁years	-7.36816
▁work	-7.39002
▁lot	-7.3953
▁now	-7.39719
▁find	-7.40058
and	-7.40142
/	-7.40199
▁look	-7.40379
▁actually	-7.4065
▁nothing	-7.42007
▁new	-7.42197
▁before	-7.42467
▁old	-7.42553
▁director	-7.43044
▁though	-7.4337
▁going	-7.43464
▁same	-7.43792
▁another	-7.44681
▁few	-7.44788
▁makes	-7.45336
▁every	-7.45423
▁big	-7.45803
▁part	-7.4582
<	-7.47829
▁cast	-7.48773
▁again	-7.49168
▁want	-7.50253
▁world	-7.51797
▁pretty	-7.52466
▁horror	-7.54319
▁quite	-7.54825
▁down	-7.55158
▁thought	-7.5628
▁us	-7.56495
▁got	-7.56836
▁young	-7.57539
▁things	-7.57657
▁around	-7.59083
▁give	-7.59347
▁fact	-7.59538
▁take	-7.59752
▁long	-7.60374
▁enough	-7.604
▁seems	-7.6069
ll	-7.61687
it	-7.62801
▁saw	-7.63053
▁must	-7.64337
▁comedy	-7.6466
in	-7.6545
▁music	-7.65499
▁right	-7.65843
▁own	-7.66341
▁action	-7.66632
▁may	-7.66659
▁role	-7.672
▁both	-7.67715
▁between	-7.67738
▁original	-7.67913
▁come	-7.68236
▁guy	-7.68417
▁always	-7.68642
▁series	-7.68694
▁isn	-7.68889
▁however	-7.6892
y	-7.68928
▁interesting	-7.69115
▁whole	-7.70438
▁script	-7.70734
▁without	-7.70822
▁far	-7.70993
▁bit	-7.71538
▁least	-7.71712
▁almost	-7.7232
▁done	-7.72628
▁times	-7.72661
this	-7.73528
▁point	-7.73766
▁feel	-7.73807
▁minutes	-7.75071
▁family	-7.75171
▁gets	-7.75215
▁last	-7.76484
▁might	-7.77207
▁am	-7.77625
▁anything	-7.77903
▁kind	-7.803
▁performance	-7.80509
▁fun	-7.80571
▁since	-7.80992
▁tv	-7.81037
e	-7.81513
▁girl	-7.8206
▁worst	-7.82359
▁probably	-7.83338
▁anyone	-7.84354
▁away	-7.84697
▁hard	-7.85122
▁sure	-7.86681
▁found	-7.86876
▁woman	-7.88036
▁believe	-7.8922
▁dvd	-7.89689
▁day	-7.89943
▁each	-7.90168
▁rather	-7.90319
▁making	-7.91205
▁yet	-7.913
▁book	-7.94224
▁trying	-7.94902
▁ending	-7.94957
▁worth	-7.95496
▁course	-7.95533
▁our	-7.96009
▁put	-7.96106
▁screen	-7.96426
--	-7.96473
▁watched	-7.97351
▁actor	-7.97672
▁having	-7.98045
▁set	-7.98135
▁goes	-7.98312
▁everything	-7.98722
▁different	-7.98834
▁played	-7.99304
▁money	-7.99533
▁place	-7.99583
▁reason	-8.00156
▁wasn	-8.00336
▁job	-8.00432
▁main	-8.00455
▁let	-8.00688
▁sense	-8.00778
▁play	-8.01118
▁someone	-8.01185
▁looking	-8.01951
▁true	-8.02134
▁three	-8.02302
▁effects	-8.02492
▁comes	-8.02526
▁especially	-8.03082
▁everyone	-8.03436
▁shows	-8.03829
▁together	-8.05061
▁high	-8.05198
▁maybe	-8.05282
▁once	-8.05302
▁special	-8.0665
▁plays	-8.07108
▁looks	-8.07269
▁seem	-8.07493
▁half	-8.07622
▁beautiful	-8.08175
▁war	-8.08191
▁excellent	-8.08644
▁fan	-8.08669
▁said	-8.08846
▁audience	-8.08903
▁night	-8.09349
▁american	-8.09374
▁seeing	-8.09376
▁black	-8.0973
▁instead	-8.10283
▁version	-8.10509
▁idea	-8.10635
▁2	-8.10824
▁during	-8.1155
▁left	-8.11852
▁although	-8.12226
▁later	-8.13627
▁mind	-8.13634
▁else	-8.13644
(	-8.13718
▁takes	-8.1434
▁year	-8.15112
but	-8.15282
▁shot	-8.15399
▁short	-8.15728
▁wife	-8.15767
▁himself	-8.16251
▁death	-8.16857
▁poor	-8.16894
▁nice	-8.17271
▁john	-8.17673
▁read	-8.18059
▁house	-8.18118
▁enjoy	-8.18764
▁completely	-8.18995
▁father	-8.19159
▁home	-8.19248
▁boring	-8.19424
▁star	-8.19501
▁along	-8.20227
▁second	-8.20969
▁low	-8.21113
▁used	-8.21139
▁simply	-8.21553
▁kids	-8.22551
▁classic	-8.22654
as	-8.23074
▁recommend	-8.23223
▁10	-8.23244
▁help	-8.23591
▁hollywood	-8.23736
▁stupid	-8.23745
▁line	-8.23785
▁friends	-8.23801
▁men	-8.23919
▁wrong	-8.24071
▁need	-8.24416
▁try	-8.24881
▁either	-8.25813
▁production	-8.26179
▁rest	-8.26339
▁women	-8.2646
▁less	-8.26798
▁school	-8.26851
▁dead	-8.27321
▁use	-8.27485
▁camera	-8.27551
▁couple	-8.27761
▁full	-8.28281
▁start	-8.28664
▁mean	-8.2869
▁performances	-8.28754
▁truly	-8.28945
▁remember	-8.29144
▁terrible	-8.29583
▁understand	-8.29781
▁awful	-8.29805
▁given	-8.29847
▁video	-8.30121
▁tell	-8.3025
▁top	-8.30307
▁until	-8.30495
▁sex	-8.31033
▁came	-8.31439
▁won	-8.32609
▁--	-8.32837
▁next	-8.3285
▁getting	-8.33235
▁budget	-8.33279
▁wonderful	-8.33361
▁keep	-8.3405
▁episode	-8.34121
▁person	-8.346
▁moments	-8.35511
▁sound	-8.35791
▁small	-8.36724
▁laugh	-8.36756
▁name	-8.37227
▁mother	-8.37399
▁head	-8.37515
▁piece	-8.37635
if	-8.37696
▁itself	-8.37845
▁dialogue	-8.37872
▁perfect	-8.38458
▁definitely	-8.38472
▁couldn	-8.39355
▁face	-8.39573
▁playing	-8.39863
▁doing	-8.40326
▁absolutely	-8.40449
▁boy	-8.40853
or	-8.40891
▁children	-8.41006
▁human	-8.41297
▁live	-8.41516
▁went	-8.41697
▁stars	-8.41821
▁lines	-8.42019
▁liked	-8.42533
▁waste	-8.42556
▁entertaining	-8.42568
▁early	-8.42616
▁friend	-8.42725
▁hope	-8.42826
▁case	-8.43026
▁worse	-8.43099
▁loved	-8.43143
▁often	-8.43301
▁b	-8.44289
▁picture	-8.4472
▁cinema	-8.45151
▁sort	-8.45155
▁perhaps	-8.45535
▁certainly	-8.46249
▁style	-8.46344
▁felt	-8.46654
▁gives	-8.46936
▁title	-8.47605
▁supposed	-8.47982
▁lost	-8.48457
▁beginning	-8.48766
▁written	-8.48788
▁humor	-8.4882
▁under	-8.48835
▁several	-8.49043
▁become	-8.49273
▁dark	-8.49462
▁entire	-8.49615
▁care	-8.49709
▁direction	-8.50023
▁drama	-8.50061
▁problem	-8.50353
▁3	-8.50442
▁others	-8.50631
▁lead	-8.50992
▁mr	-8.51306
▁totally	-8.51442
▁guys	-8.51535
▁seemed	-8.51581
▁game	-8.51836
▁guess	-8.52112
▁white	-8.53426
▁based	-8.5359
▁wanted	-8.54612
▁evil	-8.54681
▁flick	-8.55033
▁turn	-8.55084
▁finally	-8.55221
▁horrible	-8.55305
there	-8.55591
▁example	-8.55612
▁fans	-8.56016
o	-8.56619
▁car	-8.56661
▁lives	-8.56792
▁against	-8.56925
▁heart	-8.57052
▁quality	-8.57453
▁amazing	-8.57525
▁fine	-8.57622
▁killer	-8.5786
▁already	-8.5799
▁called	-8.5804
▁son	-8.58178
▁throughout	-8.58237
▁writing	-8.58341
!<	-8.58473
▁enjoyed	-8.59538
▁side	-8.59981
▁history	-8.60192
▁able	-8.60203
▁today	-8.6067
er	-8.60863
▁favorite	-8.61394
▁final	-8.61508
▁days	-8.61521
▁yes	-8.61701
▁close	-8.61828
▁gave	-8.61986
▁town	-8.6236
▁art	-8.62412
▁run	-8.62475
▁oh	-8.62583
n	-8.62801
▁1	-8.63198
▁expect	-8.63213
▁becomes	-8.63244
▁act	-8.63301
▁kid	-8.63407
▁past	-8.63449
▁matter	-8.64074
▁viewer	-8.6419
▁child	-8.64455
▁etc	-8.64511
▁stuff	-8.64607
▁kill	-8.64724
to	-8.64783
▁god	-8.6527
▁tries	-8.65317
▁brilliant	-8.65887
▁genre	-8.66419
▁wants	-8.67144
on	-8.67731
▁myself	-8.67871
▁hand	-8.68267
▁slow	-8.68292
▁late	-8.68524
▁michael	-8.68832
▁parts	-8.69026
▁despite	-8.69122
▁actress	-8.69571
▁unfortunately	-8.69611
▁eyes	-8.69647
▁girls	-8.69694
▁city	-8.70168
▁works	-8.70243
▁thinking	-8.70275
▁behind	-8.70298
▁turns	-8.70332
▁decent	-8.70751
▁group	-8.71415
▁killed	-8.71601
▁themselves	-8.71891
▁strong	-8.71951
so	-8.72075
▁sometimes	-8.7228
▁heard	-8.7263
▁feeling	-8.72647
▁soon	-8.72657
▁highly	-8.72866
▁daughter	-8.72881
▁hour	-8.72967
▁voice	-8.73056
▁)	-8.7349
▁experience	-8.73564
▁directed	-8.73742
▁fight	-8.73849
▁self	-8.7399
▁overall	-8.74162
▁obviously	-8.74419
▁blood	-8.746
▁crap	-8.74835
▁took	-8.75008
▁cool	-8.75015
▁starts	-8.75354
▁happen	-8.75463
▁murder	-8.75664
▁type	-8.76165
▁hilarious	-8.76373
▁chance	-8.76446
▁happens	-8.76769
▁wouldn	-8.7687
▁wonder	-8.77216
▁extremely	-8.77452
▁lack	-8.77662
▁score	-8.77804
▁coming	-8.77838
▁looked	-8.77891
▁involved	-8.77904
▁hit	-8.78031
▁stop	-8.78068
▁simple	-8.78134
▁stories	-8.78738
▁re	-8.78855
▁hell	-8.78876
▁told	-8.78979
▁ago	-8.79172
▁leave	-8.79195
▁moment	-8.79887
▁brother	-8.79974
▁happened	-8.80349
th	-8.80501
▁violence	-8.80534
▁song	-8.80799
▁cannot	-8.80802
▁save	-8.8089
▁attempt	-8.81369
▁complete	-8.8173
▁huge	-8.81922
▁writer	-8.82257
▁serious	-8.82538
▁obvious	-8.8259
▁gore	-8.82707
▁age	-8.82881
▁ok	-8.82938
up	-8.82949
▁wish	-8.82991
▁police	-8.82996
▁roles	-8.83223
▁sad	-8.83251
▁living	-8.83567
▁husband	-8.83747
▁interest	-8.83764
!!	-8.83784
▁yourself	-8.84051
▁jokes	-8.84238
▁cinematography	-8.84661
▁shown	-8.8489
▁talent	-8.85317
▁cut	-8.85444
▁annoying	-8.85757
▁please	-8.85819
▁released	-8.8583
▁career	-8.8591
like	-8.86334
▁anyway	-8.86409
▁opinion	-8.86684
▁taken	-8.86805
▁hero	-8.86812
▁seriously	-8.86912
▁except	-8.87343
▁documentary	-8.87432
▁un	-8.87502
▁known	-8.87566
).<	-8.87661
▁hours	-8.87662
▁ridiculous	-8.87787
▁says	-8.87793
▁relationship	-8.87851
▁english	-8.87933
▁disappointed	-8.88056
▁call	-8.88351
▁light	-8.88478
▁number	-8.88496
▁particularly	-8.88497
▁across	-8.88579
▁alone	-8.88815
▁saying	-8.88861
r	-8.88884
▁exactly	-8.88991
▁usually	-8.89017
▁reality	-8.89057
▁usual	-8.89358
▁order	-8.8938
▁started	-8.89845
▁word	-8.90003
▁view	-8.90008
▁female	-8.90161
▁none	-8.90283
▁david	-8.9061
▁scary	-8.90746
▁cheap	-8.90888
▁silly	-8.90912
▁possible	-8.91164
▁change	-8.91316
▁attention	-8.9162
▁james	-8.91718
▁non	-8.91723
▁knew	-8.92154
▁running	-8.92172
for	-8.92237
▁middle	-8.92267
▁country	-8.92281
▁opening	-8.9235
▁...	-8.9235
▁major	-8.92439
▁beyond	-8.93188
▁body	-8.93374
which	-8.93407
▁power	-8.93462
one	-8.93528
▁level	-8.93704
▁television	-8.93792
▁strange	-8.93856
▁robert	-8.94118
▁somewhat	-8.94667
▁important	-8.94759
▁ten	-8.94793
▁turned	-8.94801
▁shots	-8.94944
▁miss	-8.95072
▁novel	-8.95127
▁single	-8.9514
▁among	-8.95158
▁happy	-8.95218
▁musical	-8.95279
▁four	-8.95384
▁dialog	-8.95929
▁5	-8.96018
▁jack	-8.96107
▁due	-8.9614
▁words	-8.96435
▁taking	-8.9647
▁local	-8.96487
▁predictable	-8.96508
▁room	-8.96738
▁rating	-8.96973
▁soundtrack	-8.9789
▁de	-8.97977
▁talking	-8.98126
▁modern	-8.98147
▁whose	-8.98163
▁enjoyable	-8.98345
▁4	-8.98643
▁king	-8.98801
man	-8.98816
▁earth	-8.98816
▁french	-8.98841
▁near	-8.98962
▁episodes	-8.99001
▁fast	-8.9915
▁clich	-8.9953
▁entertainment	-8.99558
ther	-8.99683
▁add	-8.9982
▁mostly	-8.99952
▁dull	-9.00114
▁subject	-9.00139
k	-9.00146
not	-9.00217
▁british	-9.00271
▁hate	-9.00284
▁review	-9.00321
!!!	-9.00427
▁basically	-9.00688
▁aren	-9.00737
who	-9.00842
▁haven	-9.00869
*	-9.00941
▁future	-9.01114
▁thriller	-9.0131
▁sequel	-9.01525
▁20	-9.01604
▁problems	-9.01626
▁comic	-9.01724
▁die	-9.01954
▁clearly	-9.01988
▁talk	-9.02016
▁songs	-9.02082
▁straight	-9.0209
▁storyline	-9.02213
▁events	-9.02374
▁romantic	-9.02438
▁including	-9.02487
▁message	-9.02603
▁upon	-9.02694
▁surprised	-9.02858
▁ends	-9.02967
what	-9.03312
▁bring	-9.03363
▁apparently	-9.03696
▁bunch	-9.03968
▁mention	-9.03975
▁team	-9.04318
▁supporting	-9.04321
▁above	-9.04381
▁space	-9.04558
▁similar	-9.04564
▁theater	-9.0486
▁monster	-9.04939
▁sequence	-9.05483
▁moving	-9.05506
▁buy	-9.05582
▁clear	-9.0568
▁five	-9.06061
▁sister	-9.0641
▁easily	-9.0643
▁doubt	-9.06472
▁eye	-9.0655
!)	-9.06588
▁o	-9.06843
▁fall	-9.06909
▁suspense	-9.07082
▁effort	-9.0709
▁stand	-9.07101
▁tried	-9.07122
▁giving	-9.07613
▁falls	-9.07699
of	-9.0778
▁whe	-9.07868
▁rock	-9.07976
▁easy	-9.08174
▁tells	-9.08335
▁parents	-9.08359
▁finds	-9.08383
all	-9.08401
▁rent	-9.08414
es	-9.08482
▁george	-9.08496
▁release	-9.08499
▁stay	-9.08855
▁oscar	-9.08891
he	-9.08982
▁theme	-9.08985
▁certain	-9.09006
▁showing	-9.09166
▁fantastic	-9.09222
▁kept	-9.0944
▁viewing	-9.09584
▁comments	-9.09881
▁deal	-9.10126
▁dog	-9.10203
▁sets	-9.10259
fi	-9.10338
▁lady	-9.10522
al	-9.10819
▁dr	-9.11094
▁greatest	-9.11116
▁tale	-9.11153
▁editing	-9.11332
▁realistic	-9.11398
▁knows	-9.11691
▁feature	-9.11773
▁decided	-9.11824
▁working	-9.11871
▁filmed	-9.12064
▁imagine	-9.12087
▁check	-9.12116
▁sit	-9.12154
▁needs	-9.12222
▁material	-9.12316
▁gone	-9.12403
▁appears	-9.12549
▁follow	-9.12697
▁typical	-9.12926
▁believable	-9.13068
▁class	-9.1311
▁mystery	-9.13157
▁move	-9.13173
c	-9.13388
▁reviews	-9.13434
▁famous	-9.13596
▁weak	-9.13809
▁hear	-9.14041
▁premise	-9.14348
▁lots	-9.1442
▁doctor	-9.14443
▁crime	-9.14526
▁general	-9.14628
▁within	-9.14764
▁sorry	-9.15
▁hot	-9.15429
▁named	-9.15649
▁lame	-9.15724
▁animation	-9.15737
▁actual	-9.15903
▁viewers	-9.15998
▁nearly	-9.16017
▁forget	-9.16069
▁elements	-9.16075
▁using	-9.16504
▁red	-9.16505
▁imdb	-9.1654
▁period	-9.16821
▁surprise	-9.17032
▁wait	-9.17318
▁average	-9.17393
you	-9.17399
▁brought	-9.17748
▁gay	-9.17951
an	-9.17966
▁atmosphere	-9.17984
g	-9.18092
▁poorly	-9.18212
▁america	-9.18578
▁sci	-9.18588
▁avoid	-9.18596
▁f	-9.18696
▁season	-9.18714
▁shame	-9.19095
▁open	-9.19118
▁expected	-9.19237
▁spend	-9.19312
▁somehow	-9.19328
▁learn	-9.19333
▁deep	-9.19887
ness	-9.19909
▁figure	-9.20285
▁dance	-9.20287
▁peter	-9.20328
▁box	-9.20337
▁means	-9.20356
▁killing	-9.20437
▁york	-9.20473
▁romance	-9.20488
▁leads	-9.20541
▁d	-9.2063
▁herself	-9.2091
that	-9.21109
▁sequences	-9.21114
▁truth	-9.21155
▁okay	-9.21201
▁comment	-9.21416
▁weird	-9.21495
my	-9.22222
▁write	-9.22262
▁particular	-9.22422
▁situation	-9.22445
▁richard	-9.22505
▁points	-9.22523
▁form	-9.2266
▁reading	-9.22812
▁crew	-9.22831
▁cheesy	-9.22915
▁minute	-9.23341
▁begins	-9.2372
▁air	-9.23853
▁superb	-9.2398
▁difficult	-9.24089
▁free	-9.24297
▁feels	-9.24315
▁*	-9.24328
▁street	-9.24358
▁paul	-9.24982
▁male	-9.25009
▁third	-9.25094
▁became	-9.25218
▁masterpiece	-9.25366
▁pay	-9.25443
no	-9.25686
▁society	-9.25978
▁western	-9.26129
▁copy	-9.26264
▁footage	-9.26392
▁co	-9.2643
▁interested	-9.26446
▁mess	-9.26479
▁cop	-9.26484
▁potential	-9.26647
at	-9.2682
▁begin	-9.26969
▁possibly	-9.27092
▁boys	-9.27186
▁needed	-9.27247
▁forced	-9.2733
▁island	-9.27433
▁sexual	-9.2778
▁meet	-9.27814
▁indeed	-9.27855
▁ways	-9.2789
▁beauty	-9.28096
▁effect	-9.28122
▁dumb	-9.28271
▁screenplay	-9.28382
▁stage	-9.28505
▁eventually	-9.28632
▁whatever	-9.28681
▁total	-9.28701
▁badly	-9.28705
▁question	-9.28728
▁dream	-9.28759
▁memorable	-9.28786
with	-9.28869
▁emotional	-9.29065
▁admit	-9.29179
▁disney	-9.29227
▁laughs	-9.29229
▁credits	-9.29232
▁otherwise	-9.29351
▁result	-9.29444
▁previous	-9.29478
▁incredibly	-9.29486
▁lee	-9.29508
▁features	-9.29578
▁nor	-9.29628
▁realize	-9.298
▁c	-9.29883
▁leaves	-9.30184
▁19	-9.30424
▁fire	-9.30496
▁forward	-9.3063
▁joke	-9.30769
▁agree	-9.30822
▁cover	-9.30927
▁water	-9.31121
▁baby	-9.31156
▁perfectly	-9.3135
▁acted	-9.31402
▁personal	-9.315
▁nature	-9.31563
▁crazy	-9.31776
▁background	-9.31857
▁!	-9.31868
▁meets	-9.32198
▁plenty	-9.32216
▁hands	-9.32234
▁setting	-9.32342
▁development	-9.32485
▁creepy	-9.32489
▁plain	-9.32528
▁plus	-9.32789
▁quickly	-9.32975
▁directing	-9.33304
▁worked	-9.33391
▁keeps	-9.33509
▁rich	-9.33542
▁wasted	-9.33642
▁unique	-9.33651
▁front	-9.34494
▁girlfriend	-9.34552
▁inside	-9.34752
▁mark	-9.3476
▁bill	-9.35012
▁japanese	-9.35402
▁older	-9.35428
▁spent	-9.35487
▁fairly	-9.35635
▁la	-9.3564
▁earlier	-9.35666
▁business	-9.35826
▁battle	-9.35851
▁note	-9.35946
▁expecting	-9.35993
▁ask	-9.36024
▁break	-9.36153
▁deserves	-9.36206
▁writers	-9.3626
▁cute	-9.36303
▁powerful	-9.36644
▁unless	-9.36694
?)	-9.36725
▁gun	-9.36863
▁portrayed	-9.36923
▁sounds	-9.36951
▁large	-9.36972
▁appear	-9.37001
▁dramatic	-9.37292
▁towards	-9.3741
▁leading	-9.37447
▁fails	-9.37553
▁u	-9.37624
▁twist	-9.37804
▁cat	-9.37833
▁laughing	-9.3788
▁cartoon	-9.38801
▁italian	-9.38804
▁clever	-9.38875
well	-9.38911
▁recently	-9.38937
▁following	-9.38989
▁various	-9.39151
▁pace	-9.39429
▁odd	-9.39502
p	-9.3956
▁van	-9.39568
▁talented	-9.39612
▁flat	-9.39837
▁caught	-9.39919
▁era	-9.40091
▁secret	-9.40195
even	-9.40291
▁missing	-9.40463
▁remake	-9.4051
out	-9.40517
▁brings	-9.40622
▁zombie	-9.40887
▁villain	-9.40922
▁success	-9.40946
▁german	-9.4102
▁present	-9.41101
▁hair	-9.41331
▁create	-9.41548
▁pure	-9.41704
l	-9.41759
▁store	-9.41874
▁fighting	-9.42014
▁focus	-9.42175
0	-9.42392
▁meant	-9.42394
▁party	-9.42442
▁joe	-9.42485
▁hold	-9.42555
▁nudity	-9.42577
▁incredible	-9.42772
▁list	-9.42787
▁ended	-9.42823
▁reasons	-9.42839
....	-9.4311
▁manages	-9.43196
▁hardly	-9.4326
▁whom	-9.43373
est	-9.43594
▁missed	-9.43711
▁return	-9.44209
▁band	-9.44229
▁mad	-9.44275
▁fantasy	-9.44282
▁casting	-9.44291
▁bored	-9.443
▁public	-9.4435
▁married	-9.44586
▁political	-9.44815
▁train	-9.449
▁value	-9.45019
▁waiting	-9.4512
▁appreciate	-9.4539
▁brain	-9.45497
▁attempts	-9.45523
▁members	-9.4559
▁telling	-9.45618
▁escape	-9.45671
▁college	-9.45896
▁sweet	-9.46092
▁tom	-9.46172
▁outside	-9.46178
▁cold	-9.46225
▁visual	-9.4649
▁science	-9.46518
▁apart	-9.46545
▁30	-9.46791
▁company	-9.4682
▁rate	-9.46822
▁channel	-9.47202
▁super	-9.47519
▁speak	-9.47652
▁familiar	-9.47859
▁portrayal	-9.48048
▁william	-9.48051
▁anti	-9.48081
▁credit	-9.48172
▁slightly	-9.48201
▁created	-9.48299
▁wrote	-9.48312
▁state	-9.48381
▁directors	-9.48525
▁fit	-9.48846
▁trouble	-9.48849
▁filmmakers	-9.48997
▁tension	-9.49009
▁common	-9.49124
▁convincing	-9.49148
▁christmas	-9.49337
▁fake	-9.49763
▁amount	-9.49769
▁scott	-9.49864
▁language	-9.49888
▁ideas	-9.50049
▁died	-9.50064
▁considering	-9.50152
▁dancing	-9.50204
▁choice	-9.50207
▁office	-9.50219
▁ex	-9.50266
▁further	-9.50296
▁consider	-9.50457
▁project	-9.50537
▁trash	-9.50547
gest	-9.50777
by	-9.5095
▁pathetic	-9.51048
▁popular	-9.51262
▁intelligent	-9.51366
▁fear	-9.514
▁amusing	-9.51404
▁produced	-9.51586
▁awesome	-9.51605
▁century	-9.5161
▁gang	-9.51856
▁garbage	-9.52019
▁concept	-9.5207
▁exciting	-9.52133
▁unlike	-9.52363
▁sick	-9.52424
▁recommended	-9.52493
▁mentioned	-9.52515
▁pointless	-9.52612
▁bizarre	-9.53107
▁sub	-9.53214
▁force	-9.53458
▁basic	-9.53628
▁compared	-9.53647
▁glad	-9.53675
▁decide	-9.53988
▁younger	-9.54037
▁positive	-9.54111
▁camp	-9.5419
▁follows	-9.54219
▁neither	-9.54239
▁master	-9.54251
▁match	-9.54296
▁situations	-9.54427
▁entirely	-9.54453
▁decides	-9.5447
▁former	-9.54485
▁alive	-9.54497
▁studio	-9.54499
▁pick	-9.546
▁spirit	-9.54783
▁social	-9.54896
▁impressive	-9.549
▁humour	-9.55459
▁sadly	-9.5546
▁respect	-9.55502
▁solid	-9.55506
▁producers	-9.5558
▁violent	-9.55615
▁moves	-9.55666
▁8	-9.55839
▁walk	-9.55865
▁track	-9.55956
▁15	-9.56428
▁cause	-9.56444
▁honest	-9.56581
▁drug	-9.5663
▁post	-9.56792
▁bought	-9.56821
time	-9.5697
▁successful	-9.56971
▁brothers	-9.56992
▁recent	-9.57194
▁filled	-9.57277
▁week	-9.5737
▁depth	-9.57449
▁disturbing	-9.57522
▁remind	-9.57593
▁accent	-9.57683
▁win	-9.57736
▁t	-9.57776
movie	-9.57803
▁chemistry	-9.57969
▁road	-9.58117
▁ones	-9.58223
▁bother	-9.58224
▁appeal	-9.58301
▁showed	-9.58431
▁weren	-9.58519
▁genius	-9.58544
▁control	-9.58614
▁vampire	-9.58747
▁shoot	-9.58788
▁images	-9.58794
▁adult	-9.58969
▁values	-9.58971
▁longer	-9.59029
▁cult	-9.59043
▁tough	-9.59296
▁trip	-9.59377
▁changed	-9.59948
▁culture	-9.59949
▁barely	-9.60227
▁impossible	-9.60317
▁jane	-9.6032
▁fair	-9.60348
▁park	-9.60482
▁uses	-9.60517
▁revenge	-9.60558
▁west	-9.60662
▁suddenly	-9.60709
▁south	-9.60789
▁ben	-9.60859
▁mood	-9.61189
▁failed	-9.61316
▁alien	-9.6176
▁taste	-9.62012
▁effective	-9.62014
although	-9.62152
▁kills	-9.62236
▁questions	-9.62291
▁prison	-9.62307
▁chase	-9.62316
▁g	-9.62324
▁singing	-9.62324
▁stunning	-9.62344
▁shooting	-9.62385
▁7	-9.62545
▁fiction	-9.62688
▁adventure	-9.62879
▁sam	-9.62883
▁conclusion	-9.62973
▁touch	-9.62986
▁?	-9.63152
▁considered	-9.63302
▁added	-9.63415
▁stick	-9.63517
▁somewhere	-9.63541
▁80'	-9.63651
▁dad	-9.63817
▁yeah	-9.63888
▁explain	-9.63939
▁silent	-9.6397
▁sexy	-9.63993
▁twists	-9.64048
▁starring	-9.64102
▁meaning	-9.64156
▁edge	-9.64485
▁smart	-9.64873
▁available	-9.64917
▁involving	-9.64922
▁charming	-9.65062
▁scenery	-9.6531
they	-9.65532
▁leaving	-9.65548
▁army	-9.65563
▁tone	-9.65596
▁journey	-9.65767
▁ultimately	-9.65864
▁computer	-9.65977
▁blue	-9.66009
▁sitting	-9.66055
▁r	-9.66157
▁slasher	-9.66245
▁wild	-9.66443
▁standard	-9.66514
▁normal	-9.66617
▁catch	-9.66774
▁issues	-9.66932
we	-9.66959
▁photography	-9.67054
is	-9.67071
▁immediately	-9.67182
▁jones	-9.67356
▁90	-9.67396
▁100	-9.67407
▁green	-9.67485
▁soul	-9.67574
▁pass	-9.67646
▁honestly	-9.67685
when	-9.67757
h	-9.67993
▁nobody	-9.68097
▁beautifully	-9.68221
▁purpose	-9.68274
▁bar	-9.6828
▁jim	-9.68281
▁london	-9.68451
don	-9.68516
▁nowhere	-9.68554
▁opera	-9.68559
▁subtle	-9.68588
▁soldiers	-9.68609
▁planet	-9.68698
▁laughable	-9.68727
▁personally	-9.68738
▁rare	-9.68765
▁surprisingly	-9.68785
▁terrific	-9.68836
▁appearance	-9.6895
▁ghost	-9.69021
▁magic	-9.69083
▁bed	-9.69158
▁heavy	-9.69244
▁books	-9.69254
▁lovely	-9.69352
▁ride	-9.69378
▁l	-9.69436
▁9	-9.69508
▁touching	-9.69524
▁impression	-9.69563
en	-9.69629
▁everybody	-9.6989
▁adaptation	-9.70003
▁comedies	-9.70012
▁ability	-9.70065
▁festival	-9.70131
▁disappointing	-9.70229
▁suppose	-9.70279
▁plan	-9.70404
▁aspect	-9.70423
▁date	-9.7046
▁frank	-9.70495
▁giant	-9.70559
▁unbelievable	-9.70791
3	-9.70804
▁innocent	-9.70841
▁ray	-9.70842
▁government	-9.70928
▁charles	-9.7097
▁mary	-9.71104
▁managed	-9.71147
▁animated	-9.71341
▁law	-9.71506
▁painful	-9.71784
▁club	-9.71924
▁door	-9.71932
▁likely	-9.71942
▁cinematic	-9.71974
▁terms	-9.72053
▁remains	-9.72072
▁finish	-9.72115
▁presence	-9.72244
▁generally	-9.7227
▁utterly	-9.72295
▁award	-9.72391
▁excuse	-9.72447
▁complex	-9.72779
▁naked	-9.72798
▁throw	-9.7285
▁j	-9.7287
▁smith	-9.73083
▁drive	-9.73204
b	-9.73218
▁land	-9.73269
▁disappointment	-9.73364
▁cry	-9.73453
▁thrown	-9.73602
▁victim	-9.73662
▁details	-9.73787
▁costumes	-9.73945
▁p	-9.73945
▁indian	-9.74076
▁aside	-9.74149
▁runs	-9.74295
▁literally	-9.74462
▁outstanding	-9.74473
be	-9.74514
▁boyfriend	-9.74649
▁pictures	-9.7472
▁wow	-9.74761
▁e	-9.74775
▁expectations	-9.74792
▁loud	-9.74888
▁thanks	-9.74901
▁emotions	-9.74945
▁charm	-9.75053
▁building	-9.7517
▁teen	-9.75185
▁student	-9.75199
▁pain	-9.75373
▁natural	-9.75502
▁support	-9.75503
▁detective	-9.75618
making	-9.75749
▁climax	-9.75775
▁hoping	-9.75949
▁narrative	-9.76
▁knowing	-9.76283
▁mistake	-9.76284
▁hurt	-9.76307
▁intended	-9.7648
▁tired	-9.7663
▁zombies	-9.76673
▁laughed	-9.76984
▁audiences	-9.77007
▁minor	-9.77052
▁historical	-9.77097
le	-9.77138
▁attack	-9.77174
▁makers	-9.7721
▁constantly	-9.77219
▁spoilers	-9.77286
▁80	-9.7731
▁thank	-9.77323
▁ship	-9.77408
she	-9.77617
▁mysterious	-9.77656
▁producer	-9.77663
▁boss	-9.77743
▁military	-9.7775
▁emotion	-9.77774
some	-9.7794
▁contains	-9.7807
▁walking	-9.78077
▁sent	-9.78152
do	-9.78177
▁changes	-9.78359
▁fell	-9.78537
▁confusing	-9.78578
▁charlie	-9.78755
▁forever	-9.78853
▁fascinating	-9.78865
▁race	-9.78868
▁slowly	-9.79112
▁gem	-9.79317
▁suggest	-9.79492
▁brief	-9.79508
▁summer	-9.79535
▁bruce	-9.79624
▁double	-9.7963
▁manner	-9.79678
▁presented	-9.79716
▁exception	-9.79744
▁bond	-9.79759
budget	-9.7993
▁stands	-9.80015
▁shocking	-9.80029
▁notice	-9.80134
▁hospital	-9.80313
director	-9.80344
▁names	-9.80426
▁compelling	-9.80444
▁mom	-9.80512
▁ed	-9.80732
▁collection	-9.80876
▁grace	-9.80896
▁offer	-9.80921
ers	-9.80997
▁central	-9.81174
▁bottom	-9.81467
▁pull	-9.81573
▁justice	-9.81639
▁equally	-9.81649
▁chris	-9.81674
▁martin	-9.81944
▁students	-9.81944
▁shock	-9.81977
▁folks	-9.81979
▁color	-9.82007
f	-9.8203
▁detail	-9.82038
▁steve	-9.82088
▁paris	-9.82223
▁al	-9.82242
▁fully	-9.82342
v	-9.82349
▁critics	-9.82503
▁harry	-9.82523
▁content	-9.82547
▁happening	-9.82604
▁pre	-9.82626
overall	-9.82631
▁ahead	-9.82914
now	-9.82926
▁10.	-9.83151
▁aspects	-9.83217
▁pieces	-9.83535
▁six	-9.83536
▁feelings	-9.83598
▁opportunity	-9.83678
▁fresh	-9.83866
off	-9.83951
▁agent	-9.83952
▁surely	-9.83987
▁rented	-9.84324
▁themes	-9.84366
▁include	-9.84437
▁impressed	-9.84453
▁confused	-9.84454
▁hey	-9.8446
able	-9.84479
▁wood	-9.84527
▁trailer	-9.84551
▁rip	-9.84559
▁gorgeous	-9.84585
▁industry	-9.84733
▁likable	-9.8474
▁funniest	-9.8475
▁direct	-9.84788
▁mainly	-9.84838
▁spot	-9.84875
1	-9.84887
▁million	-9.84897
▁impact	-9.85188
▁image	-9.85339
▁mix	-9.8551
▁rated	-9.85775
▁radio	-9.85809
▁tony	-9.85818
▁finding	-9.85835
▁affair	-9.85937
▁location	-9.85964
▁hitchcock	-9.86111
▁twice	-9.86115
▁thus	-9.86166
▁wondering	-9.86576
▁holes	-9.86645
▁motion	-9.86667
▁beat	-9.86681
2	-9.86741
▁dreams	-9.86805
▁paid	-9.86888
▁answer	-9.8695
▁stewart	-9.87057
▁russian	-9.87057
▁lover	-9.87095
▁anymore	-9.87225
▁ground	-9.87256
▁mediocre	-9.87342
▁porn	-9.87356
▁flicks	-9.8749
▁lived	-9.8757
▁grade	-9.87719
see	-9.87766
▁appeared	-9.87797
▁serial	-9.87842
▁extra	-9.87906
▁acts	-9.87919
▁difference	-9.87982
▁places	-9.87991
▁:	-9.88138
▁drawn	-9.88323
▁sleep	-9.88373
▁marriage	-9.88455
▁pop	-9.88475
old	-9.88522
▁hasn	-9.88654
▁creative	-9.88667
▁developed	-9.887
▁lighting	-9.88719
▁reminded	-9.88723
▁suicide	-9.88757
▁batman	-9.88773
after	-9.88776
▁step	-9.88829
▁share	-9.88838
ting	-9.88867
▁quick	-9.88912
▁forgotten	-9.88918
▁50	-9.89275
▁random	-9.89286
▁puts	-9.89488
▁plane	-9.89648
▁delivers	-9.89719
▁falling	-9.89746
▁drugs	-9.8982
▁billy	-9.89983
▁extreme	-9.89983
▁stuck	-9.90007
▁intense	-9.90093
▁relationships	-9.90243
also	-9.90363
▁ugly	-9.90504
▁lacks	-9.90589
▁torture	-9.90595
▁hotel	-9.9066
▁scientist	-9.90734
▁machine	-9.90739
▁sea	-9.90888
▁church	-9.90961
just	-9.91105
▁key	-9.91188
▁treat	-9.91244
▁sat	-9.91419
▁attractive	-9.91451
▁latter	-9.91453
▁wooden	-9.91469
▁disaster	-9.91541
▁adults	-9.91691
▁dies	-9.91903
▁ms	-9.91928
▁fashion	-9.91941
▁cops	-9.91978
▁putting	-9.92176
▁ready	-9.92211
▁tragic	-9.92341
▁absolute	-9.92355
▁damn	-9.92369
▁creature	-9.92403
▁compare	-9.92415
▁h	-9.92429
▁imagination	-9.92515
▁flaws	-9.92724
▁process	-9.92737
▁animals	-9.92806
▁tend	-9.92846
▁lose	-9.92903
▁allowed	-9.93008
▁shouldn	-9.93047
▁negative	-9.93107
▁adds	-9.93108
▁victims	-9.93164
▁struggle	-9.93202
▁theatre	-9.93213
▁soldier	-9.93222
▁wall	-9.9327
▁born	-9.93275
▁teenage	-9.93441
▁approach	-9.93808
▁jean	-9.93877
▁information	-9.93895
▁system	-9.94036
ic	-9.94045
▁deliver	-9.94076
▁besides	-9.94181
▁count	-9.94207
▁filming	-9.94254
▁picked	-9.94376
▁element	-9.94378
▁gold	-9.94423
▁teacher	-9.94564
▁angry	-9.94572
▁faces	-9.94613
▁moral	-9.94765
▁becoming	-9.94852
ish	-9.94924
though	-9.94932
▁accident	-9.95028
▁kelly	-9.95107
▁describe	-9.9511
▁childhood	-9.95247
▁cgi	-9.95296
▁actresses	-9.95341
▁worthy	-9.95377
▁whatsoever	-9.95414
▁offers	-9.95453
▁standards	-9.95482
▁fellow	-9.95534
▁captain	-9.95561
▁thoroughly	-9.95755
▁phone	-9.95787
▁member	-9.95931
▁christopher	-9.96
▁cross	-9.96018
▁seven	-9.96083
▁fox	-9.96105
▁supposedly	-9.9614
▁horse	-9.96142
▁mouth	-9.96198
▁x	-9.96263
▁pleasure	-9.96431
▁moved	-9.96515
▁station	-9.96521
▁therefore	-9.96615
w	-9.96642
▁m	-9.96697
▁fat	-9.96819
▁blame	-9.96832
▁listen	-9.96867
▁criminal	-9.9714
▁dirty	-9.97144
▁epic	-9.97145
▁search	-9.97183
▁commentary	-9.97285
▁passion	-9.97288
▁sucks	-9.97313
▁followed	-9.97331
▁seemingly	-9.97477
▁afraid	-9.97486
▁addition	-9.97523
▁deserve	-9.97534
▁mid	-9.97562
▁woods	-9.97592
▁nasty	-9.97638
▁lies	-9.97731
▁area	-9.9775
▁personality	-9.97807
▁carry	-9.97824
▁noir	-9.97916
▁martial	-9.97984
▁zero	-9.97989
▁proves	-9.98153
▁independent	-9.98251
however	-9.98273
▁favourite	-9.98347
▁speaking	-9.98354
▁judge	-9.98416
▁intriguing	-9.98489
▁helped	-9.98492
▁sight	-9.98523
ie	-9.98526
▁soft	-9.98583
▁70	-9.98588
▁watchable	-9.98624
▁turning	-9.98646
▁queen	-9.98758
▁christian	-9.98986
▁games	-9.98991
▁memory	-9.99006
▁helps	-9.9901
▁redeeming	-9.99049
▁led	-9.99396
▁clothes	-9.99715
▁professional	-9.9972
▁tears	-9.99733
▁onto	-9.99829
▁mine	-9.9985
▁suspect	-9.99859
▁energy	-9.9989
▁design	-9.99899
▁grand	-9.99902
▁jr	-9.99926
▁moon	-10.0004
▁stone	-10.0007
▁wind	-10.0011
▁willing	-10.0023
▁jackson	-10.0026
▁provides	-10.0028
▁continue	-10.0055
▁thinks	-10.0055
▁murders	-10.0064
▁comedic	-10.0077
▁inspired	-10.0085
▁current	-10.0097
especially	-10.0102
▁stock	-10.0104
▁tragedy	-10.013
▁ryan	-10.0135
▁apartment	-10.0138
▁anybody	-10.015
▁news	-10.0156
▁superior	-10.0156
less	-10.016
▁jerry	-10.0169
▁henry	-10.0171
▁joy	-10.0189
▁70'	-10.0189
year	-10.0192
▁40	-10.0197
▁uncle	-10.0198
▁asked	-10.0205
▁brown	-10.021
▁realized	-10.0211
▁dying	-10.0221
▁wanting	-10.0221
▁anywhere	-10.0227
▁rarely	-10.0232
▁absurd	-10.0237
▁artistic	-10.024
▁accept	-10.0242
▁loves	-10.0248
▁soap	-10.026
▁jason	-10.0263
▁draw	-10.0273
▁physical	-10.0284
▁animal	-10.0307
from	-10.0309
while	-10.0316
oh	-10.0317
▁delightful	-10.0321
▁vs	-10.0329
▁tim	-10.0346
▁intelligence	-10.0347
▁held	-10.0361
▁price	-10.0362
▁lord	-10.0368
▁spoiler	-10.0371
▁provide	-10.0382
▁food	-10.0422
good	-10.0424
▁brutal	-10.043
▁bloody	-10.0439
▁surprising	-10.0449
▁thin	-10.0453
▁artist	-10.0455
▁loose	-10.0466
▁vhs	-10.0474
▁pair	-10.0474
▁twenty	-10.0476
▁accurate	-10.0486
▁returns	-10.0497
▁flying	-10.0507
▁wearing	-10.0508
▁build	-10.0515
▁states	-10.0532
▁began	-10.0534
life	-10.0534
▁kevin	-10.0538
▁wonderfully	-10.0559
▁12	-10.0574
com	-10.059
▁dangerous	-10.0597
▁moore	-10.0607
▁desert	-10.0614
▁filmmaker	-10.0618
▁below	-10.0634
▁trust	-10.0636
▁unknown	-10.0642
▁memories	-10.0642
over	-10.0652
▁gags	-10.0656
▁opposite	-10.0662
▁hidden	-10.0663
▁shakespeare	-10.068
▁necessary	-10.0681
▁numbers	-10.0692
▁americans	-10.0696
▁arts	-10.0697
▁mike	-10.0719
▁pacing	-10.0719
▁boat	-10.0745
▁thomas	-10.0762
▁noticed	-10.0771
▁player	-10.0776
▁chinese	-10.0777
▁k	-10.0778
then	-10.0786
▁deeply	-10.0794
▁1950	-10.0795
▁page	-10.0799
▁seconds	-10.0804
▁scared	-10.0804
▁friendship	-10.0815
▁1970	-10.0834
▁hated	-10.0834
▁allen	-10.0834
▁religious	-10.0846
▁rape	-10.0849
▁board	-10.0855
▁tape	-10.0862
▁rubbish	-10.0866
▁generation	-10.087
▁engaging	-10.0871
▁bob	-10.0877
▁witch	-10.0878
▁unusual	-10.0883
▁understanding	-10.089
▁cable	-10.0894
▁allow	-10.0913
▁lets	-10.0921
▁w	-10.0923
▁williams	-10.0924
▁field	-10.0925
▁wide	-10.093
▁buddy	-10.0932
▁president	-10.0949
▁eddie	-10.0952
▁academy	-10.0967
▁roll	-10.0979
▁limited	-10.0992
▁ice	-10.1004
▁smile	-10.1015
▁shop	-10.102
us	-10.1037
▁sees	-10.104
▁skip	-10.1044
▁somebody	-10.1048
▁destroy	-10.105
▁monsters	-10.1063
▁locations	-10.1065
▁introduced	-10.1071
rely	-10.1072
whilst	-10.1084
▁remarkable	-10.1084
▁fame	-10.1086
▁johnny	-10.1089
▁explanation	-10.1111
yes	-10.1122
top	-10.1129
ion	-10.1134
▁leader	-10.1141
▁comparison	-10.1151
▁devil	-10.1158
▁nicely	-10.1163
▁officer	-10.1164
▁holds	-10.1164
▁apparent	-10.1174
▁singer	-10.1177
▁recall	-10.1195
▁finished	-10.1197
▁13	-10.1201
▁curious	-10.1203
▁learned	-10.1206
▁range	-10.1221
▁unnecessary	-10.1222
▁months	-10.1225
▁anne	-10.123
▁record	-10.124
▁witty	-10.1243
▁heaven	-10.1245
▁ford	-10.1245
▁arthur	-10.1246
▁includes	-10.1247
▁captured	-10.1253
▁desperate	-10.1255
▁ball	-10.1278
▁crappy	-10.1282
▁jump	-10.1285
▁conflict	-10.1309
▁magnificent	-10.1315
▁discover	-10.1325
▁bland	-10.1335
▁mental	-10.1336
▁advice	-10.1343
▁floor	-10.1344
▁stephen	-10.1358
▁village	-10.1362
▁manage	-10.1371
▁technical	-10.1375
▁cash	-10.1384
▁references	-10.1399
▁morning	-10.1403
▁taylor	-10.1405
▁kick	-10.1413
▁pilot	-10.1418
▁responsible	-10.1424
▁starting	-10.143
▁sing	-10.1431
▁exist	-10.1432
.....	-10.1436
▁knowledge	-10.1444
▁driving	-10.1446
▁heroes	-10.1451
▁ring	-10.1465
▁players	-10.1467
▁hadn	-10.1468
▁danny	-10.1471
▁partner	-10.1482
▁davis	-10.1486
▁vision	-10.1489
▁asks	-10.1492
▁constant	-10.1497
▁length	-10.1503
▁survive	-10.1508
▁river	-10.1515
▁connection	-10.152
▁owner	-10.1524
▁loving	-10.1526
▁saving	-10.1529
looking	-10.1529
▁fail	-10.1537
▁mixed	-10.154
▁alan	-10.1546
▁creating	-10.1547
▁lacking	-10.1549
▁bits	-10.1552
▁wars	-10.1557
▁community	-10.1567
▁vote	-10.1574
▁quiet	-10.158
▁behavior	-10.1581
▁bigger	-10.1589
▁national	-10.1593
▁kinda	-10.1595
▁mission	-10.1605
▁terribly	-10.1608
▁howard	-10.1613
▁calls	-10.1615
▁sucked	-10.1615
▁growing	-10.1625
▁lovers	-10.1636
▁media	-10.1636
▁suit	-10.1639
▁gotten	-10.1651
▁humanity	-10.1651
▁ordinary	-10.1651
▁nonsense	-10.1655
▁deserved	-10.1659
▁humorous	-10.1664
▁issue	-10.1667
▁robin	-10.1678
▁window	-10.1688
▁legend	-10.1689
▁private	-10.1692
▁finest	-10.1696
▁favor	-10.1697
played	-10.1702
▁treated	-10.1703
te	-10.1708
▁program	-10.1709
▁england	-10.1712
▁prove	-10.1722
▁warning	-10.1728
▁normally	-10.1729
▁irritating	-10.1733
▁dealing	-10.1735
▁relate	-10.174
▁wayne	-10.1789
▁murdered	-10.1792
▁eat	-10.1794
▁sign	-10.1796
go	-10.1802
▁capture	-10.1806
▁explained	-10.1812
▁unfunny	-10.1818
▁heroine	-10.1819
j	-10.1835
▁keeping	-10.1835
▁luck	-10.184
▁genuine	-10.185
▁priest	-10.185
▁golden	-10.1863
▁dreadful	-10.1873
▁bright	-10.1877
▁faith	-10.1879
▁lynch	-10.1898
▁powers	-10.1899
▁nick	-10.1909
▁brian	-10.191
▁bank	-10.1922
▁cost	-10.193
▁author	-10.1949
▁efforts	-10.1951
▁castle	-10.1953
▁event	-10.1966
▁empty	-10.1966
▁grow	-10.197
▁realism	-10.1974
▁satire	-10.1988
▁hunter	-10.1994
▁actions	-10.2008
0'	-10.2008
▁seat	-10.2017
▁numerous	-10.203
▁protagonist	-10.2034
▁youth	-10.2038
▁north	-10.2044
▁regular	-10.2046
▁lesson	-10.2048
why	-10.2051
▁debut	-10.2052
▁scream	-10.2055
▁n	-10.2058
▁dressed	-10.2062
▁sean	-10.207
▁wise	-10.2072
▁france	-10.2081
▁skills	-10.2082
how	-10.2089
▁drunk	-10.2097
▁instance	-10.2099
▁max	-10.2103
▁desire	-10.2111
▁included	-10.2111
▁trek	-10.2118
▁texas	-10.2118
▁broken	-10.2119
▁reviewers	-10.2122
▁commercial	-10.2127
▁international	-10.2132
▁foreign	-10.2138
▁corny	-10.2142
▁sheer	-10.2144
▁whenever	-10.2147
▁blind	-10.215
▁consist	-10.2161
▁gangster	-10.2168
▁european	-10.2169
▁teenagers	-10.2172
▁pulled	-10.2174
▁crowd	-10.2179
▁stereotypes	-10.2188
▁finale	-10.2188
▁higher	-10.22
▁remembered	-10.2203
▁dated	-10.2205
▁ill	-10.2209
z	-10.2223
▁gory	-10.2234
▁chick	-10.2234
▁site	-10.224
▁frankly	-10.2245
▁fate	-10.2245
▁formula	-10.2247
▁unrealistic	-10.2249
▁portray	-10.2253
▁winning	-10.2259
▁insane	-10.2263
▁pretentious	-10.227
▁study	-10.2279
▁screaming	-10.2287
▁visit	-10.2297
▁occasionally	-10.23
▁african	-10.23
▁ran	-10.2305
▁loss	-10.2306
▁guns	-10.2307
▁utter	-10.2311
▁fights	-10.2315
▁disgusting	-10.2319
▁gary	-10.2324
▁psychological	-10.233
u	-10.2337
▁travel	-10.2352
▁mini	-10.2355
ies	-10.2361
▁wedding	-10.2367
▁parody	-10.2368
▁alex	-10.2372
▁/	-10.2372
▁joan	-10.2388
▁aware	-10.2392
▁paper	-10.2392
▁spanish	-10.2406
▁saved	-10.2407
▁terror	-10.241
▁concerned	-10.2411
▁australian	-10.2415
▁discovered	-10.2416
▁awkward	-10.2417
▁clean	-10.2424
▁par	-10.2428
▁mere	-10.2437
▁steal	-10.2439
▁hits	-10.2439
▁heads	-10.2441
▁originally	-10.2447
▁shallow	-10.2448
▁practical	-10.2449
▁cameo	-10.2451
▁talents	-10.2454
▁lucky	-10.2459
▁deals	-10.2462
▁teenager	-10.2464
▁sell	-10.2469
▁according	-10.247
▁combination	-10.2471
▁ladies	-10.2495
▁villains	-10.2502
▁feet	-10.2502
▁fly	-10.2504
▁vampires	-10.2505
▁flesh	-10.2509
▁spectacular	-10.2509
▁sheriff	-10.2517
▁football	-10.2518
▁nightmare	-10.253
▁unexpected	-10.2531
▁universal	-10.254
▁dan	-10.2545
▁round	-10.2554
▁bomb	-10.2554
▁hall	-10.256
▁cars	-10.2564
▁featuring	-10.2565
▁received	-10.2568
▁frame	-10.2569
em	-10.2572
▁context	-10.2585
▁model	-10.2586
▁****	-10.259
▁lewis	-10.2593
??	-10.2596
▁fill	-10.26
▁heck	-10.2601
!!!!	-10.2604
▁tedious	-10.2608
▁grew	-10.2608
▁grown	-10.2613
▁miles	-10.2624
▁contrived	-10.2631
▁rental	-10.2636
▁asian	-10.2638
▁reaction	-10.2647
▁perform	-10.2654
▁underrated	-10.2655
▁drag	-10.2656
▁sake	-10.2656
▁evidence	-10.2677
▁contain	-10.2682
▁speed	-10.2685
▁display	-10.2685
▁join	-10.2685
▁adam	-10.2687
▁choose	-10.2691
▁attitude	-10.2692
▁fault	-10.27
▁hitler	-10.2701
▁laughter	-10.2702
▁results	-10.271
▁decade	-10.2711
▁le	-10.2712
▁strength	-10.2717
▁toward	-10.2718
▁gonna	-10.2722
▁douglas	-10.2724
▁angel	-10.2732
▁genuinely	-10.2732
▁fred	-10.2732
▁perspective	-10.2738
ation	-10.2754
▁failure	-10.2761
ian	-10.2771
▁forces	-10.2777
▁bbc	-10.2793
▁hopes	-10.2821
▁revealed	-10.2823
▁network	-10.2833
▁correct	-10.2837
▁overly	-10.2846
▁promise	-10.2869
▁essentially	-10.287
▁reach	-10.2876
▁involves	-10.2889
▁cuts	-10.2894
▁eric	-10.2895
▁naturally	-10.2906
▁test	-10.2912
▁psycho	-10.2917
▁edited	-10.2918
▁individual	-10.292
▁ultimate	-10.2928
▁fu	-10.2928
▁europe	-10.2932
▁reviewer	-10.2935
▁anthony	-10.2937
▁chan	-10.2942
▁gross	-10.2952
▁humans	-10.2955
another	-10.2972
▁decision	-10.2976
▁native	-10.2978
▁wit	-10.2979
▁visuals	-10.299
▁candy	-10.2994
▁develop	-10.2996
▁described	-10.2997
▁graphic	-10.3002
▁product	-10.3002
▁japan	-10.301
▁ann	-10.3012
▁breaks	-10.3024
▁costs	-10.3026
▁existence	-10.3029
▁executed	-10.3031
▁julie	-10.3039
star	-10.3039
▁mrs	-10.3044
▁families	-10.3051
bad	-10.3052
▁beach	-10.3057
▁flashbacks	-10.306
▁streets	-10.3063
▁provided	-10.3072
▁relief	-10.3077
▁jesus	-10.3078
her	-10.3082
▁assume	-10.3086
▁freedom	-10.31
▁depressing	-10.31
▁seagal	-10.3103
▁steven	-10.3107
▁hunt	-10.3112
▁unable	-10.3126
▁logic	-10.3147
▁horribly	-10.3148
▁lousy	-10.3149
▁dick	-10.3151
▁alice	-10.3154
▁lake	-10.3155
▁send	-10.3158
▁crash	-10.3172
▁blonde	-10.3173
first	-10.318
▁hill	-10.3182
▁center	-10.3189
▁eating	-10.3202
▁warm	-10.3204
▁delivered	-10.3211
▁hang	-10.3219
▁treatment	-10.322
▁chief	-10.3221
▁gordon	-10.3222
▁keaton	-10.3223
▁skin	-10.3225
▁continues	-10.3234
maybe	-10.3237
▁creatures	-10.3253
▁jennifer	-10.3254
ity	-10.3259
▁levels	-10.3264
▁rescue	-10.3283
▁pity	-10.3292
▁sympathetic	-10.3294
▁jimmy	-10.33
▁bear	-10.3314
▁brilliantly	-10.3314
▁kong	-10.3319
▁walked	-10.3338
▁recognize	-10.3357
▁viewed	-10.3358
▁capable	-10.3367
▁clue	-10.3375
▁rules	-10.3381
▁meeting	-10.3389
▁sharp	-10.339
▁refreshing	-10.3393
▁excited	-10.3393
▁11	-10.3394
▁endless	-10.3396
▁entertained	-10.3399
▁jeff	-10.3401
▁discovers	-10.3402
▁embarrassing	-10.341
▁handsome	-10.3413
▁sun	-10.3414
▁identity	-10.3417
▁driver	-10.3424
▁strongly	-10.3433
▁cage	-10.3433
▁dry	-10.3435
▁surreal	-10.3438
▁theaters	-10.3438
▁twisted	-10.3441
▁till	-10.3444
his	-10.3457
de	-10.3458
▁built	-10.3468
▁aliens	-10.3471
▁bringing	-10.3477
▁cares	-10.3478
▁mask	-10.349
▁stopped	-10.3491
▁slapstick	-10.3492
▁rose	-10.3493
▁insult	-10.3496
▁halloween	-10.3496
▁rise	-10.3501
▁amateurish	-10.3507
▁subtitles	-10.3507
▁gratuitous	-10.3508
4	-10.3514
▁prince	-10.3516
▁ages	-10.3518
▁promising	-10.3518
▁tiny	-10.352
▁met	-10.352
▁gene	-10.353
john	-10.3535
▁visually	-10.3539
▁surface	-10.3542
▁larry	-10.3545
▁hearing	-10.3546
▁turkey	-10.3546
▁remain	-10.3548
▁lesbian	-10.3549
▁dollars	-10.3561
▁substance	-10.3567
▁exploitation	-10.357
▁fool	-10.3575
▁ruin	-10.3579
▁spoil	-10.3584
▁matt	-10.3586
very	-10.3589
???	-10.3594
▁bodies	-10.3594
ally	-10.3595
▁research	-10.3605
▁portrays	-10.3608
▁robot	-10.361
▁semi	-10.3622
▁sisters	-10.3629
▁standing	-10.3629
▁sudden	-10.3634
▁harris	-10.3641
▁majority	-10.3643
▁costume	-10.3655
▁proved	-10.3656
▁blow	-10.3659
▁shocked	-10.3661
▁st	-10.3671
▁mountain	-10.3677
▁barbara	-10.3677
▁service	-10.3678
x	-10.3679
▁steals	-10.3681
▁enemy	-10.3695
▁germany	-10.3706
▁scare	-10.3717
▁ancient	-10.3719
▁kung	-10.372
▁dubbed	-10.3723
▁sequels	-10.3737
▁produce	-10.3741
▁jackie	-10.3751
▁classics	-10.3758
▁ha	-10.3759
son	-10.376
▁pleasant	-10.3762
▁rob	-10.3766
▁prefer	-10.3767
▁loses	-10.3778
▁prime	-10.3784
▁qualities	-10.3795
▁awards	-10.3797
▁types	-10.3799
▁regret	-10.3799
▁fish	-10.3805
▁routine	-10.3806
▁asking	-10.3811
▁proper	-10.3815
▁circumstances	-10.3818
▁chaplin	-10.3824
▁appealing	-10.3831
5	-10.3846
▁saturday	-10.3849
▁ruined	-10.3856
el	-10.3864
▁portraying	-10.3866
▁core	-10.3867
▁asleep	-10.3881
▁sky	-10.3882
▁scale	-10.3883
▁evening	-10.3889
▁painfully	-10.3889
▁uk	-10.389
▁haunting	-10.3903
▁cartoons	-10.3917
▁speech	-10.3923
▁universe	-10.3925
▁werewolf	-10.3927
▁18	-10.3937
▁vehicle	-10.3939
▁pile	-10.3945
▁morgan	-10.3949
▁emotionally	-10.395
▁foot	-10.3986
▁jungle	-10.399
▁highlight	-10.3992
▁louis	-10.4027
▁creates	-10.4036
▁lower	-10.4043
▁target	-10.4047
▁weeks	-10.4049
▁propaganda	-10.4057
▁teens	-10.4064
▁idiot	-10.4072
▁drop	-10.4074
▁traditional	-10.4076
▁hat	-10.4092
▁passed	-10.4102
▁friday	-10.4111
co	-10.4115
▁nominated	-10.4116
▁religion	-10.4124
▁truck	-10.4137
▁caused	-10.4137
▁satisfying	-10.4142
▁source	-10.4152
▁amateur	-10.4153
▁ignore	-10.4156
▁extras	-10.4158
▁root	-10.4159
▁rough	-10.4167
▁contrast	-10.4181
▁sympathy	-10.419
▁chosen	-10.4193
▁market	-10.4194
▁worthwhile	-10.4194
▁grave	-10.4206
▁theatrical	-10.4209
ist	-10.4229
▁suffering	-10.4236
▁washington	-10.4244
▁demon	-10.4251
▁marry	-10.4254
▁kate	-10.4255
▁department	-10.4262
▁table	-10.4269
made	-10.427
▁factor	-10.427
▁peace	-10.4271
▁united	-10.4276
▁excitement	-10.4297
▁enter	-10.4298
▁suspenseful	-10.4302
▁experienced	-10.4306
american	-10.4316
▁sports	-10.4318
▁angles	-10.4319
▁eight	-10.4323
▁simon	-10.4326
▁broadway	-10.4326
▁guilty	-10.4327
screen	-10.4328
▁encounter	-10.4335
▁losing	-10.4337
▁opens	-10.4339
▁training	-10.4341
▁contemporary	-10.4352
▁suck	-10.4361
▁safe	-10.4376
▁holmes	-10.438
▁depicted	-10.4381
▁regard	-10.439
▁makeup	-10.4393
▁dogs	-10.4397
▁naive	-10.4398
▁cruel	-10.44
?!	-10.4403
▁technology	-10.4406
**	-10.4408
▁hide	-10.4413
▁hopefully	-10.4415
▁unfortunate	-10.4425
▁junk	-10.4427
▁talks	-10.443
▁winner	-10.4434
▁knock	-10.445
▁roger	-10.4452
▁committed	-10.4462
▁irish	-10.4469
▁darkness	-10.447
▁canadian	-10.4485
▁wear	-10.4488
▁weekend	-10.4489
▁mst	-10.4493
▁crying	-10.4494
▁figured	-10.4501
ch	-10.4508
▁appropriate	-10.451
▁albert	-10.4522
▁influence	-10.4528
line	-10.4531
▁wolf	-10.4536
▁bothered	-10.4538
▁veteran	-10.4541
▁urban	-10.4544
▁east	-10.4546
▁renting	-10.4551
▁virtually	-10.4575
▁exact	-10.4575
▁lane	-10.4577
▁1980	-10.4587
▁mob	-10.4589
▁offensive	-10.4592
nd	-10.4598
▁anime	-10.4599
▁con	-10.4601
▁spoof	-10.4601
▁fits	-10.4603
▁joseph	-10.4604
▁allows	-10.4621
▁professor	-10.4624
▁edward	-10.463
▁bus	-10.463
la	-10.4631
▁grant	-10.4653
▁wilson	-10.4655
▁false	-10.4656
▁russell	-10.4657
▁tarzan	-10.4658
▁claim	-10.4659
▁performed	-10.4667
▁court	-10.4673
!).	-10.4677
7	-10.4677
ous	-10.4682
▁parker	-10.4691
▁dennis	-10.4691
▁believed	-10.4692
▁harsh	-10.4703
▁dude	-10.4712
▁anger	-10.4714
▁obsessed	-10.4718
▁dean	-10.4723
▁praise	-10.4726
▁welcome	-10.473
▁atrocious	-10.474
▁danger	-10.474
▁supernatural	-10.4742
anyway	-10.4748
▁abuse	-10.4751
▁convince	-10.4756
▁previously	-10.4767
▁captures	-10.4768
▁degree	-10.4769
▁jewish	-10.4769
▁continuity	-10.4769
▁haunted	-10.4771
▁witness	-10.4774
▁cutting	-10.4777
▁featured	-10.4784
▁concern	-10.479
▁anderson	-10.4791
▁studios	-10.48
▁fare	-10.4801
▁latest	-10.4802
▁per	-10.4803
▁inner	-10.4818
▁voices	-10.4822
▁variety	-10.4826
▁johnson	-10.4828
▁nevertheless	-10.4831
▁account	-10.4839
▁accents	-10.4844
▁commit	-10.4846
▁experiment	-10.4851
▁walks	-10.4851
▁murphy	-10.4855
▁calling	-10.4874
▁california	-10.488
▁category	-10.4882
▁path	-10.4883
▁vietnam	-10.4884
▁reporter	-10.4886
▁cell	-10.4887
▁speaks	-10.4888
▁patient	-10.4906
▁chose	-10.4909
▁largely	-10.4909
▁wake	-10.491
▁frightening	-10.4913
▁movement	-10.4916
▁rain	-10.4918
men	-10.4928
most	-10.4929
▁unlikely	-10.4932
▁proud	-10.4932
▁extraordinary	-10.494
▁conversation	-10.4942
▁touches	-10.4942
▁print	-10.4965
▁drew	-10.497
▁nurse	-10.4972
▁segment	-10.4973
▁interview	-10.4973
▁patrick	-10.4974
▁punch	-10.4984
▁profound	-10.4998
watch	-10.4998
▁remotely	-10.5005
▁suffers	-10.5008
▁deadly	-10.5016
▁holding	-10.5019
▁melodrama	-10.5028
▁eastwood	-10.5028
▁belief	-10.5032
▁blockbuster	-10.5032
▁25	-10.5039
▁handled	-10.5041
▁brooks	-10.5043
▁tight	-10.5052
▁anna	-10.5056
▁vacation	-10.5056
▁forgettable	-10.5056
▁accidentally	-10.5059
▁china	-10.5059
ment	-10.5061
▁kiss	-10.5062
▁sensitive	-10.5065
▁hanging	-10.5075
▁stereotypical	-10.5079
▁breath	-10.5086
including	-10.5087
▁).	-10.5094
▁meanwhile	-10.5102
where	-10.5113
▁quirky	-10.5115
▁birth	-10.5117
ism	-10.512
▁politics	-10.5122
▁india	-10.5139
▁amazingly	-10.5143
▁mexican	-10.515
▁demons	-10.5155
▁ludicrous	-10.5172
▁flight	-10.5172
▁roy	-10.518
▁insight	-10.5183
▁pro	-10.5187
▁learns	-10.5188
▁plans	-10.52
▁expression	-10.5201
▁trilogy	-10.5203
▁ted	-10.5206
▁santa	-10.5206
▁sir	-10.5209
▁scenario	-10.5211
▁forgot	-10.5211
▁paced	-10.5214
▁reveal	-10.5216
na	-10.5225
side	-10.5228
▁everywhere	-10.5238
▁breaking	-10.5239
▁donald	-10.524
▁bore	-10.5247
▁curse	-10.5252
▁structure	-10.5256
▁africa	-10.526
▁prior	-10.5262
▁erotic	-10.5264
▁gritty	-10.5265
▁amazed	-10.5265
▁covered	-10.5267
▁jail	-10.5281
▁shadow	-10.5285
▁killers	-10.5289
▁reputation	-10.5298
▁elizabeth	-10.5298
▁required	-10.5298
▁section	-10.5304
▁tree	-10.5305
▁lifetime	-10.5318
▁inept	-10.5321
▁dracula	-10.5324
▁mainstream	-10.5325
▁host	-10.5326
▁raw	-10.5328
▁stranger	-10.5339
▁usa	-10.5342
▁initial	-10.5344
▁surprises	-10.5353
▁security	-10.5353
▁summary	-10.5355
▁indie	-10.5362
8	-10.5377
▁repeated	-10.5381
▁narration	-10.5382
▁westerns	-10.5385
▁beast	-10.539
▁seasons	-10.5402
▁experiences	-10.5407
▁southern	-10.5411
▁execution	-10.5411
▁treasure	-10.5411
▁fulci	-10.5415
ra	-10.5416
▁term	-10.5419
let	-10.5439
▁funnier	-10.5443
▁stolen	-10.5444
▁stayed	-10.5451
▁combined	-10.5452
▁prepared	-10.5453
▁depiction	-10.5455
▁statement	-10.5456
▁multiple	-10.5472
▁stomach	-10.5473
▁focused	-10.5473
▁abandoned	-10.5477
▁buying	-10.5485
▁matters	-10.5486
▁destroyed	-10.5487
▁directly	-10.5489
▁massacre	-10.5493
▁interviews	-10.5499
▁adventures	-10.55
▁afternoon	-10.5504
▁teeth	-10.5504
▁rule	-10.5505
▁blown	-10.5509
▁mildly	-10.551
▁warned	-10.5514
▁crude	-10.552
▁mature	-10.5524
▁occasional	-10.5526
▁convinced	-10.5546
▁entertain	-10.5551
▁hood	-10.5558
▁listening	-10.5564
▁uninteresting	-10.5566
▁trapped	-10.5567
▁favorites	-10.5577
▁warn	-10.5583
▁spy	-10.5584
▁alright	-10.5598
▁express	-10.5599
▁kane	-10.5603
▁closer	-10.5605
▁campy	-10.5608
▁task	-10.561
▁pretend	-10.5611
relatively	-10.5618
▁rolling	-10.5624
ling	-10.5627
▁underground	-10.5628
except	-10.5632
▁forest	-10.5638
▁massive	-10.5649
▁julia	-10.5649
▁se	-10.5656
▁lie	-10.5656
▁obnoxious	-10.5658
▁blah	-10.566
▁format	-10.5667
▁environment	-10.5678
▁baseball	-10.5689
▁goofy	-10.569
▁sunday	-10.569
▁mickey	-10.5693
▁mistakes	-10.5694
▁originality	-10.5695
▁presents	-10.5698
▁metal	-10.5702
▁base	-10.5711
▁magical	-10.5715
▁hire	-10.5715
▁protect	-10.5731
▁separate	-10.5732
▁whoever	-10.5738
▁cheese	-10.5747
▁shut	-10.5772
▁unconvincing	-10.5774
▁remote	-10.5774
▁dozen	-10.5775
work	-10.5777
▁suffer	-10.5792
▁skill	-10.5793
▁weapons	-10.5793
▁screening	-10.5795
▁risk	-10.5797
▁imagery	-10.5814
▁understood	-10.5814
***	-10.5816
▁focuses	-10.5817
tv	-10.5824
▁kim	-10.5832
▁guide	-10.584
▁murderer	-10.5845
▁downright	-10.5847
▁luke	-10.5851
▁changing	-10.5853
▁bat	-10.5862
▁arm	-10.5864
▁roberts	-10.5866
▁flashback	-10.5866
▁balance	-10.5867
▁disagree	-10.5876
▁heavily	-10.5877
▁sum	-10.5877
▁complicated	-10.5879
▁via	-10.5883
▁tommy	-10.5884
▁san	-10.5892
▁position	-10.5901
▁halfway	-10.5911
▁flow	-10.592
▁critical	-10.5935
▁forth	-10.5936
▁paying	-10.5937
▁league	-10.5939
▁claims	-10.5941
▁legendary	-10.5941
ups	-10.5943
▁deeper	-10.5948
▁hired	-10.5952
▁pulls	-10.5958
▁device	-10.5964
▁daniel	-10.5965
▁choices	-10.5966
only	-10.5967
▁gas	-10.5976
▁status	-10.5977
dimensional	-10.598
un	-10.5982
▁plague	-10.5988
▁brave	-10.5989
▁10/10	-10.5989
▁timing	-10.6003
▁fbi	-10.6006
age	-10.6011
▁driven	-10.6027
▁lawyer	-10.6028
▁sitcom	-10.6029
ne	-10.6034
▁believes	-10.6034
ce	-10.6034
▁walter	-10.6037
▁struggling	-10.6038
▁:)	-10.6039
▁appreciated	-10.6048
▁granted	-10.6055
▁tour	-10.6056
▁scares	-10.6057
▁gruesome	-10.606
am	-10.6062
▁guest	-10.6063
▁internet	-10.6069
▁nude	-10.6071
▁plots	-10.6073
▁hip	-10.608
▁seek	-10.6083
▁colors	-10.6085
▁sword	-10.6086
▁row	-10.6086
house	-10.6088
ha	-10.6095
▁nazi	-10.61
▁hole	-10.6103
▁columbo	-10.6103
▁miller	-10.6105
▁theory	-10.6114
▁concert	-10.6124
▁assistant	-10.6126
▁contact	-10.6127
ok	-10.6131
▁serve	-10.6133
▁closing	-10.6133
▁serves	-10.614
▁dress	-10.6141
▁raised	-10.6143
▁mindless	-10.6148
▁drink	-10.6158
▁rival	-10.6161
▁racist	-10.6168
▁blair	-10.6168
▁cooper	-10.6184
▁touched	-10.6191
▁spite	-10.6199
▁ron	-10.621
▁decades	-10.6216
▁designed	-10.6219
▁facial	-10.6223
▁paint	-10.6224
▁tear	-10.6228
▁placed	-10.6229
▁dinner	-10.6231
characterization	-10.6231
▁bo	-10.6233
▁victor	-10.6234
▁lights	-10.624
▁passing	-10.6241
▁upset	-10.6242
can	-10.6242
▁inspiration	-10.6249
▁offered	-10.6254
▁code	-10.6257
▁comical	-10.6262
▁civil	-10.6265
▁everyday	-10.627
▁flash	-10.6272
▁nuclear	-10.63
▁lonely	-10.6303
▁desperately	-10.6311
▁handle	-10.6313
▁revolution	-10.6315
▁charge	-10.6315
▁snow	-10.6326
▁wwii	-10.6336
▁carried	-10.6338
called	-10.6339
▁throwing	-10.6339
▁delivery	-10.634
▁14	-10.6351
▁prevent	-10.6354
▁helen	-10.6363
▁comedian	-10.6363
▁pregnant	-10.6364
▁greater	-10.6367
▁princess	-10.6368
▁ho	-10.6377
▁effectively	-10.6387
▁versions	-10.6391
▁description	-10.6393
▁criticism	-10.6395
▁daily	-10.6398
▁learning	-10.6398
▁stupidity	-10.6401
▁drinking	-10.6415
▁sides	-10.6417
▁introduction	-10.6431
▁quest	-10.6435
ley	-10.6437
▁sarah	-10.6438
written	-10.6438
▁chuck	-10.6439
▁fabulous	-10.6457
▁storm	-10.646
▁hoffman	-10.6465
▁starred	-10.6472
▁arms	-10.6481
▁succeeds	-10.6487
▁expressions	-10.6488
▁explains	-10.649
▁susan	-10.6496
▁disbelief	-10.6498
▁reminiscen	-10.6503
):	-10.6503
▁woody	-10.651
down	-10.6525
war	-10.6526
▁ashamed	-10.6532
▁wanna	-10.6534
▁warner	-10.6535
▁ya	-10.6536
▁delight	-10.6537
▁beloved	-10.6541
▁realizes	-10.6567
▁sleeping	-10.6568
▁superman	-10.6572
▁fourth	-10.6577
style	-10.659
ey	-10.6596
▁guard	-10.6598
hearted	-10.6604
▁barry	-10.6605
▁achieve	-10.6623
▁topic	-10.6625
▁connect	-10.6626
▁bag	-10.6627
▁rush	-10.6628
▁hong	-10.6634
▁ocean	-10.6635
▁spin	-10.6637
▁buck	-10.6638
▁v	-10.6638
▁storytelling	-10.6638
▁screenwriter	-10.6644
too	-10.6647
▁laura	-10.6647
▁arrives	-10.6648
▁bollywood	-10.667
▁cultural	-10.6698
▁dear	-10.6699
▁retarded	-10.6706
9	-10.671
▁betty	-10.6711
great	-10.6715
▁pat	-10.6725
day	-10.6738
▁karen	-10.6742
▁nonetheless	-10.6742
▁cousin	-10.6742
film	-10.6743
▁dragon	-10.6745
▁solve	-10.6749
▁farm	-10.6752
▁manager	-10.6769
▁clark	-10.6771
▁extent	-10.6771
▁entry	-10.6771
▁lazy	-10.6773
▁silver	-10.6773
▁tense	-10.6773
▁oliver	-10.6776
▁intellectual	-10.6787
▁cant	-10.6788
▁broke	-10.679
▁hint	-10.6805
▁basis	-10.6806
▁related	-10.6806
▁plastic	-10.6807
▁mgm	-10.6809
▁overcome	-10.681
▁thankfully	-10.6817
▁mentally	-10.682
▁200	-10.6829
▁exceptional	-10.6835
▁tune	-10.684
▁madness	-10.6844
▁monkey	-10.6848
▁adding	-10.6854
despite	-10.6855
▁weight	-10.6864
▁medical	-10.6868
▁minds	-10.6869
▁faithful	-10.6873
▁racism	-10.6877
▁presentation	-10.6877
▁mel	-10.6881
▁mass	-10.6882
▁catherine	-10.6882
▁zone	-10.6882
▁artists	-10.6883
▁served	-10.689
▁angle	-10.6898
▁significant	-10.6903
▁flaw	-10.6906
▁rings	-10.691
▁advantage	-10.6911
▁breathtaking	-10.6911
▁authentic	-10.6911
▁embarrassed	-10.6913
▁shark	-10.6916
▁union	-10.6917
▁sold	-10.6921
▁letter	-10.6923
still	-10.6928
▁trick	-10.6928
▁enjoying	-10.693
▁throws	-10.6932
land	-10.6945
▁corrupt	-10.6948
▁freddy	-10.695
▁caine	-10.6952
▁italy	-10.6952
▁cowboy	-10.6955
▁coach	-10.6957
rated	-10.6962
▁revolves	-10.6965
ma	-10.6966
▁mirror	-10.698
▁necessarily	-10.6981
▁credible	-10.6982
▁foster	-10.6983
▁sutherland	-10.6984
▁honor	-10.6985
▁flawed	-10.6991
▁dollar	-10.6993
▁caring	-10.701
▁pet	-10.7011
▁reference	-10.7016
▁horrific	-10.7016
▁countries	-10.7017
▁gripping	-10.7018
▁pacino	-10.7019
▁17	-10.7021
spoilers	-10.7022
▁carpenter	-10.7024
▁sin	-10.7026
▁helping	-10.7027
▁properly	-10.7028
▁walker	-10.7032
▁andy	-10.7035
▁tongue	-10.7047
▁australia	-10.7049
▁credibility	-10.7052
▁franchise	-10.7052
▁striking	-10.7053
▁hardy	-10.7062
▁hundred	-10.7064
▁dare	-10.7064
▁gag	-10.7076
spoiler	-10.7078
▁attempting	-10.7087
▁guessing	-10.7087
▁multi	-10.7089
▁lloyd	-10.7091
▁sinatra	-10.7091
▁sorts	-10.7093
▁chain	-10.7098
▁brand	-10.7102
▁fairy	-10.7103
▁reveals	-10.7113
rs	-10.7124
▁sinister	-10.7124
▁gain	-10.7125
▁glass	-10.7125
▁bergman	-10.7126
▁graphics	-10.713
▁carries	-10.7135
▁chair	-10.7135
▁ninja	-10.7135
unfortunately	-10.714
▁stylish	-10.7153
▁purely	-10.7155
▁stays	-10.7157
▁answers	-10.7158
rate	-10.7162
rd	-10.7162
▁stanwyck	-10.7163
▁nine	-10.7166
▁pg	-10.7167
▁lion	-10.7173
▁succeed	-10.7182
▁bitter	-10.7192
▁shape	-10.7193
▁lovable	-10.7196
▁confusion	-10.7197
▁facts	-10.7199
here	-10.72
▁stunts	-10.7209
▁/>*	-10.7213
▁accepted	-10.7214
▁repeat	-10.7222
▁views	-10.7227
▁causes	-10.7228
▁settings	-10.7229
▁innocence	-10.7233
▁sleazy	-10.7233
▁wears	-10.7238
▁thoughts	-10.7242
▁wins	-10.7256
▁lessons	-10.7259
▁slight	-10.7262
▁criminals	-10.7265
▁dislike	-10.7267
▁controversial	-10.727
▁1940	-10.727
▁useless	-10.7287
▁los	-10.729
▁pitt	-10.7295
▁poignant	-10.7297
▁z	-10.7301
▁chilling	-10.7306
▁happiness	-10.7306
▁thief	-10.7307
▁nation	-10.7312
▁jon	-10.7313
▁thousands	-10.7324
back	-10.7324
▁challenge	-10.7341
▁boredom	-10.7343
▁cynical	-10.7343
▁nowadays	-10.7344
▁determined	-10.7348
▁greek	-10.7354
▁initially	-10.7355
because	-10.736
▁idiotic	-10.738
▁ironic	-10.7383
▁jay	-10.7391
▁pool	-10.7393
▁clips	-10.7395
▁bound	-10.7412
▁burton	-10.7419
michael	-10.7434
▁attacked	-10.744
▁combine	-10.7441
▁equal	-10.7441
▁jerk	-10.7448
▁searching	-10.7452
ta	-10.7458
ry	-10.7462
▁angels	-10.7464
▁holiday	-10.7468
▁hal	-10.7478
▁grim	-10.749
▁ultra	-10.7491
▁text	-10.7492
▁wealthy	-10.7493
▁hooked	-10.7497
▁da	-10.7501
▁shorts	-10.7507
▁bridge	-10.7517
um	-10.7518
▁fictional	-10.7522
▁tribute	-10.7528
▁bugs	-10.7533
▁silence	-10.7539
▁interpretation	-10.7544
perhaps	-10.7546
▁sh	-10.7552
▁nose	-10.7555
something	-10.7562
▁proof	-10.757
▁struggles	-10.7575
▁expert	-10.7576
▁thousand	-10.7585
▁***	-10.7596
▁deaths	-10.7596
▁ratings	-10.76
▁matrix	-10.7604
▁hbo	-10.7605
▁aired	-10.7609
▁oil	-10.7609
▁opened	-10.7611
▁strangely	-10.7619
▁tradition	-10.762
▁creation	-10.7623
▁productions	-10.7625
way	-10.7638
▁welles	-10.7651
▁worry	-10.7662
class	-10.7662
▁kennedy	-10.7678
▁notable	-10.7678
▁mexico	-10.768
▁1990	-10.768
▁attacks	-10.7681
▁fallen	-10.7682
horror	-10.7698
▁raise	-10.7708
▁convey	-10.7709
▁cameron	-10.7719
▁flynn	-10.7719
▁replaced	-10.7723
▁vincent	-10.7724
ar	-10.7725
▁marie	-10.7726
▁perfection	-10.7727
▁obsession	-10.7734
▁meaningful	-10.7738
▁homage	-10.7756
▁sexuality	-10.7757
▁lay	-10.7758
▁spoken	-10.7761
▁sings	-10.7768
▁pie	-10.7768
▁resort	-10.777
▁drives	-10.7776
▁soviet	-10.7777
ier	-10.7777
▁string	-10.7785
▁burns	-10.7786
▁stan	-10.7787
▁atmospheric	-10.7792
▁ripped	-10.7792
▁intensity	-10.7794
▁laid	-10.7797
▁lisa	-10.78
▁object	-10.7805
▁examples	-10.7816
▁marvelous	-10.7824
▁greatly	-10.7826
▁carrying	-10.783
▁khan	-10.7834
▁shines	-10.7835
▁picks	-10.7836
▁checking	-10.7838
▁exists	-10.7844
▁bobby	-10.7874
▁michelle	-10.7877
ia	-10.788
▁figures	-10.7882
▁shower	-10.7883
▁attraction	-10.789
▁technique	-10.7895
▁neighbor	-10.7895
▁weapon	-10.7896
▁bird	-10.79
▁competent	-10.7901
▁uninspired	-10.7908
▁condition	-10.7908
▁ghosts	-10.791
▁dawn	-10.7912
▁reynolds	-10.7916
▁freeman	-10.7916
▁thrilling	-10.7922
▁quote	-10.7926
▁stunt	-10.793
▁miscast	-10.7931
▁cave	-10.7934
▁rank	-10.7941
▁heist	-10.7945
▁courage	-10.7947
▁britain	-10.7947
▁jamie	-10.7954
▁mouse	-10.7955
▁consequences	-10.7959
▁upper	-10.7964
▁escapes	-10.7968
▁christ	-10.7973
▁lacked	-10.7977
▁stiff	-10.7979
▁li	-10.7984
▁competition	-10.7986
▁miserably	-10.7986
▁mummy	-10.7986
▁grey	-10.7988
▁attempted	-10.7989
▁snakes	-10.7996
▁surrounding	-10.8017
▁stealing	-10.8018
▁beer	-10.802
▁cure	-10.8021
▁bare	-10.8025
▁thirty	-10.8026
▁tarantino	-10.8027
▁matthau	-10.8028
▁enjoyment	-10.8029
▁wave	-10.803
▁tales	-10.8043
▁trial	-10.8053
▁sentimental	-10.8055
▁seeking	-10.806
▁nancy	-10.8068
▁instantly	-10.807
▁rachel	-10.807
▁blend	-10.8078
▁novels	-10.8081
▁bucks	-10.8088
▁colour	-10.8089
▁dig	-10.8094
▁aunt	-10.8095
▁birthday	-10.8105
movies	-10.8111
▁colorful	-10.8114
▁suffered	-10.8116
▁uncomfortable	-10.8144
▁sally	-10.8147
▁frequently	-10.8149
▁regardless	-10.8151
more	-10.8155
▁friendly	-10.8162
▁argue	-10.817
▁specific	-10.8172
▁bible	-10.8184
▁annoyed	-10.8186
ful	-10.8186
▁liberal	-10.8187
▁lying	-10.8187
▁notch	-10.8188
grade	-10.8191
...)	-10.8196
▁pack	-10.8201
▁lesser	-10.8207
both	-10.8215
▁oz	-10.8218
▁invisible	-10.8225
▁troubled	-10.8229
▁jessica	-10.8229
▁gotta	-10.8234
▁push	-10.8237
▁melodramatic	-10.8239
▁philip	-10.8258
▁notorious	-10.8264
▁intentions	-10.8267
▁chasing	-10.8267
▁90'	-10.8268
▁von	-10.8275
▁smoke	-10.8282
▁exercise	-10.8292
▁hundreds	-10.8294
▁appearing	-10.8295
▁outrageous	-10.8297
▁blade	-10.8301
▁alas	-10.8304
▁pulp	-10.8306
▁navy	-10.8306
▁whereas	-10.831
▁millions	-10.8312
▁performers	-10.8316
▁tied	-10.8316
▁techniques	-10.8319
▁maker	-10.8325
known	-10.8328
▁magazine	-10.8337
▁protagonists	-10.8338
its	-10.8344
▁personalities	-10.8345
▁acceptable	-10.8346
▁unforgettable	-10.8346
▁wicked	-10.8346
▁midnight	-10.8348
▁burn	-10.8348
▁basement	-10.8349
me	-10.8352
▁busy	-10.8353
such	-10.836
▁steam	-10.8364
▁card	-10.8365
▁glimpse	-10.8366
▁riding	-10.8368
▁size	-10.8372
▁45	-10.8372
▁month	-10.8375
▁imaginative	-10.8378
il	-10.838
series	-10.8381
▁relie	-10.8386
▁frankenstein	-10.8387
▁hiding	-10.8387
▁bush	-10.8388
▁aged	-10.8391
▁teach	-10.8407
▁successfully	-10.8415
▁essential	-10.842
▁connery	-10.8428
▁belongs	-10.8429
▁andrews	-10.8431
▁dancer	-10.8433
plot	-10.8446
ary	-10.8453
▁outer	-10.846
▁ensemble	-10.8467
▁library	-10.8467
▁**	-10.847
▁farce	-10.8475
▁brad	-10.8478
▁connected	-10.848
▁legs	-10.8481
▁admire	-10.8486
▁neat	-10.8487
▁scientists	-10.849
▁torn	-10.8499
▁drags	-10.8499
▁toilet	-10.8502
▁kidnapped	-10.8508
▁knife	-10.8509
▁spending	-10.851
▁loser	-10.8511
▁physically	-10.8527
▁satan	-10.8531
▁intent	-10.8541
▁cringe	-10.8542
▁hammer	-10.8542
▁closely	-10.8543
▁fortune	-10.8548
▁curiosity	-10.8549
▁border	-10.8552
▁adapted	-10.8556
ah	-10.8558
▁broadcast	-10.8565
▁identify	-10.8575
▁guts	-10.8575
▁blows	-10.8577
▁technically	-10.8582
▁baker	-10.859
▁ourselves	-10.8591
▁cardboard	-10.8592
ton	-10.8593
▁meat	-10.8593
▁arnold	-10.8594
▁stretch	-10.86
▁titles	-10.8601
▁rid	-10.8603
robert	-10.8619
▁restaurant	-10.8627
▁intention	-10.863
▁incident	-10.8631
▁tea	-10.8632
▁trite	-10.8633
▁piano	-10.8633
▁laurel	-10.8635
▁spiritual	-10.8636
▁struck	-10.8637
acting	-10.8647
▁shy	-10.8649
▁burt	-10.865
▁dealt	-10.8651
▁crafted	-10.8655
ine	-10.8657
par	-10.8669
▁fianc	-10.8672
▁critic	-10.8673
▁24	-10.8673
▁dragged	-10.8674
▁eerie	-10.8675
▁bride	-10.8675
▁mitchell	-10.8676
▁pitch	-10.8689
writer	-10.869
▁ma	-10.8691
▁jumps	-10.8694
▁minimal	-10.8703
ized	-10.8707
▁cook	-10.8707
▁horrendous	-10.8709
▁concerns	-10.8715
▁afford	-10.8716
▁chases	-10.8717
▁powell	-10.8718
▁irony	-10.8721
▁steps	-10.8746
▁eve	-10.8749
▁trail	-10.8753
▁benefit	-10.8758
▁happily	-10.876
▁cried	-10.876
▁strip	-10.8762
▁appearances	-10.8764
▁virgin	-10.877
▁freak	-10.879
▁hype	-10.8792
▁appalling	-10.8793
▁portrait	-10.8801
▁load	-10.8801
▁redemption	-10.8801
▁nelson	-10.8803
▁lugosi	-10.8805
▁dubbing	-10.8805
▁corner	-10.881
▁punk	-10.8813
▁musicals	-10.8818
▁jobs	-10.8819
boy	-10.8825
se	-10.8825
action	-10.8827
story	-10.8832
▁broad	-10.8836
▁health	-10.8841
▁stole	-10.8842
▁glory	-10.8845
▁gothic	-10.8845
▁incoherent	-10.8848
▁dave	-10.8855
▁talked	-10.886
▁trap	-10.886
mo	-10.8862
▁cameos	-10.8868
video	-10.8873
▁sexually	-10.8885
▁charisma	-10.8886
▁essence	-10.8886
▁sends	-10.8887
▁inter	-10.8898
letting	-10.8906
▁tall	-10.8912
▁packed	-10.8914
▁breasts	-10.8916
▁needless	-10.8918
▁endearing	-10.8923
▁1930	-10.8925
▁neighborhood	-10.8927
▁coast	-10.8928
▁precious	-10.893
▁suits	-10.8937
▁press	-10.8948
finally	-10.8963
▁block	-10.8971
▁chicago	-10.8972
▁lab	-10.8976
▁faced	-10.8976
▁gray	-10.8976
▁cabin	-10.8977
▁develops	-10.8978
▁fx	-10.898
▁established	-10.8981
▁hoped	-10.8982
▁poster	-10.8985
▁ken	-10.8986
▁achieved	-10.8987
▁roman	-10.8993
▁backdrop	-10.8996
existent	-10.9001
▁bin	-10.9004
▁merit	-10.9013
▁easier	-10.9016
▁pan	-10.9017
▁expensive	-10.902
▁typically	-10.9025
▁rushed	-10.9027
▁horses	-10.903
please	-10.9044
▁snake	-10.9051
two	-10.9053
liners	-10.9057
▁medium	-10.906
▁catholic	-10.9063
▁owen	-10.9065
▁elsewhere	-10.9065
▁subplot	-10.9065
▁fortunately	-10.9074
▁el	-10.9076
▁tons	-10.9085
▁emma	-10.909
▁web	-10.9094
▁definite	-10.9095
▁showcase	-10.9096
▁repetitive	-10.9102
▁godfather	-10.9105
▁opposed	-10.9106
▁larger	-10.9109
▁repeatedly	-10.9115
▁importantly	-10.9117
law	-10.9118
▁germans	-10.9118
▁hills	-10.9121
▁motivation	-10.9137
▁mc	-10.9138
▁suggests	-10.9138
▁1.	-10.9143
▁stood	-10.9148
▁mansion	-10.9148
▁cinderella	-10.9148
▁pointed	-10.9149
▁jonathan	-10.9152
▁daughters	-10.9158
▁locked	-10.9159
▁insist	-10.9162
▁creators	-10.9162
▁heat	-10.9177
▁lou	-10.9178
▁confront	-10.9181
▁hysterical	-10.9184
▁craft	-10.9187
▁threw	-10.9191
▁refuses	-10.9192
▁relevant	-10.9192
▁souls	-10.9192
▁sophisticated	-10.9193
▁bull	-10.9194
▁accused	-10.9194
▁sidney	-10.9195
▁carefully	-10.9197
▁dialogs	-10.92
▁wishes	-10.92
▁kicks	-10.9206
▁wing	-10.9207
▁grows	-10.9208
▁rogers	-10.921
ka	-10.9215
▁tricks	-10.9226
▁tremendous	-10.9227
regarding	-10.9233
▁jazz	-10.9233
▁handful	-10.9233
▁audio	-10.9235
▁guilt	-10.9237
▁clint	-10.924
▁trade	-10.9242
▁emily	-10.9243
▁winter	-10.9247
▁spoiled	-10.9253
other	-10.9256
▁thrills	-10.9257
▁commercials	-10.9269
▁2.	-10.9274
▁fifteen	-10.9279
▁resolution	-10.9279
▁horrid	-10.9279
▁wreck	-10.9282
▁hook	-10.9283
▁korean	-10.9287
▁kinds	-10.9287
▁shoes	-10.9288
▁engaged	-10.9289
▁suspects	-10.9307
▁/>(	-10.9315
▁selling	-10.9321
▁maintain	-10.9324
▁swedish	-10.9325
▁ambitious	-10.9326
▁hamlet	-10.9326
▁videos	-10.9336
▁requires	-10.9339
▁duke	-10.9341
fest	-10.9341
▁pink	-10.9346
▁stops	-10.9348
▁complaint	-10.9348
▁saves	-10.9352
▁wondered	-10.9359
▁spare	-10.9361
▁jumping	-10.9362
▁virus	-10.937
▁possessed	-10.9378
▁landscape	-10.9379
▁smoking	-10.9381
▁indians	-10.939
▁infamous	-10.939
▁relative	-10.9393
▁cia	-10.9395
▁beating	-10.9397
▁shadows	-10.9399
▁holly	-10.9406
▁pride	-10.9414
▁spike	-10.9414
▁terrifying	-10.9415
▁hopper	-10.9416
▁increasingly	-10.9416
▁reasonably	-10.9417
▁shall	-10.9419
▁ralph	-10.9419
▁response	-10.9423
▁linda	-10.9424
▁fitting	-10.9424
▁noble	-10.9424
▁fonda	-10.9425
▁mild	-10.9429
▁burning	-10.9434
▁loosely	-10.9436
▁hence	-10.9444
▁thumbs	-10.9456
▁stooges	-10.9458
▁brilliance	-10.9459
▁timeless	-10.9459
▁fancy	-10.946
▁inspector	-10.9461
▁photographer	-10.9462
▁stated	-10.9463
▁daring	-10.9464
▁sandra	-10.9466
▁spots	-10.9468
▁investigation	-10.9469
▁stinker	-10.947
▁leslie	-10.9471
end	-10.9471
▁goal	-10.9472
▁nights	-10.9473
▁split	-10.9476
▁en	-10.9481
▁carol	-10.9484
▁briefly	-10.9489
▁tortured	-10.9491
▁forgive	-10.9494
▁bell	-10.9494
▁thrillers	-10.9499
▁march	-10.9501
▁frustrated	-10.9506
▁grandfather	-10.9507
▁madonna	-10.9509
▁hudson	-10.9509
▁destruction	-10.9512
▁sneak	-10.9513
▁attracted	-10.9514
▁buff	-10.9518
▁pleasantly	-10.9519
▁highlights	-10.9527
▁noise	-10.9528
was	-10.9535
type	-10.9542
▁norman	-10.9545
▁documentaries	-10.955
▁realise	-10.9555
▁beaten	-10.9555
▁explosions	-10.9556
▁cases	-10.9557
hard	-10.9564
▁cup	-10.9568
long	-10.957
▁neck	-10.9573
▁hideous	-10.9597
▁dropped	-10.9597
▁poverty	-10.9598
▁staff	-10.9599
▁corpse	-10.9611
▁rights	-10.9618
▁insulting	-10.9618
▁twin	-10.9618
▁watches	-10.9623
▁button	-10.9623
▁0	-10.9629
▁hunting	-10.963
▁boot	-10.9635
▁raped	-10.9635
▁believing	-10.9642
▁russia	-10.9643
▁altman	-10.9644
▁drunken	-10.9644
▁angeles	-10.9645
▁altogether	-10.9645
▁translation	-10.9646
▁drivel	-10.9646
da	-10.9648
▁assassin	-10.9658
▁discovery	-10.9658
▁idiots	-10.9661
▁doll	-10.9665
▁remaining	-10.9672
▁lone	-10.9679
▁rap	-10.9681
▁swear	-10.9686
▁austen	-10.9689
▁eccentric	-10.9689
▁crisis	-10.969
▁pleased	-10.969
▁walken	-10.9691
▁lucy	-10.9695
ro	-10.9695
▁jake	-10.9696
▁finger	-10.9699
▁interaction	-10.9705
▁editor	-10.9707
▁ignored	-10.9712
▁flawless	-10.9731
▁porno	-10.9732
▁21	-10.9735
▁victoria	-10.9735
▁valley	-10.9735
▁countless	-10.9736
▁cusack	-10.9736
▁accompanie	-10.9737
▁associated	-10.974
▁encounters	-10.9747
▁funeral	-10.9747
▁threat	-10.9751
▁killings	-10.9752
▁puppet	-10.9757
▁vague	-10.9774
▁evident	-10.9774
▁mile	-10.9775
▁explicit	-10.9775
▁jealous	-10.9778
▁citizen	-10.9779
▁sport	-10.9779
▁disjointed	-10.9782
▁symbolism	-10.9782
▁celluloid	-10.9784
▁sole	-10.9785
▁attached	-10.9785
▁elderly	-10.9785
▁importance	-10.9786
▁parent	-10.9786
▁photographed	-10.9786
▁1/2	-10.9787
▁pulling	-10.9788
▁aimed	-10.9788
▁accomplished	-10.979
▁unintentionally	-10.9792
▁occur	-10.98
---	-10.9802
ter	-10.9803
▁predator	-10.9804
aka	-10.9804
▁travels	-10.981
▁disc	-10.9811
▁returning	-10.9812
iest	-10.9813
lo	-10.9821
▁spell	-10.9821
▁generous	-10.9822
rating	-10.9822
paced	-10.9822
▁iron	-10.9827
▁bleak	-10.9828
▁popcorn	-10.9829
▁lend	-10.9829
▁giallo	-10.983
▁distance	-10.983
▁carrey	-10.9832
▁surrounded	-10.9832
▁disease	-10.9833
▁bone	-10.9835
▁dinosaurs	-10.9836
▁canada	-10.9836
▁reasonable	-10.9839
▁revelation	-10.9847
▁angela	-10.9849
▁willis	-10.9851
▁strike	-10.9851
▁outcome	-10.9857
comedy	-10.9861
ho	-10.9863
▁obscure	-10.9866
▁terrorist	-10.9866
▁goodness	-10.9869
▁territory	-10.9876
▁inevitable	-10.9877
▁charismatic	-10.9877
▁rely	-10.9899
▁picking	-10.9899
▁persona	-10.9907
yet	-10.9908
iness	-10.9911
▁contract	-10.9914
▁liking	-10.9923
▁antics	-10.9924
▁wax	-10.9924
▁narrator	-10.9926
▁cared	-10.9928
▁individuals	-10.9932
▁reflect	-10.9934
▁reactions	-10.9942
▁bold	-10.9944
▁uniform	-10.9945
▁crack	-10.9947
▁revealing	-10.995
▁shoots	-10.9953
▁ward	-10.9971
▁unwatchable	-10.9971
▁carl	-10.9971
▁mario	-10.9972
▁buried	-10.9973
▁duo	-10.9975
▁intrigue	-10.9979
▁carter	-10.9979
▁hearts	-10.9982
▁dire	-10.9989
▁complain	-10.9998
▁abc	-10.9999
▁detailed	-11.0001
▁demands	-11.0001
▁che	-11.0013
▁listed	-11.0015
▁university	-11.0019
▁alexander	-11.0022
▁spooky	-11.0022
▁chest	-11.0035
▁ranks	-11.0036
▁spring	-11.0037
▁cole	-11.0039
▁sidekick	-11.004
▁diamond	-11.0042
▁tie	-11.0052
▁inspiring	-11.0055
▁2001	-11.0056
▁8/10	-11.0061
▁hanks	-11.0066
▁rural	-11.0067
▁conspiracy	-11.0068
▁pseudo	-11.0069
▁kitchen	-11.0069
▁woo	-11.0071
▁offended	-11.0072
▁overdone	-11.0075
▁50'	-11.0086
▁ridiculously	-11.0087
▁blank	-11.0093
▁continued	-11.0098
▁jo	-11.011
▁worthless	-11.0111
▁thrill	-11.0112
▁cruise	-11.0114
▁abysmal	-11.0115
▁grandmother	-11.0115
▁argento	-11.0116
▁oddly	-11.0117
▁murray	-11.0118
▁directorial	-11.0118
▁combat	-11.0119
▁randy	-11.0119
▁arrested	-11.012
▁burned	-11.0126
▁kudos	-11.0129
▁gift	-11.0129
▁wine	-11.0133
▁todd	-11.0137
▁discussion	-11.0139
▁ticket	-11.0139
▁airplane	-11.014
▁crimes	-11.0144
▁segments	-11.0156
▁tunes	-11.0157
▁oscars	-11.0159
▁causing	-11.0164
▁reunion	-11.0164
▁juvenile	-11.0164
▁sadistic	-11.0164
▁involvement	-11.0165
▁hamilton	-11.0165
▁dramas	-11.0165
▁hatred	-11.0165
▁albe	-11.0167
ner	-11.0167
▁sandler	-11.0167
▁painting	-11.0168
▁lawrence	-11.0168
▁rick	-11.0174
▁scripted	-11.0175
▁displays	-11.018
▁cd	-11.0185
▁digital	-11.0207
▁dentist	-11.0212
▁comfortable	-11.0213
▁depression	-11.0213
▁measure	-11.0227
▁hitting	-11.0227
▁achievement	-11.024
▁purchase	-11.025
▁menacing	-11.0253
▁subsequent	-11.0253
▁allowing	-11.0258
▁2000	-11.0259
▁afterwards	-11.026
▁unbelievably	-11.0261
▁meaningless	-11.0262
▁yesterday	-11.0263
▁damme	-11.0263
▁lincoln	-11.0264
▁illegal	-11.0264
▁spielberg	-11.0264
▁wrestling	-11.0265
▁hardcore	-11.0266
▁distant	-11.0266
▁duty	-11.0267
nt	-11.027
▁maria	-11.0274
▁francis	-11.0277
▁savage	-11.0278
▁hitch	-11.0282
wise	-11.0284
▁franco	-11.0284
▁iii	-11.0285
▁provid	-11.0289
▁ham	-11.0299
▁traveling	-11.0299
probably	-11.0304
▁returned	-11.0307
▁bears	-11.0307
▁2)	-11.0307
▁vicious	-11.031
▁devoid	-11.0311
▁abilities	-11.0313
▁overwhelming	-11.0314
▁extended	-11.0316
▁escaped	-11.0316
▁dorothy	-11.0317
▁tender	-11.0317
▁factory	-11.0323
▁noted	-11.0328
▁arrive	-11.0328
▁alternate	-11.0328
▁performing	-11.0345
▁slap	-11.0348
▁argument	-11.0354
▁shortly	-11.0362
▁chaos	-11.0367
▁lit	-11.0374
▁investigate	-11.0376
▁thick	-11.0377
▁glenn	-11.0379
▁preview	-11.038
▁q	-11.0383
▁newspaper	-11.0389
▁advise	-11.0395
▁clues	-11.0403
▁generic	-11.041
▁implausible	-11.041
▁glover	-11.0411
▁unbearable	-11.0411
▁temple	-11.0413
▁wallace	-11.0413
▁tracy	-11.0414
▁quinn	-11.0416
▁sadness	-11.0419
▁cliff	-11.0437
eyed	-11.0442
▁heroic	-11.0446
▁waters	-11.0448
per	-11.0459
▁blake	-11.0459
▁worried	-11.046
▁bathroom	-11.0461
▁crystal	-11.0462
▁kidding	-11.0462
▁campbell	-11.0463
▁estate	-11.0463
▁superbly	-11.0463
▁logical	-11.0464
▁derek	-11.0465
▁nazis	-11.0465
▁overlooked	-11.0467
▁amanda	-11.0468
▁clown	-11.0473
▁receive	-11.0478
▁sentence	-11.0483
▁slice	-11.0489
▁installment	-11.0489
▁strikes	-11.049
minded	-11.0501
▁resembles	-11.0501
about	-11.0505
▁trio	-11.0511
note	-11.0512
▁devoted	-11.0512
▁ireland	-11.0512
▁secretary	-11.0513
▁commented	-11.0518
?).	-11.0522
▁user	-11.0525
▁fired	-11.0526
▁pushed	-11.0528
▁su	-11.0531
▁lyrics	-11.0532
▁ned	-11.0534
▁defeat	-11.0537
▁invite	-11.0549
david	-11.0556
▁delivering	-11.0559
▁miserable	-11.0561
▁planning	-11.0561
▁synopsis	-11.0562
▁streep	-11.0564
ler	-11.0564
▁beats	-11.0565
▁childish	-11.0565
▁represents	-11.0566
▁builds	-11.0568
▁leg	-11.057
▁misses	-11.0571
▁improved	-11.0573
ty	-11.0574
▁staying	-11.0574
▁highest	-11.0577
▁pot	-11.0578
▁mate	-11.0592
▁principal	-11.0595
▁thoughtful	-11.0599
school	-11.0601
▁unpleasant	-11.0602
love	-11.0602
▁politically	-11.0604
▁psychiatrist	-11.0612
▁dedicated	-11.0613
▁disturbed	-11.0614
▁brando	-11.0617
▁luckily	-11.062
▁affected	-11.0622
▁intrigued	-11.0624
hour	-11.0627
▁di	-11.0641
▁superficial	-11.0654
▁prostitute	-11.0654
▁min	-11.0654
▁clumsy	-11.0663
▁captivating	-11.0663
▁battles	-11.0665
▁strictly	-11.0668
▁7/10	-11.0673
▁grab	-11.0676
▁ideal	-11.0687
did	-11.0692
minute	-11.0692
▁occurs	-11.0694
▁fears	-11.0695
▁link	-11.0698
bo	-11.0704
▁notably	-11.0704
▁prisoner	-11.0708
▁gentle	-11.0712
▁absence	-11.0714
▁sloppy	-11.0714
▁slightest	-11.0715
▁emperor	-11.0715
▁psychotic	-11.0716
▁penn	-11.0719
▁craig	-11.0721
▁masters	-11.0723
▁claire	-11.0723
▁rage	-11.0724
▁removed	-11.0724
▁walls	-11.0729
▁jet	-11.073
▁carrie	-11.0745
▁screw	-11.0747
▁4/10	-11.0754
▁elaborate	-11.0754
con	-11.0755
▁provoking	-11.0756
▁mo	-11.0757
ul	-11.0759
▁bug	-11.076
▁survival	-11.0763
▁buddies	-11.0765
▁calm	-11.0765
▁elvis	-11.0767
▁racial	-11.0768
▁kirk	-11.0768
▁lol	-11.0773
▁diane	-11.0774
▁turner	-11.0792
▁blues	-11.0793
▁stereotype	-11.0795
▁rat	-11.0799
fu	-11.0799
▁boll	-11.08
▁splatter	-11.0811
▁squad	-11.0817
▁mixture	-11.0817
▁junior	-11.0818
▁choreography	-11.0818
▁philosophy	-11.0818
▁producing	-11.0819
▁rendition	-11.0819
▁yellow	-11.0821
▁exaggerated	-11.0821
▁vice	-11.0822
▁margaret	-11.0823
▁stanley	-11.0823
▁depend	-11.0831
▁enters	-11.0831
▁ego	-11.0832
▁admittedly	-11.0832
▁explore	-11.0843
▁fond	-11.0848
▁(19	-11.0853
▁bottle	-11.0855
▁fatal	-11.0857
▁pants	-11.0857
▁settle	-11.0858
▁engage	-11.0858
▁performer	-11.086
▁offering	-11.0862
▁notes	-11.0862
▁harder	-11.0863
▁possibility	-11.0869
▁simplistic	-11.0869
▁poetry	-11.0869
▁inventive	-11.087
▁coffee	-11.0871
▁eighties	-11.0872
▁nearby	-11.0877
▁plant	-11.0879
▁neil	-11.0879
▁fix	-11.0881
▁classical	-11.0882
▁stronger	-11.0889
▁slick	-11.0907
▁damage	-11.091
▁smooth	-11.0914
▁vast	-11.0915
▁resemblance	-11.0922
▁exotic	-11.0923
▁curtis	-11.0923
▁eva	-11.0924
▁rocks	-11.0926
ca	-11.0929
▁pal	-11.0933
▁fighter	-11.0936
▁vegas	-11.0937
▁wannabe	-11.094
▁headed	-11.0943
▁recorded	-11.0951
▁solo	-11.096
▁urge	-11.0961
▁ruthless	-11.0961
▁splendid	-11.0966
▁fi	-11.0967
▁mtv	-11.0975
▁punishment	-11.0975
▁hollow	-11.0976
▁doors	-11.0976
▁shining	-11.0978
mon	-11.0979
▁ka	-11.0981
▁clothing	-11.0981
▁explaining	-11.0992
▁reached	-11.0995
▁staged	-11.0997
▁aka	-11.0998
ant	-11.0998
girl	-11.0999
▁sacrifice	-11.1008
▁reed	-11.1013
▁bullet	-11.1014
▁na	-11.1014
▁garden	-11.1015
▁executive	-11.1021
▁leonard	-11.1027
▁innovative	-11.1027
▁troma	-11.1027
▁mafia	-11.1028
▁cox	-11.1031
▁wont	-11.1044
title	-11.1054
▁winds	-11.1058
▁additional	-11.1063
▁cards	-11.1064
paul	-11.1068
awful	-11.1069
▁wonders	-11.107
▁terrorists	-11.107
▁errors	-11.1071
▁ear	-11.1071
▁screams	-11.1072
▁cats	-11.1076
▁occurred	-11.108
▁convoluted	-11.1081
▁arrogant	-11.1081
▁bargain	-11.1081
▁depressed	-11.1082
▁murderous	-11.1083
▁kubrick	-11.1084
▁foul	-11.1088
▁distracting	-11.1089
▁aging	-11.1095
stop	-11.1101
▁cliche	-11.1104
izing	-11.111
▁projects	-11.1111
mm	-11.1113
▁homosexual	-11.1122
▁guarantee	-11.1122
▁pearl	-11.1123
▁triumph	-11.1125
▁differences	-11.1126
▁blatant	-11.1126
▁warrior	-11.1127
▁du	-11.1128
▁conventional	-11.113
▁prepare	-11.1131
▁frost	-11.1131
done	-11.1132
▁museum	-11.1134
▁population	-11.1134
▁mistaken	-11.1134
▁norris	-11.1134
▁recognition	-11.1134
▁baldwin	-11.1136
▁proceedings	-11.1149
▁agreed	-11.1149
▁bette	-11.1151
▁buster	-11.1152
aged	-11.1155
▁existed	-11.1158
▁messages	-11.1159
im	-11.1161
▁toy	-11.1167
▁involve	-11.1168
▁justify	-11.117
▁knight	-11.1173
▁alternative	-11.1182
▁scarecrow	-11.1183
▁dinosaur	-11.1184
▁motives	-11.1187
▁bath	-11.1188
▁colonel	-11.1189
▁alert	-11.119
▁copies	-11.119
▁bates	-11.119
▁stellar	-11.1191
▁scientific	-11.1192
▁ought	-11.1198
▁1/10	-11.1205
▁influenced	-11.1212
▁recognized	-11.1213
▁secrets	-11.1214
▁areas	-11.1216
many	-11.1226
▁nail	-11.1228
▁conversations	-11.1235
▁explosion	-11.1237
▁manhattan	-11.1242
▁suspicious	-11.1242
▁isolated	-11.1243
▁beneath	-11.1243
▁versus	-11.1244
▁gradually	-11.1244
▁andrew	-11.1244
▁branagh	-11.1245
▁eaten	-11.1246
▁lifestyle	-11.1247
▁succeeded	-11.1255
▁witnessed	-11.1259
▁tonight	-11.1261
▁fooled	-11.1261
▁disappoint	-11.1263
▁brains	-11.1274
▁aid	-11.1275
▁scripts	-11.1277
▁official	-11.1282
▁shine	-11.1285
▁grasp	-11.1288
▁enormous	-11.1288
▁parallel	-11.129
▁selfish	-11.1292
▁sons	-11.1292
avoid	-11.1295
▁myers	-11.1295
▁throat	-11.1296
▁frustrating	-11.1296
▁subtlety	-11.1297
much	-11.1297
▁robbery	-11.1298
▁dignity	-11.1298
▁robinson	-11.1299
▁judging	-11.13
▁cheating	-11.1303
▁sheen	-11.1303
▁kurt	-11.1303
▁jeremy	-11.1305
▁exposed	-11.1309
▁tad	-11.131
▁represent	-11.132
▁darker	-11.1321
▁scarlett	-11.1324
▁closed	-11.1327
▁depicts	-11.1333
▁comics	-11.1334
▁lips	-11.1342
▁chicken	-11.1347
▁props	-11.1348
based	-11.1349
▁contribute	-11.135
▁enemies	-11.1351
▁unoriginal	-11.1351
▁edition	-11.1351
▁countryside	-11.1353
▁reaches	-11.1353
▁homeless	-11.1358
▁consistently	-11.1358
▁agents	-11.1367
▁bang	-11.1371
▁report	-11.1373
▁et	-11.1375
!!!!!	-11.1383
▁failing	-11.1386
▁scheme	-11.1394
▁vivid	-11.1397
▁album	-11.14
▁unintentional	-11.14
▁feed	-11.1403
again	-11.1404
▁blew	-11.1407
white	-11.1407
▁signs	-11.1408
▁shirley	-11.1409
really	-11.1411
▁titled	-11.1414
set	-11.1418
▁stark	-11.1422
▁forty	-11.1431
▁doc	-11.1442
▁website	-11.1453
▁adequate	-11.1454
▁duck	-11.1456
▁rubber	-11.1459
▁lemmon	-11.1463
▁morality	-11.1465
▁contrary	-11.1466
▁passes	-11.1466
▁decisions	-11.1469
▁covers	-11.1472
▁dust	-11.1472
▁folk	-11.1477
▁belong	-11.148
▁classes	-11.148
▁threatening	-11.1482
▁honesty	-11.1483
▁gal	-11.1491
▁gangsters	-11.1502
▁lust	-11.1505
ja	-11.1509
▁education	-11.1515
▁loads	-11.1516
james	-11.1516
▁downhill	-11.1518
▁loyal	-11.1518
▁primarily	-11.1518
▁undoubtedly	-11.1519
▁shelf	-11.1519
▁doomed	-11.1525
▁circle	-11.1525
▁huh	-11.1533
▁prisoners	-11.1536
▁holy	-11.1536
▁unfolds	-11.1536
▁35	-11.1539
▁impress	-11.1545
▁blast	-11.1545
▁marks	-11.1559
▁tank	-11.1561
▁montage	-11.157
▁contest	-11.1573
▁excruciating	-11.1573
unless	-11.1573
▁comparing	-11.1573
▁falk	-11.1573
▁garfield	-11.1573
richard	-11.1575
▁planned	-11.1575
▁immensely	-11.1576
▁tag	-11.158
▁bay	-11.1583
▁flop	-11.1584
▁notion	-11.1589
▁models	-11.1597
▁fingers	-11.1609
......	-11.1611
▁mars	-11.1612
▁widow	-11.1616
▁partly	-11.1623
▁3/10	-11.1628
▁aforementioned	-11.1628
▁formulaic	-11.163
▁trained	-11.1634
▁frankie	-11.1635
▁limits	-11.1639
▁overrated	-11.1643
▁keith	-11.1644
▁hi	-11.1653
▁josh	-11.1654
▁smaller	-11.1658
▁firm	-11.1662
▁ruins	-11.1668
▁menace	-11.1674
▁instant	-11.1677
▁masterful	-11.1678
▁companion	-11.1686
sorry	-11.1686
▁grotesque	-11.1686
▁astonishing	-11.1689
▁philosophical	-11.1689
▁describes	-11.1691
yn	-11.1694
▁officers	-11.1694
▁bullets	-11.1696
▁rabbit	-11.1701
▁2005	-11.1703
▁teaching	-11.1704
▁displayed	-11.1708
▁nightmares	-11.1712
▁trees	-11.1723
▁divorce	-11.1729
▁phil	-11.173
▁sand	-11.1733
▁tracks	-11.1738
▁square	-11.1742
▁adorable	-11.1742
▁equipment	-11.1742
▁karate	-11.1742
▁airport	-11.1743
▁journalist	-11.1744
▁bourne	-11.1745
▁satisfied	-11.1745
▁reduced	-11.1747
▁ease	-11.175
▁cake	-11.1751
▁matthew	-11.1753
▁careers	-11.1755
▁mayor	-11.1758
▁tripe	-11.1761
▁switch	-11.1762
▁tame	-11.1762
▁pushing	-11.1766
▁alfred	-11.1772
▁ears	-11.178
▁coherent	-11.1793
▁horrifying	-11.1799
▁pitiful	-11.1799
▁primary	-11.1799
▁wrapped	-11.1799
▁bruno	-11.1799
▁helicopter	-11.18
▁empire	-11.1801
ri	-11.1802
▁dynamic	-11.1802
▁chances	-11.1802
▁cheated	-11.1803
▁wore	-11.1805
night	-11.1805
▁macy	-11.1806
▁prize	-11.1806
▁workers	-11.1817
▁trashy	-11.1823
▁defend	-11.1828
▁hilariously	-11.1833
▁imagined	-11.1835
▁subplots	-11.185
▁graham	-11.1855
▁sappy	-11.1858
▁transformation	-11.1859
▁flies	-11.1859
▁edgar	-11.186
▁cinematographer	-11.186
▁shake	-11.1861
▁legal	-11.1862
▁terry	-11.1863
▁hack	-11.1869
▁similarly	-11.187
ville	-11.1875
▁photo	-11.188
any	-11.1883
▁odds	-11.1892
tom	-11.1904
▁sticks	-11.1906
▁consistent	-11.1906
▁movements	-11.1908
▁peak	-11.1912
▁florida	-11.1914
▁morris	-11.1915
▁creativity	-11.1915
▁crawford	-11.1915
▁stilted	-11.1915
▁dutch	-11.1916
▁rotten	-11.1916
▁cagney	-11.1916
▁seventies	-11.1917
▁uneven	-11.1923
▁borrowed	-11.1923
▁mode	-11.1933
▁steel	-11.1938
▁kicked	-11.1941
▁inane	-11.1943
ur	-11.1944
▁stinks	-11.1948
▁command	-11.1955
▁y	-11.1959
ably	-11.196
▁advance	-11.1966
▁embarrassment	-11.1972
▁riveting	-11.1973
▁swimming	-11.1973
▁scooby	-11.1974
▁nerd	-11.1977
▁solely	-11.1983
▁mann	-11.199
▁fields	-11.2018
▁dee	-11.202
▁improve	-11.2024
▁endure	-11.2025
▁sue	-11.2026
▁huston	-11.2031
▁illogical	-11.2031
▁nostalgia	-11.2031
▁similarities	-11.2032
▁bonus	-11.2032
▁feast	-11.2033
▁bronson	-11.2034
▁nicole	-11.2035
▁titanic	-11.2035
▁specifically	-11.2035
▁cannon	-11.2043
▁parties	-11.2047
having	-11.2051
▁mentioning	-11.2053
▁dozens	-11.2055
▁desired	-11.2062
▁cg	-11.2064
▁unit	-11.2066
▁rocket	-11.2067
▁poison	-11.2076
▁assault	-11.2085
▁recording	-11.2085
coming	-11.2088
▁absent	-11.209
▁felix	-11.209
▁fest	-11.209
▁plausible	-11.2092
▁considerable	-11.2093
▁priceless	-11.2093
▁mankind	-11.2093
▁suitable	-11.2093
▁dating	-11.2097
▁cream	-11.2099
▁presumably	-11.21
▁char	-11.2105
▁pretending	-11.2122
our	-11.2126
▁historically	-11.2128
▁method	-11.2137
▁frequent	-11.2142
▁eastern	-11.2143
▁passionate	-11.2143
▁chased	-11.2145
▁fought	-11.2149
▁progresses	-11.215
▁corman	-11.215
people	-11.2152
▁glasses	-11.2152
▁topless	-11.2157
led	-11.2171
▁moody	-11.2172
once	-11.2176
▁survived	-11.2182
▁blond	-11.2184
▁suited	-11.2185
▁introduces	-11.2187
▁developing	-11.219
▁psychic	-11.2203
▁practice	-11.2206
▁vengeance	-11.2208
▁counter	-11.2209
▁gentleman	-11.221
▁griffith	-11.221
▁tyler	-11.2212
▁martha	-11.2214
▁subjects	-11.2214
▁rita	-11.2218
▁constructed	-11.2219
▁awake	-11.2224
▁gate	-11.2246
esque	-11.2247
▁ingredients	-11.2247
▁emphasis	-11.2251
▁groups	-11.2254
▁closet	-11.2265
▁advertising	-11.2269
▁poetic	-11.2269
▁nostalgic	-11.2269
▁twelve	-11.227
▁barney	-11.2271
▁turkish	-11.2271
laughably	-11.2273
▁composed	-11.2273
▁survivors	-11.2274
▁drawing	-11.2274
▁catches	-11.2274
▁disappeared	-11.2277
▁butler	-11.2277
▁portion	-11.2278
▁elephant	-11.228
▁sullivan	-11.2281
▁lucas	-11.2281
▁explored	-11.2282
▁pays	-11.2285
▁ranger	-11.229
les	-11.2292
▁contained	-11.2299
▁dimensional	-11.2301
▁discuss	-11.2301
▁del	-11.2302
▁shirt	-11.2303
these	-11.2308
▁lately	-11.2312
▁convincingly	-11.2315
▁chuckle	-11.2315
▁financial	-11.232
▁transform	-11.232
▁romp	-11.2328
▁sleaze	-11.2328
▁safety	-11.2329
▁challenging	-11.2329
▁circus	-11.2329
▁address	-11.2329
▁chainsaw	-11.233
▁perry	-11.233
▁mason	-11.2331
▁doom	-11.2335
ps	-11.2336
▁nomination	-11.2343
▁earned	-11.2345
▁guessed	-11.2346
▁brutally	-11.2355
▁resemble	-11.2357
going	-11.2359
▁beg	-11.2362
▁mountains	-11.2369
▁strangers	-11.237
▁wished	-11.237
actually	-11.237
face	-11.2375
▁dolls	-11.2377
▁ties	-11.2377
▁alike	-11.2378
▁pressure	-11.2381
▁mysteries	-11.239
▁garbo	-11.2391
▁harvey	-11.2395
▁ruth	-11.2395
▁sincere	-11.2397
▁reflection	-11.2401
▁ironically	-11.2402
acted	-11.2407
▁adams	-11.2409
▁prey	-11.2415
▁annie	-11.2417
▁suggested	-11.2428
▁rocky	-11.2432
▁centre	-11.2436
▁slave	-11.2437
▁replace	-11.2439
▁opinions	-11.2441
▁confess	-11.2441
ted	-11.2445
▁capturing	-11.245
▁crucial	-11.2451
▁nicholson	-11.2451
nothing	-11.2456
▁underly	-11.2457
▁avoided	-11.2461
▁furthermore	-11.2463
▁operation	-11.2466
▁relation	-11.2467
▁faster	-11.2467
▁pig	-11.247
▁bite	-11.2476
▁gear	-11.248
▁progress	-11.2481
▁damned	-11.2485
▁newman	-11.2487
are	-11.2489
ated	-11.2492
▁relations	-11.2497
▁fed	-11.2503
▁intimate	-11.2504
▁crisp	-11.2511
▁understated	-11.2511
▁banned	-11.2511
▁mistress	-11.2512
▁leo	-11.2512
▁pen	-11.2513
▁thru	-11.2513
▁bullock	-11.2514
cing	-11.2517
directed	-11.2519
▁careful	-11.2519
town	-11.252
without	-11.2523
▁purchased	-11.2526
▁rebel	-11.2528
▁gus	-11.253
▁painted	-11.2533
▁awe	-11.256
▁useful	-11.2565
▁wealth	-11.2569
climactic	-11.2572
▁taught	-11.2573
▁dreary	-11.2573
▁destiny	-11.2573
▁corruption	-11.2574
▁creep	-11.2574
▁sixties	-11.2575
jack	-11.2576
▁grudge	-11.2576
▁twilight	-11.2576
▁exchange	-11.2576
▁warmth	-11.2577
▁quaid	-11.2577
▁alcoholic	-11.2581
▁boom	-11.2582
▁occasion	-11.2588
▁lowest	-11.2591
▁runner	-11.2592
▁quit	-11.2594
▁thugs	-11.2595
▁ross	-11.2602
▁puppets	-11.2612
▁harm	-11.2616
along	-11.2617
▁jaw	-11.2625
▁elegant	-11.2629
▁spoke	-11.2633
▁asylum	-11.2636
▁inappropriate	-11.2636
▁samurai	-11.2637
▁deny	-11.2641
since	-11.2641
▁dimension	-11.2641
▁waited	-11.2647
▁guitar	-11.2649
▁trailers	-11.265
▁spider	-11.2653
▁ian	-11.2656
▁transition	-11.2656
▁phrase	-11.2656
▁staring	-11.2668
▁obtain	-11.2671
▁borrow	-11.2675
▁electric	-11.2679
▁jaws	-11.268
▁burst	-11.2685
▁disappear	-11.2693
red	-11.2695
▁responsibility	-11.2698
▁valuable	-11.2698
▁appreciation	-11.2698
▁illness	-11.27
▁harold	-11.2702
▁karloff	-11.2704
▁senseless	-11.2708
▁anyways	-11.2709
▁davies	-11.271
▁frustration	-11.2714
▁seeks	-11.2716
ring	-11.2717
▁channels	-11.2717
▁remained	-11.2721
▁nut	-11.2723
head	-11.2724
▁crush	-11.2726
▁rolled	-11.2729
▁justin	-11.2732
▁tap	-11.274
▁spacey	-11.274
▁react	-11.2743
der	-11.2754
▁greed	-11.2758
▁incompetent	-11.2758
▁gut	-11.2759
▁irrelevant	-11.2761
▁unsettling	-11.2761
▁phony	-11.2761
▁passable	-11.2763
▁cassavetes	-11.2764
▁futuristic	-11.2764
▁revolutionary	-11.2765
▁deliberately	-11.2767
▁floating	-11.2768
drama	-11.2769
comprehensible	-11.2772
▁muppet	-11.278
▁panic	-11.2794
▁bridges	-11.2795
▁marty	-11.2804
▁twins	-11.2804
▁hung	-11.2808
▁concentrate	-11.2812
dr	-11.2814
que	-11.2814
▁amounts	-11.2818
▁9/10	-11.2822
▁minimum	-11.2824
▁traffic	-11.2824
part	-11.2825
▁watson	-11.2826
▁kingdom	-11.2826
▁global	-11.2827
▁cancer	-11.2827
▁phantom	-11.2827
▁jeffrey	-11.2828
▁doug	-11.2829
▁wound	-11.2831
▁wandering	-11.2835
▁directs	-11.2837
than	-11.2838
▁arrived	-11.2839
▁superhero	-11.2839
▁1)	-11.2842
▁solution	-11.2843
▁communist	-11.285
▁ali	-11.2867
▁resist	-11.2871
▁package	-11.2876
▁nervous	-11.2878
▁motivations	-11.2879
▁wishing	-11.2883
mr	-11.2884
▁desperation	-11.2888
▁bumbling	-11.2888
▁hokey	-11.2888
▁tiresome	-11.2888
▁miniseries	-11.2888
▁nyc	-11.2888
▁carradine	-11.2889
▁soccer	-11.2889
▁wacky	-11.289
▁marshall	-11.2891
▁dread	-11.2894
▁wounded	-11.2897
▁yelling	-11.2898
▁affection	-11.2903
▁checked	-11.2904
▁buildings	-11.291
key	-11.2915
▁dialogues	-11.2923
▁ignorant	-11.2943
▁blowing	-11.2946
real	-11.2949
▁misery	-11.2952
▁fever	-11.2952
▁possibilities	-11.2952
▁civilization	-11.2953
▁access	-11.2954
▁educational	-11.2954
▁secondary	-11.2956
▁christie	-11.2956
▁demand	-11.2956
▁leigh	-11.2957
▁rising	-11.2964
▁understandable	-11.2965
▁outfit	-11.2965
▁introduce	-11.2967
▁proceeds	-11.297
▁overacting	-11.2971
▁conceived	-11.2972
▁lock	-11.2974
▁hart	-11.2976
sh	-11.2977
▁pete	-11.298
-13	-11.2985
▁redeem	-11.299
▁ca	-11.2993
▁beliefs	-11.3005
▁mute	-11.3007
▁excessive	-11.3008
▁premiere	-11.3008
▁hints	-11.3008
▁eager	-11.301
look	-11.3012
▁nuts	-11.3013
▁hartley	-11.3016
second	-11.3017
▁1999	-11.3019
ge	-11.302
hero	-11.3024
▁reel	-11.3029
▁correctly	-11.3039
▁drops	-11.3043
▁armed	-11.3051
▁attend	-11.3056
▁threaten	-11.3059
▁behave	-11.3061
▁buffs	-11.3063
▁corn	-11.3063
▁cleverly	-11.3072
▁owe	-11.3078
▁gabriel	-11.3081
▁niro	-11.3081
▁romero	-11.3083
▁betrayal	-11.3083
▁spock	-11.3083
▁facing	-11.3083
▁descent	-11.3084
▁stevens	-11.3084
▁scope	-11.3086
faced	-11.309
handed	-11.3091
ya	-11.3092
▁forms	-11.3092
▁dancers	-11.3093
▁vaguely	-11.3093
▁handed	-11.3093
▁saga	-11.3097
▁aussie	-11.3103
▁lily	-11.3105
▁stress	-11.312
core	-11.3122
▁tourist	-11.3132
▁remove	-11.3138
▁artificial	-11.3139
▁royal	-11.3141
▁pit	-11.3144
▁amazon	-11.3146
▁patience	-11.3146
▁remarkably	-11.3147
▁inferior	-11.3147
▁boxing	-11.3148
▁francisco	-11.3148
▁lo	-11.3151
▁glorious	-11.3151
▁defense	-11.3151
▁underworld	-11.3152
▁carmen	-11.3154
okay	-11.3155
▁realizing	-11.3155
▁charlotte	-11.3155
▁gifted	-11.3159
▁species	-11.316
▁spread	-11.3163
▁guests	-11.3163
▁exceptionally	-11.3163
▁prejudice	-11.3165
▁mighty	-11.3178
▁promised	-11.3178
▁treats	-11.318
▁ah	-11.3186
▁satisfy	-11.3196
▁lasted	-11.3205
▁patients	-11.3205
ko	-11.3207
▁jordan	-11.3209
▁mundane	-11.3212
▁behaviour	-11.3212
▁enthusiasm	-11.3212
▁travesty	-11.3212
▁nbc	-11.3212
▁bedroom	-11.3213
▁edgy	-11.3213
▁shaw	-11.3214
▁teaches	-11.3214
▁celebrity	-11.3214
▁smiling	-11.3214
▁kitty	-11.3215
▁invasion	-11.3215
▁heartbreaking	-11.3217
▁commander	-11.3218
▁weakest	-11.3219
take	-11.3222
before	-11.3223
▁catchy	-11.3236
▁catching	-11.3238
▁joined	-11.3242
▁wrap	-11.3242
thriller	-11.3247
▁map	-11.3249
▁greatness	-11.326
▁despair	-11.3262
▁expose	-11.3267
cut	-11.3272
▁equivalent	-11.3278
▁arrival	-11.3279
▁craven	-11.3279
▁widmark	-11.3281
▁orange	-11.3282
▁daddy	-11.3284
▁aaron	-11.3284
▁warren	-11.3285
▁experimental	-11.3289
▁represented	-11.3292
▁nolan	-11.3294
▁awhile	-11.3295
▁jews	-11.33
▁quotes	-11.3302
▁cow	-11.3304
▁ensues	-11.3304
▁musicians	-11.3312
▁mi	-11.3312
▁bam	-11.3314
▁donna	-11.3314
▁dis	-11.3318
▁marketing	-11.3318
▁gather	-11.3323
▁chicks	-11.3325
ending	-11.3326
▁relatives	-11.3329
▁interact	-11.3335
▁suspend	-11.3336
▁alcohol	-11.3339
▁humble	-11.3344
▁belushi	-11.3345
▁sarandon	-11.3345
▁exorcist	-11.3345
▁authority	-11.3346
▁holocaust	-11.3346
▁literature	-11.3346
▁definition	-11.3347
▁spaghetti	-11.3347
▁uplifting	-11.3347
▁popularity	-11.3347
▁vulnerable	-11.3348
▁gere	-11.335
▁comfort	-11.3356
▁*****	-11.3357
▁transfer	-11.3362
ke	-11.3362
▁expressed	-11.3367
▁conditions	-11.337
▁trademark	-11.3375
▁composer	-11.3376
▁milk	-11.3384
ened	-11.3386
▁dame	-11.3401
▁online	-11.3401
▁rude	-11.3403
▁severe	-11.3409
ities	-11.3412
▁loneliness	-11.3412
▁stale	-11.3413
▁plight	-11.3413
▁tomorrow	-11.3413
▁triangle	-11.3413
▁crossing	-11.3414
▁wagon	-11.3417
▁exposure	-11.3417
▁define	-11.3418
▁maid	-11.3418
▁berlin	-11.3419
▁depicting	-11.3423
brazil	-11.3423
▁landing	-11.3425
▁lift	-11.343
▁claimed	-11.3434
▁complaining	-11.3435
▁attitudes	-11.3436
make	-11.3445
▁boris	-11.3446
▁4.	-11.3455
guy	-11.3458
▁generations	-11.3468
▁angst	-11.3475
▁deranged	-11.348
▁exploration	-11.348
▁testament	-11.348
▁wisdom	-11.348
▁household	-11.3481
▁foxx	-11.3481
▁ritter	-11.3483
▁eats	-11.3483
▁biography	-11.3483
▁comedians	-11.3486
▁hates	-11.3488
ex	-11.3492
▁agrees	-11.3494
▁worker	-11.3498
▁imitation	-11.3512
▁tribe	-11.3513
ba	-11.3516
▁maniac	-11.3517
▁tasteless	-11.3524
▁musician	-11.353
▁discovering	-11.3534
shot	-11.3538
▁unfair	-11.354
(..	-11.3541
di	-11.3544
▁dirt	-11.3545
art	-11.3547
▁flair	-11.3548
▁compelled	-11.3548
▁barrymore	-11.3548
▁property	-11.3548
▁unhappy	-11.3549
▁thompson	-11.3549
▁'70	-11.355
▁austin	-11.3551
▁forbidden	-11.3552
▁questionable	-11.3552
▁2004	-11.3553
▁unreal	-11.3554
▁messed	-11.3555
▁affect	-11.3555
▁taxi	-11.3555
▁marion	-11.3558
provoking	-11.356
sure	-11.3574
ny	-11.3576
best	-11.3579
▁conservative	-11.3585
▁pray	-11.3599
▁bones	-11.36
istic	-11.3602
▁pale	-11.3606
▁roller	-11.3607
▁paranoia	-11.3615
▁profanity	-11.3616
▁mayhem	-11.3616
▁simultaneously	-11.3617
▁bands	-11.3618
▁astounding	-11.3618
▁wives	-11.3619
▁scottish	-11.3619
▁stack	-11.362
▁conrad	-11.362
▁assigned	-11.3623
▁june	-11.3623
▁citizens	-11.3627
▁riot	-11.363
particularly	-11.363
▁spark	-11.363
▁aim	-11.3632
peter	-11.3633
▁les	-11.3638
▁cannibal	-11.3641
▁rome	-11.3643
▁campaign	-11.3649
▁overlook	-11.3654
▁genres	-11.3654
▁awfully	-11.3654
▁programme	-11.3655
▁neo	-11.3656
▁scores	-11.3659
▁climb	-11.366
▁jackass	-11.3661
▁wildly	-11.3661
▁drove	-11.3661
▁clip	-11.3661
▁polish	-11.3663
▁robots	-11.3666
▁kicking	-11.3676
▁respected	-11.3676
ever	-11.368
▁integrity	-11.3685
▁construction	-11.3686
▁centers	-11.3686
▁petty	-11.3686
▁tramp	-11.3686
▁backgrounds	-11.3687
▁3000	-11.3687
▁purple	-11.3687
▁muddled	-11.3687
▁joel	-11.3688
▁enterprise	-11.3688
▁'80	-11.3689
▁chess	-11.369
▁ernest	-11.3692
▁matches	-11.3693
wife	-11.3696
▁fashioned	-11.3697
▁washed	-11.3697
▁closest	-11.3701
▁mis	-11.3706
▁faults	-11.371
▁divine	-11.3716
▁favour	-11.372
▁chapter	-11.3726
▁hippie	-11.3729
▁slaughter	-11.3729
ance	-11.3738
▁virginia	-11.3741
▁secretly	-11.3744
▁velvet	-11.375
▁simplicity	-11.3755
▁abusive	-11.3755
▁corporate	-11.3755
▁bunny	-11.3755
▁egyptian	-11.3755
▁cruelty	-11.3755
▁writes	-11.3756
▁april	-11.3757
▁orders	-11.376
▁unaware	-11.376
ck	-11.3765
ious	-11.377
▁showdown	-11.3775
▁loaded	-11.3776
▁neighbors	-11.3781
▁birds	-11.3781
▁challenged	-11.3781
▁heap	-11.3781
▁acid	-11.3784
▁hoot	-11.3785
▁wire	-11.3786
worthy	-11.3788
▁sale	-11.3791
▁region	-11.3791
▁miracle	-11.3796
▁complaints	-11.3811
▁letters	-11.3813
▁hopeless	-11.3824
▁weather	-11.3824
▁manipulative	-11.3825
▁femme	-11.3825
▁nonsensical	-11.3825
▁clueless	-11.3825
▁fascinated	-11.3826
▁spain	-11.3826
world	-11.3828
▁assassination	-11.3828
▁retired	-11.3829
▁fisher	-11.3829
▁kyle	-11.383
▁dylan	-11.3832
▁patricia	-11.3837
▁aids	-11.3838
ee	-11.384
▁masses	-11.3842
▁waves	-11.3847
▁disliked	-11.3848
▁cube	-11.385
▁trend	-11.386
▁namely	-11.386
stars	-11.3862
▁mail	-11.3875
▁spit	-11.3879
▁bud	-11.3883
▁virtual	-11.3887
▁marvel	-11.3895
▁surviving	-11.3895
▁heartwarming	-11.3896
ber	-11.3896
▁complexity	-11.3897
▁1995	-11.3898
▁mill	-11.3899
▁stranded	-11.3899
▁ginger	-11.3899
▁maggie	-11.39
▁jacket	-11.39
▁greedy	-11.39
▁timothy	-11.3901
▁colin	-11.3906
▁ellen	-11.3909
▁advanced	-11.3911
▁promises	-11.3911
▁mall	-11.3913
▁reader	-11.3923
▁heston	-11.3925
▁raises	-11.3928
▁rod	-11.393
▁pursuit	-11.3934
▁balls	-11.3936
▁cope	-11.3939
right	-11.3942
ten	-11.3942
▁cameras	-11.3952
▁bow	-11.3953
▁methods	-11.3956
▁parade	-11.3962
▁julian	-11.3964
▁voyage	-11.3965
▁silliness	-11.3966
▁las	-11.3966
▁unpredictable	-11.3966
▁minister	-11.3966
▁visible	-11.3967
▁harmless	-11.3969
▁conan	-11.3969
▁witnesses	-11.3969
▁arguably	-11.3971
▁meryl	-11.3972
▁intentionally	-11.3976
▁stumbled	-11.3978
makers	-11.398
▁enhance	-11.3981
▁refused	-11.3982
almost	-11.3984
▁jewel	-11.399
▁ww	-11.3992
▁widely	-11.3996
q	-11.3998
▁jumped	-11.3999
den	-11.4008
▁coincidence	-11.401
▁wong	-11.4012
▁reaching	-11.4015
▁domestic	-11.4017
▁juliet	-11.4021
▁meg	-11.4027
ize	-11.4029
▁distinct	-11.4029
▁prom	-11.4035
▁stunned	-11.4037
▁lackluster	-11.4038
▁straightforward	-11.4038
think	-11.4039
▁grainy	-11.404
▁dresses	-11.404
▁refer	-11.4042
▁lip	-11.4045
▁beware	-11.4046
▁spirits	-11.4047
▁cuba	-11.4047
big	-11.4053
george	-11.4053
▁worn	-11.4056
king	-11.4057
▁unfold	-11.4058
▁sink	-11.4071
every	-11.4079
▁iraq	-11.408
▁addiction	-11.408
▁heading	-11.4082
▁simpson	-11.4084
▁dud	-11.4085
▁vera	-11.4087
▁creator	-11.4091
▁ol	-11.4092
▁golf	-11.4092
▁babe	-11.4096
▁rooms	-11.4098
▁monk	-11.4099
▁amy	-11.4103
▁coat	-11.4104
▁toys	-11.4105
▁accuracy	-11.4109
▁hughes	-11.411
▁hyde	-11.4117
▁diana	-11.4119
never	-11.412
▁polished	-11.4122
▁surfing	-11.4124
funny	-11.4124
everything	-11.4126
▁ape	-11.4127
▁lively	-11.4129
▁realised	-11.4134
▁objects	-11.4139
▁abused	-11.4141
▁debate	-11.4141
▁require	-11.4146
wing	-11.4148
▁sometime	-11.4151
▁metaphor	-11.4156
▁crocodile	-11.4159
get	-11.4163
▁recommendation	-11.4164
▁icon	-11.4176
▁schlock	-11.4177
▁stiller	-11.4179
▁miyazaki	-11.4182
▁venice	-11.4182
▁fantasies	-11.4183
▁cities	-11.4183
▁rooney	-11.4184
▁couch	-11.4184
▁seldom	-11.4185
▁static	-11.4187
currently	-11.4189
▁harrison	-11.4191
▁shore	-11.4195
▁hurts	-11.4197
will	-11.4197
▁resources	-11.4201
▁lands	-11.4204
▁sara	-11.4205
▁willie	-11.4211
▁gap	-11.4219
ive	-11.4226
▁roof	-11.4226
▁agenda	-11.4227
▁likewise	-11.423
▁disappears	-11.4233
▁noises	-11.4234
▁occasions	-11.4236
ng	-11.424
▁pops	-11.4241
▁pursue	-11.4242
▁venture	-11.4243
▁ensure	-11.4245
▁accompany	-11.4255
▁activities	-11.4255
▁ignorance	-11.4255
▁kapoor	-11.4255
▁dysfunctional	-11.4255
▁distribution	-11.4256
▁sunshine	-11.4256
▁drake	-11.4257
▁brooklyn	-11.4257
ily	-11.4258
▁kenneth	-11.4261
▁raymond	-11.4263
▁natalie	-11.4263
▁jesse	-11.4264
▁molly	-11.4264
▁invited	-11.4271
motion	-11.4272
▁3.	-11.4274
▁sung	-11.4275
▁label	-11.4276
▁shoulder	-11.4278
▁bean	-11.4279
▁apes	-11.4284
▁detract	-11.4287
▁conflicts	-11.4288
▁encourage	-11.4295
▁addict	-11.4297
▁predict	-11.4301
▁improvement	-11.4303
▁corpses	-11.4305
▁filler	-11.4308
▁yard	-11.4316
▁casual	-11.432
▁hunters	-11.4322
▁attorney	-11.4328
▁northern	-11.4328
▁barker	-11.4329
▁tacky	-11.4331
▁sunny	-11.4332
▁fifth	-11.4334
▁robbins	-11.4338
▁moronic	-11.4344
▁dickens	-11.4344
▁sa	-11.4345
production	-11.4345
▁pun	-11.4347
▁spirited	-11.4355
▁rex	-11.4363
▁exit	-11.4365
▁ordered	-11.4375
▁remarks	-11.4388
▁posted	-11.4388
▁sounding	-11.4389
▁moron	-11.4394
▁darn	-11.4401
▁globe	-11.4402
▁companies	-11.4402
▁supply	-11.4403
▁dreck	-11.4403
▁snl	-11.4403
▁insipid	-11.4403
▁investigating	-11.4404
▁wardrobe	-11.4404
▁babies	-11.4406
▁nemesis	-11.4406
▁misleading	-11.4407
▁choreographed	-11.4412
▁biased	-11.4412
▁businessman	-11.4413
▁carey	-11.4419
▁policeman	-11.442
▁claude	-11.4424
▁troops	-11.4425
▁rear	-11.4428
besides	-11.443
▁val	-11.4441
▁23	-11.4445
▁objective	-11.4446
▁document	-11.4447
lan	-11.445
▁relax	-11.4452
▁vein	-11.4457
▁labor	-11.4472
▁preposterous	-11.4477
▁technicolor	-11.4477
▁describing	-11.4477
▁deaf	-11.4478
▁godzilla	-11.448
▁bernard	-11.4481
▁bogart	-11.4481
▁antonio	-11.4482
▁secondly	-11.4487
▁losers	-11.4488
▁hungry	-11.4488
▁warriors	-11.449
▁purposes	-11.4494
▁capital	-11.4496
▁dances	-11.4504
▁1980'	-11.451
▁accurately	-11.451
▁repeating	-11.4514
▁positively	-11.4532
headed	-11.4534
kin	-11.4535
▁assure	-11.4536
▁dim	-11.4538
▁guards	-11.4551
▁compassion	-11.4551
▁wretched	-11.4552
▁shoddy	-11.4552
▁miike	-11.4552
▁niece	-11.4552
▁primitive	-11.4552
▁demise	-11.4552
▁hindi	-11.4554
▁astaire	-11.4555
▁1972	-11.4556
▁elvira	-11.4558
▁tastes	-11.4558
▁steer	-11.4558
▁affairs	-11.4559
▁net	-11.4561
▁nicholas	-11.4564
▁hank	-11.4564
▁sits	-11.4567
god	-11.4574
▁---	-11.4577
▁/>***	-11.4585
▁wig	-11.4588
▁dump	-11.4603
▁origin	-11.4606
▁tail	-11.4609
▁carlos	-11.461
▁visiting	-11.461
▁statue	-11.461
▁promote	-11.4612
▁exceptions	-11.4613
▁wizard	-11.4613
▁resulting	-11.4618
▁suffice	-11.4621
▁photos	-11.4622
▁flee	-11.4622
▁ny	-11.4625
▁mar	-11.4625
▁inconsistent	-11.4628
▁choppy	-11.4628
▁vulgar	-11.4629
▁widescreen	-11.4629
▁fifty	-11.4631
▁unlikeable	-11.4632
▁preachy	-11.4632
▁kramer	-11.4632
▁stuart	-11.4633
▁shouting	-11.4636
▁severely	-11.4637
▁bravo	-11.4637
▁newly	-11.4638
▁wilder	-11.4639
▁reeves	-11.4645
ut	-11.4646
▁2007	-11.4657
bar	-11.4662
▁doctors	-11.4677
▁marine	-11.4677
▁pa	-11.468
▁representation	-11.4683
▁filth	-11.4702
▁empathy	-11.4704
▁dalton	-11.4705
ad	-11.4705
▁bettie	-11.4706
▁fifties	-11.4706
▁biblical	-11.4707
▁passengers	-11.4708
▁travolta	-11.4709
▁voight	-11.4709
▁snipes	-11.4709
▁liners	-11.4709
▁rusty	-11.471
▁ethnic	-11.4711
▁bust	-11.4711
ray	-11.4713
▁clock	-11.4715
▁lifted	-11.4715
▁amused	-11.4715
▁mac	-11.4718
▁lengthy	-11.4722
unlike	-11.4727
▁em	-11.4729
▁knocked	-11.473
▁defined	-11.4732
▁cary	-11.4739
▁doo	-11.4741
▁differently	-11.4741
▁visits	-11.4755
▁supported	-11.4756
▁seed	-11.4759
▁confrontation	-11.4762
▁landscapes	-11.4766
▁rave	-11.4769
▁communicate	-11.477
▁experiments	-11.4776
▁/>1.	-11.478
▁profession	-11.478
os	-11.478
▁fluff	-11.4781
▁insanity	-11.4781
▁banal	-11.4781
▁unlikable	-11.4781
▁goldberg	-11.4782
▁loyalty	-11.4782
▁underwater	-11.4783
▁analysis	-11.4783
▁beatty	-11.4784
▁monty	-11.4785
▁uwe	-11.4787
low	-11.4789
▁explores	-11.4801
▁dropping	-11.4807
speaking	-11.4807
▁receives	-11.4811
id	-11.4823
▁leon	-11.4827
▁styles	-11.4831
▁desires	-11.4843
▁tunnel	-11.4845
▁thread	-11.4848
▁narrow	-11.4851
▁clone	-11.4852
▁derivative	-11.4859
▁myth	-11.4859
▁nightclub	-11.486
▁demented	-11.486
▁conscience	-11.4861
▁brosnan	-11.4862
▁undead	-11.4862
▁invented	-11.4862
▁lang	-11.4862
ball	-11.4864
▁poker	-11.4865
▁sucker	-11.4867
▁ballet	-11.4868
▁insightful	-11.4871
▁jill	-11.4872
▁generated	-11.4878
ni	-11.4879
▁simpsons	-11.4887
▁ram	-11.4892
▁bela	-11.4893
being	-11.4894
▁randomly	-11.4899
▁referr	-11.4905
wood	-11.4907
▁bitch	-11.4909
▁someday	-11.491
▁collect	-11.4912
ship	-11.492
▁champion	-11.4922
▁tiger	-11.4922
▁viewings	-11.4922
▁modest	-11.4926
▁active	-11.4933
▁compete	-11.4937
▁buffalo	-11.4937
▁literary	-11.4937
▁pierce	-11.4937
▁steady	-11.4938
▁lunch	-11.4938
▁beard	-11.494
▁difficulties	-11.494
▁ruby	-11.4942
▁inaccurate	-11.4943
▁acclaimed	-11.4943
▁sandy	-11.4944
▁playboy	-11.4945
mark	-11.4946
▁completed	-11.4949
dead	-11.495
▁crazed	-11.495
▁scifi	-11.4951
▁teachers	-11.4951
▁lifeless	-11.4952
▁overlong	-11.4953
▁drinks	-11.4953
▁roots	-11.4954
▁route	-11.4955
▁pe	-11.4956
ga	-11.4968
▁rates	-11.4971
mostly	-11.4982
▁/>2.	-11.4986
▁inspire	-11.4991
▁hearted	-11.4993
▁disgrace	-11.4998
▁vomit	-11.4999
▁blunt	-11.5007
▁delicate	-11.5007
▁pour	-11.5011
▁shell	-11.5012
▁surgery	-11.5016
▁entitled	-11.5016
▁dawson	-11.5017
▁dunne	-11.5018
▁syndrome	-11.5018
▁recycled	-11.5019
▁precisely	-11.5021
▁witches	-11.5021
check	-11.5021
▁breed	-11.5021
su	-11.5024
▁kathy	-11.5025
▁salman	-11.5026
▁wholly	-11.5029
▁caricature	-11.5032
▁counts	-11.5032
▁inject	-11.5036
▁sid	-11.5038
read	-11.5039
▁cheek	-11.5041
plus	-11.5042
▁sums	-11.5044
▁chooses	-11.5044
▁fist	-11.5049
▁signed	-11.5054
quite	-11.5055
hi	-11.5056
▁pin	-11.5061
▁hop	-11.5061
▁evolution	-11.5062
▁interactions	-11.5067
▁spiral	-11.5073
your	-11.5075
-1	-11.5081
▁psychopath	-11.5081
▁winters	-11.5081
▁destroying	-11.5083
▁ambition	-11.5084
▁gender	-11.5087
▁merits	-11.5088
▁keen	-11.509
▁shoe	-11.509
▁shed	-11.5091
▁adaptations	-11.5095
▁fascination	-11.5095
▁hackneyed	-11.5095
▁grief	-11.5095
▁gibson	-11.5095
▁shaky	-11.5095
▁lush	-11.5095
▁gentlemen	-11.5096
▁hilarity	-11.5096
▁walt	-11.5098
▁olivier	-11.5098
▁judy	-11.5099
▁crashes	-11.5099
▁fay	-11.51
▁controlled	-11.5103
▁restored	-11.5103
▁hopelessly	-11.5104
▁lauren	-11.5108
▁realm	-11.5108
▁bump	-11.5111
▁damon	-11.5113
▁sen	-11.5114
bottom	-11.5119
yeah	-11.5119
ak	-11.5119
dvd	-11.5121
list	-11.5121
ised	-11.5124
▁hello	-11.5125
▁ko	-11.5136
▁chills	-11.5136
▁limit	-11.5139
▁machines	-11.514
▁demonstrates	-11.514
▁outfits	-11.5148
▁sending	-11.5149
hand	-11.5161
▁rifle	-11.5164
▁retain	-11.5166
▁pages	-11.5167
▁adolescent	-11.5167
▁poem	-11.517
▁imaginable	-11.5175
▁montgomery	-11.5175
▁simmons	-11.5175
▁marked	-11.5176
▁columbia	-11.5176
▁mildred	-11.5177
▁releases	-11.5177
william	-11.5177
▁apply	-11.5178
▁snowman	-11.5178
▁modesty	-11.518
▁beverly	-11.518
▁apocalypse	-11.5185
mouth	-11.5199
notch	-11.5201
▁appropriately	-11.5202
▁lean	-11.5204
▁earl	-11.5205
▁quietly	-11.5207
ped	-11.5211
have	-11.5213
hara	-11.5214
han	-11.5215
▁phillips	-11.5219
▁voted	-11.522
▁2/10	-11.5224
▁danes	-11.5232
▁shared	-11.5234
▁lure	-11.5235
▁saint	-11.5241
▁internal	-11.5243
▁cue	-11.5243
watching	-11.5243
▁skull	-11.5246
▁sweat	-11.5247
▁ambiguous	-11.5247
▁predecessor	-11.5247
▁survivor	-11.5248
▁salt	-11.525
▁credited	-11.5251
▁mum	-11.5251
▁muslim	-11.5251
▁strain	-11.5255
▁opportunities	-11.5256
▁basketball	-11.5256
▁sang	-11.5256
▁mitchum	-11.5256
▁hallmark	-11.5256
▁macho	-11.5256
▁homer	-11.5257
▁quentin	-11.5257
▁voodoo	-11.5257
▁orleans	-11.5258
▁busey	-11.5258
▁adopted	-11.526
ization	-11.5262
▁startling	-11.5262
▁located	-11.5264
▁loy	-11.5265
fetched	-11.5281
length	-11.5281
20	-11.5286
▁fog	-11.5286
bill	-11.5287
ron	-11.53
▁jan	-11.5302
▁suspens	-11.5304
▁items	-11.5306
▁designs	-11.5308
▁muppets	-11.5311
▁dealer	-11.5313
bi	-11.5314
▁shift	-11.5316
▁latin	-11.5318
▁swim	-11.5326
▁nephew	-11.5326
▁motorcycle	-11.5326
▁option	-11.5329
▁selection	-11.5329
▁translate	-11.5329
▁pad	-11.533
▁samuel	-11.5332
▁uh	-11.5333
▁significance	-11.5337
▁dillon	-11.5337
▁scotland	-11.5337
▁exposition	-11.5337
▁kidnapping	-11.5337
▁exploring	-11.5338
▁inevitably	-11.5338
▁russo	-11.5338
▁costello	-11.5338
▁legacy	-11.5338
▁farmer	-11.5338
▁paxton	-11.5339
▁unseen	-11.5342
▁troubles	-11.5342
▁shaking	-11.5342
▁butcher	-11.5344
moving	-11.5345
▁pirate	-11.5348
▁demanding	-11.5357
▁kidman	-11.536
black	-11.5363
spiring	-11.5365
▁mama	-11.5366
▁unexpectedly	-11.5367
▁previews	-11.5371
▁challenges	-11.5388
▁swing	-11.5389
cast	-11.54
▁skits	-11.5401
▁faint	-11.5402
▁gems	-11.5404
▁shoulders	-11.5406
▁showtime	-11.5406
▁monkeys	-11.5407
▁wings	-11.5408
▁sublime	-11.5411
▁abrupt	-11.5411
▁prequel	-11.5413
▁pi	-11.5415
▁yawn	-11.5415
▁mutant	-11.5415
▁grass	-11.5415
▁sergeant	-11.5419
lin	-11.542
▁walsh	-11.542
▁clooney	-11.5421
▁odyssey	-11.5421
▁inexplicably	-11.5421
▁obligatory	-11.5421
▁vain	-11.5422
▁jaded	-11.5422
▁wagner	-11.5422
▁deceased	-11.5422
▁richardson	-11.5424
▁snuff	-11.5424
▁rejected	-11.5426
▁auto	-11.5427
▁agency	-11.5432
▁screwed	-11.5434
▁inability	-11.5437
▁kay	-11.544
▁regarded	-11.545
▁ranch	-11.5462
▁info	-11.5466
maker	-11.5467
▁shorter	-11.5473
▁delve	-11.5474
▁puzzle	-11.5481
▁heroin	-11.5483
▁tin	-11.5487
run	-11.5494
▁conviction	-11.5494
mer	-11.5497
▁quarter	-11.5498
▁pattern	-11.5499
▁camcorder	-11.5502
▁cemetery	-11.5502
▁devastating	-11.5502
▁boston	-11.5502
▁bounty	-11.5503
▁frightened	-11.5504
▁flashes	-11.5505
ttp	-11.5505
▁edit	-11.5505
▁debbie	-11.5507
▁behold	-11.5507
▁caliber	-11.5508
ned	-11.5509
▁hugh	-11.5512
ular	-11.5513
▁function	-11.5513
▁guaranteed	-11.5519
▁penny	-11.552
▁spine	-11.5521
ham	-11.5522
▁sellers	-11.5542
▁alec	-11.5554
www	-11.5555
▁crawl	-11.5568
▁trivial	-11.557
▁heights	-11.5575
▁alley	-11.5576
▁ingenious	-11.5576
▁exquisite	-11.5577
▁sugar	-11.5577
▁eternal	-11.5579
▁matched	-11.558
▁cookie	-11.558
▁compliment	-11.5582
▁hostage	-11.5583
▁immature	-11.5585
▁heartfelt	-11.5585
▁morbid	-11.5586
▁psychology	-11.5586
▁brutality	-11.5586
▁injured	-11.5587
▁unexplained	-11.5587
▁jarring	-11.5587
▁jenny	-11.5587
▁terminator	-11.5587
▁flavor	-11.5587
▁historic	-11.5587
▁deleted	-11.5588
▁standout	-11.5589
▁canceled	-11.5591
▁vince	-11.5592
▁disgusted	-11.5595
▁vastly	-11.5598
▁boxer	-11.5601
▁mins	-11.5603
held	-11.5613
▁freaks	-11.5619
thank	-11.5621
▁assumed	-11.5625
▁youngest	-11.5629
▁joey	-11.5631
light	-11.5632
new	-11.5636
▁elevate	-11.5638
come	-11.5648
used	-11.565
▁resident	-11.5654
▁sketch	-11.5655
▁rangers	-11.5655
▁er	-11.5659
▁refuse	-11.566
▁decline	-11.566
▁reluctant	-11.5661
▁immediate	-11.5661
▁demonic	-11.5662
▁th	-11.5669
▁provocative	-11.5669
▁chorus	-11.5669
▁suburban	-11.5669
://	-11.5669
▁belt	-11.5671
▁danish	-11.5671
▁gi	-11.5671
▁furious	-11.5672
▁respectable	-11.5673
▁sydney	-11.5674
▁olivia	-11.5674
▁leather	-11.5674
▁remade	-11.5674
▁racing	-11.5676
▁rendered	-11.5677
▁morals	-11.5682
▁transformed	-11.5682
▁melting	-11.5684
▁thrilled	-11.5685
▁22	-11.5689
▁flag	-11.5692
▁pc	-11.5693
▁artsy	-11.5695
▁specially	-11.5696
seriously	-11.57
▁sooner	-11.5701
▁sincerely	-11.5701
▁strings	-11.5705
▁messy	-11.5715
▁presenting	-11.5723
▁studying	-11.573
▁akin	-11.5733
che	-11.5741
▁bully	-11.5751
▁topics	-11.5752
▁glance	-11.5753
▁frog	-11.5753
▁glaring	-11.5754
▁deniro	-11.5754
▁identical	-11.5754
▁senior	-11.5754
▁ripping	-11.5754
▁hilton	-11.5754
▁perception	-11.5754
▁toronto	-11.5755
▁harbor	-11.5756
▁continually	-11.5756
▁preferred	-11.5756
▁seymour	-11.5756
▁paradise	-11.5757
▁motive	-11.5759
▁confidence	-11.5759
car	-11.576
▁bros	-11.576
▁designer	-11.5761
▁ships	-11.5761
▁millionaire	-11.5762
▁independence	-11.5764
▁stopping	-11.5764
▁99	-11.5764
▁rupert	-11.5765
▁1930'	-11.5769
▁wheel	-11.577
▁bars	-11.5774
▁rats	-11.5776
▁filmmaking	-11.578
those	-11.5784
ble	-11.5805
▁enjoys	-11.581
▁mock	-11.5811
▁disgust	-11.5814
mi	-11.5817
fire	-11.5819
▁ace	-11.5827
▁adore	-11.5827
▁2002	-11.583
▁embrace	-11.5832
▁judgment	-11.5838
▁verhoeven	-11.5839
▁hopkins	-11.5839
▁lambert	-11.5839
▁subtly	-11.584
▁unrelated	-11.584
▁skeleton	-11.584
▁considerably	-11.584
▁kline	-11.5841
▁cab	-11.5841
▁september	-11.5841
▁hayes	-11.5841
▁piper	-11.5841
▁gorilla	-11.5842
▁hyper	-11.5843
▁earn	-11.5843
▁ronald	-11.5843
▁frozen	-11.5843
▁partially	-11.5843
▁mormon	-11.5843
▁glowing	-11.5846
▁hulk	-11.5846
▁respectively	-11.5849
▁weakness	-11.585
▁bread	-11.5852
▁minus	-11.5854
▁....	-11.5864
▁beatles	-11.5864
▁poke	-11.5866
▁arab	-11.587
▁symbolic	-11.5873
ence	-11.5874
▁christians	-11.5875
▁3-	-11.5875
▁concepts	-11.5887
▁setup	-11.5891
▁attract	-11.5901
▁centered	-11.5905
play	-11.5906
▁stumbles	-11.5909
▁raj	-11.5912
▁accomplish	-11.5914
vi	-11.5916
▁prominent	-11.5917
▁199	-11.5917
▁posters	-11.5923
▁feat	-11.5925
▁gambling	-11.5925
▁examination	-11.5926
▁underneath	-11.5926
▁celebration	-11.5926
▁misguided	-11.5926
▁rambo	-11.5926
▁contribution	-11.5928
▁paramount	-11.5928
▁roommate	-11.5928
▁helpless	-11.5929
▁thrust	-11.5929
▁assuming	-11.5932
▁rapidly	-11.5933
▁denzel	-11.5934
▁resolved	-11.5936
▁edie	-11.5938
▁downey	-11.5939
▁logan	-11.5941
▁translated	-11.5942
▁reported	-11.5943
worth	-11.5949
▁stare	-11.5952
▁devices	-11.5952
ben	-11.5955
room	-11.5955
▁dose	-11.5962
gi	-11.5965
▁rhythm	-11.5973
▁filling	-11.5991
mar	-11.5994
▁rises	-11.5994
▁minded	-11.6002
▁marrie	-11.6005
▁respective	-11.6005
▁iv	-11.6006
▁elevator	-11.6012
▁eternity	-11.6012
▁mercy	-11.6012
▁receiving	-11.6012
▁destination	-11.6012
▁ollie	-11.6012
▁automatically	-11.6013
▁belle	-11.6013
▁acceptance	-11.6013
▁1997	-11.6013
▁elite	-11.6013
▁sharing	-11.6014
▁gypsy	-11.6015
▁befriends	-11.6015
▁devito	-11.6015
▁polanski	-11.6016
▁instinct	-11.6017
▁volume	-11.6017
▁pleasing	-11.6017
▁institution	-11.6017
▁hammy	-11.6017
▁gadget	-11.6018
▁sailor	-11.602
▁raising	-11.6022
▁victory	-11.6025
▁barrel	-11.6029
▁stretched	-11.6036
▁greg	-11.6037
ette	-11.604
▁cheer	-11.6041
▁separated	-11.6046
▁stroke	-11.6046
▁fright	-11.6051
▁industrial	-11.6053
▁kissing	-11.6058
tempted	-11.6072
▁dressing	-11.6077
rent	-11.608
▁shares	-11.608
jo	-11.6082
▁sustain	-11.6091
▁dismal	-11.6092
▁sanders	-11.6099
▁cohen	-11.61
▁engrossing	-11.61
▁peculiar	-11.61
▁embark	-11.61
▁misfortune	-11.61
▁montana	-11.61
▁palace	-11.61
▁amusement	-11.61
▁bacon	-11.61
▁duvall	-11.61
▁terrified	-11.61
▁studies	-11.61
▁shopping	-11.6101
▁authorities	-11.6101
▁grinch	-11.6101
▁python	-11.6102
▁razor	-11.6102
io	-11.6103
▁smell	-11.6103
▁stallone	-11.6105
▁slip	-11.6107
▁youtube	-11.6108
▁hats	-11.611
▁vital	-11.6111
▁altered	-11.6112
▁afterward	-11.6112
▁attacking	-11.6113
▁1984	-11.6113
era	-11.6115
▁outline	-11.6116
▁boyle	-11.6117
▁cons	-11.6118
▁serving	-11.6119
▁masterpieces	-11.6127
▁grabs	-11.6128
▁bon	-11.6131
▁irene	-11.6136
▁visited	-11.6137
▁charged	-11.6138
▁deserted	-11.6144
▁scratch	-11.6147
▁towers	-11.6149
▁upside	-11.6154
chi	-11.6157
actors	-11.6158
▁arrest	-11.6163
▁backwards	-11.6164
▁taped	-11.6166
▁planes	-11.6169
bu	-11.6169
last	-11.6172
.......	-11.6183
▁disguise	-11.6184
▁axe	-11.6185
▁eagle	-11.6189
▁spree	-11.6189
▁spout	-11.619
▁wilderness	-11.619
▁weaknesses	-11.619
▁sentiment	-11.619
▁continuing	-11.6191
▁whale	-11.6192
▁stream	-11.6192
▁houses	-11.6192
▁jess	-11.6192
▁lethal	-11.6193
forward	-11.6196
▁disregard	-11.6198
▁christina	-11.6201
▁billed	-11.6203
▁shortcomings	-11.6206
▁addicted	-11.621
▁nails	-11.621
▁august	-11.6213
▁nun	-11.6229
▁owned	-11.6231
ard	-11.6233
▁habit	-11.6234
ana	-11.6241
▁populate	-11.6245
anne	-11.6249
▁tube	-11.6255
▁dictator	-11.6266
▁foolish	-11.627
▁eh	-11.6271
▁dates	-11.6274
▁buzz	-11.6274
▁intentional	-11.6274
▁phenomenon	-11.6278
▁vibrant	-11.6278
▁euro	-11.6278
▁clay	-11.6279
▁thieves	-11.6279
▁claustrophobic	-11.6281
▁macbeth	-11.6281
▁deserving	-11.6282
▁imp	-11.6282
▁speeches	-11.6282
▁crown	-11.6284
▁vocal	-11.6287
▁principle	-11.6287
▁healthy	-11.6288
▁regards	-11.6294
▁limp	-11.6294
▁mechanical	-11.6295
▁entered	-11.6309
▁tool	-11.6312
away	-11.6313
filled	-11.6313
▁beside	-11.6321
ass	-11.6326
▁egg	-11.6328
instead	-11.6329
▁pole	-11.633
▁singers	-11.6332
▁couples	-11.6336
▁idol	-11.6342
▁pause	-11.6345
▁alter	-11.6345
▁height	-11.6351
▁tip	-11.6351
▁wander	-11.6352
field	-11.6353
▁introduc	-11.6355
▁slim	-11.6357
▁kumar	-11.6364
▁swallow	-11.6364
▁ghetto	-11.6368
▁bloom	-11.6368
▁eleven	-11.6368
▁rampage	-11.6368
▁wright	-11.6368
▁copied	-11.6369
▁energetic	-11.6369
▁shatner	-11.637
▁sympathize	-11.637
▁breakdown	-11.637
▁novak	-11.6371
▁grateful	-11.6372
▁glued	-11.6373
▁warden	-11.6374
ial	-11.6374
▁abruptly	-11.6377
▁coke	-11.6383
▁informative	-11.6384
▁bike	-11.6384
▁intro	-11.6386
proving	-11.6387
▁expectation	-11.6387
▁tit	-11.6389
▁helpful	-11.639
▁101	-11.6391
▁assured	-11.6392
▁county	-11.6393
▁span	-11.6397
▁surroundings	-11.6397
▁2003	-11.6411
apart	-11.6412
▁morally	-11.6413
▁framed	-11.6417
▁difficulty	-11.6419
▁finn	-11.6422
cha	-11.6424
hey	-11.6428
et	-11.643
▁resembl	-11.6434
▁surf	-11.645
▁farrell	-11.6456
▁visions	-11.6457
▁warming	-11.6458
▁commenting	-11.6459
po	-11.6459
▁expedition	-11.6459
▁lavish	-11.6459
▁pacific	-11.6459
▁tcm	-11.6459
▁anticipation	-11.6459
▁departure	-11.6459
▁czech	-11.6459
▁dallas	-11.6459
▁unsatisfying	-11.6459
▁repulsive	-11.6459
▁indication	-11.6459
▁haines	-11.6459
)...	-11.6459
▁potter	-11.6459
▁comprehend	-11.646
▁rainbow	-11.646
▁frontier	-11.6461
▁swayze	-11.6461
▁siblings	-11.6461
▁sopranos	-11.6461
▁housewife	-11.6463
▁bonnie	-11.6463
▁errol	-11.6463
▁gerard	-11.6465
▁curly	-11.6466
▁ethan	-11.6466
▁bu	-11.6467
▁wesley	-11.6467
▁persons	-11.6469
▁brady	-11.6469
▁suggestion	-11.6471
▁flashy	-11.6472
▁ne	-11.6473
book	-11.6473
▁natives	-11.6473
▁/>3.	-11.6475
▁hooker	-11.6477
▁enhanced	-11.6479
▁dumber	-11.6482
ru	-11.649
▁belly	-11.6492
▁paintings	-11.6504
▁reflects	-11.6511
▁conventions	-11.6515
▁owners	-11.6515
▁ja	-11.6517
▁asia	-11.6523
▁nerves	-11.6525
ise	-11.6529
▁avid	-11.6532
▁masks	-11.6532
cause	-11.6535
▁females	-11.6537
▁confuse	-11.6539
▁criticize	-11.6539
lu	-11.654
▁confirm	-11.6541
▁fortunate	-11.6543
▁ba	-11.655
▁descend	-11.655
▁meal	-11.655
▁mesmerizing	-11.6551
▁netflix	-11.6551
▁vile	-11.6551
▁screwball	-11.6551
▁sho	-11.6551
▁recognizable	-11.6552
▁rebellious	-11.6552
▁casino	-11.6552
▁hayworth	-11.6554
▁orson	-11.6554
▁punches	-11.6554
▁mencia	-11.6555
▁gable	-11.6561
▁victorian	-11.6563
▁caper	-11.6563
▁blatantly	-11.6565
▁spectacle	-11.6567
▁portrayals	-11.6568
▁servant	-11.6568
does	-11.6571
toole	-11.6576
produced	-11.6586
jean	-11.6588
fashioned	-11.6589
▁lance	-11.6591
▁disco	-11.6591
▁forgiven	-11.6593
▁daniels	-11.6595
▁entering	-11.6605
▁tooth	-11.6607
▁deer	-11.6609
name	-11.6624
▁phenomenal	-11.6635
▁ants	-11.6636
▁supreme	-11.6637
▁!!	-11.6637
▁layers	-11.6639
human	-11.6641
▁fierce	-11.6643
▁definitive	-11.6643
▁neurotic	-11.6643
▁scariest	-11.6643
▁hapless	-11.6644
▁clan	-11.6644
▁residents	-11.6645
▁bulk	-11.6645
▁leap	-11.6645
▁caution	-11.6645
▁chopped	-11.6645
▁waitress	-11.6645
▁promotion	-11.6646
▁cushing	-11.6646
referred	-11.6647
▁activity	-11.6647
▁arch	-11.6647
▁imaginary	-11.6648
▁mixing	-11.6648
▁fury	-11.6648
▁minority	-11.6649
▁grip	-11.665
dy	-11.665
▁diner	-11.6651
▁jealousy	-11.6652
▁tomb	-11.6654
▁employed	-11.6657
▁9/11	-11.6657
▁/>4/10	-11.6658
▁bowl	-11.6658
▁fatale	-11.6659
▁consideration	-11.6659
▁error	-11.666
▁evidently	-11.6664
▁discussing	-11.6668
▁sitcoms	-11.6669
▁connections	-11.6669
▁sticking	-11.6672
▁cliches	-11.6677
▁trace	-11.6684
▁reminder	-11.6689
▁computers	-11.6693
▁evans	-11.6695
▁answered	-11.6699
▁oldest	-11.6699
▁immortal	-11.67
▁fade	-11.6706
▁palm	-11.6708
▁cleaning	-11.671
▁flower	-11.6712
▁der	-11.6713
▁roth	-11.6713
▁rehash	-11.6719
▁eventual	-11.6729
▁rapid	-11.6729
▁examine	-11.673
▁radical	-11.673
▁cents	-11.6732
▁clash	-11.6736
▁admirable	-11.6737
▁jersey	-11.6737
▁insurance	-11.6738
▁mentality	-11.6738
▁hybrid	-11.6739
sen	-11.6739
▁christine	-11.6743
▁convicted	-11.6744
▁akshay	-11.6745
▁handling	-11.6745
ent	-11.6747
▁rides	-11.6748
▁peck	-11.6749
▁caricatures	-11.675
▁engineer	-11.6751
destined	-11.6754
▁painter	-11.6758
▁remark	-11.6758
▁biker	-11.6758
10	-11.6762
▁refers	-11.6771
oo	-11.6776
▁cheerful	-11.6782
▁mates	-11.6784
▁records	-11.6785
▁stumble	-11.6787
▁kar	-11.6787
▁vi	-11.6791
▁israel	-11.6792
scene	-11.6797
▁fuller	-11.6799
▁emerges	-11.6806
▁iq	-11.6808
▁boasts	-11.6809
▁drift	-11.6809
▁glen	-11.6816
may	-11.6817
▁launch	-11.6822
▁races	-11.6822
▁cassidy	-11.6831
▁unsuspecting	-11.6831
▁custer	-11.6831
▁darwin	-11.6831
▁/>7/10	-11.6831
woman	-11.6831
▁tolerable	-11.6831
▁palance	-11.6831
▁sarcastic	-11.6831
▁1939	-11.6832
▁medieval	-11.6832
▁visconti	-11.6832
▁absurdity	-11.6833
▁cobra	-11.6833
▁disabled	-11.6834
▁undercover	-11.6834
▁incest	-11.6834
▁rice	-11.6838
▁goodbye	-11.684
▁woeful	-11.6841
▁erika	-11.6842
▁arc	-11.6844
▁yep	-11.6846
▁rainy	-11.6846
▁possession	-11.6849
▁dilemma	-11.6849
▁cyborg	-11.6854
▁survives	-11.6858
▁feminist	-11.6859
▁trials	-11.686
har	-11.6867
▁cameraman	-11.6869
apparently	-11.687
▁um	-11.6873
▁ke	-11.6876
ir	-11.6877
highly	-11.6877
▁longest	-11.688
▁dana	-11.6881
▁abandon	-11.69
▁beth	-11.6901
▁symbol	-11.6902
ger	-11.6905
▁leno	-11.691
▁betray	-11.6916
▁coward	-11.6919
▁anytime	-11.6921
▁des	-11.6922
▁fundamental	-11.6926
▁pfeiffer	-11.6926
▁duration	-11.6926
▁armstrong	-11.6926
▁despicable	-11.6926
▁tomatoes	-11.6927
▁preston	-11.6927
▁affleck	-11.6928
▁rochester	-11.6928
▁naughty	-11.6928
▁ponyo	-11.6931
▁entirety	-11.6931
▁tossed	-11.6932
▁homicide	-11.6934
▁gregory	-11.6934
▁romeo	-11.6934
▁han	-11.6934
▁highway	-11.6936
▁eugene	-11.6937
▁assignment	-11.6944
▁abraham	-11.6945
▁biopic	-11.6945
▁skit	-11.6946
▁1983	-11.6946
▁divorced	-11.6947
▁passage	-11.6948
▁soup	-11.6949
▁foundation	-11.6951
▁outright	-11.6959
▁ritual	-11.6963
driven	-11.6967
▁conveys	-11.697
▁bombs	-11.6972
▁enthusiastic	-11.6972
▁bio	-11.6973
thanks	-11.6974
▁doubts	-11.6976
▁carell	-11.6983
▁1000	-11.6985
▁fishing	-11.6992
▁spice	-11.6999
ran	-11.7007
▁garner	-11.7013
▁disastrous	-11.7014
▁intricate	-11.7014
▁!!!	-11.7016
▁qualify	-11.7022
later	-11.7023
▁ricci	-11.7025
▁trigger	-11.7025
▁publicity	-11.7026
▁rope	-11.7026
▁brainless	-11.7027
▁brooding	-11.7027
▁spencer	-11.7029
▁limitations	-11.7038
playing	-11.7041
▁submarine	-11.7042
▁stairs	-11.7043
▁spade	-11.7044
▁switched	-11.7047
▁casey	-11.7052
next	-11.7064
▁noah	-11.7068
▁cracking	-11.7068
ff	-11.7073
▁pushe	-11.7081
▁prop	-11.7084
▁pam	-11.7094
▁2:	-11.7094
▁mega	-11.7099
▁nominations	-11.7101
▁ch	-11.7104
▁shades	-11.7106
▁tapes	-11.7107
▁goat	-11.711
▁thunder	-11.7111
▁strict	-11.7111
▁accounts	-11.7114
▁echo	-11.7119
▁controversy	-11.7119
▁monroe	-11.7119
▁jury	-11.712
▁wipe	-11.712
▁overbearing	-11.7121
▁ustinov	-11.7121
▁traits	-11.7121
▁mccoy	-11.7121
▁gilbert	-11.7123
▁egypt	-11.7123
▁uncut	-11.7124
▁infected	-11.7125
▁rosemary	-11.7125
▁isolation	-11.7126
▁satirical	-11.7127
▁selected	-11.7127
▁sixth	-11.7129
▁cycle	-11.713
▁ghoulies	-11.7131
▁conclude	-11.7133
▁handles	-11.7135
▁chat	-11.7136
▁linked	-11.7137
hair	-11.7139
▁gimmick	-11.714
▁gained	-11.7145
▁depends	-11.7146
▁louise	-11.7147
ki	-11.7149
▁ark	-11.7155
has	-11.7158
winning	-11.7162
az	-11.7168
▁emerge	-11.7171
▁lowe	-11.7172
point	-11.7178
▁wounds	-11.7186
▁interestingly	-11.7199
▁wanders	-11.7206
eye	-11.7208
▁unimaginative	-11.7209
▁obsessive	-11.7212
▁elm	-11.7213
▁sickening	-11.7214
▁sensible	-11.7218
▁vcr	-11.7218
▁istanbul	-11.7218
▁scrooge	-11.7218
▁authenticity	-11.7218
▁wal	-11.7218
▁exploit	-11.7219
▁deputy	-11.7219
▁escaping	-11.7219
▁galaxy	-11.7219
▁diverse	-11.7219
▁reward	-11.7219
▁preminger	-11.722
▁streisand	-11.7221
▁sherlock	-11.7222
▁jam	-11.7222
▁brenda	-11.7223
▁samantha	-11.7223
▁bent	-11.7223
▁july	-11.7225
▁audition	-11.7226
▁ashley	-11.7226
▁gloria	-11.7228
▁moses	-11.7229
pe	-11.7229
▁palma	-11.723
▁mentions	-11.7231
▁attended	-11.7232
▁legends	-11.7232
▁je	-11.7232
▁justified	-11.7238
▁votes	-11.7241
▁explosive	-11.7243
▁morons	-11.7246
little	-11.7246
▁colours	-11.7247
▁endlessly	-11.725
▁1979	-11.7253
▁duel	-11.7253
▁nerve	-11.7254
▁endings	-11.7256
▁cbs	-11.7259
▁sales	-11.7259
indulgent	-11.726
▁balanced	-11.7261
▁remakes	-11.7264
sadly	-11.7265
etc	-11.7268
▁claiming	-11.7274
fully	-11.7283
▁hides	-11.7284
▁inherent	-11.7285
▁nod	-11.7286
▁holm	-11.7289
▁applaud	-11.729
▁pimp	-11.7291
▁fools	-11.7291
▁liv	-11.7293
▁psyche	-11.7299
▁conquer	-11.73
▁register	-11.7309
▁approaching	-11.7313
▁flood	-11.7315
▁bishop	-11.7317
▁championship	-11.7317
▁mannerisms	-11.7317
▁breakfast	-11.7317
▁pathos	-11.7317
▁medicine	-11.7317
▁1982	-11.7318
▁paranoid	-11.7318
▁adaption	-11.7319
▁gundam	-11.7319
▁haunt	-11.7319
▁coppola	-11.732
▁hepburn	-11.732
▁homosexuality	-11.732
▁ingrid	-11.732
▁clive	-11.7321
▁valentine	-11.7321
min	-11.7322
▁stefan	-11.7322
▁artwork	-11.7322
▁locals	-11.7325
▁rewarding	-11.7333
ze	-11.7334
▁doris	-11.7335
▁inhabitants	-11.7336
▁stores	-11.7339
thing	-11.7343
▁delighted	-11.7344
▁distraction	-11.7344
▁disorder	-11.7345
▁candidate	-11.7345
▁chi	-11.7346
▁factors	-11.7349
ster	-11.735
▁jar	-11.7352
▁cooking	-11.7355
▁formed	-11.7357
▁breast	-11.7359
cheek	-11.736
rock	-11.7361
▁norm	-11.7362
▁readers	-11.7364
▁inspirational	-11.7368
▁coupled	-11.7375
▁queens	-11.7379
▁lighter	-11.7385
▁rational	-11.7387
▁fulfill	-11.7391
/10	-11.7392
tic	-11.7409
▁likeable	-11.741
▁firstly	-11.7416
▁subtext	-11.7417
▁eyre	-11.7417
▁aircraft	-11.7417
▁reagan	-11.7417
▁1988	-11.7418
▁malone	-11.7418
▁laurence	-11.7419
▁restrained	-11.7419
▁romanian	-11.7419
▁downfall	-11.7419
▁booth	-11.7419
▁madsen	-11.7419
▁wang	-11.742
▁horny	-11.7421
▁dexter	-11.7421
▁reliable	-11.7422
▁avoiding	-11.7422
▁depict	-11.7422
▁swept	-11.7424
▁wider	-11.7424
▁paulie	-11.7425
▁coma	-11.7426
▁funding	-11.7427
▁cannes	-11.7429
▁programs	-11.7429
▁disguised	-11.7435
pre	-11.7436
▁click	-11.7436
▁mud	-11.744
▁coup	-11.7442
▁swamp	-11.7443
▁turd	-11.7448
▁rang	-11.7449
▁freaking	-11.7455
▁drab	-11.7456
▁token	-11.7456
▁tactics	-11.746
child	-11.746
everyone	-11.7463
▁critique	-11.747
▁cap	-11.7471
mann	-11.7474
▁informed	-11.7474
▁nations	-11.7482
▁pounds	-11.7482
▁5.	-11.7488
▁smack	-11.7491
▁depths	-11.7492
▁render	-11.7493
▁establish	-11.7496
ston	-11.7505
▁geek	-11.7507
▁wash	-11.7509
▁convenient	-11.7511
▁aboard	-11.7514
▁russians	-11.7515
▁sf	-11.7516
▁possess	-11.7517
▁pedestrian	-11.7518
▁physics	-11.7518
▁paltrow	-11.7518
▁dubious	-11.7518
▁kurtz	-11.7518
▁(!)	-11.7518
▁grandma	-11.7519
▁exploding	-11.752
▁inexplicable	-11.752
▁basinger	-11.752
▁shepherd	-11.752
▁firing	-11.752
▁stella	-11.7521
▁karl	-11.7523
▁depardieu	-11.7523
▁/>10/10	-11.7525
▁kansas	-11.7525
▁approaches	-11.7525
▁randolph	-11.7526
▁realities	-11.7528
▁freaky	-11.7529
▁amitabh	-11.7532
▁frat	-11.7533
▁iconic	-11.7535
▁nope	-11.7536
▁tremendously	-11.7536
▁headache	-11.7546
▁expense	-11.7548
▁reign	-11.7549
▁commitment	-11.7549
▁session	-11.755
▁cloud	-11.7551
▁immigrant	-11.7552
▁politicians	-11.7556
▁cheaply	-11.7557
▁debt	-11.756
▁hippies	-11.7569
▁3)	-11.7575
▁hans	-11.7576
▁defie	-11.7577
characterisation	-11.7579
▁shove	-11.7581
▁din	-11.7583
ping	-11.7584
▁bla	-11.7587
ating	-11.7589
▁indiana	-11.7597
▁blackmail	-11.7602
▁accepting	-11.7608
▁pub	-11.7617
▁creek	-11.762
▁havoc	-11.762
▁almighty	-11.762
▁garage	-11.762
▁diaz	-11.762
▁lupino	-11.762
▁herzog	-11.7621
▁overblown	-11.7622
▁melville	-11.7622
▁dixon	-11.7622
▁studied	-11.7623
▁daylight	-11.7624
▁posing	-11.7624
▁slimy	-11.7625
▁outdated	-11.7625
▁adrian	-11.7626
▁dolph	-11.7627
▁pirates	-11.7628
▁realistically	-11.7628
▁realization	-11.7631
▁liz	-11.7632
▁youthful	-11.7632
▁bennett	-11.7633
▁carson	-11.7636
dan	-11.7636
▁sinking	-11.7643
ney	-11.7645
▁pound	-11.7645
▁coffin	-11.765
▁poe	-11.765
▁detectives	-11.7651
▁partners	-11.7652
▁lionel	-11.7654
▁swearing	-11.7655
▁7.	-11.7656
▁corporation	-11.7658
▁chop	-11.7658
▁educated	-11.7659
▁vignettes	-11.766
▁dj	-11.7663
basically	-11.7667
▁sparks	-11.7668
▁sane	-11.7671
firmly	-11.7681
au	-11.7696
▁brat	-11.7696
▁interests	-11.7696
▁lampoon	-11.7697
none	-11.7703
▁users	-11.7704
▁bend	-11.7705
▁file	-11.7708
▁bach	-11.771
▁participate	-11.7711
▁acknowledge	-11.7712
▁claus	-11.7713
▁compensate	-11.7713
▁transcend	-11.7713
▁seductive	-11.7714
▁legitimate	-11.7714
▁delicious	-11.7715
▁peters	-11.7715
▁tax	-11.7716
va	-11.7719
▁orchestra	-11.772
▁screenwriters	-11.7721
cher	-11.7721
▁longing	-11.7722
▁flimsy	-11.7723
▁persuade	-11.7723
▁mutual	-11.7723
▁choosing	-11.7723
▁perverse	-11.7723
▁shelter	-11.7723
▁unconventional	-11.7723
▁afghanistan	-11.7723
cop	-11.7723
▁atlantis	-11.7724
▁stardom	-11.7724
▁ladder	-11.7725
▁phase	-11.7725
▁harrowing	-11.7725
▁meandering	-11.7725
▁:-)	-11.7726
▁confident	-11.7728
▁1978	-11.7728
▁filthy	-11.7729
▁fried	-11.7731
▁published	-11.7732
▁mil	-11.7735
▁observation	-11.7735
▁wwe	-11.7736
▁pursued	-11.7739
▁neatly	-11.7743
▁incidentally	-11.7746
scenes	-11.7749
▁seedy	-11.7749
▁indifferent	-11.775
▁sleeper	-11.7755
▁abound	-11.7757
▁invention	-11.7759
▁taboo	-11.776
nice	-11.776
show	-11.7761
▁cigarette	-11.7761
▁communication	-11.7763
chris	-11.7763
definitely	-11.7771
▁rescued	-11.7771
whatever	-11.7773
obviously	-11.7773
▁affects	-11.7773
wow	-11.7777
▁boo	-11.7777
▁comparisons	-11.7784
▁dam	-11.7785
▁lens	-11.7785
aside	-11.7795
▁prepar	-11.7803
under	-11.7817
▁emphasize	-11.7819
▁korea	-11.7825
esquire	-11.7827
▁warehouse	-11.7827
▁bacall	-11.7827
▁pornography	-11.7827
▁graveyard	-11.7827
▁collins	-11.7827
▁nauseating	-11.7827
▁ebert	-11.7827
▁1989	-11.7828
five	-11.7828
▁portman	-11.7828
▁rourke	-11.7828
▁vintage	-11.7829
▁moe	-11.783
▁stalking	-11.7835
▁mobile	-11.7838
▁growth	-11.7839
▁dumped	-11.784
▁threatened	-11.7842
▁incorrect	-11.7844
▁defeated	-11.7846
▁hk	-11.7852
▁port	-11.7853
▁seeming	-11.7855
▁warrant	-11.7856
▁carla	-11.7856
▁elder	-11.7857
▁embarrassingly	-11.7862
▁convention	-11.7862
▁investigator	-11.7864
ji	-11.7864
▁antagonist	-11.7865
▁underdog	-11.7865
▁scorpion	-11.7865
▁penguin	-11.7866
ric	-11.7867
▁monologue	-11.7868
▁segal	-11.7869
master	-11.787
▁kidnap	-11.7871
▁campus	-11.7875
op	-11.7875
spirited	-11.7877
▁suitabl	-11.788
gged	-11.7884
▁approached	-11.7885
▁teams	-11.7891
▁classy	-11.7892
▁drill	-11.7893
files	-11.7896
▁crashing	-11.7897
▁smiles	-11.7902
▁bikini	-11.7902
▁plotting	-11.7905
▁goals	-11.7907
▁dish	-11.7911
▁everett	-11.7911
▁brazil	-11.7914
▁banter	-11.7915
esh	-11.7923
▁resolve	-11.7925
▁invest	-11.7926
▁(?)	-11.7926
▁dub	-11.793
▁tolerance	-11.7932
▁implied	-11.7932
▁incapable	-11.7932
▁wheelchair	-11.7932
▁begging	-11.7932
▁psychologist	-11.7932
▁merchant	-11.7934
▁hogan	-11.7935
▁unsure	-11.7935
▁ju	-11.7935
▁novelty	-11.7935
▁daffy	-11.7935
▁satisfaction	-11.7935
▁glamorous	-11.7935
▁arquette	-11.7936
▁advertised	-11.7937
▁shotgun	-11.7937
▁gris	-11.7937
▁contempt	-11.7938
▁alvin	-11.7939
▁incidents	-11.794
▁yo	-11.794
▁mick	-11.7943
▁flock	-11.7946
▁popping	-11.7947
▁corey	-11.7955
▁damaged	-11.7962
▁fur	-11.7963
▁nicolas	-11.7964
▁foil	-11.7965
▁fluid	-11.7969
▁anchor	-11.7972
▁wisely	-11.7972
▁reviewed	-11.7977
▁worship	-11.798
fiction	-11.7981
joe	-11.7982
▁ugh	-11.7982
brien	-11.7992
▁95	-11.7998
ell	-11.8001
▁judged	-11.8009
▁factual	-11.8009
pa	-11.8015
▁flowers	-11.8021
▁domino	-11.8023
ab	-11.8025
▁license	-11.8026
▁richards	-11.8028
▁sour	-11.8031
▁trivia	-11.8033
▁198	-11.8035
▁gamera	-11.8036
▁arguing	-11.8038
▁experiencing	-11.8038
▁gigantic	-11.8038
▁improbable	-11.8038
▁tendency	-11.8038
▁stabbed	-11.8039
▁relevance	-11.8039
▁granger	-11.8039
▁pokemon	-11.8039
▁unfamiliar	-11.8039
▁macabre	-11.8039
▁skinny	-11.8039
▁underwear	-11.8039
▁weaver	-11.8039
▁cries	-11.8039
▁zane	-11.804
▁possesses	-11.804
▁sensational	-11.8041
▁blob	-11.8041
▁accessible	-11.8041
▁nolte	-11.8042
▁billing	-11.8042
▁celebrate	-11.8042
▁travis	-11.8042
▁gein	-11.8043
lton	-11.8046
▁fruit	-11.8048
▁dumbest	-11.8049
▁payoff	-11.805
▁parallels	-11.8051
▁windows	-11.8054
▁stink	-11.806
▁confronted	-11.8061
▁aiming	-11.8064
▁weaker	-11.8068
ory	-11.807
▁safely	-11.8071
▁reject	-11.8073
▁mold	-11.8074
▁associate	-11.8074
▁strengths	-11.8076
▁babes	-11.8077
▁regularly	-11.8079
▁cultures	-11.808
sky	-11.808
▁abortion	-11.8081
final	-11.8083
▁smash	-11.8084
▁fuel	-11.8088
three	-11.8091
code	-11.8091
▁uniforms	-11.81
▁rider	-11.8101
poor	-11.8112
▁blamed	-11.8113
midst	-11.8117
▁boost	-11.8121
ph	-11.8121
producer	-11.8133
half	-11.8134
▁extensive	-11.8138
▁relentless	-11.8138
lee	-11.8143
▁cattle	-11.8144
▁sly	-11.8144
▁convinces	-11.8145
▁regime	-11.8146
▁dazzling	-11.8146
▁inclusion	-11.8146
▁kurosawa	-11.8146
▁mediocrity	-11.8146
▁phoenix	-11.8146
▁redundant	-11.8146
▁scorsese	-11.8146
▁undeniably	-11.8146
▁understatement	-11.8146
▁admission	-11.8146
▁fritz	-11.8146
▁horrified	-11.8146
▁1998	-11.8147
▁meteor	-11.8147
▁lester	-11.8148
▁christianity	-11.8148
▁malkovich	-11.8148
▁estranged	-11.8149
▁niven	-11.8149
▁pepper	-11.8149
▁porter	-11.815
▁redford	-11.8151
▁mitch	-11.8152
▁baron	-11.8152
▁janet	-11.8154
ability	-11.8155
▁isabelle	-11.8155
▁stylized	-11.8155
▁distracted	-11.8155
▁rewarded	-11.8156
▁divided	-11.8157
▁lena	-11.8157
▁conveniently	-11.8158
▁ku	-11.8165
▁seasoned	-11.8166
▁complications	-11.8168
▁characteristics	-11.8168
▁tech	-11.8177
▁skilled	-11.8178
▁demonstrate	-11.8184
▁cobb	-11.8184
hot	-11.8188
▁telephone	-11.8189
▁cartoonish	-11.8189
▁organization	-11.8191
▁suspicion	-11.8192
▁praised	-11.8194
▁employee	-11.8194
▁colleagues	-11.8194
▁75	-11.8209
▁flip	-11.8211
▁exploits	-11.8225
▁scenarios	-11.8225
▁def	-11.8227
▁insights	-11.8227
▁riddle	-11.8227
far	-11.8235
▁bleed	-11.8242
full	-11.8243
▁reverse	-11.8245
▁prot	-11.8246
try	-11.8249
▁republic	-11.8254
▁smug	-11.8254
▁cerebral	-11.8255
▁rhett	-11.8255
▁whining	-11.8255
▁/>8/10	-11.8255
▁tokyo	-11.8255
▁jolie	-11.8255
▁senator	-11.8255
▁terminal	-11.8255
▁replacement	-11.8255
▁sought	-11.8255
▁aftermath	-11.8255
▁ritchie	-11.8256
▁schneider	-11.8257
▁werewolves	-11.8257
▁1987	-11.8258
▁1959	-11.8259
▁crippled	-11.8259
▁canyon	-11.8259
▁norton	-11.8259
▁alison	-11.826
▁shelley	-11.826
▁chow	-11.8261
▁miranda	-11.8261
▁rory	-11.8262
▁crooked	-11.8262
▁gestures	-11.8264
▁update	-11.8264
▁sweeping	-11.8265
▁tire	-11.8272
▁bitten	-11.8276
30	-11.8279
▁yell	-11.829
▁spelling	-11.8292
▁explode	-11.8292
▁newer	-11.8295
▁verge	-11.8296
▁phillip	-11.8301
▁variation	-11.8303
▁laws	-11.8304
ridden	-11.8307
▁chronicles	-11.8308
▁evan	-11.8309
▁intensely	-11.8311
▁midst	-11.8318
level	-11.8318
▁lynn	-11.833
▁28	-11.8331
noir	-11.8332
▁col	-11.8333
ina	-11.8336
mart	-11.8337
▁ivan	-11.8337
▁uncover	-11.834
▁tower	-11.8342
▁rightly	-11.8348
▁questioning	-11.8349
▁bald	-11.8356
▁poses	-11.8358
▁earnest	-11.8358
▁aggressive	-11.8363
▁applied	-11.8365
▁fragile	-11.8365
▁pizza	-11.8365
▁plodding	-11.8365
▁sterling	-11.8365
▁lansbury	-11.8365
▁abomination	-11.8365
▁unsympathetic	-11.8365
▁feeble	-11.8365
▁hawn	-11.8365
▁theories	-11.8365
▁franklin	-11.8365
▁grin	-11.8367
▁agony	-11.8367
▁messing	-11.8368
▁believability	-11.8369
▁sabrina	-11.8369
▁kermit	-11.837
▁offbeat	-11.8371
▁1973	-11.8371
▁preacher	-11.8371
▁lois	-11.8373
▁transferr	-11.8375
▁letdown	-11.8376
▁dashing	-11.8377
▁chucky	-11.838
▁luis	-11.8382
▁recover	-11.8384
thin	-11.8385
▁finishing	-11.8387
▁distract	-11.8388
teen	-11.8389
▁conveyed	-11.8391
same	-11.8393
▁lil	-11.8394
▁har	-11.8402
▁cape	-11.8404
▁bi	-11.8406
▁fence	-11.8407
▁liar	-11.8412
uk	-11.8414
li	-11.8414
▁revolve	-11.8415
▁stalker	-11.8419
▁shameless	-11.842
▁fuss	-11.8421
high	-11.8422
ara	-11.8435
miss	-11.8446
▁milo	-11.8446
▁tho	-11.8447
▁decid	-11.8449
▁amaze	-11.8464
▁torment	-11.8464
▁dodge	-11.8466
▁slam	-11.8466
▁abstract	-11.8474
▁frantic	-11.8475
▁mermaid	-11.8476
▁sleeve	-11.8476
▁puppy	-11.8476
▁maximum	-11.8476
▁unattractive	-11.8476
▁sweden	-11.8476
▁1974	-11.8476
▁protection	-11.8477
▁parodies	-11.8477
▁othello	-11.8478
▁arriving	-11.8478
▁whiny	-11.8478
▁subway	-11.8478
▁dante	-11.8478
▁rodney	-11.8479
▁determination	-11.8479
▁horn	-11.848
▁vanity	-11.848
▁sissy	-11.848
▁antonioni	-11.848
▁boone	-11.8481
▁monica	-11.8482
▁joanna	-11.8483
▁gandhi	-11.8484
▁absorbing	-11.8484
▁profile	-11.8485
▁omen	-11.8486
▁vanessa	-11.8486
free	-11.8486
▁reports	-11.8486
▁otto	-11.8488
▁stern	-11.8488
▁organized	-11.8488
▁composition	-11.8489
▁lola	-11.8491
▁thumb	-11.8491
▁subsequently	-11.8494
▁promoted	-11.8495
▁slide	-11.8495
fer	-11.8499
▁meantime	-11.85
▁chill	-11.8503
▁btw	-11.8505
▁abbott	-11.8505
za	-11.8514
▁encountered	-11.8514
▁generate	-11.8519
▁offend	-11.852
tro	-11.8522
▁trauma	-11.8526
▁*1/2	-11.8526
▁elliott	-11.8527
▁exterior	-11.8528
▁clerk	-11.8529
▁redneck	-11.8529
numbing	-11.8532
▁tenant	-11.8532
christopher	-11.8532
sometimes	-11.8532
▁newcomer	-11.8532
▁kent	-11.8533
▁aesthetic	-11.8533
▁suspected	-11.8535
genre	-11.8538
▁comeback	-11.8542
▁item	-11.8544
▁stages	-11.8548
▁leaders	-11.856
▁transport	-11.856
breaking	-11.8566
wa	-11.8568
▁heels	-11.8571
▁hesitate	-11.8576
▁locate	-11.8577
sex	-11.8578
▁inherit	-11.8579
▁ominous	-11.858
▁300	-11.8581
▁excess	-11.8587
▁directions	-11.8587
▁valid	-11.8587
▁bakshi	-11.8588
▁pompous	-11.8588
▁kahn	-11.8588
▁nutshell	-11.8588
▁pbs	-11.8589
▁1945	-11.8589
▁artistry	-11.8589
▁ordeal	-11.859
▁rugby	-11.8591
▁remembering	-11.8591
▁coburn	-11.8592
▁patty	-11.8594
▁boogie	-11.8594
▁joyce	-11.8595
▁40'	-11.8596
▁casper	-11.8596
▁arty	-11.86
▁clarke	-11.8601
▁wtf	-11.8602
▁raging	-11.8603
▁establishing	-11.8606
▁farley	-11.8609
▁swinging	-11.8613
witted	-11.8617
▁feeding	-11.8621
▁principals	-11.8627
▁resume	-11.8629
▁accepts	-11.8635
▁engine	-11.8635
special	-11.8637
▁graves	-11.8638
▁transplant	-11.864
▁dwarf	-11.8643
▁tickets	-11.8645
▁viewpoint	-11.8645
▁vehicles	-11.8646
death	-11.8646
▁critters	-11.8647
▁goof	-11.8648
▁grabbe	-11.865
taking	-11.8652
▁collector	-11.8652
▁election	-11.8652
▁shootout	-11.8652
▁candle	-11.8653
▁routines	-11.8655
nia	-11.8658
their	-11.8667
▁paints	-11.8674
▁wu	-11.8675
▁croc	-11.8678
▁interior	-11.8686
ising	-11.8691
▁dragons	-11.8692
▁collective	-11.8693
▁unnatural	-11.8694
▁immense	-11.8694
▁aztec	-11.8695
▁literal	-11.8697
▁manipulate	-11.87
▁detroit	-11.8702
▁vigilante	-11.8702
▁battling	-11.8702
▁lucille	-11.8702
▁kinski	-11.8702
▁mclaglen	-11.8702
▁madison	-11.8702
▁bachelor	-11.8703
▁lightning	-11.8703
▁battlefield	-11.8703
▁emmy	-11.8703
▁jacob	-11.8703
▁furniture	-11.8703
▁repressed	-11.8703
▁phoebe	-11.8705
▁nathan	-11.8705
▁auteur	-11.8705
▁sebastian	-11.8707
▁motor	-11.8707
▁alicia	-11.8707
▁insomnia	-11.8708
▁runaway	-11.8708
▁promptly	-11.8709
▁tormented	-11.8711
▁lin	-11.8711
▁eagerly	-11.8716
▁biting	-11.8717
▁updated	-11.8718
▁masterfully	-11.8719
▁scored	-11.8725
ol	-11.8726
▁interviewed	-11.8738
▁pilots	-11.8744
▁charms	-11.8745
▁males	-11.8748
▁goodman	-11.8756
▁marc	-11.8756
▁rambling	-11.8759
▁request	-11.876
▁experts	-11.8762
▁ripoff	-11.8763
▁spaceship	-11.8764
around	-11.8764
▁rapist	-11.8765
cy	-11.8772
box	-11.8775
▁stoned	-11.8776
▁refus	-11.878
▁landed	-11.8781
▁rebels	-11.8789
15	-11.8793
50	-11.8795
▁stray	-11.8796
▁patriot	-11.8802
▁plate	-11.8803
▁sheep	-11.8805
▁1971	-11.8807
▁contestants	-11.8812
▁hawke	-11.8814
▁peaceful	-11.8815
▁graduation	-11.8817
▁bittersweet	-11.8817
▁replies	-11.8817
▁void	-11.8817
▁rookie	-11.8817
▁roam	-11.8817
▁slapped	-11.8817
▁surgeon	-11.8817
▁groundbreaking	-11.8817
▁sentimentality	-11.8818
▁fuzzy	-11.8818
▁sanity	-11.8818
▁shanghai	-11.8818
▁scarier	-11.8818
▁guardian	-11.8819
▁vaughn	-11.8819
▁crosby	-11.8819
▁poirot	-11.8819
▁captivated	-11.882
▁sergio	-11.882
▁mouths	-11.882
▁vance	-11.882
▁exclusively	-11.8821
▁sharon	-11.8821
▁taut	-11.8821
▁baddies	-11.8831
▁springer	-11.8832
▁vividly	-11.8834
ate	-11.8837
▁hysterically	-11.8838
▁summe	-11.8843
▁respond	-11.8853
▁theatres	-11.8854
▁gaps	-11.8855
▁plants	-11.8855
▁joker	-11.8857
▁shocker	-11.886
▁jude	-11.886
▁frames	-11.8871
▁howling	-11.8872
through	-11.8875
adventure	-11.8877
▁blink	-11.8877
▁sells	-11.8879
▁boobs	-11.8883
▁pocket	-11.8884
▁mysteriously	-11.8884
▁statements	-11.8885
▁verbal	-11.8891
▁crossed	-11.8892
▁cliched	-11.8896
▁mirrors	-11.891
▁covering	-11.8912
▁dern	-11.8914
ker	-11.8914
▁apple	-11.8915
▁dove	-11.8926
▁reads	-11.8927
▁deliberate	-11.8927
▁grounds	-11.8928
▁substitute	-11.8928
▁carnival	-11.8933
▁ghastly	-11.8933
▁lorre	-11.8933
▁ceiling	-11.8933
▁sundance	-11.8933
▁email	-11.8934
▁intact	-11.8934
▁chamber	-11.8934
▁cronenberg	-11.8935
▁portuguese	-11.8935
▁enigmatic	-11.8935
▁offense	-11.8935
▁dahmer	-11.8935
▁eisenstein	-11.8935
▁lombard	-11.8935
▁releasing	-11.8935
▁salesman	-11.8937
give	-11.8938
▁/>3/10	-11.8942
▁atomic	-11.8942
▁robertson	-11.8946
eating	-11.8946
▁fires	-11.8947
hop	-11.8953
▁/>4.	-11.8953
music	-11.8953
▁bombing	-11.8956
▁stereotyped	-11.8959
▁settled	-11.896
▁triple	-11.8961
▁benny	-11.8961
▁hercules	-11.8964
▁conscious	-11.8965
▁tightly	-11.8966
ay	-11.8966
▁pee	-11.897
actor	-11.8973
doo	-11.8975
▁seduce	-11.8981
▁arguments	-11.8983
▁muscle	-11.8985
▁30'	-11.899
▁poet	-11.8992
▁graduate	-11.8992
girlfriend	-11.8995
ju	-11.8995
▁playful	-11.8998
▁colleague	-11.9001
▁trains	-11.9001
▁interpret	-11.9002
▁clouds	-11.9011
▁hears	-11.9013
▁boots	-11.9014
▁joining	-11.9015
▁apt	-11.902
▁adapt	-11.9029
▁distress	-11.9029
▁rolls	-11.9029
▁boarding	-11.9031
sci	-11.9038
▁tolerate	-11.9039
▁declare	-11.904
▁brit	-11.9041
▁unwilling	-11.9042
▁swift	-11.9044
▁bounce	-11.9045
▁marx	-11.905
▁admiration	-11.9051
▁monotonous	-11.9051
▁slept	-11.9051
▁turmoil	-11.9051
▁lopez	-11.9051
▁denouement	-11.9051
▁hurry	-11.9051
▁essay	-11.9051
▁miami	-11.9051
▁nanny	-11.9051
▁injury	-11.9051
▁grier	-11.9051
▁dandy	-11.9052
▁dietrich	-11.9052
▁1991	-11.9052
▁noteworthy	-11.9052
▁lundgren	-11.9052
▁spontaneous	-11.9052
▁sketches	-11.9052
▁bunuel	-11.9053
▁loan	-11.9054
▁rebecca	-11.9054
▁timberlake	-11.9054
▁nonexistent	-11.9054
▁dramatically	-11.9055
▁fontaine	-11.9055
▁posey	-11.9055
▁economic	-11.9056
▁sophie	-11.9056
▁melissa	-11.9057
▁wendy	-11.9057
lon	-11.9059
▁acquired	-11.9059
▁lurking	-11.906
▁1981	-11.9061
▁betrayed	-11.9062
▁wonderland	-11.9062
▁gen	-11.9063
▁secure	-11.9067
▁faded	-11.9068
▁patriotic	-11.9069
▁severed	-11.9072
▁stable	-11.9075
▁expertly	-11.9076
▁affecting	-11.9078
▁gathering	-11.9079
▁stupidest	-11.9082
▁dismiss	-11.9087
▁daytime	-11.9089
▁flows	-11.9091
▁starters	-11.9098
????	-11.9099
▁pr	-11.9102
▁unusually	-11.9102
bound	-11.9107
camera	-11.9114
▁lunatic	-11.9115
▁bubble	-11.9116
▁chew	-11.9123
▁immigrants	-11.913
ugh	-11.9136
▁dev	-11.9138
▁slaves	-11.9144
▁insults	-11.9146
tz	-11.9147
▁senses	-11.9149
▁mor	-11.915
▁lighthearted	-11.9157
▁enlist	-11.9161
fans	-11.9163
▁1993	-11.9164
van	-11.9169
▁precede	-11.9169
▁dungeon	-11.917
▁monkees	-11.917
▁seinfeld	-11.917
▁salvation	-11.917
▁rogue	-11.917
▁murky	-11.917
▁lumet	-11.917
▁quasi	-11.917
▁hooper	-11.917
▁marvellous	-11.9171
▁lonesome	-11.9171
▁georgia	-11.9171
▁psychedelic	-11.9171
ible	-11.9172
▁wayans	-11.9173
▁kilmer	-11.9173
▁stuffed	-11.9173
▁bodyguard	-11.9174
▁noticeable	-11.9174
▁respects	-11.9175
▁jurassi	-11.9176
▁assembled	-11.9176
▁photographs	-11.9176
▁reserved	-11.9176
▁log	-11.9176
▁marlon	-11.9177
▁resulted	-11.9177
lit	-11.9177
00	-11.9178
▁nuanced	-11.9179
▁goldie	-11.918
▁shifts	-11.918
▁toni	-11.9182
▁exploited	-11.9185
▁bart	-11.9187
▁excellently	-11.9189
▁discussed	-11.9192
▁reflected	-11.9193
▁lange	-11.9194
▁reno	-11.9194
▁marines	-11.9197
▁packs	-11.92
▁admired	-11.9203
▁sleepy	-11.9205
▁lucio	-11.9206
▁parking	-11.9213
tch	-11.9222
▁fills	-11.9223
▁ps	-11.9228
ford	-11.9229
▁outing	-11.9229
▁indicate	-11.9231
▁hyped	-11.9231
▁boyer	-11.9231
▁rounded	-11.9231
meanwhile	-11.9234
▁architect	-11.9234
▁steele	-11.9235
▁manipulation	-11.9236
▁rejects	-11.924
▁cam	-11.9244
▁wi	-11.9246
▁freeze	-11.9246
▁arrow	-11.925
▁injustice	-11.9251
▁tan	-11.9251
▁sant	-11.9263
▁mount	-11.928
▁harvest	-11.928
▁substantial	-11.9282
▁sensual	-11.9287
▁bait	-11.9289
brow	-11.9289
▁ga	-11.9289
▁railroad	-11.929
▁shannon	-11.929
▁doyle	-11.929
▁entries	-11.929
▁garland	-11.929
▁rouge	-11.929
▁cocaine	-11.929
▁spies	-11.9291
▁torch	-11.9291
▁sunset	-11.9291
▁clunky	-11.9291
▁inclined	-11.9291
▁costner	-11.9291
▁sassy	-11.9291
▁chaney	-11.9291
▁gloomy	-11.9292
▁fiend	-11.9292
▁mythology	-11.9293
▁association	-11.9293
▁benefits	-11.9293
▁enchanting	-11.9293
▁interrupted	-11.9294
▁magician	-11.9295
▁raines	-11.9295
▁zoey	-11.9296
▁circles	-11.9296
▁hackman	-11.9297
▁diary	-11.9297
▁cody	-11.9297
▁neglected	-11.9299
▁robbers	-11.9302
▁veterans	-11.9306
whe	-11.9306
▁smarter	-11.9308
jim	-11.9312
▁herbert	-11.9318
▁fanatic	-11.9318
▁origins	-11.9319
water	-11.9322
▁defy	-11.9325
▁flames	-11.9329
▁ra	-11.9329
lew	-11.9331
nick	-11.9332
▁sources	-11.9335
ky	-11.9337
view	-11.9341
▁camping	-11.9344
▁pegg	-11.9351
▁heath	-11.9351
quality	-11.9351
▁observe	-11.9351
▁ensue	-11.9352
▁jose	-11.9353
jones	-11.9356
▁horizon	-11.936
▁convict	-11.9362
▁satanic	-11.9362
▁giggle	-11.9366
▁gr	-11.9366
▁ty	-11.9367
▁dealers	-11.9376
▁ads	-11.9389
board	-11.94
▁select	-11.9402
▁determine	-11.9404
▁rag	-11.9404
▁whine	-11.9404
▁nuances	-11.9405
▁seats	-11.9407
▁squeeze	-11.9407
▁fetish	-11.941
▁85	-11.9411
▁chaotic	-11.9412
▁kinnear	-11.9412
▁fraud	-11.9412
▁foremost	-11.9412
▁captive	-11.9412
▁ebay	-11.9412
▁enduring	-11.9412
▁compound	-11.9412
▁carnage	-11.9412
▁knightley	-11.9413
▁ninety	-11.9413
▁popped	-11.9413
▁oblivious	-11.9413
▁unclear	-11.9414
▁underdeveloped	-11.9414
▁sincerity	-11.9414
▁feminine	-11.9414
▁streak	-11.9415
▁shuttle	-11.9417
anna	-11.9417
▁jules	-11.9417
▁tipp	-11.9418
▁lad	-11.9419
▁predictably	-11.9419
▁2008	-11.9419
▁overboard	-11.9421
mad	-11.9422
▁buffy	-11.9424
▁shemp	-11.9425
▁iran	-11.9426
▁switche	-11.9426
▁gina	-11.9429
▁awakening	-11.9429
▁barber	-11.9435
▁glimpses	-11.9435
▁mu	-11.9437
▁scratching	-11.9439
▁slob	-11.9442
▁enable	-11.9443
▁climbing	-11.9446
save	-11.9447
▁wak	-11.945
▁juan	-11.9451
▁sentences	-11.946
▁tops	-11.9461
▁intend	-11.9465
boring	-11.9469
air	-11.9472
▁despise	-11.9474
▁employ	-11.9476
▁recruit	-11.9479
true	-11.948
▁customers	-11.9482
▁witnessing	-11.9482
▁chip	-11.9483
▁wrestler	-11.9489
▁politician	-11.9492
eric	-11.9494
▁profit	-11.9498
▁fetched	-11.9499
die	-11.9501
▁astronaut	-11.9507
sp	-11.9509
▁relat	-11.9516
▁kris	-11.9524
▁eliminate	-11.9524
▁recreate	-11.9524
▁cells	-11.9526
▁prompt	-11.9527
▁anton	-11.953
▁achieves	-11.9533
▁gates	-11.9535
▁unanswered	-11.9536
▁brynner	-11.9536
▁nifty	-11.9536
▁varied	-11.9536
▁stir	-11.9536
▁witchcraft	-11.9536
▁resistance	-11.9536
▁consequently	-11.9536
▁dodgy	-11.9537
▁misunderstood	-11.9537
▁carrot	-11.9537
▁stereo	-11.9538
▁liberty	-11.9538
▁reid	-11.9538
▁pickford	-11.9539
▁fodder	-11.9539
▁inaccuracies	-11.954
▁darren	-11.954
▁corbett	-11.954
▁brendan	-11.9541
▁pamela	-11.9542
▁staging	-11.9543
gen	-11.9544
▁strung	-11.9544
▁deliciously	-11.9545
▁preaching	-11.9547
▁debra	-11.955
▁ricky	-11.9552
▁nest	-11.9554
▁ramones	-11.9554
▁spinal	-11.9555
▁rendering	-11.9555
▁frontal	-11.9561
▁brett	-11.9562
▁evokes	-11.9563
▁wartime	-11.9572
▁tara	-11.9575
ku	-11.9576
▁wholesome	-11.9578
▁hunted	-11.9583
*1/2	-11.9587
▁sgt	-11.9589
▁pairing	-11.9592
▁reviewing	-11.9595
▁rounds	-11.9595
early	-11.9596
office	-11.9597
lots	-11.9598
▁increase	-11.9603
▁followers	-11.9604
pretty	-11.9605
▁client	-11.9615
▁marathon	-11.9619
▁drum	-11.9625
▁/>**	-11.9628
▁dive	-11.9629
▁maintains	-11.9635
gh	-11.9636
▁sleeps	-11.9639
▁existing	-11.9642
▁drain	-11.9642
▁sync	-11.9642
▁ignor	-11.9649
▁entrance	-11.9649
▁regain	-11.9651
▁bias	-11.9653
dar	-11.9655
▁lon	-11.9658
▁avenge	-11.9659
▁romania	-11.9659
▁complement	-11.966
▁facility	-11.9661
▁uncanny	-11.9661
▁excellence	-11.9661
▁inadvertent	-11.9661
▁gravity	-11.9661
▁rousing	-11.9661
▁array	-11.9661
▁thurman	-11.9661
▁woven	-11.9661
▁kingsley	-11.9661
▁courtroom	-11.9661
▁thug	-11.9661
▁judgement	-11.9661
▁kaufman	-11.9662
▁gulliver	-11.9662
▁bondage	-11.9663
▁hunk	-11.9663
▁inconsistencies	-11.9663
gore	-11.9663
▁grease	-11.9664
▁197	-11.9664
▁capacity	-11.9664
▁thirties	-11.9665
▁renaissance	-11.9665
▁stalked	-11.9666
▁overweight	-11.9666
▁breathe	-11.9667
▁liu	-11.9667
▁clara	-11.9667
▁verdict	-11.9668
▁spotlight	-11.9668
▁wherever	-11.9668
sam	-11.9672
▁hateful	-11.9673
▁establishment	-11.9673
▁consciousness	-11.9676
▁invested	-11.9679
▁bats	-11.968
▁crosses	-11.9681
▁complained	-11.9685
▁abroad	-11.9687
▁pose	-11.9688
▁pow	-11.9689
offs	-11.969
mill	-11.9695
▁forties	-11.9695
▁morph	-11.9696
▁whoopi	-11.9698
▁tuned	-11.9713
▁beau	-11.9717
trap	-11.9718
▁reruns	-11.9721
▁lau	-11.9722
perfect	-11.9722
▁denis	-11.9725
▁schedule	-11.9729
▁flowing	-11.9731
young	-11.9731
▁employees	-11.9732
anyone	-11.9734
▁breathing	-11.9737
▁mobster	-11.9744
space	-11.9746
▁trans	-11.975
▁webb	-11.9754
working	-11.9771
lock	-11.9774
▁gee	-11.9776
▁villa	-11.978
ini	-11.9781
▁gerald	-11.9787
▁atrocity	-11.9787
▁identified	-11.9787
▁framing	-11.9787
▁nielsen	-11.9787
▁obscurity	-11.9787
▁occult	-11.9787
▁incestuous	-11.9787
▁hostile	-11.9787
▁fishburne	-11.9787
▁finney	-11.9787
▁slot	-11.9788
▁mystical	-11.9788
▁desk	-11.9789
▁attenborough	-11.9789
▁godard	-11.979
▁bearable	-11.979
▁stretches	-11.9791
▁tailor	-11.9791
▁zeta	-11.9792
▁distributed	-11.9795
▁israeli	-11.9796
▁rudy	-11.9796
▁digging	-11.9797
▁nina	-11.9797
▁sammy	-11.9798
▁micheal	-11.9798
▁assumes	-11.9799
▁heather	-11.9805
▁bury	-11.9806
▁cheering	-11.9811
▁rivals	-11.9815
▁bash	-11.9816
▁bashing	-11.9816
▁attending	-11.9819
▁combs	-11.9826
▁gosh	-11.9827
sized	-11.9836
▁uma	-11.9843
rich	-11.985
▁mae	-11.9857
▁alba	-11.9857
▁temper	-11.9858
better	-11.986
using	-11.986
killer	-11.9863
whose	-11.9864
▁/>1)	-11.9867
▁parrot	-11.9868
▁cher	-11.9868
▁hum	-11.9871
▁bucket	-11.9875
plots	-11.9876
▁jew	-11.9878
▁voiced	-11.9879
▁buttons	-11.9879
▁stake	-11.9884
▁juice	-11.9884
▁surrender	-11.9891
▁herman	-11.9892
▁193	-11.9893
act	-11.9897
!).<	-11.99
▁toxic	-11.9905
▁decay	-11.9906
▁ponder	-11.9909
▁ambiguity	-11.9915
▁applause	-11.9915
▁capote	-11.9915
▁demille	-11.9915
▁fugitive	-11.9915
▁melancholy	-11.9915
▁melody	-11.9915
▁representative	-11.9915
▁firth	-11.9916
▁influential	-11.9916
▁lestat	-11.9916
▁burke	-11.9916
▁cassie	-11.9917
▁waist	-11.9917
▁asterix	-11.9917
▁raid	-11.9918
▁screened	-11.9918
▁espionage	-11.9918
▁paranormal	-11.9918
▁einstein	-11.9919
▁tierney	-11.9919
▁octopus	-11.9919
▁optimistic	-11.9919
▁guinness	-11.992
▁cain	-11.992
▁momentum	-11.9921
▁readily	-11.9921
▁villainous	-11.9922
▁inserted	-11.9922
▁govinda	-11.9922
▁stargate	-11.9924
▁vivian	-11.9925
▁peek	-11.9931
▁flame	-11.9934
▁fable	-11.9935
▁progressed	-11.9935
▁addressed	-11.9935
▁versa	-11.9938
▁executives	-11.9942
▁forgetting	-11.995
▁ideals	-11.9957
▁roughly	-11.9958
▁sporting	-11.9964
▁ski	-11.9968
nce	-11.9969
city	-11.9973
▁wink	-11.9974
remember	-11.9981
▁1994	-11.9983
warning	-11.9985
▁shocks	-11.9987
during	-11.9989
until	-11.9989
▁keeper	-11.9989
▁comprise	-11.9994
cap	-11.9996
▁greene	-11.9999
▁dvds	-11.9999
▁bloke	-12
▁anyhow	-12
▁bastard	-12.0002
▁consequence	-12.0006
charles	-12.0007
▁weekly	-12.0008
▁judges	-12.002
tim	-12.0022
▁churn	-12.0029
▁peers	-12.0034
▁lt	-12.0034
▁precise	-12.0037
▁alleged	-12.0037
▁counting	-12.0041
▁dynamics	-12.0041
▁bless	-12.0042
▁satellite	-12.0045
▁dynamite	-12.0045
▁groove	-12.0045
▁liberties	-12.0045
▁policy	-12.0045
▁envy	-12.0045
▁flipping	-12.0045
▁1985	-12.0046
▁stating	-12.0046
▁courageous	-12.0046
▁celebrities	-12.0046
▁retro	-12.0047
▁rathbone	-12.0047
▁programming	-12.0047
▁hypnotic	-12.0048
▁scripting	-12.0048
▁vega	-12.0048
▁dustin	-12.0049
▁meredith	-12.005
▁sirk	-12.0051
▁effortlessly	-12.0051
▁honey	-12.0051
▁worms	-12.0051
▁improvised	-12.0051
▁edison	-12.0051
▁narrated	-12.0054
▁anticipated	-12.0056
▁sack	-12.0056
▁transported	-12.0056
▁fairness	-12.0056
▁juliette	-12.0057
▁awareness	-12.0057
▁upbeat	-12.0061
▁melt	-12.0062
▁seal	-12.0063
gu	-12.0065
▁products	-12.0065
▁investment	-12.0068
▁celebrated	-12.0069
▁unfolding	-12.0074
****	-12.0082
▁>	-12.0087
▁coaster	-12.0089
▁fleshed	-12.0099
▁brush	-12.0103
telling	-12.0104
▁outset	-12.0105
▁po	-12.0107
▁proceed	-12.0113
▁rub	-12.0114
▁diamonds	-12.0116
▁explodes	-12.0117
inducing	-12.012
jason	-12.0122
str	-12.0123
▁luc	-12.0125
▁vibe	-12.0135
anti	-12.014
▁article	-12.0141
▁creeps	-12.0143
▁math	-12.0144
▁roach	-12.0144
▁youngsters	-12.0146
▁yu	-12.0148
▁wilde	-12.0155
▁servants	-12.0156
waiting	-12.0161
▁inmates	-12.0164
▁construct	-12.0167
kind	-12.017
▁marlow	-12.0173
▁mortal	-12.0173
▁burge	-12.0173
▁bava	-12.0175
▁centuries	-12.0177
▁norwegian	-12.0177
▁sensibility	-12.0177
▁stadium	-12.0177
▁suicidal	-12.0177
▁unappealing	-12.0177
▁merry	-12.0177
▁vapid	-12.0177
▁snappy	-12.0177
▁looney	-12.0177
▁macdonald	-12.0177
▁robbed	-12.0177
▁thirst	-12.0177
▁sidewalk	-12.0177
▁teddy	-12.0177
▁1933	-12.0178
▁nightmarish	-12.0178
▁subdued	-12.0178
▁distinction	-12.0178
▁spotted	-12.0178
▁chupacabra	-12.0179
▁prostitution	-12.0179
▁skeptical	-12.0179
▁deneuve	-12.0179
▁october	-12.0179
▁chocolate	-12.018
▁anonymous	-12.0181
▁slut	-12.0181
▁rukh	-12.0182
▁cheadle	-12.0183
▁mindset	-12.0184
▁atlantic	-12.0185
▁fido	-12.0188
▁falcon	-12.0189
▁sch	-12.019
▁relaxed	-12.0193
▁dominated	-12.0196
▁smoothly	-12.0198
▁restore	-12.0201
▁kat	-12.0201
ap	-12.0202
▁threads	-12.0202
born	-12.0206
▁tilly	-12.0207
▁clad	-12.0213
▁magically	-12.0215
▁pierre	-12.0216
▁solved	-12.0221
▁marketed	-12.0223
▁sinks	-12.0226
▁manic	-12.0226
▁masked	-12.0226
ac	-12.0227
▁bombed	-12.0231
▁targets	-12.0236
▁sensation	-12.0249
▁listened	-12.025
▁allies	-12.0251
modern	-12.0253
▁elliot	-12.0254
kevin	-12.0254
loving	-12.0254
▁lambs	-12.0254
▁produces	-12.0262
▁1920	-12.0263
▁zoom	-12.0265
released	-12.0265
▁mole	-12.0267
▁mari	-12.027
▁excuses	-12.0271
▁colored	-12.0274
▁hawk	-12.0274
▁symbols	-12.0281
mail	-12.0285
use	-12.0289
▁paths	-12.03
each	-12.0302
▁reunite	-12.0302
▁civilians	-12.0303
▁giants	-12.0304
▁slack	-12.0305
▁stations	-12.031
▁admirably	-12.031
▁anthology	-12.031
▁beethoven	-12.031
▁gromit	-12.031
▁superfluous	-12.031
▁prologue	-12.031
▁awry	-12.031
▁closure	-12.031
▁hellraiser	-12.031
▁cancel	-12.0311
▁shearer	-12.0311
▁sweetheart	-12.0311
▁edith	-12.0311
▁midler	-12.0311
▁zany	-12.0312
▁gallery	-12.0312
▁philadelphia	-12.0313
▁hungarian	-12.0313
▁comparable	-12.0313
▁therapy	-12.0314
▁byrne	-12.0314
▁rio	-12.0315
▁tacked	-12.0316
▁robocop	-12.0316
▁fanny	-12.0316
▁malcolm	-12.0317
▁burden	-12.0317
▁elmer	-12.0318
ren	-12.0318
▁funky	-12.0319
▁bitchy	-12.032
▁understandably	-12.032
▁elected	-12.0321
▁sexist	-12.0323
▁loner	-12.0324
▁officials	-12.0327
▁watcher	-12.0327
▁puzzled	-12.0329
▁demonstrated	-12.0329
▁officially	-12.033
▁troopers	-12.0346
▁sober	-12.0352
word	-12.0358
▁slower	-12.0362
▁scar	-12.0371
dis	-12.0374
▁obstacles	-12.0381
lost	-12.0382
zz	-12.0383
▁scarlet	-12.0385
would	-12.0385
▁bryan	-12.0386
daughter	-12.0389
▁gangs	-12.0392
▁gil	-12.0392
▁cheat	-12.0392
▁chore	-12.0393
▁rant	-12.0395
▁expand	-12.0399
▁crook	-12.0401
▁professionals	-12.0402
▁expects	-12.0403
▁/>2)	-12.0405
▁hug	-12.0407
▁bearing	-12.0408
▁confession	-12.0409
▁socially	-12.0409
▁counterpart	-12.0411
▁lizard	-12.0411
neill	-12.0412
val	-12.0413
▁jock	-12.0413
▁locke	-12.0414
▁notices	-12.0415
▁illusion	-12.0425
▁sheets	-12.0426
▁gu	-12.0427
wall	-12.0433
▁compromise	-12.0434
▁tease	-12.0434
▁cousins	-12.0435
▁punish	-12.0435
▁sufficient	-12.0439
▁pianist	-12.0441
▁handy	-12.0441
▁economy	-12.0445
▁occupation	-12.0445
▁combining	-12.0445
▁custody	-12.0445
▁estevez	-12.0445
▁huppert	-12.0445
▁lieutenant	-12.0445
▁moriarty	-12.0445
▁pursuing	-12.0445
▁redgrave	-12.0445
▁suave	-12.0445
▁henson	-12.0445
▁laboratory	-12.0445
▁annoyance	-12.0445
▁padding	-12.0445
▁hannah	-12.0446
▁1977	-12.0446
goers	-12.0446
▁transvestite	-12.0447
▁winchester	-12.0447
▁enchanted	-12.0447
▁radiation	-12.0447
▁pixar	-12.0448
▁ariel	-12.0448
▁mice	-12.0449
▁sway	-12.045
▁brazilian	-12.045
▁gillian	-12.0451
▁keanu	-12.0452
▁similarity	-12.0452
▁mentor	-12.0452
▁evolved	-12.0454
▁nerdy	-12.0456
▁nero	-12.0457
▁collar	-12.0462
▁confirmed	-12.0462
▁labeled	-12.0462
▁christy	-12.0463
stone	-12.0464
▁gathered	-12.0464
▁alot	-12.0466
▁overtones	-12.0466
▁overnight	-12.0467
four	-12.0468
▁distinguish	-12.0481
▁holland	-12.0483
▁hopeful	-12.0486
▁targeted	-12.0493
▁insulted	-12.0496
▁cursed	-12.0498
▁shi	-12.0498
▁mal	-12.0501
person	-12.0509
▁flashing	-12.0512
▁slashers	-12.0517
▁keys	-12.0521
▁sunk	-12.0528
▁observations	-12.0533
packed	-12.0533
▁blacks	-12.0534
▁protest	-12.0534
heart	-12.0536
▁staple	-12.0546
▁cal	-12.0548
▁pointing	-12.0548
▁sniper	-12.0548
dark	-12.0558
▁cha	-12.0559
▁drawings	-12.0561
▁awaken	-12.0564
▁moran	-12.0568
▁privilege	-12.0571
▁anxious	-12.0574
▁admitted	-12.0577
▁ash	-12.0579
turned	-12.058
▁reckless	-12.0581
▁klein	-12.0582
▁carlito	-12.0582
▁confined	-12.0582
▁perpetual	-12.0582
▁succumb	-12.0582
▁devotion	-12.0582
▁henchmen	-12.0582
▁hockey	-12.0582
▁irwin	-12.0582
▁mcqueen	-12.0582
▁joking	-12.0583
▁earliest	-12.0583
▁guinea	-12.0583
▁butterfly	-12.0583
▁2-	-12.0584
▁lighten	-12.0584
▁biko	-12.0584
▁naschy	-12.0584
▁ample	-12.0584
ik	-12.0585
usually	-12.0585
▁deadpan	-12.0585
▁pivotal	-12.0585
▁backyard	-12.0585
▁schizophrenic	-12.0585
▁berkeley	-12.0585
▁exploitative	-12.0585
▁forgiveness	-12.0585
▁rickman	-12.0586
▁jacques	-12.0586
▁grayson	-12.0586
▁chevy	-12.0587
▁cuban	-12.0587
▁penelope	-12.0588
▁marilyn	-12.0588
▁myrna	-12.059
▁reprise	-12.059
▁progression	-12.0591
▁terrorism	-12.0591
▁domain	-12.0591
▁projection	-12.0592
▁cheers	-12.0592
▁relentlessly	-12.0593
▁filmography	-12.0593
▁perceived	-12.0594
▁bosses	-12.0594
▁faye	-12.0595
▁milland	-12.0595
▁spoofs	-12.0596
▁casually	-12.0598
▁criticized	-12.06
▁seriousness	-12.0608
ists	-12.0612
hum	-12.0612
▁hinted	-12.0619
▁bandit	-12.0622
▁awfulness	-12.0626
vo	-12.0631
▁pope	-12.0635
net	-12.064
▁laying	-12.0641
▁understands	-12.0641
▁murderers	-12.0651
ken	-12.0653
▁cummings	-12.066
▁sting	-12.0661
▁stab	-12.0665
hollywood	-12.0665
▁surround	-12.0667
ided	-12.0668
meaning	-12.0668
voiced	-12.067
▁frances	-12.0675
▁neglect	-12.0677
▁weary	-12.0678
hu	-12.0678
▁evoke	-12.068
▁kerr	-12.0687
▁puns	-12.0688
bert	-12.0691
▁reeve	-12.0691
▁superstar	-12.0693
▁brick	-12.0696
▁instances	-12.0697
▁revolt	-12.0698
▁wee	-12.0699
▁robotic	-12.0705
▁eggs	-12.0705
▁attribute	-12.0708
▁schools	-12.0715
▁decency	-12.0721
▁district	-12.0721
▁escort	-12.0721
▁graffiti	-12.0721
▁federal	-12.0721
▁lurid	-12.0721
▁clarity	-12.0721
▁outlandish	-12.0721
▁brunette	-12.0721
▁selleck	-12.0721
▁cancelled	-12.0721
▁bicycle	-12.0721
▁chock	-12.0721
▁dragging	-12.0721
▁chopper	-12.0721
▁jagger	-12.0721
▁recite	-12.0722
▁faux	-12.0722
▁charity	-12.0722
▁motel	-12.0722
▁gossip	-12.0722
▁passive	-12.0722
▁leland	-12.0722
▁lubitsch	-12.0723
▁gielgud	-12.0723
▁sasquatch	-12.0723
▁1957	-12.0723
▁data	-12.0724
▁ramsey	-12.0724
▁penalty	-12.0724
▁daisy	-12.0725
▁irritated	-12.0726
▁edmund	-12.0728
▁openly	-12.0728
▁abundance	-12.0729
▁loretta	-12.0729
▁sensitivity	-12.0729
▁basil	-12.073
▁perverted	-12.0732
pro	-12.0734
▁borders	-12.0736
ified	-12.0737
▁suggesting	-12.0738
▁/>9/10	-12.0738
▁glenda	-12.074
▁ambitions	-12.074
▁rewind	-12.0744
▁mixe	-12.0752
fa	-12.0753
▁butch	-12.0756
▁begun	-12.0761
▁pains	-12.077
lain	-12.077
rex	-12.0771
▁joint	-12.0771
hy	-12.0771
▁insanely	-12.0773
▁esp	-12.0776
▁chapters	-12.0784
▁10/10.	-12.0798
ions	-12.0801
▁cracks	-12.0801
▁fa	-12.0804
▁characteristic	-12.0805
excellent	-12.0806
literally	-12.0807
▁bra	-12.0807
▁spoiling	-12.0811
related	-12.0815
gary	-12.0816
▁imitate	-12.0818
▁talkie	-12.0818
▁repeats	-12.0819
▁sucking	-12.082
nal	-12.0828
▁recipe	-12.0828
▁darling	-12.0829
▁instructor	-12.083
▁cad	-12.083
sub	-12.083
▁pigs	-12.0831
▁filter	-12.0831
▁prank	-12.0833
▁fran	-12.0834
yr	-12.0836
▁admirer	-12.0837
▁gig	-12.0837
▁remorse	-12.0839
▁principles	-12.0847
▁videotape	-12.0852
▁cunning	-12.0853
▁scandal	-12.0856
▁branch	-12.0861
▁retrospect	-12.0862
▁puerto	-12.0862
▁arizona	-12.0862
▁goldblum	-12.0862
▁puzzling	-12.0862
▁zellweger	-12.0862
▁applies	-12.0862
▁granny	-12.0862
▁division	-12.0862
▁raunchy	-12.0862
▁stripped	-12.0863
▁straw	-12.0863
▁mustache	-12.0863
▁claw	-12.0863
▁elementary	-12.0864
▁compassionate	-12.0864
▁shepard	-12.0864
▁hilary	-12.0865
▁oddball	-12.0865
▁patterson	-12.0865
▁napoleon	-12.0866
▁audrey	-12.0866
▁retelling	-12.0866
▁hmmm	-12.0866
▁infinitely	-12.0866
▁casablanca	-12.0866
▁swanson	-12.0867
▁outcast	-12.0871
▁hispanic	-12.0872
▁shelves	-12.0873
▁omar	-12.0873
▁alexandra	-12.0874
▁edwards	-12.0874
▁sarcasm	-12.0874
▁distinctly	-12.0878
▁sickness	-12.0879
▁madman	-12.088
▁hmm	-12.088
▁predicted	-12.088
gun	-12.0881
▁willard	-12.0883
ou	-12.0884
▁coolest	-12.0885
▁astronauts	-12.0894
▁crooks	-12.0898
▁8/10.	-12.0899
▁switching	-12.0902
eur	-12.0903
▁dien	-12.0903
▁ira	-12.0906
place	-12.0906
ice	-12.0907
tech	-12.0909
▁hardest	-12.0913
▁crashed	-12.0916
▁knee	-12.092
▁imo	-12.092
non	-12.0922
▁dangerously	-12.0925
▁clinic	-12.0927
▁pans	-12.0929
▁achievements	-12.0929
▁ki	-12.0931
▁excels	-12.0933
amato	-12.0934
▁noel	-12.0936
release	-12.0939
▁cor	-12.0941
▁500	-12.0943
▁shameful	-12.0946
▁marrying	-12.0947
▁depictions	-12.0947
▁vet	-12.0948
wrenching	-12.0948
possible	-12.0949
average	-12.0949
technically	-12.095
among	-12.0953
team	-12.0954
happy	-12.0956
row	-12.0959
▁orphan	-12.0964
▁transitions	-12.0966
▁ninjas	-12.0967
▁assist	-12.0971
scale	-12.0974
▁coyote	-12.0974
▁bimbo	-12.0976
▁laser	-12.0979
▁blockbusters	-12.0982
▁10)	-12.0982
hole	-12.0984
filmed	-12.0985
▁operate	-12.1001
▁contradict	-12.1004
▁degrees	-12.1004
▁flamboyant	-12.1005
▁homicidal	-12.1005
▁psychiatric	-12.1005
▁reiser	-12.1005
▁sprinkle	-12.1005
▁yourselves	-12.1005
▁dedication	-12.1005
▁obscene	-12.1005
▁serum	-12.1005
▁raimi	-12.1005
▁/>2/10	-12.1005
▁fathom	-12.1005
▁perkins	-12.1005
▁interplay	-12.1005
▁remainder	-12.1006
▁mccarthy	-12.1006
▁chamberlain	-12.1006
▁momma	-12.1007
▁sylvester	-12.1008
▁swiss	-12.1008
▁glossy	-12.1008
▁shaggy	-12.1008
▁detached	-12.1008
▁coleman	-12.1009
▁campfire	-12.1009
▁pulse	-12.1009
▁uptight	-12.1011
▁motions	-12.1011
▁watered	-12.1011
▁nap	-12.1012
▁demi	-12.1012
▁shakes	-12.1016
▁occupied	-12.1017
▁shah	-12.1018
▁crow	-12.1019
▁yearning	-12.1019
▁polly	-12.102
▁reluctantly	-12.1021
▁placement	-12.1022
▁coen	-12.1022
▁manipulated	-12.1023
▁martino	-12.1024
hell	-12.1024
▁silverman	-12.1032
▁outrageously	-12.1034
▁cutter	-12.1036
▁tricked	-12.1043
▁revel	-12.1047
▁inform	-12.1048
▁rivers	-12.1048
ski	-12.1049
say	-12.1051
ala	-12.1054
▁crypt	-12.1054
▁romances	-12.1055
ek	-12.1055
▁dash	-12.1057
ese	-12.1061
▁lara	-12.1062
flick	-12.1065
▁dope	-12.1071
wan	-12.1079
▁yells	-12.1085
▁27	-12.1088
▁theft	-12.1091
jennifer	-12.1094
▁monologues	-12.1094
▁chops	-12.1098
albe	-12.1105
talking	-12.1107
pi	-12.1113
▁husbands	-12.1114
▁europeans	-12.1117
pan	-12.1118
▁overacts	-12.1124
▁conduct	-12.1126
▁advances	-12.1139
▁mastermind	-12.1139
▁distinctive	-12.1141
▁permanent	-12.1141
!!!!!!	-12.1142
▁scriptwriter	-12.1144
▁increasing	-12.1145
▁banks	-12.1146
▁quant	-12.1149
▁adventurous	-12.115
▁arrogance	-12.115
▁carriage	-12.115
▁impeccable	-12.115
▁mcdowell	-12.115
▁spectrum	-12.115
▁unnecessarily	-12.115
▁unnerving	-12.115
▁autobiography	-12.115
▁fairbanks	-12.115
▁kristofferson	-12.115
▁rebellion	-12.115
▁seattle	-12.115
▁fiasco	-12.115
▁houston	-12.115
▁rumble	-12.115
▁denver	-12.115
▁revolving	-12.115
loved	-12.115
▁randall	-12.115
▁attendant	-12.115
▁revival	-12.115
▁stepmother	-12.115
▁patent	-12.115
▁overwrought	-12.115
▁skipping	-12.115
▁electricity	-12.115
▁fellini	-12.1151
▁plantation	-12.1151
▁accidental	-12.1151
▁reform	-12.1152
▁playwright	-12.1152
▁stirring	-12.1152
▁saloon	-12.1152
▁breathless	-12.1152
▁deception	-12.1153
▁deanna	-12.1153
▁traumatic	-12.1154
▁ro	-12.1154
▁agreement	-12.1154
▁dopey	-12.1154
▁overshadowed	-12.1155
▁letterman	-12.1155
▁sylvia	-12.1156
▁angelina	-12.1156
▁scoop	-12.1158
▁crane	-12.1158
▁evelyn	-12.1159
▁deliverance	-12.1159
dance	-12.116
▁drifter	-12.116
▁derived	-12.1163
▁carly	-12.1163
▁polar	-12.1163
▁harp	-12.1166
▁downtown	-12.1166
▁strained	-12.1167
mary	-12.1168
▁villagers	-12.117
▁indulge	-12.1173
beat	-12.1181
▁junkie	-12.1186
▁linear	-12.1187
▁snap	-12.119
▁attic	-12.1193
(!)	-12.1195
▁accuse	-12.1196
▁outlaw	-12.1196
▁prostitutes	-12.1198
loud	-12.1199
mercifully	-12.1199
▁hicks	-12.1216
▁traditions	-12.1225
worker	-12.1226
▁shawn	-12.1228
▁searched	-12.1229
▁/>****	-12.1233
▁wa	-12.1233
▁whit	-12.1239
▁kidnaps	-12.1241
opera	-12.1242
centered	-12.1243
wrote	-12.1243
▁novelist	-12.1244
cool	-12.1245
had	-12.1254
▁shout	-12.1257
characters	-12.1258
▁proportions	-12.1259
▁dominate	-12.1262
▁hail	-12.1266
▁lecture	-12.1267
▁vault	-12.127
▁favourites	-12.127
▁opt	-12.127
▁balloon	-12.1271
▁chuckles	-12.1271
▁chin	-12.1272
▁paycheck	-12.1272
▁turtle	-12.1272
foot	-12.1276
▁dreaming	-12.1276
▁peril	-12.1276
▁mat	-12.128
▁cord	-12.129
▁patch	-12.1292
▁incidental	-12.1293
semblance	-12.1295
▁fassbinder	-12.1297
▁academic	-12.1297
▁scheming	-12.1297
▁sentinel	-12.1297
▁sweeney	-12.1297
▁rhys	-12.1297
▁tepid	-12.1297
▁britney	-12.1297
▁gym	-12.1297
▁vader	-12.1297
▁harlow	-12.1297
▁olsen	-12.1297
▁idealistic	-12.1297
▁arnie	-12.1297
ris	-12.1297
▁penis	-12.1298
▁choir	-12.1298
▁galactica	-12.1298
▁suggestive	-12.1298
▁kinky	-12.1298
▁stance	-12.1298
▁beowulf	-12.1299
▁blaxploitation	-12.1299
▁transparent	-12.1299
▁borderline	-12.1299
▁scam	-12.1299
▁soderbergh	-12.1299
▁schwarzenegger	-12.13
▁kazan	-12.13
▁brent	-12.13
▁scattered	-12.13
▁katie	-12.13
▁denied	-12.1301
▁platoon	-12.1302
▁dudley	-12.1302
▁consumed	-12.1302
▁peggy	-12.1302
▁ernie	-12.1304
▁bogus	-12.1304
▁policemen	-12.1304
▁forrest	-12.1305
▁subtitled	-12.1305
▁scarface	-12.1305
▁skateboarding	-12.1308
▁allegedly	-12.1311
▁distinguished	-12.1311
▁signal	-12.1311
▁holden	-12.1311
▁csi	-12.1312
▁gods	-12.1312
▁revolting	-12.1314
▁arranged	-12.1315
▁crushed	-12.1319
▁adequately	-12.1319
▁weep	-12.1324
▁pranks	-12.1326
▁coal	-12.1327
▁pals	-12.1334
zi	-12.1338
▁networks	-12.1338
▁oriented	-12.1341
▁rot	-12.1347
▁nickname	-12.1351
▁den	-12.1357
▁/>1	-12.136
given	-12.1365
▁talentless	-12.1368
▁brooke	-12.1368
▁lam	-12.1376
▁shaped	-12.1376
▁pic	-12.1379
▁crank	-12.1379
could	-12.1388
jeff	-12.139
lewis	-12.1391
▁inhabit	-12.1392
dog	-12.1394
frank	-12.1396
▁services	-12.14
▁awarded	-12.14
▁annoy	-12.14
▁talky	-12.1401
▁manga	-12.1406
▁loop	-12.1407
▁recurr	-12.1412
▁serials	-12.1413
▁extend	-12.142
▁temptation	-12.1421
▁collaboration	-12.1424
▁virtue	-12.1425
▁shred	-12.1427
▁chemical	-12.1429
▁propose	-12.1434
▁sabotage	-12.1435
ery	-12.1436
sound	-12.144
▁heal	-12.1442
▁cohesive	-12.1445
▁existential	-12.1446
▁ambiance	-12.1446
▁ceremony	-12.1446
▁connecticut	-12.1446
▁scheider	-12.1446
▁biological	-12.1446
▁boundaries	-12.1446
▁tedium	-12.1446
▁mabel	-12.1446
▁retirement	-12.1446
▁supermarket	-12.1446
▁drugged	-12.1447
▁demeanor	-12.1447
▁barbra	-12.1447
▁supportive	-12.1447
▁handicapped	-12.1447
▁diversity	-12.1447
▁congo	-12.1448
earth	-12.1449
▁poitier	-12.1449
▁blazing	-12.1449
▁duchovny	-12.145
▁diabolical	-12.1451
▁ledger	-12.1451
▁pornographic	-12.1451
▁asset	-12.1451
▁cedric	-12.1452
▁bigfoot	-12.1452
▁spawned	-12.1453
▁condemned	-12.1453
▁cecil	-12.1453
▁gershwin	-12.1453
▁veronica	-12.1453
▁techno	-12.1455
▁stephanie	-12.1455
▁sail	-12.1457
▁lingering	-12.1458
▁courtesy	-12.1458
▁lindsay	-12.1459
▁zu	-12.1461
▁geniuses	-12.1462
▁muslims	-12.1462
▁whip	-12.1462
▁sheila	-12.1463
brian	-12.1468
▁justification	-12.1471
uh	-12.1479
▁endured	-12.1479
▁disappearing	-12.1485
ver	-12.1485
▁terrorize	-12.1486
▁commanding	-12.1488
▁animators	-12.1489
▁walters	-12.1491
▁subconscious	-12.1494
▁eyed	-12.1501
▁advised	-12.1502
▁coincidences	-12.1504
▁dreadfully	-12.1505
kate	-12.1508
▁lightly	-12.151
▁monumental	-12.1511
▁lili	-12.1517
tan	-12.1519
character	-12.152
▁deed	-12.1529
▁truthful	-12.1529
▁apologize	-12.1531
▁numbing	-12.1535
▁spears	-12.1539
barbara	-12.1542
stupid	-12.1542
natured	-12.1543
▁stones	-12.1546
▁seth	-12.1546
roll	-12.1547
▁sorrow	-12.1547
▁barn	-12.1548
ov	-12.155
▁travell	-12.155
▁bum	-12.1552
▁plug	-12.1555
?!?	-12.1561
▁shrink	-12.1563
▁lesbians	-12.1564
▁nana	-12.1564
▁clubs	-12.1565
▁com	-12.1567
▁ongoing	-12.1569
▁tackle	-12.1569
▁cowboys	-12.1571
▁differ	-12.1572
▁portions	-12.1572
rie	-12.1579
▁spoon	-12.158
▁zealand	-12.1584
▁splash	-12.1584
▁qualifie	-12.1586
▁tits	-12.1587
▁puke	-12.1588
▁spray	-12.1588
▁crass	-12.1589
▁continuous	-12.1589
▁discipline	-12.1591
tion	-12.1592
▁morse	-12.1597
▁competing	-12.1598
▁dafoe	-12.1598
▁versatile	-12.1598
▁fitzgerald	-12.1598
▁gilliam	-12.1598
▁elusive	-12.1598
▁implies	-12.1598
▁seuss	-12.1598
▁wrath	-12.1598
▁cynicism	-12.1598
▁unfinished	-12.1598
▁levy	-12.1598
▁naval	-12.1598
▁skipped	-12.1598
▁fabric	-12.1598
▁lightweight	-12.1598
▁stomp	-12.1599
▁sociopath	-12.1599
▁hustler	-12.1599
▁anatomy	-12.16
▁external	-12.16
mel	-12.16
▁disconnected	-12.16
▁voyager	-12.1601
▁hostel	-12.1603
ella	-12.1603
▁intersperse	-12.1603
▁staggering	-12.1603
▁drowned	-12.1604
▁1955	-12.1604
▁hometown	-12.1604
▁antwone	-12.1606
▁timon	-12.1606
▁lorenzo	-12.1606
▁rko	-12.1607
▁masterson	-12.1607
saw	-12.1608
▁dusty	-12.161
pin	-12.1611
thought	-12.1611
▁mandy	-12.1612
▁criticisms	-12.1613
▁lawn	-12.162
▁enormously	-12.1621
▁overused	-12.1621
▁woke	-12.1625
▁4)	-12.1625
▁knees	-12.1627
▁chef	-12.1627
▁kindly	-12.1629
▁swan	-12.1629
fun	-12.163
▁cock	-12.1632
▁significantly	-12.1633
▁maze	-12.1637
▁counterparts	-12.1637
ura	-12.1639
▁defending	-12.1641
▁ri	-12.1643
▁cheaper	-12.1645
ach	-12.165
▁cos	-12.1651
▁ruled	-12.1659
▁risks	-12.1661
oz	-12.1662
▁worrying	-12.1663
▁bass	-12.1664
▁rea	-12.1665
▁participants	-12.1665
▁atwill	-12.1668
▁crowded	-12.1668
▁ridden	-12.1677
▁pros	-12.1678
piece	-12.1679
▁brass	-12.1681
▁cloth	-12.169
▁papers	-12.1691
▁eli	-12.1694
sexual	-12.1694
fe	-12.1694
stephen	-12.1695
danny	-12.1696
▁hatch	-12.1701
▁mack	-12.1702
▁wrongly	-12.1707
complete	-12.171
workers	-12.1721
▁sights	-12.1722
▁collapse	-12.1723
▁hooks	-12.1724
yo	-12.1725
▁paula	-12.1725
▁sigh	-12.1726
▁manners	-12.1727
effects	-12.1732
▁innuendo	-12.1733
▁landmark	-12.1735
▁rack	-12.1738
▁epics	-12.1739
▁retrieve	-12.174
▁slips	-12.1741
▁presume	-12.1741
▁discount	-12.1742
▁acclaim	-12.1742
scott	-12.1744
ola	-12.1746
▁robber	-12.1747
▁carnosaur	-12.1751
▁identities	-12.1751
▁komodo	-12.1751
▁monstrous	-12.1751
▁roosevelt	-12.1751
▁ounce	-12.1751
▁unstable	-12.1751
▁whimsical	-12.1751
▁culprit	-12.1751
▁goldsworthy	-12.1751
▁bachchan	-12.1751
▁avenue	-12.1751
▁slumber	-12.1751
▁cockney	-12.1751
▁yarn	-12.1751
▁assistance	-12.1752
▁cheung	-12.1752
▁perversion	-12.1752
▁uncertain	-12.1752
▁gilmore	-12.1752
▁tempest	-12.1752
▁quintessential	-12.1752
▁voting	-12.1752
▁uneasy	-12.1752
▁resurrection	-12.1752
▁shady	-12.1752
▁engagement	-12.1752
▁loony	-12.1752
▁1975	-12.1753
▁circuit	-12.1753
▁vaudeville	-12.1753
▁carpet	-12.1753
▁outdoor	-12.1753
▁pleasures	-12.1753
▁minnelli	-12.1754
▁laurie	-12.1755
▁quaint	-12.1755
▁theodore	-12.1755
▁baddie	-12.1756
▁farewell	-12.1756
▁ver	-12.1756
▁armageddon	-12.1756
▁capsule	-12.1756
▁spinning	-12.1756
▁caroline	-12.1757
▁zoo	-12.1758
▁russ	-12.1758
▁miraculously	-12.1759
▁circa	-12.1759
▁arkin	-12.1759
▁environmental	-12.176
ification	-12.176
▁genie	-12.1761
▁download	-12.1763
▁marcus	-12.1765
100	-12.1769
▁traps	-12.1772
▁deeds	-12.1775
!!)	-12.178
▁sonny	-12.1783
bs	-12.1783
▁winners	-12.1784
▁lap	-12.1784
▁sacrifices	-12.1786
12	-12.1786
▁praying	-12.1788
▁committ	-12.1791
home	-12.1792
▁bynes	-12.1796
▁absorbed	-12.18
▁mobsters	-12.1805
▁cleaner	-12.1805
▁perspectives	-12.1806
lie	-12.1811
▁goth	-12.182
▁telly	-12.1824
ci	-12.183
murder	-12.1832
▁mon	-12.1835
▁springs	-12.1836
ries	-12.1837
▁girlfriends	-12.1842
gar	-12.1845
▁revelations	-12.1847
developed	-12.1848
interesting	-12.185
▁bog	-12.1851
daniel	-12.1851
often	-12.1853
▁stud	-12.1856
▁mul	-12.1862
matt	-12.1863
gene	-12.1863
▁tones	-12.1864
someone	-12.1866
▁intelligently	-12.187
▁7/10.	-12.1876
starring	-12.1883
cum	-12.1884
▁ratio	-12.1889
▁elicit	-12.1891
▁martian	-12.1895
▁missile	-12.1895
▁gesture	-12.1895
▁midget	-12.1898
▁stamp	-12.1898
▁menu	-12.1899
▁convert	-12.1901
▁sp	-12.1901
▁ren	-12.1905
▁grain	-12.1905
▁intellect	-12.1908
▁categories	-12.1908
▁floyd	-12.1908
▁gardner	-12.1908
▁maturity	-12.1908
▁necessity	-12.1908
▁sydow	-12.1908
▁switzerland	-12.1908
▁rabid	-12.1908
▁schrader	-12.1908
▁saddest	-12.1908
▁bloodshed	-12.1908
▁grammar	-12.1908
▁chong	-12.1908
▁predictability	-12.1908
▁vulnerability	-12.1908
▁shylock	-12.1908
▁rampant	-12.1908
▁esther	-12.1908
▁visceral	-12.1908
▁throne	-12.1908
▁solomon	-12.1908
▁prue	-12.1908
▁dressler	-12.1908
▁irresistible	-12.1908
▁truman	-12.1909
▁breakthrough	-12.1909
▁backwoods	-12.1909
▁communism	-12.191
▁millennium	-12.191
▁thirteen	-12.191
▁honorable	-12.191
▁benjamin	-12.1911
▁chavez	-12.1911
▁censorship	-12.1911
je	-12.1911
▁harriet	-12.1912
▁mathieu	-12.1912
▁katherine	-12.1913
▁ostensibly	-12.1913
▁carlyle	-12.1913
▁downbeat	-12.1913
▁grandpa	-12.1914
▁kisses	-12.1914
▁unleashed	-12.1914
▁eleanor	-12.1914
▁carroll	-12.1915
▁skating	-12.1915
▁judd	-12.1916
▁rudd	-12.1917
▁lick	-12.1919
▁hugo	-12.1919
▁fantastically	-12.1919
▁deborah	-12.192
gy	-12.1921
▁motivated	-12.1922
▁blessed	-12.1925
▁9/10.	-12.1928
▁/>1/10	-12.1929
▁charges	-12.193
▁aerial	-12.1935
▁va	-12.1943
▁chewing	-12.1945
misunderstanding	-12.1954
▁failures	-12.196
▁ta	-12.1963
▁reduce	-12.1965
▁happenings	-12.1966
power	-12.1969
▁mills	-12.1973
▁inducing	-12.1975
▁conflicted	-12.1981
cat	-12.1981
▁responds	-12.1982
▁trusted	-12.1986
▁burnt	-12.1987
▁mia	-12.1988
conscious	-12.1999
▁interpretations	-12.1999
ations	-12.2001
candy	-12.2012
honestly	-12.2012
▁testing	-12.2016
▁inch	-12.2016
▁oriental	-12.2019
alan	-12.202
berg	-12.2021
pieces	-12.2024
▁chips	-12.2026
▁halt	-12.2026
either	-12.203
bomb	-12.2031
ann	-12.2039
▁dorm	-12.2044
▁illustrate	-12.2044
▁posse	-12.2047
▁barbarian	-12.2053
▁languages	-12.2056
▁dominic	-12.2058
▁whack	-12.2058
▁import	-12.2059
▁electronic	-12.206
▁curtain	-12.206
▁refuge	-12.2061
▁entertainer	-12.2063
▁adjust	-12.2064
▁keyboard	-12.2065
▁hawaii	-12.2066
▁agonizing	-12.2066
▁concentration	-12.2066
▁exorcism	-12.2066
▁sensibilities	-12.2066
▁sophistication	-12.2066
▁bartender	-12.2066
▁keitel	-12.2066
▁wreak	-12.2066
▁misplaced	-12.2066
▁capshaw	-12.2066
▁placing	-12.2066
▁knack	-12.2066
▁unremarkable	-12.2066
▁aniston	-12.2066
▁draft	-12.2066
▁drummer	-12.2067
▁singular	-12.2067
▁iranian	-12.2067
▁athletic	-12.2067
▁phantasm	-12.2068
▁dung	-12.2068
▁fiennes	-12.2069
▁confederate	-12.2069
▁reese	-12.2069
▁imprisoned	-12.2069
▁delta	-12.207
▁marvin	-12.2071
▁legion	-12.2071
▁lukas	-12.2072
▁cliffhanger	-12.2072
▁expresses	-12.2073
▁ranting	-12.2073
▁monday	-12.2073
▁misty	-12.2075
▁announced	-12.2075
▁thorn	-12.2075
▁kathleen	-12.2076
▁drowning	-12.2077
▁warped	-12.2078
▁shamelessly	-12.2078
▁beforehand	-12.2078
▁duff	-12.2082
rick	-12.2084
▁contributes	-12.2086
▁crispin	-12.2089
▁output	-12.209
▁influences	-12.209
▁sox	-12.2091
▁nailed	-12.2094
▁rips	-12.2095
▁fixed	-12.2097
▁boxes	-12.2099
▁maintained	-12.21
induced	-12.2105
(?)	-12.2105
▁armor	-12.2105
▁cheats	-12.2108
▁poop	-12.2113
▁fighters	-12.2124
▁toned	-12.2132
▁wrenching	-12.2135
▁que	-12.2139
▁hairy	-12.2142
▁photograph	-12.2146
▁protecting	-12.2149
third	-12.2153
jane	-12.2155
▁counted	-12.2156
▁eater	-12.2156
original	-12.2162
▁lastly	-12.2162
enjoy	-12.2171
worst	-12.2172
bruce	-12.2172
actresses	-12.2173
▁slugs	-12.2177
▁ada	-12.2183
▁fleet	-12.2183
▁reasoning	-12.2184
steve	-12.2186
▁boob	-12.2191
secondly	-12.2192
▁sins	-12.2194
gra	-12.22
eg	-12.2206
▁exhibit	-12.221
ong	-12.2213
▁riff	-12.2216
▁alliance	-12.2216
▁anguish	-12.2218
▁shield	-12.2219
▁sparse	-12.2219
▁volumes	-12.222
aud	-12.222
▁grating	-12.2222
▁passenger	-12.2224
▁stripper	-12.2224
mu	-12.2224
▁agatha	-12.2228
▁conniving	-12.2228
▁desolate	-12.2228
▁dolemite	-12.2228
▁evocative	-12.2228
▁foreboding	-12.2228
▁irrational	-12.2228
▁luxury	-12.2228
▁mishima	-12.2228
▁oblivion	-12.2228
▁sophomoric	-12.2228
▁torturing	-12.2228
▁wynorski	-12.2228
▁quigley	-12.2228
▁soylent	-12.2228
▁cotton	-12.2228
▁lennon	-12.2228
▁bathtub	-12.2228
▁mockery	-12.2228
▁scarred	-12.2228
▁sunrise	-12.2228
▁babysitter	-12.2228
▁bloodthirsty	-12.2228
▁irving	-12.2228
▁caretaker	-12.2228
▁governor	-12.2228
▁1947	-12.2229
▁classified	-12.2229
▁devious	-12.223
▁mendes	-12.2231
▁festivals	-12.2231
▁tenderness	-12.2231
▁tide	-12.2231
▁conductor	-12.2232
▁distorted	-12.2232
▁slavery	-12.2232
▁pathetically	-12.2233
▁lyrical	-12.2233
▁publisher	-12.2233
▁baffled	-12.2234
▁hunky	-12.2234
▁crowe	-12.2234
▁overwhelmed	-12.2234
▁delirious	-12.2235
▁solving	-12.2235
▁correctness	-12.2235
▁succession	-12.2235
▁kathryn	-12.2236
▁vinnie	-12.2236
▁coin	-12.2236
▁homo	-12.2236
▁varying	-12.224
▁expressive	-12.2241
▁backed	-12.2242
▁imho	-12.2242
▁harlin	-12.2242
2)	-12.2243
▁schemes	-12.2243
▁dismissed	-12.2244
▁dar	-12.2244
▁darkly	-12.2245
▁bergen	-12.2247
▁weirdness	-12.2248
▁snowy	-12.225
▁widowed	-12.2254
▁rowlands	-12.2254
▁capt	-12.2255
▁dispose	-12.2256
whom	-12.2256
▁destructive	-12.2258
▁nan	-12.2258
▁encouraged	-12.2259
▁stoic	-12.2262
▁miner	-12.2263
pr	-12.2268
▁traitor	-12.2268
▁helm	-12.227
▁worm	-12.2277
aki	-12.2278
▁representing	-12.2279
▁amid	-12.2281
▁stakes	-12.2281
▁sha	-12.2286
▁formal	-12.229
▁amateurs	-12.229
port	-12.2293
▁lovingly	-12.2293
rr	-12.2299
▁salvage	-12.2301
▁bites	-12.2303
elli	-12.2309
▁classmates	-12.2312
▁entertains	-12.2318
▁aura	-12.232
should	-12.2324
▁unravel	-12.2325
talk	-12.2326
thical	-12.233
educated	-12.2335
husband	-12.2336
thomas	-12.2336
culture	-12.2336
▁hosts	-12.2339
hence	-12.2339
▁sections	-12.2341
▁badness	-12.235
▁logo	-12.235
▁gam	-12.2356
▁italians	-12.2358
▁bikers	-12.2361
▁fades	-12.2363
ite	-12.2369
▁bridget	-12.2371
▁reckon	-12.2375
▁authors	-12.2375
ward	-12.2376
▁hor	-12.2378
▁nerds	-12.2379
bb	-12.2379
▁squirm	-12.2379
▁undermine	-12.2381
▁peaks	-12.2382
▁unconscious	-12.2383
▁owl	-12.2384
du	-12.2385
▁sibling	-12.2387
▁soprano	-12.2389
▁earns	-12.2389
qui	-12.239
▁percent	-12.2392
▁schumacher	-12.2392
▁appalled	-12.2392
▁incompetence	-12.2392
▁monstrosity	-12.2392
▁patriarch	-12.2392
▁piranha	-12.2392
▁stalwart	-12.2392
▁superlative	-12.2392
▁cringing	-12.2392
▁gruff	-12.2392
▁flea	-12.2392
▁constraints	-12.2392
▁padded	-12.2392
▁radar	-12.2392
▁irresponsible	-12.2392
▁norma	-12.2392
▁commendable	-12.2392
▁colony	-12.2392
▁anxiety	-12.2392
▁langdon	-12.2393
▁bullies	-12.2393
▁greece	-12.2393
▁saboteur	-12.2393
▁prolonged	-12.2394
▁worldwide	-12.2394
▁stunk	-12.2394
▁dangers	-12.2395
▁controlling	-12.2395
▁botched	-12.2396
▁oprah	-12.2396
▁10!	-12.2396
▁sim	-12.2396
▁charley	-12.2396
▁rockne	-12.2397
▁diesel	-12.2398
▁robbing	-12.2399
▁timmy	-12.2401
▁crop	-12.2402
▁expanded	-12.2403
▁007	-12.2404
▁restraint	-12.2406
▁shakespearean	-12.2406
▁phones	-12.2406
▁assort	-12.2409
▁saints	-12.2409
marisa	-12.2411
▁healing	-12.2411
??)	-12.2412
▁blessing	-12.2412
▁slaughtered	-12.2414
▁adored	-12.2414
▁observed	-12.2414
▁punks	-12.2416
▁jerky	-12.2417
▁scarecrows	-12.2419
▁usage	-12.2419
▁amok	-12.242
▁riches	-12.2424
▁replay	-12.2426
▁anita	-12.243
▁smallest	-12.2431
▁intellectually	-12.2431
▁missions	-12.2432
▁plunge	-12.2432
▁ple	-12.2435
▁yul	-12.2435
▁encourages	-12.2445
outs	-12.2448
lar	-12.245
▁dale	-12.2451
ning	-12.2454
▁rene	-12.2457
▁dialect	-12.246
▁aspire	-12.246
▁structured	-12.2464
▁professionally	-12.247
▁amoral	-12.2473
▁hare	-12.2491
ied	-12.2492
kim	-12.2492
▁mol	-12.2494
▁thereafter	-12.2496
▁outlook	-12.2497
▁ghostly	-12.2498
▁tar	-12.2498
▁explanations	-12.25
enchant	-12.2506
rk	-12.2506
▁trait	-12.2507
themed	-12.2508
vy	-12.251
▁realises	-12.2512
western	-12.2515
▁dukes	-12.2517
▁sg	-12.2518
▁preach	-12.2522
▁fund	-12.2522
▁alarm	-12.2531
▁flirt	-12.2538
▁eclipse	-12.2542
▁habits	-12.2543
▁pervert	-12.2544
▁float	-12.2545
▁snatch	-12.2545
▁preserve	-12.2547
alien	-12.2547
▁tools	-12.2549
ram	-12.255
▁revive	-12.255
▁honour	-12.255
▁instincts	-12.255
▁genetic	-12.2552
▁thankful	-12.2553
▁potent	-12.2554
▁instruments	-12.2555
▁contend	-12.2556
▁anniversary	-12.2558
▁baffling	-12.2558
▁constitute	-12.2558
▁idiocy	-12.2558
▁infidelity	-12.2558
▁krueger	-12.2558
▁wolves	-12.2558
▁january	-12.2558
▁talbot	-12.2558
▁suzanne	-12.2558
▁signature	-12.2558
▁zhang	-12.2558
▁cursing	-12.2558
▁scum	-12.2558
▁ploy	-12.2558
▁liotta	-12.2559
▁stitches	-12.2559
▁uninspiring	-12.2559
▁duckling	-12.2559
▁rivalry	-12.2559
▁tucker	-12.2559
▁litter	-12.256
▁upstairs	-12.256
▁beckinsale	-12.256
▁slayer	-12.256
▁gently	-12.256
▁surrealism	-12.256
▁ravishing	-12.256
▁bloodbath	-12.2561
▁sammo	-12.2561
▁grandson	-12.2562
▁colbert	-12.2562
▁automatic	-12.2562
▁klaus	-12.2562
▁platform	-12.2563
▁hutton	-12.2563
▁gusto	-12.2563
▁shiny	-12.2564
▁emilio	-12.2564
▁starship	-12.2565
▁raving	-12.2565
▁dino	-12.2565
▁rotting	-12.2566
▁dirk	-12.2566
▁0/10	-12.2566
▁judith	-12.2566
▁functions	-12.2567
▁continuously	-12.2567
▁fascist	-12.2569
▁searches	-12.257
▁prone	-12.2571
▁jedi	-12.2571
▁finishes	-12.2574
▁fulfilled	-12.2574
▁liam	-12.2574
▁eliminated	-12.2575
▁meek	-12.2576
▁locker	-12.2577
▁butchered	-12.2577
▁pok	-12.2578
▁(199	-12.258
fan	-12.2581
▁stu	-12.2584
tley	-12.2585
▁downside	-12.2588
sister	-12.259
fiery	-12.2591
▁erik	-12.2594
▁saddle	-12.2594
put	-12.2595
▁sentenced	-12.2597
▁sacrificed	-12.26
▁swords	-12.2601
▁connor	-12.2611
▁tables	-12.2611
▁pressed	-12.2616
hal	-12.2617
▁manson	-12.2618
▁sweep	-12.2618
▁monks	-12.2619
▁deservedly	-12.2625
promoting	-12.2627
!?	-12.2628
▁conveying	-12.263
▁sock	-12.263
▁undergo	-12.2634
▁viva	-12.2635
ez	-12.264
▁creations	-12.2645
▁kindness	-12.2646
pm	-12.2649
▁yea	-12.2651
▁capitalize	-12.2655
▁barbie	-12.2655
▁leone	-12.2658
▁dial	-12.2659
ical	-12.2661
social	-12.2661
▁reels	-12.2665
▁mash	-12.2668
?!?!	-12.267
▁42	-12.2671
apocalyptic	-12.2671
between	-12.2672
boyfriend	-12.2672
sort	-12.2676
evil	-12.2679
billy	-12.2681
▁loos	-12.2682
▁violently	-12.2682
▁moss	-12.2686
▁sur	-12.2687
▁buys	-12.2687
due	-12.2691
▁mannered	-12.2692
▁disturb	-12.2702
▁feared	-12.2703
8)	-12.2703
▁daft	-12.2705
▁powerfully	-12.271
▁dock	-12.271
▁/>2	-12.271
▁brits	-12.2713
▁evolve	-12.2716
nny	-12.2717
ung	-12.2717
ade	-12.2718
▁infectious	-12.2719
▁unsuccessful	-12.272
▁airing	-12.2722
▁impersonation	-12.2723
▁fathers	-12.2724
▁beetle	-12.2724
▁snail	-12.2726
cu	-12.2726
▁freely	-12.2727
▁englund	-12.2728
▁marijuana	-12.2728
▁november	-12.2728
▁prevalent	-12.2728
▁adept	-12.2728
▁sordid	-12.2728
▁muscular	-12.2728
▁interrogation	-12.2728
▁overseas	-12.2728
▁baxter	-12.2728
▁forehead	-12.2728
▁minnie	-12.2728
▁northwest	-12.2728
▁textbook	-12.2728
▁cement	-12.2728
▁freddie	-12.2728
▁luther	-12.2729
▁rejection	-12.2729
▁unlucky	-12.2729
▁ironside	-12.2729
▁unforgivable	-12.2729
▁surpasses	-12.2729
▁emergency	-12.2729
▁stimulating	-12.2729
▁extraordinari	-12.273
▁vertigo	-12.273
▁kiddie	-12.273
▁standpoint	-12.2731
▁garcia	-12.2731
▁trier	-12.2731
▁seduction	-12.2732
▁wahlberg	-12.2732
▁duncan	-12.2732
▁wildlife	-12.2734
▁battlestar	-12.2734
▁artistically	-12.2736
▁nat	-12.2737
▁fleeting	-12.2738
▁jodie	-12.2739
▁punished	-12.2739
▁hunger	-12.274
▁aptly	-12.274
▁unrated	-12.274
▁elijah	-12.274
▁dreamed	-12.274
▁mona	-12.2741
▁inhabited	-12.2741
▁interpreted	-12.2741
▁exceeding	-12.2742
▁'50	-12.2743
▁reunited	-12.2745
▁predecessors	-12.2746
▁throats	-12.275
▁relates	-12.2751
▁wimp	-12.2754
▁imply	-12.2755
▁strangest	-12.2757
........	-12.2761
▁archive	-12.2763
sic	-12.2764
▁attributes	-12.2766
▁billie	-12.2768
▁systems	-12.2772
▁fewer	-12.2785
▁clients	-12.279
>	-12.2793
▁convicts	-12.2796
ria	-12.2797
numbers	-12.2799
ona	-12.28
▁ooze	-12.2801
▁sample	-12.2802
▁ala	-12.2807
▁extract	-12.2809
▁hadley	-12.281
▁afro	-12.2812
▁emotionless	-12.2813
▁corridors	-12.2814
▁goofs	-12.2817
▁expressing	-12.2817
▁dreamy	-12.282
▁indulgent	-12.2826
▁budgets	-12.2828
▁jerks	-12.283
sided	-12.283
▁tourists	-12.2832
▁stumbl	-12.2833
▁locale	-12.2836
▁bliss	-12.284
▁censors	-12.2843
holland	-12.2844
dropping	-12.2844
english	-12.2844
otherwise	-12.2845
▁limbs	-12.2848
rat	-12.2853
dream	-12.2858
cho	-12.2862
roy	-12.2865
▁cassel	-12.2868
▁tub	-12.2879
warming	-12.2885
▁towns	-12.2886
▁moan	-12.2888
ud	-12.2889
▁perceive	-12.2891
▁neighbours	-12.2893
▁pond	-12.2896
▁delay	-12.2899
▁concrete	-12.29
▁crummy	-12.29
▁epitome	-12.29
▁intimacy	-12.29
▁janitor	-12.29
▁kutcher	-12.29
▁pryor	-12.29
▁vengeful	-12.29
▁jigsaw	-12.29
▁climate	-12.29
▁shaft	-12.29
▁shrill	-12.29
▁dassin	-12.29
▁administration	-12.29
▁vienna	-12.29
▁committee	-12.29
▁tiring	-12.29
▁jolly	-12.29
▁wanda	-12.29
▁deck	-12.29
▁nutty	-12.2901
▁diversion	-12.2901
▁stoop	-12.2901
▁1944	-12.2901
▁bsg	-12.2901
▁presidential	-12.2901
▁noticing	-12.2901
▁tomei	-12.2901
▁requisite	-12.2902
▁undeveloped	-12.2902
▁achieving	-12.2902
▁instrument	-12.2902
▁massey	-12.2902
▁midway	-12.2902
▁cheesiness	-12.2903
▁haggard	-12.2903
▁socks	-12.2903
▁democracy	-12.2903
▁rugged	-12.2903
▁cheerleader	-12.2904
▁enforcement	-12.2904
▁henchman	-12.2904
▁honeymoon	-12.2904
▁adultery	-12.2904
▁underused	-12.2904
▁shrek	-12.2905
▁gwyne	-12.2905
▁memento	-12.2905
▁siege	-12.2905
iv	-12.2905
▁banana	-12.2905
▁icons	-12.2905
▁ventura	-12.2906
▁cocky	-12.2906
▁tu	-12.2906
▁relieved	-12.2907
▁refugee	-12.2907
▁dario	-12.2907
▁renowned	-12.2907
▁billion	-12.2907
▁guru	-12.2908
▁stabbing	-12.2908
▁tragically	-12.2908
▁stooge	-12.2908
▁chiller	-12.291
▁troll	-12.2911
▁fling	-12.2914
▁supremely	-12.2916
▁lump	-12.2916
▁patrol	-12.2918
slow	-12.2918
▁declared	-12.292
▁visitor	-12.2926
▁brandon	-12.2929
▁locales	-12.2932
▁penned	-12.2932
▁files	-12.2933
▁mocking	-12.2933
▁informs	-12.2934
▁collecting	-12.2936
▁premiered	-12.294
▁/>5.	-12.2946
▁simpler	-12.2947
seen	-12.2948
▁restless	-12.2954
late	-12.2957
script	-12.296
▁loot	-12.2965
▁stares	-12.2967
▁1934	-12.2971
▁steppe	-12.2978
▁mm	-12.2984
▁dunn	-12.2984
liness	-12.2987
▁/>3)	-12.2993
▁hick	-12.2999
▁prejudices	-12.3004
▁controls	-12.3007
writing	-12.3008
▁shack	-12.3012
seeing	-12.3013
▁irons	-12.3014
▁thereof	-12.3016
gg	-12.3018
▁hay	-12.3018
sensitive	-12.302
direction	-12.3022
blue	-12.3023
crafted	-12.3024
shirt	-12.3025
clock	-12.3028
▁dug	-12.3035
▁/>10	-12.3045
av	-12.3046
ens	-12.3047
▁sharks	-12.3049
▁mod	-12.305
▁mag	-12.3051
▁prints	-12.3056
*****	-12.3057
▁richly	-12.306
track	-12.3066
▁recognise	-12.3066
▁summarize	-12.3067
▁refund	-12.3068
▁polite	-12.3071
▁efficient	-12.3073
▁mormons	-12.3073
▁conclusions	-12.3074
▁sandwich	-12.3075
▁stubborn	-12.3075
▁soo	-12.3075
▁recreation	-12.3075
▁ellis	-12.3075
▁stylistic	-12.3075
▁gypo	-12.3076
▁nevsky	-12.3076
▁optimism	-12.3076
▁stereotyping	-12.3076
▁turgid	-12.3076
▁caribbean	-12.3076
▁smarmy	-12.3076
▁plummer	-12.3076
▁snoop	-12.3076
▁discernible	-12.3076
▁prehistoric	-12.3076
▁denial	-12.3076
▁venus	-12.3076
▁picnic	-12.3076
▁conroy	-12.3076
▁unemployed	-12.3076
▁hitchhiker	-12.3076
▁sorority	-12.3076
▁waterfront	-12.3076
▁monotone	-12.3076
▁warfare	-12.3077
▁slew	-12.3077
▁debacle	-12.3077
▁replacing	-12.3077
▁rodriguez	-12.3077
▁enthralling	-12.3077
▁muster	-12.3078
▁allegory	-12.3078
▁blurred	-12.3079
▁speechless	-12.3079
▁gladiator	-12.3079
▁accomplishment	-12.3079
▁infant	-12.3079
▁dakota	-12.308
▁daphne	-12.308
▁maureen	-12.308
▁bauer	-12.308
▁josie	-12.3081
▁heartily	-12.3081
▁jessie	-12.3081
▁punchline	-12.3081
▁uber	-12.3081
▁opponent	-12.3082
▁'90	-12.3082
▁contestant	-12.3083
▁farscape	-12.3086
▁eloquent	-12.3086
▁peterson	-12.3086
▁250	-12.3089
▁becky	-12.309
▁waltz	-12.3091
▁homework	-12.3091
▁loren	-12.3093
▁impressions	-12.3094
▁deepest	-12.3094
add	-12.3094
▁farmers	-12.3094
bal	-12.3096
▁dime	-12.3096
▁jacobi	-12.3097
▁allison	-12.3097
▁jared	-12.3099
▁ti	-12.3099
▁bleeding	-12.3102
▁digress	-12.3105
▁colourful	-12.3106
▁muted	-12.3107
▁magazines	-12.3112
▁laden	-12.3115
▁gar	-12.312
▁quirks	-12.3122
holes	-12.3127
▁rocked	-12.3133
nik	-12.3138
▁psychologically	-12.3141
cia	-12.3142
▁welcomed	-12.3148
▁bothering	-12.3148
▁magnificently	-12.3148
lyn	-12.3149
▁caron	-12.3149
▁nit	-12.3159
▁tested	-12.316
oc	-12.3162
▁ming	-12.3163
▁8.	-12.3167
▁believer	-12.317
▁raiders	-12.3174
▁nash	-12.318
▁cr	-12.3181
▁grounded	-12.3182
▁nu	-12.3185
ide	-12.3186
▁heartless	-12.3186
▁cent	-12.3194
connor	-12.3198
thus	-12.3199
angelo	-12.3199
▁insects	-12.3204
▁arrange	-12.3206
▁misfits	-12.3213
found	-12.3215
▁hating	-12.3216
▁til	-12.3217
hl	-12.3219
▁gaze	-12.3224
▁revisit	-12.3229
▁195	-12.3231
▁cram	-12.3234
▁smirk	-12.3238
tony	-12.3238
▁wan	-12.3238
▁rapes	-12.3239
pack	-12.3241
▁slash	-12.3243
▁zombi	-12.3244
uck	-12.3244
▁surpass	-12.3245
deemed	-12.3248
ada	-12.325
game	-12.3251
▁goddess	-12.3253
▁nuance	-12.3253
upon	-12.3253
▁/>3	-12.3254
▁knox	-12.3254
▁compilation	-12.3254
▁costuming	-12.3254
▁disdain	-12.3254
▁fictitious	-12.3254
▁frenetic	-12.3254
▁thwart	-12.3254
▁geisha	-12.3254
▁uncompromising	-12.3254
▁farcical	-12.3254
▁hasselhoff	-12.3254
▁helsing	-12.3254
▁slang	-12.3254
▁demographic	-12.3254
▁architecture	-12.3254
▁milligan	-12.3254
▁feud	-12.3254
▁alluring	-12.3255
▁dross	-12.3255
▁tenacious	-12.3255
▁hiring	-12.3255
▁layer	-12.3255
▁astonished	-12.3255
▁sfx	-12.3255
▁bothers	-12.3255
▁housekeeper	-12.3255
▁longoria	-12.3255
▁exhausted	-12.3256
▁kieslowski	-12.3256
▁mister	-12.3257
▁harper	-12.3257
▁dunno	-12.3257
▁maverick	-12.3257
▁diving	-12.3257
▁partial	-12.3258
▁convent	-12.3258
▁cleopatra	-12.3258
▁notwithstanding	-12.3258
▁truffaut	-12.3258
▁tropical	-12.3258
▁braveheart	-12.3258
▁disk	-12.3258
▁aimless	-12.3258
▁dyke	-12.3259
▁somber	-12.3259
▁illuminated	-12.3259
▁paragraph	-12.326
tte	-12.326
▁cinematographic	-12.326
▁exaggeration	-12.3261
▁moderately	-12.3262
▁nineties	-12.3262
▁1992	-12.3262
▁dependent	-12.3262
▁troupe	-12.3263
▁surpassed	-12.3263
▁barrier	-12.3264
▁neighbour	-12.3264
▁spectator	-12.3265
▁trendy	-12.3266
▁civilian	-12.3266
▁grandparents	-12.3269
▁adopt	-12.3269
▁freshman	-12.3269
▁launched	-12.3272
▁cleverness	-12.3273
▁quarters	-12.3274
▁wwi	-12.3275
▁bonding	-12.3276
▁dogma	-12.3281
▁renee	-12.3287
▁concentrated	-12.3287
▁needlessly	-12.3289
▁cracked	-12.3289
budding	-12.3292
▁freaked	-12.3294
▁spared	-12.33
▁shifting	-12.3302
▁blends	-12.3311
▁weirdo	-12.3314
▁pap	-12.3314
▁pitched	-12.3316
▁raping	-12.3317
▁positions	-12.3317
▁dc	-12.3319
▁spectacularly	-12.332
▁chen	-12.3321
▁teamed	-12.3321
▁duh	-12.3322
▁democratic	-12.3323
▁das	-12.3332
▁allied	-12.3333
▁ida	-12.3334
▁campers	-12.3334
▁fashions	-12.3341
▁locks	-12.3343
▁interiors	-12.3345
▁gel	-12.3351
▁pipe	-12.3353
ically	-12.3357
turn	-12.3366
▁pill	-12.337
chuck	-12.3371
▁hardships	-12.3372
▁assassins	-12.3379
christian	-12.338
▁guise	-12.3382
recommended	-12.3382
▁ar	-12.3382
ultimately	-12.3384
▁lions	-12.3387
running	-12.3387
▁denise	-12.339
▁gimmicks	-12.3391
▁outta	-12.3391
▁ni	-12.3396
▁edges	-12.3397
▁customs	-12.34
▁grips	-12.3405
▁submit	-12.3406
▁goo	-12.3408
▁fee	-12.3411
▁drivers	-12.3416
▁eccleston	-12.3432
▁moviegoers	-12.3432
▁tangle	-12.3433
▁repair	-12.3434
▁winston	-12.3434
▁cyber	-12.3434
▁bags	-12.3435
▁dublin	-12.3436
humphrey	-12.3436
▁atrocities	-12.3436
▁footsteps	-12.3436
▁glimmer	-12.3436
▁knives	-12.3436
▁mcdermott	-12.3436
▁abbey	-12.3436
▁damsel	-12.3436
▁zucco	-12.3436
▁takashi	-12.3436
▁bernsen	-12.3436
▁scantily	-12.3436
▁guidance	-12.3436
▁thailand	-12.3436
▁inheritance	-12.3436
▁calvin	-12.3436
▁formidable	-12.3436
▁patriotism	-12.3436
▁landlord	-12.3436
▁occurring	-12.3436
▁feisty	-12.3437
▁demonstration	-12.3437
▁jewelry	-12.3437
▁dangerfield	-12.3437
▁opus	-12.3437
▁delusional	-12.3437
▁sparkling	-12.3437
▁gosling	-12.3437
▁untalented	-12.3437
▁sacred	-12.3437
▁cheech	-12.3437
▁enthralled	-12.3437
▁tasty	-12.3437
▁virginity	-12.3437
▁echoes	-12.3438
▁approximately	-12.3438
▁android	-12.3439
▁cypher	-12.3439
▁twenties	-12.3439
▁eminent	-12.3439
▁happier	-12.3439
▁upbringing	-12.3439
▁witless	-12.344
▁smuggling	-12.344
▁coverage	-12.3441
▁bickering	-12.3441
▁della	-12.3442
▁rachael	-12.3442
▁marlene	-12.3442
▁marginally	-12.3442
▁rae	-12.3442
▁nuke	-12.3443
▁1942	-12.3443
▁cindy	-12.3444
▁stepping	-12.3445
▁cynthia	-12.3445
▁utilize	-12.3445
▁uncredited	-12.3445
▁predicament	-12.3445
▁disappearance	-12.3446
▁chloe	-12.3446
▁nigel	-12.3447
▁vanishing	-12.3448
soon	-12.3448
▁dripping	-12.3449
▁novella	-12.3449
▁defining	-12.345
▁inherited	-12.3451
▁ilk	-12.3452
▁vh	-12.3454
▁kristin	-12.3454
▁gaming	-12.3454
win	-12.3455
▁leary	-12.3455
mother	-12.3457
bell	-12.3457
▁stoner	-12.3462
▁rumor	-12.3462
▁forgiving	-12.3464
▁plotline	-12.3469
vin	-12.3469
▁carole	-12.3475
▁relaxing	-12.3476
ino	-12.3476
▁poo	-12.3477
rose	-12.348
▁spelled	-12.3482
▁camps	-12.3483
▁documents	-12.3488
▁dreyfuss	-12.3489
▁offerings	-12.3489
▁bathing	-12.3491
▁existent	-12.3492
▁amuse	-12.3492
ita	-12.3494
om	-12.3496
▁lengths	-12.3497
▁artful	-12.3499
▁hark	-12.35
bit	-12.3501
▁amber	-12.3512
▁freed	-12.3513
▁screamed	-12.3515
lly	-12.3516
trip	-12.3516
▁carr	-12.3521
▁annoyingly	-12.3522
▁fend	-12.3524
▁bills	-12.3527
rather	-12.3529
▁fold	-12.353
▁associates	-12.3545
blood	-12.3546
▁loudly	-12.3547
▁pas	-12.3552
▁behaves	-12.3553
▁incomplete	-12.3555
beautiful	-12.3557
▁fry	-12.3558
▁grocer	-12.3559
father	-12.3564
family	-12.3565
baked	-12.3566
classic	-12.3567
ow	-12.3572
▁shaun	-12.3574
▁sap	-12.3574
▁outbreak	-12.3581
▁gum	-12.3583
▁flu	-12.3584
▁insert	-12.3587
▁numb	-12.3588
▁glamour	-12.3598
▁uniquely	-12.3604
▁premier	-12.3606
▁wip	-12.3606
▁wade	-12.3609
▁pioneer	-12.3611
▁resurrect	-12.3613
camp	-12.3613
▁inc	-12.3619
▁adversity	-12.3621
▁appetite	-12.3621
▁caesar	-12.3621
▁cavalry	-12.3621
▁confines	-12.3621
▁glorified	-12.3621
▁mischievous	-12.3621
▁moustache	-12.3621
▁repertoire	-12.3621
▁schtick	-12.3621
▁sheridan	-12.3621
▁staircase	-12.3621
▁tragedies	-12.3621
▁cardinal	-12.3621
▁empathize	-12.3621
▁mandatory	-12.3621
▁intimidating	-12.3621
▁trunk	-12.3621
▁facade	-12.3621
▁oppressive	-12.3621
▁organic	-12.3621
▁amiable	-12.3621
▁duties	-12.3621
▁reincarnation	-12.3621
▁separation	-12.3621
▁chiba	-12.3621
▁ashton	-12.3621
▁trey	-12.3621
▁hypocrisy	-12.3622
▁palette	-12.3622
▁creepiness	-12.3622
▁dummy	-12.3622
▁doses	-12.3622
▁cannibalism	-12.3622
▁1943	-12.3622
▁1951	-12.3622
▁kruger	-12.3622
▁patton	-12.3622
▁concoct	-12.3622
▁stature	-12.3622
▁starving	-12.3623
▁insecure	-12.3623
▁attachment	-12.3623
▁wry	-12.3623
▁clunker	-12.3623
▁lemon	-12.3623
▁northam	-12.3623
▁sixty	-12.3624
ryan	-12.3624
▁temporarily	-12.3624
▁renoir	-12.3624
▁trent	-12.3624
▁rohmer	-12.3625
▁vanilla	-12.3626
▁chandler	-12.3626
▁clarence	-12.3626
▁palestinian	-12.3627
▁widower	-12.3627
▁skillfully	-12.3627
▁distasteful	-12.3628
▁archie	-12.3629
▁december	-12.363
▁babette	-12.363
▁yeti	-12.363
▁veer	-12.3631
▁orbit	-12.3631
▁thelma	-12.3632
▁ufo	-12.3633
▁prospect	-12.3633
▁chalk	-12.3634
▁upsetting	-12.3634
▁cigar	-12.3635
▁dense	-12.3636
▁advertisement	-12.3636
▁rewrite	-12.3637
▁vessel	-12.3637
▁periods	-12.3637
▁seventh	-12.3638
▁options	-12.3638
▁downward	-12.3639
▁adviser	-12.3639
▁seduced	-12.3639
▁protective	-12.3642
▁tess	-12.3644
▁stalin	-12.3645
▁bro	-12.3645
▁wielding	-12.3646
▁examined	-12.3649
▁bernie	-12.3649
▁knights	-12.3653
▁inexperienced	-12.3653
scary	-12.3655
▁thunderbirds	-12.3659
▁blondell	-12.366
possibly	-12.366
▁archer	-12.3662
▁48	-12.3662
▁successor	-12.3664
ett	-12.367
▁spunk	-12.3673
▁proudly	-12.3675
▁meadows	-12.3675
▁meanders	-12.3675
▁demme	-12.3676
▁lawyers	-12.3677
▁wil	-12.3678
hall	-12.3682
▁apocalyptic	-12.3683
▁specialist	-12.3685
▁operatic	-12.3686
dir	-12.3692
11	-12.3692
▁sr	-12.3693
▁peer	-12.3698
▁traveled	-12.3699
hate	-12.37
anger	-12.37
live	-12.3701
▁melv	-12.3702
omi	-12.3704
trust	-12.3707
lia	-12.3708
▁cooler	-12.371
▁cannibals	-12.3711
▁manos	-12.3713
▁ator	-12.3719
ika	-12.3724
wait	-12.3727
▁aims	-12.3728
▁ably	-12.3728
▁monument	-12.3729
▁holidays	-12.3732
▁goers	-12.3734
uous	-12.3735
force	-12.3739
hill	-12.3744
▁bert	-12.3744
▁haha	-12.375
together	-12.3752
▁tick	-12.3752
▁tart	-12.3753
strong	-12.3754
imdb	-12.3754
violence	-12.3754
buster	-12.3756
adam	-12.3757
jan	-12.3761
mainly	-12.3761
▁minimalist	-12.3768
dramatic	-12.377
▁booze	-12.3771
▁befriend	-12.3771
▁2009	-12.3774
▁jeep	-12.3776
▁commentators	-12.3777
▁ab	-12.3782
believe	-12.3784
form	-12.3784
tier	-12.3785
▁boards	-12.3789
▁pauses	-12.379
ali	-12.379
▁vu	-12.3791
▁nuns	-12.3793
▁loathe	-12.3795
ack	-12.3795
▁bogg	-12.3797
▁glue	-12.3798
▁finely	-12.3799
▁za	-12.38
▁devour	-12.3801
▁gadgets	-12.3801
▁suppress	-12.3802
▁mish	-12.3804
know	-12.3806
▁visitors	-12.3806
▁finch	-12.3808
semitism	-12.3809
▁fleischer	-12.381
▁insignificant	-12.381
▁leguizamo	-12.381
▁shenanigans	-12.381
▁catastrophe	-12.381
▁episodic	-12.381
▁galore	-12.381
▁opposition	-12.381
▁stiles	-12.381
▁tycoon	-12.381
▁dispute	-12.381
▁imitating	-12.381
▁avail	-12.381
▁valiant	-12.381
▁burial	-12.381
▁gospel	-12.381
▁bloated	-12.381
▁invincible	-12.381
▁heiress	-12.381
▁rarity	-12.381
▁hubby	-12.381
▁evie	-12.381
▁wheels	-12.381
▁swat	-12.381
▁grandeur	-12.3811
▁condescending	-12.3811
▁forsythe	-12.3811
▁nickelodeon	-12.3812
▁ripper	-12.3812
▁clayton	-12.3812
▁pepe	-12.3812
▁spliced	-12.3812
▁annual	-12.3813
▁addresses	-12.3814
▁finance	-12.3814
▁zorro	-12.3815
▁vijay	-12.3815
▁seamlessly	-12.3815
▁catwoman	-12.3815
▁dna	-12.3817
▁dwight	-12.3817
▁amir	-12.3819
▁exceeded	-12.3819
▁scout	-12.382
▁beef	-12.382
▁michel	-12.3821
▁diego	-12.3821
▁marital	-12.3821
▁mutants	-12.3824
▁brash	-12.3824
▁misfire	-12.3825
▁avant	-12.3825
▁martians	-12.3826
▁recovered	-12.3826
▁cloak	-12.3827
▁raptor	-12.3827
▁preparation	-12.3828
▁suchet	-12.3828
▁garnered	-12.3828
▁gasp	-12.3829
▁drawback	-12.383
▁distributor	-12.3831
▁funds	-12.3832
▁tagline	-12.3833
................	-12.3834
▁geeks	-12.3836
▁suspended	-12.3836
▁annoys	-12.3837
years	-12.3838
▁chic	-12.3839
▁shadowy	-12.3839
▁paz	-12.384
▁commando	-12.385
▁sparkle	-12.3852
▁surrounds	-12.3853
things	-12.3853
▁rhyme	-12.3856
▁fallon	-12.3857
▁critically	-12.3861
▁plods	-12.3861
claude	-12.3861
▁cringed	-12.3863
forget	-12.3865
cinema	-12.3871
▁printed	-12.3871
▁links	-12.3872
▁allan	-12.3884
▁indicates	-12.389
self	-12.3891
uel	-12.3898
▁relive	-12.39
zer	-12.3902
▁slippe	-12.3903
▁willingly	-12.3903
takes	-12.3908
▁lifts	-12.3912
▁fo	-12.3918
▁bid	-12.3922
pat	-12.3925
ue	-12.3926
nes	-12.3926
lot	-12.3931
▁cigarettes	-12.3933
40	-12.3934
▁lava	-12.3935
smith	-12.3937
sad	-12.394
▁forum	-12.3943
dennis	-12.3946
▁modeling	-12.3946
▁stalks	-12.3952
shame	-12.3954
▁dual	-12.3954
odd	-12.3954
▁1800	-12.3955
fall	-12.3955
blooded	-12.3955
▁ringing	-12.3962
jokes	-12.3962
mis	-12.3962
▁exceed	-12.3977
cc	-12.3977
waving	-12.3981
animator	-12.3982
▁lamp	-12.3982
▁friendships	-12.3987
▁lurk	-12.3987
▁retire	-12.399
ig	-12.3993
aked	-12.3994
▁nasa	-12.3995
▁toby	-12.3996
▁brides	-12.3998
▁inventor	-12.3999
▁yearn	-12.4001
▁accustomed	-12.4002
▁bogosian	-12.4002
▁humiliation	-12.4002
▁kersey	-12.4002
▁pregnancy	-12.4002
▁prophecy	-12.4002
▁shaolin	-12.4002
▁sykes	-12.4002
▁twentieth	-12.4002
▁undeniable	-12.4002
▁myriad	-12.4002
▁beckham	-12.4002
▁smitten	-12.4002
▁seclud	-12.4002
▁exposing	-12.4002
▁shoestring	-12.4002
▁raoul	-12.4002
▁gerry	-12.4002
▁hayden	-12.4002
▁restoration	-12.4002
▁denmark	-12.4002
▁riddick	-12.4002
▁emerging	-12.4002
▁railway	-12.4002
▁palpable	-12.4002
▁townspeople	-12.4002
▁capra	-12.4003
▁subtleties	-12.4003
▁devastated	-12.4003
▁crossfire	-12.4003
▁brotherhood	-12.4003
▁cellar	-12.4004
▁1953	-12.4004
▁symphony	-12.4004
▁cunningham	-12.4004
▁idle	-12.4004
▁barnes	-12.4004
▁classroom	-12.4005
▁slater	-12.4005
▁alligator	-12.4005
▁hobgoblins	-12.4005
▁witherspoon	-12.4005
▁gustav	-12.4005
▁connors	-12.4005
▁franz	-12.4006
▁maltin	-12.4006
▁spiderman	-12.4006
▁announcer	-12.4006
▁canvas	-12.4006
▁mj	-12.4006
▁morton	-12.4006
▁effortless	-12.4007
▁griffin	-12.4007
▁worries	-12.4007
▁jenna	-12.4007
▁sneer	-12.4008
▁wendigo	-12.4008
▁harmony	-12.4009
▁indifference	-12.4009
▁hottie	-12.4009
▁trainspotting	-12.401
▁flavia	-12.401
▁vincenzo	-12.4012
▁orthodox	-12.4013
▁maurice	-12.4014
▁illustrates	-12.4016
▁geraldine	-12.4016
▁basket	-12.4017
▁berry	-12.4023
▁terr	-12.4025
▁leak	-12.4025
▁spouse	-12.4026
▁lists	-12.4027
▁helmet	-12.4027
▁/>7	-12.4028
▁circumstance	-12.4028
▁surfer	-12.403
▁vol	-12.4032
▁shouts	-12.4033
▁hurting	-12.4033
▁smashing	-12.4035
▁newton	-12.4035
▁climatic	-12.404
▁gripe	-12.4041
▁washing	-12.4042
ft	-12.4042
▁raft	-12.4043
▁wits	-12.4043
▁marvelously	-12.4044
▁tina	-12.4045
▁muni	-12.4048
▁mamet	-12.4055
▁nc	-12.4056
▁humane	-12.4059
▁chang	-12.4061
▁sc	-12.4063
▁weed	-12.4067
lines	-12.4068
▁snippets	-12.4068
▁neutral	-12.4068
▁nora	-12.407
conceived	-12.4073
▁behalf	-12.4074
▁capitalist	-12.4076
▁inflict	-12.4084
▁sponsor	-12.4087
▁compares	-12.4087
▁wires	-12.4089
▁matching	-12.4089
▁implications	-12.4102
▁marsh	-12.4106
▁hallucinations	-12.4116
▁admits	-12.4116
brother	-12.4126
▁envelope	-12.4128
▁partying	-12.4129
imagine	-12.413
million	-12.4145
▁hartman	-12.4145
▁formerly	-12.4147
▁needle	-12.4149
fighting	-12.4153
lam	-12.4153
des	-12.4156
▁leaps	-12.4166
til	-12.4168
▁weaves	-12.417
▁cinemas	-12.4174
▁tips	-12.4179
walter	-12.4183
▁disrespect	-12.4184
▁contemplate	-12.4186
▁outrage	-12.4186
▁celebrat	-12.4187
tur	-12.4187
▁groom	-12.419
▁opponents	-12.4191
▁rescues	-12.4193
▁progressive	-12.4194
▁acquire	-12.4195
▁reception	-12.4198
▁erratic	-12.4198
▁consistency	-12.4198
▁cradle	-12.4198
▁fleming	-12.4198
▁humiliating	-12.4198
▁prolific	-12.4198
▁satisfactory	-12.4198
▁shtick	-12.4198
▁sleuth	-12.4198
▁sumptuous	-12.4198
▁savalas	-12.4198
▁welch	-12.4198
▁chimney	-12.4198
▁louisiana	-12.4198
▁utah	-12.4198
▁narcissistic	-12.4198
▁piercing	-12.4198
▁panties	-12.4198
▁blaise	-12.4198
▁ealing	-12.4198
▁thornton	-12.4198
▁unimpressive	-12.4199
▁greenstreet	-12.4199
▁housing	-12.4199
▁clockwork	-12.4199
▁commentaries	-12.4199
▁niche	-12.4199
▁lassie	-12.4199
▁marquis	-12.4199
▁ridley	-12.4199
▁clumsily	-12.4199
▁abyss	-12.42
▁insufferable	-12.42
▁softcore	-12.42
▁puerile	-12.42
▁traumatized	-12.42
▁belmondo	-12.42
▁bravery	-12.42
▁elton	-12.42
▁battleship	-12.4201
▁companions	-12.4201
▁heterosexual	-12.4201
▁management	-12.4201
▁sophia	-12.4201
▁subjective	-12.4202
▁luminous	-12.4202
▁nathaniel	-12.4202
▁eighteen	-12.4202
▁killjoy	-12.4203
▁eighth	-12.4203
proverbial	-12.4203
▁macarthur	-12.4203
▁barton	-12.4204
▁cesar	-12.4205
▁payne	-12.4205
▁valerie	-12.4206
▁aimlessly	-12.4207
▁patterns	-12.421
▁texture	-12.4211
▁priscilla	-12.4211
▁marcel	-12.4212
▁natasha	-12.4212
▁hale	-12.4213
▁conception	-12.4213
rightfully	-12.4215
▁illustrated	-12.4215
▁prominently	-12.4217
▁rehearsal	-12.4221
▁featurette	-12.4223
▁icy	-12.4223
▁tricky	-12.4224
▁caligula	-12.4225
▁disappoints	-12.4226
▁megan	-12.4228
▁hound	-12.4228
luc	-12.4229
▁weave	-12.4229
▁orgy	-12.423
▁employer	-12.423
▁linger	-12.423
oriented	-12.4231
▁/>4	-12.4235
▁richie	-12.424
▁competently	-12.424
▁shade	-12.4241
▁beers	-12.4242
▁lamarr	-12.4242
▁om	-12.4245
▁spur	-12.4245
▁juic	-12.4248
▁lung	-12.4255
▁carbon	-12.4256
ub	-12.4257
▁cured	-12.4261
must	-12.4264
▁vin	-12.4265
▁tri	-12.4268
2.	-12.4269
▁pip	-12.4269
▁highlighted	-12.427
▁awkwardly	-12.4271
▁cosmo	-12.4272
▁analyze	-12.4274
▁recruits	-12.4274
▁notions	-12.4276
▁silk	-12.4276
▁fanatics	-12.4279
▁goodnight	-12.4282
▁sheet	-12.4282
cur	-12.4284
▁39	-12.4289
▁researcher	-12.4292
▁supporters	-12.4294
▁ott	-12.4295
gone	-12.4298
▁scrap	-12.4299
frame	-12.4307
phone	-12.4308
stein	-12.4309
▁complains	-12.4311
▁te	-12.4314
▁raven	-12.4314
films	-12.4322
▁spells	-12.4324
▁eyebrows	-12.4328
▁pretensions	-12.4328
▁wai	-12.433
▁charmed	-12.4333
political	-12.4334
normal	-12.4336
▁chap	-12.4339
▁tru	-12.434
rip	-12.4341
according	-12.4342
henry	-12.4342
mystery	-12.4342
documentary	-12.4342
terrible	-12.4342
simply	-12.4342
▁stupidly	-12.4344
cons	-12.4345
▁??	-12.4345
blowing	-12.4347
drug	-12.435
▁atheist	-12.4352
▁crowds	-12.4355
joan	-12.4356
▁madly	-12.4362
▁practices	-12.437
ego	-12.4372
▁delon	-12.4375
▁digest	-12.4377
▁vocals	-12.4378
▁www	-12.4378
▁sites	-12.438
▁attain	-12.438
▁pioneers	-12.4381
▁fe	-12.4382
▁cater	-12.4386
▁craze	-12.4387
▁mist	-12.4389
▁conceit	-12.4389
ius	-12.4392
▁lear	-12.4395
▁brink	-12.4395
▁swank	-12.4395
▁tennis	-12.4397
▁gamble	-12.4397
▁feinstone	-12.4398
▁futile	-12.4398
▁meditation	-12.4398
▁plausibility	-12.4398
▁subversive	-12.4398
▁unnoticed	-12.4398
▁vacuum	-12.4398
▁clyde	-12.4398
▁meticulous	-12.4398
▁monogram	-12.4398
▁purchasing	-12.4398
▁ransom	-12.4398
▁melbourne	-12.4398
▁scoring	-12.4398
▁heritage	-12.4398
▁continuation	-12.4398
▁craving	-12.4398
▁unwanted	-12.4398
▁bailey	-12.4398
▁wisconsin	-12.4398
▁praising	-12.4398
▁thanksgiving	-12.4399
▁carolina	-12.4399
▁pinhead	-12.4399
▁hamper	-12.4399
▁deformed	-12.4399
▁brute	-12.4399
▁yank	-12.4399
▁civilized	-12.4399
▁equation	-12.44
▁masturbation	-12.44
▁wilkinson	-12.44
▁picturesque	-12.44
▁1932	-12.44
▁1931	-12.4401
▁fourteen	-12.4401
▁hoover	-12.4401
▁kentucky	-12.4401
▁marjorie	-12.4401
▁ultimatum	-12.4401
▁caan	-12.4402
▁swell	-12.4402
▁donovan	-12.4402
▁revolver	-12.4402
▁cruz	-12.4402
▁pesci	-12.4402
▁kolchak	-12.4403
▁moderate	-12.4404
▁primal	-12.4404
▁alienation	-12.4404
▁topped	-12.4405
▁sonja	-12.4405
▁goose	-12.4405
▁frenzy	-12.4406
▁quoting	-12.4406
▁slit	-12.4407
▁jacqueline	-12.4407
▁busby	-12.4409
▁ramon	-12.4409
▁'40	-12.4409
▁colman	-12.441
▁converted	-12.441
▁ul	-12.441
▁adulthood	-12.4411
tra	-12.4415
▁cinemax	-12.4415
▁kit	-12.4416
▁increased	-12.4417
▁kite	-12.4417
▁pm	-12.4417
nor	-12.4418
▁preferably	-12.4421
▁dahl	-12.4423
[...]
