<unk>	0
<s>	0
</s>	0
▁the	-3.07403
.	-3.33521
▁a	-3.7322
▁and	-3.7811
▁of	-3.88717
▁to	-3.95812
s	-3.99563
'	-4.03219
▁is	-4.20025
br	-4.22571
▁it	-4.28385
▁in	-4.33365
▁i	-4.36846
▁this	-4.52605
▁that	-4.58577
▁/><	-4.92424
▁was	-4.95291
▁/>	-4.95589
▁movie	-5.00042
-	-5.03789
▁for	-5.07886
t	-5.07932
▁with	-5.09539
▁film	-5.13426
▁as	-5.13593
▁but	-5.14836
▁	-5.17881
.<	-5.21048
▁you	-5.29172
▁on	-5.33354
▁(	-5.42569
▁not	-5.44813
▁are	-5.47988
▁he	-5.51711
▁have	-5.51749
▁be	-5.53325
▁his	-5.53903
▁one	-5.54928
)	-5.66299
▁all	-5.70989
▁they	-5.75757
▁at	-5.76254
▁by	-5.77529
▁an	-5.78805
▁who	-5.84069
▁so	-5.84386
▁like	-5.84678
▁from	-5.8637
▁just	-5.9838
▁there	-5.99748
▁about	-6.01194
▁her	-6.01817
▁out	-6.01933
▁or	-6.02138
▁has	-6.0496
▁if	-6.08337
▁some	-6.1105
▁what	-6.11362
▁good	-6.11656
▁can	-6.15315
▁very	-6.20599
▁more	-6.21223
!	-6.21606
▁when	-6.24822
▁she	-6.28267
▁time	-6.31129
▁my	-6.31982
▁no	-6.32003
▁up	-6.32069
?	-6.32636
▁would	-6.33187
▁even	-6.35767
▁really	-6.3789
▁me	-6.37937
▁see	-6.38058
the	-6.38249
▁story	-6.38434
ing	-6.38618
▁only	-6.40678
▁their	-6.43843
▁had	-6.44382
▁were	-6.47852
▁which	-6.49646
▁well	-6.51408
▁we	-6.51643
i	-6.56265
▁much	-6.58069
▁-	-6.59172
▁than	-6.5929
▁get	-6.5984
▁bad	-6.59977
▁do	-6.60408
▁great	-6.60934
▁people	-6.62651
▁other	-6.63034
▁will	-6.6316
▁been	-6.63565
▁don	-6.66184
...	-6.6716
d	-6.67886
▁because	-6.68117
▁how	-6.68414
:	-6.68541
▁into	-6.694
▁first	-6.69543
▁also	-6.69555
▁most	-6.71144
▁him	-6.72648
▁make	-6.74685
▁made	-6.75347
▁way	-6.77436
▁could	-6.78852
▁too	-6.81342
▁then	-6.82262
▁them	-6.83141
▁any	-6.83743
▁think	-6.83932
ed	-6.8485
m	-6.86117
▁watch	-6.86844
▁characters	-6.88233
▁after	-6.89036
▁movies	-6.89172
▁character	-6.90145
▁seen	-6.91182
▁plot	-6.93706
▁love	-6.93751
▁acting	-6.949
▁many	-6.95057
▁show	-6.95263
▁two	-6.96796
▁being	-6.97978
▁<	-6.9821
ly	-6.98517
▁know	-6.9867
▁never	-6.98689
▁best	-6.98896
▁over	-6.99311
▁'	-6.9995
▁did	-7.00375
▁little	-7.00867
▁life	-7.01448
▁ever	-7.02406
▁films	-7.03484
▁where	-7.03906
▁its	-7.04983
▁your	-7.06786
ve	-7.07002
▁better	-7.07225
▁man	-7.09191
▁off	-7.09777
▁does	-7.10568
▁end	-7.11216
▁say	-7.13102
re	-7.13267
▁still	-7.16348
▁scene	-7.16536
▁here	-7.17064
▁go	-7.2012
▁these	-7.20387
a	-7.22123
▁scenes	-7.22357
▁why	-7.24156
▁should	-7.24267
▁something	-7.24603
▁back	-7.26956
▁through	-7.28089
▁such	-7.28095
▁thing	-7.28702
▁while	-7.28857
▁watching	-7.29389
▁real	-7.29694
▁those	-7.31654
▁funny	-7.33331
▁actors	-7.33789
▁didn	-7.34518
▁doesn	-7.35164
).	-7.36387
▁years	-7.37641
/	-7.38721
▁work	-7.39574
and	-7.39614
▁lot	-7.40148
▁now	-7.40486
▁find	-7.40665
▁look	-7.40754
▁actually	-7.41412
▁old	-7.42617
▁new	-7.42625
▁nothing	-7.42763
▁before	-7.43227
▁director	-7.43661
▁though	-7.4411
▁going	-7.44239
▁same	-7.44553
y	-7.45201
▁another	-7.45441
▁few	-7.45536
▁every	-7.46032
▁part	-7.46196
▁makes	-7.46399
▁big	-7.46563
<	-7.48566
▁cast	-7.49236
▁again	-7.49927
▁want	-7.5067
▁world	-7.52546
in	-7.52815
▁pretty	-7.53225
▁horror	-7.55078
▁down	-7.55428
▁quite	-7.55585
▁us	-7.56877
▁thought	-7.56959
▁got	-7.57516
ll	-7.57591
it	-7.5781
▁young	-7.58179
▁things	-7.58614
▁take	-7.59809
▁around	-7.59844
▁give	-7.59953
▁fact	-7.6001
e	-7.60556
▁long	-7.61048
▁enough	-7.61159
▁seems	-7.61542
▁saw	-7.63747
▁must	-7.65077
▁comedy	-7.6542
▁music	-7.66257
▁right	-7.66433
▁may	-7.66445
▁own	-7.67063
▁action	-7.67149
▁role	-7.67815
▁come	-7.68332
▁both	-7.6846
▁between	-7.68498
▁original	-7.6866
▁guy	-7.68804
▁always	-7.69402
▁series	-7.69453
▁however	-7.69681
▁isn	-7.69794
▁interesting	-7.69867
▁far	-7.712
▁whole	-7.71217
▁script	-7.71331
▁without	-7.71587
▁bit	-7.72135
▁least	-7.72473
▁almost	-7.7308
▁done	-7.7343
▁point	-7.73449
▁times	-7.74052
this	-7.74088
▁feel	-7.74412
▁minutes	-7.75864
▁family	-7.7593
▁gets	-7.76445
▁am	-7.77181
▁last	-7.77224
▁might	-7.77954
▁anything	-7.78663
▁kind	-7.80656
▁fun	-7.80847
▁performance	-7.81124
▁tv	-7.8131
▁since	-7.81745
▁girl	-7.82272
▁worst	-7.83119
▁probably	-7.84098
▁anyone	-7.85115
▁away	-7.85495
▁hard	-7.85688
▁found	-7.87062
▁sure	-7.87433
▁woman	-7.88672
▁dvd	-7.888
▁believe	-7.89564
▁day	-7.90566
▁each	-7.90737
▁rather	-7.91079
▁making	-7.91965
▁yet	-7.92054
▁book	-7.94452
▁ending	-7.95603
▁trying	-7.95669
▁worth	-7.96037
▁put	-7.96178
▁course	-7.96292
--	-7.96515
▁our	-7.96775
▁screen	-7.9684
▁watched	-7.98154
▁actor	-7.98306
▁set	-7.98306
▁having	-7.98805
▁goes	-7.99084
▁everything	-7.99482
▁different	-7.99583
▁played	-8.00081
▁money	-8.00127
▁place	-8.00184
▁reason	-8.00758
▁play	-8.00906
▁job	-8.00928
▁let	-8.00928
▁main	-8.01055
▁wasn	-8.0119
▁sense	-8.0134
▁someone	-8.01943
▁looking	-8.02729
▁true	-8.02899
▁three	-8.03062
▁effects	-8.03293
▁comes	-8.03506
▁especially	-8.03842
▁everyone	-8.04196
▁shows	-8.05044
▁high	-8.05339
▁together	-8.05556
▁maybe	-8.06045
▁once	-8.06074
▁special	-8.07392
▁war	-8.07615
▁fan	-8.07955
▁plays	-8.08036
▁seem	-8.08129
▁looks	-8.08322
▁half	-8.08389
▁beautiful	-8.08924
▁black	-8.09238
▁night	-8.09392
▁excellent	-8.09393
▁audience	-8.09518
▁said	-8.09607
er	-8.0972
▁american	-8.0998
▁seeing	-8.1019
▁instead	-8.11049
▁version	-8.11126
▁idea	-8.11247
▁2	-8.114
▁during	-8.1231
▁left	-8.12599
▁although	-8.12987
(	-8.13387
▁mind	-8.13647
▁later	-8.14389
▁else	-8.14403
▁short	-8.14664
▁takes	-8.15148
but	-8.15415
▁year	-8.15718
▁shot	-8.16024
▁wife	-8.16526
as	-8.16634
▁death	-8.16757
▁himself	-8.17011
▁poor	-8.17632
▁nice	-8.18017
▁john	-8.18076
▁house	-8.18163
▁father	-8.18231
▁read	-8.1839
▁star	-8.19074
▁home	-8.19118
▁enjoy	-8.19123
▁completely	-8.19761
▁boring	-8.20185
▁low	-8.20777
▁along	-8.20987
▁second	-8.21572
▁used	-8.2194
▁simply	-8.22313
▁10	-8.22464
▁men	-8.23232
▁classic	-8.23267
▁kids	-8.23426
▁recommend	-8.23956
▁help	-8.23966
▁line	-8.24093
▁stupid	-8.24148
▁hollywood	-8.24196
or	-8.24354
▁wrong	-8.24624
▁friends	-8.24683
▁need	-8.24747
▁try	-8.25633
▁school	-8.26327
▁rest	-8.26465
▁either	-8.26573
▁production	-8.26795
▁women	-8.2722
▁less	-8.2755
▁dead	-8.27727
▁use	-8.28136
▁camera	-8.28166
▁start	-8.28209
▁couple	-8.28368
▁mean	-8.28381
▁full	-8.28825
▁truly	-8.29705
▁performances	-8.29748
▁remember	-8.29883
▁video	-8.30022
▁terrible	-8.30343
▁understand	-8.3039
▁awful	-8.3055
▁given	-8.30616
▁tell	-8.30691
▁top	-8.30755
▁sex	-8.31095
o	-8.31135
▁until	-8.31255
▁came	-8.3218
▁won	-8.33081
▁--	-8.33573
▁next	-8.33609
if	-8.33682
▁budget	-8.33887
▁getting	-8.34006
▁wonderful	-8.34108
▁keep	-8.34627
▁episode	-8.34737
▁person	-8.35131
▁b	-8.35763
▁mother	-8.36218
▁moments	-8.36371
▁sound	-8.364
▁laugh	-8.36642
▁head	-8.37056
▁small	-8.3747
▁name	-8.37819
▁piece	-8.38249
▁dialogue	-8.38489
▁itself	-8.38611
▁perfect	-8.39193
▁definitely	-8.39232
▁face	-8.39672
▁couldn	-8.40136
▁human	-8.40275
▁playing	-8.40639
▁doing	-8.41153
▁absolutely	-8.41211
▁waste	-8.41387
▁boy	-8.41551
▁children	-8.41768
▁live	-8.41778
n	-8.42202
▁went	-8.42457
▁stars	-8.42719
▁entertaining	-8.42721
▁lines	-8.42965
▁friend	-8.43328
▁early	-8.43378
▁worse	-8.43395
▁liked	-8.43455
▁hope	-8.43478
▁case	-8.43633
▁loved	-8.43961
▁often	-8.44118
▁picture	-8.45322
▁sort	-8.45462
▁cinema	-8.45491
▁under	-8.46185
▁style	-8.46264
▁perhaps	-8.46296
▁certainly	-8.47015
▁felt	-8.47414
▁gives	-8.48047
▁title	-8.48209
▁supposed	-8.48734
▁lost	-8.49218
▁humor	-8.49287
▁dark	-8.49503
▁beginning	-8.49526
▁written	-8.49549
▁several	-8.49802
▁become	-8.49887
▁direction	-8.5017
▁care	-8.50352
▁entire	-8.50363
▁drama	-8.50677
▁3	-8.50869
▁problem	-8.50966
▁lead	-8.51578
▁mr	-8.51875
▁totally	-8.52207
▁white	-8.52255
▁game	-8.52323
▁others	-8.52347
▁seemed	-8.52363
▁guys	-8.5264
▁guess	-8.52849
on	-8.53081
▁car	-8.54096
▁based	-8.54354
▁turn	-8.54826
▁evil	-8.55083
to	-8.55148
▁wanted	-8.55411
▁flick	-8.55538
there	-8.55805
▁finally	-8.55992
▁horrible	-8.56065
▁example	-8.56232
▁fans	-8.57047
▁lives	-8.57349
▁heart	-8.57578
▁son	-8.57684
▁against	-8.57688
r	-8.58002
▁quality	-8.58215
▁amazing	-8.58276
▁fine	-8.58357
▁killer	-8.58511
▁already	-8.58749
▁called	-8.58811
▁throughout	-8.58999
▁writing	-8.59102
!<	-8.59236
▁side	-8.5994
▁re	-8.60311
▁enjoyed	-8.6032
▁history	-8.60952
▁able	-8.61107
▁1	-8.61231
▁today	-8.61336
▁final	-8.61806
▁favorite	-8.62009
▁yes	-8.62492
▁close	-8.625
▁days	-8.62573
▁town	-8.62597
▁kid	-8.62604
▁gave	-8.62746
▁art	-8.62763
▁oh	-8.6303
▁run	-8.63086
▁expect	-8.63128
▁past	-8.63607
▁act	-8.63881
▁becomes	-8.64172
▁stuff	-8.64551
▁child	-8.64621
th	-8.64633
▁matter	-8.64678
▁viewer	-8.64811
▁etc	-8.65293
▁kill	-8.65304
▁god	-8.65875
▁tries	-8.66074
▁brilliant	-8.66636
▁genre	-8.67039
▁hand	-8.68052
so	-8.68171
▁wants	-8.68386
▁myself	-8.6863
▁un	-8.68947
▁slow	-8.69014
▁late	-8.69083
▁michael	-8.69594
man	-8.69606
▁despite	-8.69882
▁parts	-8.70301
▁actress	-8.70325
▁eyes	-8.70347
es	-8.70358
▁unfortunately	-8.70373
▁girls	-8.70825
▁city	-8.70934
▁behind	-8.71058
▁thinking	-8.71095
▁turns	-8.71233
▁decent	-8.71504
▁works	-8.71549
▁group	-8.72014
▁strong	-8.72298
▁killed	-8.72373
▁themselves	-8.7265
▁sometimes	-8.73051
▁hour	-8.73136
▁feeling	-8.73285
▁heard	-8.7341
▁soon	-8.73457
▁daughter	-8.73497
▁highly	-8.73648
▁voice	-8.73658
▁blood	-8.73891
▁crap	-8.73959
▁experience	-8.74171
▁)	-8.74413
▁fight	-8.74452
▁directed	-8.74509
▁self	-8.74744
▁overall	-8.74928
▁obviously	-8.75189
k	-8.75763
▁cool	-8.75764
▁took	-8.75808
▁type	-8.75873
▁happen	-8.76053
▁wonder	-8.76198
▁murder	-8.76249
▁starts	-8.76382
▁hit	-8.76996
▁chance	-8.77062
▁hilarious	-8.77122
▁happens	-8.77678
▁wouldn	-8.77678
▁extremely	-8.78215
▁lack	-8.78255
▁score	-8.78407
▁stop	-8.78497
▁coming	-8.78607
▁involved	-8.78665
▁looked	-8.78709
▁simple	-8.78887
▁hell	-8.78938
▁stories	-8.79492
up	-8.79548
▁leave	-8.79649
▁told	-8.79743
▁moment	-8.79965
▁ago	-8.80138
▁brother	-8.80591
▁song	-8.80932
▁happened	-8.81123
c	-8.81184
▁de	-8.81208
▁violence	-8.81294
▁save	-8.81497
▁cannot	-8.81568
▁attempt	-8.81958
▁complete	-8.82001
▁wish	-8.82514
▁huge	-8.82682
▁obvious	-8.82861
▁writer	-8.82877
▁gore	-8.83239
al	-8.83278
▁serious	-8.83283
▁sad	-8.83286
▁ok	-8.83337
▁police	-8.8375
▁age	-8.83773
▁living	-8.84077
!!	-8.84197
▁interest	-8.8436
▁husband	-8.84365
▁roles	-8.84449
▁yourself	-8.84811
▁jokes	-8.85118
ness	-8.85397
▁cut	-8.85406
▁cinematography	-8.8542
▁shown	-8.85677
▁talent	-8.85913
like	-8.86024
▁annoying	-8.86506
▁career	-8.86543
▁please	-8.86559
▁released	-8.866
▁anyway	-8.8703
for	-8.87188
▁opinion	-8.87299
▁hero	-8.87385
▁taken	-8.8758
▁seriously	-8.87683
▁english	-8.87778
▁light	-8.87839
g	-8.8797
▁except	-8.88101
▁documentary	-8.88192
).<	-8.88203
▁known	-8.88355
▁relationship	-8.88465
▁ridiculous	-8.88532
▁hours	-8.88596
▁call	-8.88772
▁disappointed	-8.88817
▁number	-8.89113
▁particularly	-8.89264
▁across	-8.89347
▁says	-8.89419
▁alone	-8.89575
▁saying	-8.89677
▁order	-8.89697
▁exactly	-8.89753
▁usually	-8.89788
▁reality	-8.89828
▁view	-8.9006
▁usual	-8.90108
▁word	-8.90191
one	-8.903
▁started	-8.90632
▁female	-8.90778
▁david	-8.9084
▁none	-8.91006
▁change	-8.91146
▁cheap	-8.91168
▁scary	-8.91507
▁...	-8.91659
▁silly	-8.91673
▁possible	-8.91923
▁non	-8.92157
▁attention	-8.9238
▁major	-8.92384
▁country	-8.92446
▁james	-8.92477
▁ten	-8.92677
▁middle	-8.92858
▁knew	-8.92914
▁running	-8.92933
▁opening	-8.93116
▁body	-8.93654
▁robert	-8.93809
▁strange	-8.93868
▁power	-8.93878
▁beyond	-8.93947
which	-8.94161
▁level	-8.94319
▁television	-8.94552
▁miss	-8.94877
▁novel	-8.95365
▁somewhat	-8.95425
▁important	-8.95508
▁turned	-8.95587
▁musical	-8.9588
▁single	-8.959
▁among	-8.95919
▁happy	-8.95981
▁jack	-8.96003
▁shots	-8.96021
▁local	-8.96095
▁four	-8.96143
▁dialog	-8.96544
▁due	-8.96687
ther	-8.96774
▁modern	-8.96785
an	-8.96869
▁5	-8.96953
not	-8.97112
▁taking	-8.97233
▁predictable	-8.97268
▁room	-8.97361
▁words	-8.97362
▁rating	-8.97595
▁near	-8.97605
▁o	-8.98279
▁earth	-8.98358
fi	-8.98483
▁soundtrack	-8.9865
▁add	-8.98685
▁talking	-8.98895
▁whose	-8.98947
▁enjoyable	-8.99112
▁4	-8.9931
▁fast	-8.9939
▁dull	-8.99475
▁king	-8.99523
▁french	-8.99597
!!!	-8.99789
▁episodes	-9.00037
▁clich	-9.00263
▁entertainment	-9.00318
▁subject	-9.00752
▁mostly	-9.00819
▁review	-9.00896
he	-9.00913
▁hate	-9.00982
*	-9.00993
▁die	-9.01003
▁british	-9.01031
who	-9.01285
▁basically	-9.01448
▁aren	-9.01708
▁haven	-9.01783
▁20	-9.01814
▁future	-9.01873
▁thriller	-9.01932
▁romantic	-9.02072
▁sequel	-9.02139
▁straight	-9.02307
▁comic	-9.02334
▁talk	-9.02558
▁problems	-9.0263
all	-9.0274
▁clearly	-9.02758
▁storyline	-9.02985
▁songs	-9.03027
▁space	-9.03138
▁team	-9.03144
▁events	-9.03193
▁message	-9.03218
▁including	-9.03248
▁upon	-9.03495
▁surprised	-9.03628
▁bring	-9.03976
what	-9.04072
▁apparently	-9.0446
▁mention	-9.0457
▁bunch	-9.04728
▁ends	-9.04737
▁monster	-9.04937
▁supporting	-9.05085
▁above	-9.05141
▁similar	-9.05313
▁eye	-9.05333
▁theater	-9.05476
▁buy	-9.05999
▁sequence	-9.06102
▁moving	-9.06267
▁clear	-9.06402
▁sister	-9.06464
of	-9.06486
▁fall	-9.06705
▁five	-9.06827
▁stand	-9.07014
▁doubt	-9.0709
▁easily	-9.0719
!)	-9.074
▁effort	-9.07703
▁rock	-9.07826
▁suspense	-9.07852
▁tried	-9.07884
▁rent	-9.08258
▁giving	-9.08373
▁falls	-9.08622
▁whe	-9.08688
▁dr	-9.08905
▁easy	-9.08934
▁release	-9.09102
▁george	-9.09117
▁parents	-9.0915
▁dog	-9.09225
▁tells	-9.09421
▁stay	-9.09453
▁oscar	-9.09506
▁certain	-9.09754
▁finds	-9.09929
▁fantastic	-9.09978
▁showing	-9.10007
▁theme	-9.10084
▁kept	-9.10201
▁viewing	-9.10211
▁lady	-9.10289
▁sit	-9.10502
▁deal	-9.10697
▁comments	-9.10774
▁material	-9.10979
p	-9.11029
▁sets	-9.11497
no	-9.11576
▁tale	-9.11777
▁greatest	-9.11886
▁class	-9.11945
▁editing	-9.12092
▁check	-9.12142
▁realistic	-9.12164
▁feature	-9.12374
▁decided	-9.12592
▁working	-9.12684
▁imagine	-9.12835
▁gone	-9.13218
▁red	-9.13244
▁follow	-9.1327
▁needs	-9.13346
▁appears	-9.13434
▁filmed	-9.13608
l	-9.1361
▁typical	-9.13677
▁knows	-9.13685
▁move	-9.13772
▁believable	-9.13828
▁mystery	-9.13917
▁hear	-9.14336
▁famous	-9.14356
▁reviews	-9.14361
▁weak	-9.14546
▁hot	-9.14562
my	-9.14849
▁premise	-9.14966
at	-9.14968
▁doctor	-9.15059
▁crime	-9.1514
▁general	-9.15377
▁lame	-9.15577
▁f	-9.15747
▁sorry	-9.1576
▁wait	-9.15812
▁within	-9.15896
▁lots	-9.16019
▁period	-9.16206
▁animation	-9.16356
▁named	-9.16437
▁actual	-9.16651
▁nearly	-9.16792
▁forget	-9.16828
▁elements	-9.16901
▁viewers	-9.17002
▁imdb	-9.173
▁using	-9.17311
▁gay	-9.17486
▁surprise	-9.17634
you	-9.17656
▁d	-9.17992
▁average	-9.18152
▁avoid	-9.18325
▁brought	-9.18508
▁atmosphere	-9.18744
▁poorly	-9.19001
▁learn	-9.19201
▁season	-9.19314
▁america	-9.19331
▁sci	-9.19364
▁open	-9.19669
▁shame	-9.1986
▁co	-9.19909
▁expected	-9.20019
▁spend	-9.20063
▁somehow	-9.20088
▁la	-9.2035
▁figure	-9.20411
▁deep	-9.20554
▁dance	-9.20885
▁peter	-9.20965
▁box	-9.21034
▁york	-9.21035
▁killing	-9.21068
▁romance	-9.21105
▁means	-9.21526
▁leads	-9.21595
▁herself	-9.21673
▁truth	-9.21821
▁comment	-9.21869
that	-9.2187
▁okay	-9.21962
▁sequences	-9.22039
▁weird	-9.22198
▁air	-9.2231
▁c	-9.22406
▁crew	-9.22865
▁write	-9.22877
▁situation	-9.23054
▁richard	-9.2312
▁particular	-9.23171
▁reading	-9.23599
▁cheesy	-9.23675
▁form	-9.23693
▁free	-9.23886
▁minute	-9.23955
▁points	-9.23999
▁superb	-9.24002
▁street	-9.24552
▁begins	-9.24622
▁paul	-9.24652
▁western	-9.24812
▁difficult	-9.24834
▁*	-9.24966
▁pay	-9.25284
▁male	-9.25421
▁feels	-9.25733
▁third	-9.25842
▁dumb	-9.25916
▁became	-9.25975
▁masterpiece	-9.25982
▁cop	-9.26105
▁copy	-9.26455
▁society	-9.26738
▁mess	-9.26932
▁footage	-9.2715
▁interested	-9.27228
▁potential	-9.27407
▁dream	-9.27477
▁begin	-9.27578
▁19	-9.27761
▁possibly	-9.27852
▁boys	-9.2804
▁needed	-9.28047
ers	-9.28051
▁lee	-9.28073
▁forced	-9.28094
▁island	-9.28243
▁meet	-9.28439
▁sexual	-9.28531
▁water	-9.28555
▁indeed	-9.28615
▁admit	-9.28641
▁effect	-9.28734
▁beauty	-9.28856
▁question	-9.28887
▁cover	-9.28945
▁joke	-9.28972
▁screenplay	-9.29001
with	-9.29017
▁stage	-9.29098
▁eventually	-9.29393
▁whatever	-9.29444
en	-9.29474
▁total	-9.29497
▁memorable	-9.29546
▁nor	-9.29625
▁badly	-9.29626
▁emotional	-9.2981
▁disney	-9.29985
▁result	-9.30032
▁credits	-9.30105
▁otherwise	-9.30113
▁previous	-9.30227
▁fire	-9.30228
▁incredibly	-9.30251
▁laughs	-9.30384
▁realize	-9.3041
▁ways	-9.30422
▁features	-9.30513
▁plain	-9.3059
well	-9.30828
▁leaves	-9.31192
▁forward	-9.314
▁agree	-9.3142
h	-9.31467
0	-9.3156
▁front	-9.31644
▁baby	-9.3192
▁perfectly	-9.32134
▁acted	-9.32192
▁personal	-9.32256
▁nature	-9.3231
▁plus	-9.324
▁background	-9.32473
▁crazy	-9.32536
▁!	-9.32545
▁setting	-9.32963
▁plenty	-9.32986
▁development	-9.33103
▁meets	-9.33111
▁creepy	-9.33251
▁hands	-9.33284
est	-9.33536
▁quickly	-9.33738
▁directing	-9.34075
▁worked	-9.34245
▁rich	-9.34247
▁unique	-9.34396
le	-9.34492
▁wasted	-9.34517
▁bill	-9.34575
▁keeps	-9.34665
▁cat	-9.34775
▁girlfriend	-9.35169
▁mark	-9.35305
▁inside	-9.3556
▁break	-9.35637
out	-9.35718
▁battle	-9.35803
▁business	-9.35928
▁japanese	-9.36162
▁spent	-9.36247
▁older	-9.36272
▁fairly	-9.36403
▁earlier	-9.36424
▁u	-9.36564
▁gun	-9.36753
▁expecting	-9.36775
?)	-9.36838
▁ask	-9.3687
▁appear	-9.36926
▁deserves	-9.37045
▁note	-9.37057
▁cute	-9.3707
▁writers	-9.37272
▁powerful	-9.37389
▁unless	-9.37458
▁large	-9.37627
▁portrayed	-9.37689
▁van	-9.38037
▁dramatic	-9.38052
▁sounds	-9.38113
▁towards	-9.38203
▁leading	-9.38229
▁twist	-9.3824
▁flat	-9.38323
▁cartoon	-9.38353
▁fails	-9.38379
▁laughing	-9.38664
f	-9.38782
▁italian	-9.3942
▁clever	-9.3962
▁recently	-9.39705
even	-9.3973
▁following	-9.39761
▁odd	-9.39809
▁various	-9.39908
▁mad	-9.4011
▁pace	-9.40174
▁era	-9.40268
by	-9.40311
▁talented	-9.40397
▁german	-9.40643
▁caught	-9.40677
▁secret	-9.40799
▁hair	-9.41117
▁remake	-9.41121
▁band	-9.41187
▁missing	-9.41236
▁zombie	-9.41516
▁villain	-9.41528
▁present	-9.41533
is	-9.41566
▁brings	-9.41594
▁success	-9.41692
▁super	-9.42007
▁create	-9.42152
▁pure	-9.42471
▁store	-9.42582
b	-9.42626
▁fighting	-9.42795
▁focus	-9.42921
▁t	-9.42955
▁joe	-9.43039
▁hold	-9.43137
▁meant	-9.43253
▁party	-9.43281
▁nudity	-9.43337
▁list	-9.43376
▁incredible	-9.43532
▁ended	-9.43739
▁public	-9.4378
▁brain	-9.43916
▁manages	-9.4404
▁hardly	-9.44067
▁train	-9.4416
▁reasons	-9.44208
▁ex	-9.44243
▁whom	-9.44368
▁appreciate	-9.44393
▁missed	-9.4449
....	-9.44508
▁sweet	-9.44647
ie	-9.44725
▁return	-9.44804
▁escape	-9.4486
▁fantasy	-9.45042
▁bored	-9.45069
▁casting	-9.45119
▁married	-9.45347
▁visual	-9.45536
▁political	-9.4557
▁value	-9.45636
▁waiting	-9.45897
▁anti	-9.46275
▁telling	-9.46408
▁members	-9.46438
▁attempts	-9.46561
▁college	-9.46656
▁apart	-9.46922
▁outside	-9.46945
▁cold	-9.46988
▁speak	-9.47195
▁science	-9.47285
▁tom	-9.47406
▁rate	-9.47503
▁company	-9.4758
▁30	-9.47612
▁channel	-9.47816
▁fit	-9.48065
▁sick	-9.48229
▁state	-9.4845
▁sub	-9.48461
▁familiar	-9.48616
▁portrayal	-9.48664
▁william	-9.48685
▁credit	-9.48786
▁slightly	-9.48964
▁office	-9.49069
▁wrote	-9.49072
▁created	-9.49072
▁g	-9.49121
▁common	-9.49359
▁trouble	-9.49455
▁tension	-9.49625
▁filmmakers	-9.4985
▁convincing	-9.49897
▁christmas	-9.50096
▁project	-9.50159
▁scott	-9.50189
▁amount	-9.50386
▁directors	-9.50409
▁fake	-9.5041
▁language	-9.50503
gest	-9.50704
▁choice	-9.50821
▁died	-9.50853
▁considering	-9.50921
▁awesome	-9.50962
▁dancing	-9.50964
▁further	-9.51056
▁consider	-9.51188
▁trash	-9.51272
▁ideas	-9.51398
be	-9.51556
▁fear	-9.51637
▁intelligent	-9.51725
▁pathetic	-9.51807
▁popular	-9.52019
▁amusing	-9.52153
▁camp	-9.52153
▁produced	-9.52354
▁master	-9.52364
▁century	-9.52369
time	-9.52468
▁gang	-9.52474
▁concept	-9.52682
▁garbage	-9.52779
▁bizarre	-9.52782
▁8	-9.5286
▁exciting	-9.52891
▁unlike	-9.53117
▁mentioned	-9.53298
▁recommended	-9.53305
▁pointless	-9.53362
able	-9.53659
▁social	-9.53935
▁force	-9.54223
▁basic	-9.54245
▁compared	-9.54415
▁glad	-9.54435
▁match	-9.54473
▁decide	-9.54592
▁pick	-9.54649
▁positive	-9.54717
▁younger	-9.54881
v	-9.54923
▁neither	-9.54999
▁studio	-9.55125
▁follows	-9.55202
▁entirely	-9.55243
▁alive	-9.55326
▁former	-9.55355
▁decides	-9.55376
▁situations	-9.55388
▁spirit	-9.55395
▁walk	-9.55524
▁solid	-9.55648
▁impressive	-9.55659
▁respect	-9.56101
▁humour	-9.56218
▁sadly	-9.56243
▁violent	-9.56364
▁producers	-9.56447
▁track	-9.56491
▁post	-9.56567
▁moves	-9.5665
▁road	-9.56681
ting	-9.56925
▁cause	-9.57051
▁ben	-9.57132
▁15	-9.57161
▁drug	-9.5724
▁honest	-9.57317
we	-9.57348
▁bought	-9.57577
movie	-9.57588
▁r	-9.57633
▁win	-9.57663
▁successful	-9.57721
▁recent	-9.57944
▁week	-9.57994
▁filled	-9.58047
▁brothers	-9.58062
▁depth	-9.58064
▁disturbing	-9.58283
▁accent	-9.58286
▁remind	-9.583
▁cult	-9.58536
▁chemistry	-9.58729
▁bother	-9.58899
▁7	-9.58931
▁appeal	-9.59037
▁e	-9.59165
▁control	-9.59225
do	-9.59233
▁genius	-9.59298
w	-9.59352
▁vampire	-9.59361
▁weren	-9.5938
▁shoot	-9.59381
▁showed	-9.59397
▁shooting	-9.59493
▁adult	-9.59583
▁park	-9.5966
▁images	-9.59666
▁longer	-9.59876
▁trip	-9.59891
▁values	-9.59899
▁tough	-9.60152
▁dad	-9.60209
▁culture	-9.60552
ic	-9.60561
▁prison	-9.60691
▁changed	-9.60735
▁fair	-9.6082
▁west	-9.60878
3	-9.60922
▁barely	-9.60992
▁impossible	-9.61077
▁taste	-9.61078
▁jane	-9.61089
▁south	-9.6123
▁revenge	-9.61318
▁suddenly	-9.61474
▁mood	-9.61797
▁uses	-9.61858
▁bar	-9.61875
don	-9.62074
▁failed	-9.6208
▁alien	-9.62383
▁sam	-9.62394
▁effective	-9.62763
▁?	-9.62866
▁chase	-9.629
although	-9.62909
▁touch	-9.63031
▁singing	-9.63081
▁stunning	-9.63104
▁questions	-9.63266
▁90	-9.63271
▁kills	-9.63385
▁adventure	-9.63411
▁explain	-9.63413
▁fiction	-9.63499
▁pass	-9.63572
▁conclusion	-9.63589
▁j	-9.63607
▁wild	-9.63825
▁stick	-9.6406
▁considered	-9.6407
▁journey	-9.64194
▁added	-9.64234
▁somewhere	-9.64303
▁p	-9.64334
▁80'	-9.64438
1	-9.64601
▁yeah	-9.64649
▁silent	-9.64719
▁meaning	-9.64738
▁l	-9.64765
▁sexy	-9.648
▁starring	-9.64868
▁twists	-9.65003
▁green	-9.65043
▁edge	-9.65153
▁bed	-9.65413
▁smart	-9.65484
▁available	-9.65677
▁involving	-9.65682
▁charming	-9.65824
▁scenery	-9.66085
▁pre	-9.66208
▁leaving	-9.66308
▁army	-9.66331
▁tone	-9.66501
▁computer	-9.66595
▁blue	-9.66625
they	-9.66625
▁ultimately	-9.6663
▁sitting	-9.66819
▁slasher	-9.66861
▁standard	-9.67129
▁frank	-9.672
▁normal	-9.67368
▁catch	-9.67477
▁soul	-9.67511
▁100	-9.67778
▁issues	-9.67782
▁purpose	-9.6781
▁photography	-9.67815
▁government	-9.67939
▁london	-9.6794
▁immediately	-9.67942
▁jones	-9.68124
▁opera	-9.6838
▁honestly	-9.68458
when	-9.68512
▁jim	-9.68631
▁nobody	-9.68859
▁beautifully	-9.69034
▁planet	-9.69272
▁nowhere	-9.69318
▁ray	-9.69341
▁subtle	-9.69347
▁soldiers	-9.69483
▁laughable	-9.69489
▁rare	-9.69513
▁9	-9.69516
▁personally	-9.69517
▁surprisingly	-9.69553
▁appearance	-9.69561
▁terrific	-9.69595
▁ghost	-9.69623
▁law	-9.6979
▁magic	-9.69842
▁heavy	-9.70004
▁ride	-9.70011
▁impression	-9.70202
▁touching	-9.70289
▁lovely	-9.7029
ish	-9.70368
▁adaptation	-9.70618
▁everybody	-9.70651
▁land	-9.70715
▁plan	-9.70724
▁festival	-9.70746
▁comedies	-9.70771
▁ability	-9.70843
▁books	-9.70867
▁disappointing	-9.7098
▁suppose	-9.71024
▁aspect	-9.71037
▁date	-9.71068
▁mary	-9.71085
▁giant	-9.71187
▁door	-9.71349
▁unbelievable	-9.71551
▁innocent	-9.7159
▁charles	-9.71729
▁throw	-9.71774
she	-9.71867
▁managed	-9.71917
▁animated	-9.72102
▁naked	-9.72103
▁club	-9.72281
▁painful	-9.72528
▁cinematic	-9.72736
▁finish	-9.72841
▁terms	-9.72893
▁remains	-9.7291
▁presence	-9.73
▁outstanding	-9.7303
▁excuse	-9.73049
▁generally	-9.73049
▁utterly	-9.73058
▁aside	-9.73088
▁cry	-9.73141
▁award	-9.73211
▁likely	-9.73225
▁victim	-9.73453
▁complex	-9.73536
▁narrative	-9.7367
▁drive	-9.73808
▁smith	-9.73871
▁disappointment	-9.73981
▁loud	-9.74011
▁thrown	-9.74366
▁al	-9.74431
z	-9.74498
▁indian	-9.74651
▁details	-9.74682
▁costumes	-9.74784
▁double	-9.74802
off	-9.74899
▁literally	-9.75224
▁boyfriend	-9.75266
▁runs	-9.75503
▁wow	-9.7553
▁expectations	-9.75574
▁80	-9.75642
▁charm	-9.75645
▁building	-9.75791
▁thanks	-9.75803
▁student	-9.75813
▁emotions	-9.75847
▁teen	-9.75925
▁pain	-9.75959
▁pictures	-9.76016
us	-9.762
▁support	-9.76224
▁detective	-9.76233
▁natural	-9.76246
▁summer	-9.76277
making	-9.76511
▁climax	-9.76533
some	-9.76697
▁hoping	-9.76703
▁mistake	-9.7689
▁hurt	-9.76934
▁hospital	-9.76943
ion	-9.77018
▁knowing	-9.77193
▁intended	-9.77237
▁ship	-9.77317
ra	-9.77328
▁tired	-9.77396
▁sent	-9.77528
▁zombies	-9.77623
▁attack	-9.77748
▁laughed	-9.77798
▁minor	-9.77817
▁historical	-9.77855
▁constantly	-9.77987
▁makers	-9.78064
▁martin	-9.78088
▁thank	-9.78127
▁spoilers	-9.78163
▁producer	-9.78293
director	-9.78345
▁emotion	-9.78383
▁mysterious	-9.78405
▁boss	-9.78504
▁military	-9.78513
▁audiences	-9.7855
▁fell	-9.7872
▁walking	-9.78852
▁contains	-9.78922
▁bottom	-9.79008
2	-9.79063
▁confusing	-9.79334
▁race	-9.79476
▁changes	-9.79501
▁k	-9.79506
▁charlie	-9.79515
u	-9.79516
▁color	-9.79524
▁forever	-9.7962
▁fascinating	-9.79624
▁slowly	-9.79899
▁gem	-9.79936
▁ed	-9.79988
▁suggest	-9.8007
▁brief	-9.80241
▁manner	-9.80299
▁exception	-9.80358
▁bond	-9.8038
▁bruce	-9.80385
▁presented	-9.80491
▁mom	-9.80543
budget	-9.8067
el	-9.80687
▁direct	-9.80717
▁notice	-9.80771
▁shocking	-9.80799
▁stands	-9.8111
▁paris	-9.81169
▁compelling	-9.81203
▁folks	-9.81293
▁grace	-9.81536
▁collection	-9.81636
▁offer	-9.81781
▁names	-9.81799
▁chris	-9.81847
▁central	-9.81933
▁content	-9.82113
▁pull	-9.82144
▁fresh	-9.82401
▁equally	-9.82413
▁justice	-9.82413
▁shock	-9.82539
▁detail	-9.82637
old	-9.82821
▁steve	-9.82849
▁students	-9.82861
now	-9.82925
less	-9.83007
▁fully	-9.83176
▁happening	-9.83246
▁h	-9.83266
▁harry	-9.83283
▁critics	-9.83305
overall	-9.83386
▁ahead	-9.83912
▁10.	-9.84044
co	-9.84096
▁aspects	-9.84143
▁impact	-9.84158
▁six	-9.84292
▁opportunity	-9.84437
▁beat	-9.8456
▁agent	-9.84568
▁rip	-9.8468
▁wood	-9.84745
▁grade	-9.84753
▁ground	-9.8477
▁feelings	-9.84803
▁pop	-9.84808
▁surely	-9.84825
▁pieces	-9.84923
▁include	-9.85038
▁rented	-9.85116
▁trailer	-9.8517
▁confused	-9.85216
▁impressed	-9.85217
▁gorgeous	-9.85345
▁step	-9.85374
▁hey	-9.85405
▁spot	-9.85477
▁industry	-9.85493
▁likable	-9.855
▁funniest	-9.85505
▁million	-9.85512
▁themes	-9.85665
▁mainly	-9.85667
ies	-9.85785
▁image	-9.85951
▁mix	-9.85998
na	-9.8611
ity	-9.86116
see	-9.86196
▁radio	-9.86355
▁affair	-9.86548
▁50	-9.86572
▁location	-9.86583
▁rated	-9.86588
▁tony	-9.86692
▁finding	-9.86693
▁hitchcock	-9.86869
▁twice	-9.86875
▁thus	-9.86917
▁porn	-9.87085
▁sea	-9.87101
▁motion	-9.87292
▁wondering	-9.87371
▁holes	-9.87474
▁answer	-9.87522
▁paid	-9.87648
▁russian	-9.87673
go	-9.87805
▁stewart	-9.87817
▁lover	-9.87854
▁dreams	-9.87889
▁anymore	-9.87988
▁mediocre	-9.88102
ian	-9.88389
▁lived	-9.88389
▁extra	-9.8845
▁serial	-9.88453
▁quick	-9.88548
▁appeared	-9.88582
just	-9.88583
▁difference	-9.88594
after	-9.88658
ling	-9.88776
▁flicks	-9.88793
▁sleep	-9.88996
▁marriage	-9.8907
▁drawn	-9.89094
▁:	-9.89101
▁acts	-9.89178
▁creative	-9.89415
▁share	-9.89448
▁developed	-9.8947
▁reminded	-9.89494
▁lighting	-9.8951
▁suicide	-9.89516
▁batman	-9.89536
▁hasn	-9.89607
▁forgotten	-9.89678
▁places	-9.89711
▁key	-9.89715
▁random	-9.90031
▁jean	-9.90037
▁damn	-9.90063
▁x	-9.90082
▁plane	-9.90332
com	-9.90497
▁falling	-9.90521
▁extreme	-9.90588
▁sat	-9.90622
ch	-9.90643
▁delivers	-9.90644
▁church	-9.90758
▁billy	-9.90767
▁stuck	-9.90768
▁drugs	-9.90784
▁intense	-9.90842
▁attractive	-9.91097
also	-9.91136
▁torture	-9.91196
▁ugly	-9.91266
▁puts	-9.91326
▁scientist	-9.91347
▁machine	-9.91352
▁relationships	-9.9141
▁hotel	-9.91418
▁ms	-9.91568
son	-9.91594
▁lacks	-9.91802
▁treat	-9.91845
▁disaster	-9.92156
▁accident	-9.92211
▁latter	-9.92211
▁wooden	-9.92226
te	-9.92514
▁fashion	-9.92539
▁adults	-9.92654
▁tragic	-9.92708
▁wall	-9.92739
▁putting	-9.9295
▁creature	-9.93017
▁compare	-9.93017
▁ready	-9.93035
▁cops	-9.93058
▁absolute	-9.93094
j	-9.93116
▁imagination	-9.93128
▁dies	-9.93142
▁fellow	-9.9318
▁gold	-9.93217
▁tend	-9.93265
▁deliver	-9.9332
▁mid	-9.93327
▁information	-9.9335
▁captain	-9.93373
▁mouth	-9.93434
▁process	-9.93486
▁lose	-9.93515
▁flaws	-9.93552
▁grand	-9.93703
▁negative	-9.9371
▁animals	-9.93719
▁allowed	-9.93783
▁noir	-9.93809
▁struggle	-9.93815
▁theatre	-9.93828
ist	-9.9384
▁soldier	-9.93842
▁shouldn	-9.93861
▁m	-9.93993
▁born	-9.94027
▁victims	-9.9412
▁teenage	-9.94185
▁moral	-9.94219
▁addition	-9.94222
▁adds	-9.94323
▁approach	-9.94538
▁phone	-9.94574
▁system	-9.94655
▁count	-9.94754
▁horse	-9.94792
▁besides	-9.94969
▁element	-9.9499
▁brown	-9.95113
▁picked	-9.95157
▁teacher	-9.95183
▁angry	-9.95332
▁fat	-9.9554
▁becoming	-9.9562
▁fox	-9.95623
though	-9.95631
▁describe	-9.95711
▁kelly	-9.95868
▁childhood	-9.96003
▁cgi	-9.9606
▁faces	-9.96099
▁actresses	-9.96121
▁whatsoever	-9.96173
▁filming	-9.96193
▁worthy	-9.96237
▁standards	-9.96437
▁soft	-9.96443
▁offers	-9.96452
▁thoroughly	-9.96513
▁member	-9.96542
▁cross	-9.96757
▁christopher	-9.96761
▁seven	-9.9684
▁w	-9.96912
▁supposedly	-9.96948
▁pleasure	-9.97045
▁station	-9.97121
▁listen	-9.97276
▁moved	-9.97303
▁therefore	-9.97374
▁mine	-9.97471
good	-9.97534
▁zero	-9.97568
▁blame	-9.97578
▁moon	-9.97725
▁criminal	-9.97753
▁epic	-9.97766
▁queen	-9.97802
▁passion	-9.979
▁search	-9.97905
▁dirty	-9.97907
▁commentary	-9.98042
▁followed	-9.98124
▁deserve	-9.98134
▁sucks	-9.98201
▁afraid	-9.98222
▁seemingly	-9.98238
▁wind	-9.98327
▁nasty	-9.98398
▁woods	-9.98497
de	-9.98556
▁personality	-9.98562
▁carry	-9.98577
▁lies	-9.98593
▁martial	-9.98744
▁sight	-9.9883
▁judge	-9.98911
▁stock	-9.98919
▁favourite	-9.98962
▁independent	-9.9901
however	-9.99027
▁proves	-9.99035
▁area	-9.99119
▁speaking	-9.99133
▁led	-9.99189
▁intriguing	-9.99249
▁helped	-9.99336
▁70	-9.99383
over	-9.99384
▁watchable	-9.99428
▁turning	-9.99438
▁christian	-9.99561
▁stone	-9.9964
▁onto	-9.99732
▁memory	-9.99765
▁redeeming	-9.99811
▁games	-9.99901
ation	-10.0024
▁design	-10.0028
▁comedic	-10.003
▁professional	-10.0032
la	-10.0045
▁suspect	-10.0046
▁clothes	-10.0047
▁tears	-10.0058
▁helps	-10.0064
▁energy	-10.0065
▁jr	-10.0069
▁current	-10.007
▁desert	-10.0083
▁news	-10.009
▁jackson	-10.0103
▁joy	-10.0108
▁continue	-10.0115
▁provides	-10.0119
▁willing	-10.0121
▁pair	-10.0136
▁inspired	-10.0161
▁unknown	-10.0172
especially	-10.0178
▁soap	-10.0182
▁murders	-10.0191
▁apartment	-10.02
▁tragedy	-10.0206
▁ryan	-10.0212
year	-10.0216
▁superior	-10.0217
▁anybody	-10.0226
▁price	-10.0234
▁animal	-10.024
▁jerry	-10.0245
▁henry	-10.0247
▁70'	-10.0264
oh	-10.0268
▁uncle	-10.027
▁40	-10.027
▁le	-10.0284
▁asked	-10.0286
▁realized	-10.0292
▁dying	-10.0296
▁tim	-10.0298
▁accept	-10.0301
▁anywhere	-10.0302
▁wanting	-10.0308
▁rarely	-10.0308
▁absurd	-10.0313
▁12	-10.0316
life	-10.0316
▁artistic	-10.0317
▁draw	-10.0338
▁jason	-10.0339
▁physical	-10.0359
from	-10.0368
▁witch	-10.0381
while	-10.0392
▁delightful	-10.0397
▁provide	-10.0419
▁intelligence	-10.0422
▁lord	-10.0429
▁vs	-10.0433
▁spoiler	-10.0434
▁held	-10.0438
▁twenty	-10.0442
▁thinks	-10.0475
▁states	-10.049
▁food	-10.0498
▁brutal	-10.0505
▁artist	-10.0517
▁bloody	-10.052
▁loose	-10.0523
▁surprising	-10.0523
▁thin	-10.0527
ma	-10.0541
▁vhs	-10.0552
▁accurate	-10.056
▁build	-10.0568
ment	-10.0569
▁flying	-10.0584
▁wearing	-10.0584
▁shop	-10.059
▁returns	-10.06
▁board	-10.0602
▁mike	-10.0614
▁kevin	-10.0614
▁began	-10.0615
▁wonderfully	-10.0641
▁loves	-10.0647
▁boat	-10.0658
▁dangerous	-10.0672
▁filmmaker	-10.0681
▁moore	-10.0683
▁trust	-10.0709
▁below	-10.0712
▁memories	-10.0718
▁opposite	-10.0738
▁hidden	-10.0739
▁gags	-10.0739
▁necessary	-10.0757
▁shakespeare	-10.0757
▁devil	-10.0765
▁rubbish	-10.0775
▁n	-10.0789
▁pacing	-10.0794
▁numbers	-10.0815
men	-10.0822
▁13	-10.0835
▁arts	-10.0838
▁thomas	-10.0838
▁player	-10.0847
then	-10.0847
em	-10.0847
▁noticed	-10.0848
▁chinese	-10.0853
▁page	-10.0859
▁1950	-10.0871
▁deeply	-10.0873
▁friendship	-10.0877
▁americans	-10.0878
top	-10.0879
▁floor	-10.0879
▁roll	-10.0879
▁scared	-10.0882
ism	-10.0896
▁generation	-10.0909
▁1970	-10.0909
▁rape	-10.091
▁hated	-10.0915
▁religious	-10.092
▁tape	-10.0921
▁allen	-10.093
▁bob	-10.0932
ha	-10.0934
▁skip	-10.0938
▁engaging	-10.0947
yes	-10.0952
▁unusual	-10.0958
▁ball	-10.0969
▁cable	-10.0971
▁understanding	-10.0971
▁seconds	-10.0974
▁allow	-10.0976
il	-10.0979
▁wide	-10.0994
▁field	-10.0995
▁river	-10.1003
▁buddy	-10.1008
▁williams	-10.1022
▁president	-10.1025
▁eddie	-10.1028
▁stephen	-10.103
▁academy	-10.1043
▁limited	-10.1068
▁smile	-10.1073
▁ice	-10.1104
▁destroy	-10.1119
▁lets	-10.1121
▁somebody	-10.1125
▁st	-10.1125
▁curious	-10.1142
▁fame	-10.1144
▁introduced	-10.1146
▁jump	-10.1157
whilst	-10.116
▁remarkable	-10.116
▁locations	-10.116
▁johnny	-10.1165
▁explanation	-10.1172
▁bland	-10.1173
▁monsters	-10.1183
▁leader	-10.1209
▁comparison	-10.1212
▁anne	-10.1213
rely	-10.122
▁officer	-10.1226
▁singer	-10.124
▁nicely	-10.1246
▁apparent	-10.1249
▁holds	-10.1269
▁recall	-10.127
▁technical	-10.127
▁finished	-10.1274
▁village	-10.1282
▁learned	-10.1286
▁favor	-10.1286
▁manage	-10.129
▁con	-10.129
▁record	-10.1296
▁unnecessary	-10.1298
▁range	-10.13
▁heaven	-10.1305
▁dealing	-10.1308
▁mental	-10.1311
▁months	-10.1313
▁ring	-10.1318
▁witty	-10.1319
▁arthur	-10.1323
▁desperate	-10.133
▁captured	-10.133
her	-10.1336
▁includes	-10.1342
▁heroine	-10.1345
▁crappy	-10.1358
▁conflict	-10.1368
▁davis	-10.138
x	-10.1381
▁discover	-10.1382
▁magnificent	-10.139
▁advice	-10.1418
▁lynch	-10.144
played	-10.1441
.....	-10.1455
▁priest	-10.1456
▁cash	-10.1459
ally	-10.1468
▁kick	-10.147
▁morning	-10.1479
▁pilot	-10.148
▁taylor	-10.1481
▁references	-10.1482
▁exist	-10.1492
▁ford	-10.1493
▁sing	-10.1494
▁responsible	-10.15
▁constant	-10.1511
▁starting	-10.1515
4	-10.1518
▁knowledge	-10.1519
▁trek	-10.152
▁driving	-10.1522
▁heroes	-10.1529
▁partner	-10.1545
▁danny	-10.1548
▁vision	-10.1552
▁length	-10.1562
▁players	-10.1562
▁hadn	-10.1562
▁survive	-10.1568
▁connection	-10.1581
▁fail	-10.1596
▁owner	-10.16
▁loving	-10.1601
▁asks	-10.1601
▁fate	-10.1604
▁saving	-10.1605
▁media	-10.1609
looking	-10.1612
▁mixed	-10.1617
▁hall	-10.1619
▁creating	-10.1624
▁lacking	-10.1627
▁vote	-10.1637
▁community	-10.1642
▁behavior	-10.1643
▁alan	-10.1643
▁quiet	-10.1654
▁bigger	-10.1665
▁mission	-10.1668
▁par	-10.1669
▁national	-10.1671
▁kinda	-10.168
▁suit	-10.168
▁terribly	-10.1684
▁howard	-10.169
▁sucked	-10.1692
▁nick	-10.1694
▁growing	-10.1702
▁castle	-10.1707
▁sees	-10.1707
▁clean	-10.1709
▁genuine	-10.1716
5	-10.1725
▁issue	-10.1727
▁gotten	-10.1727
▁ordinary	-10.1728
▁humanity	-10.1728
▁nonsense	-10.1731
▁lovers	-10.1732
▁deserved	-10.1736
▁humorous	-10.1739
▁calls	-10.1744
▁speed	-10.1748
▁window	-10.175
▁legend	-10.1751
▁robin	-10.1755
▁wars	-10.1762
▁private	-10.1768
▁sign	-10.177
▁program	-10.177
▁finest	-10.1772
▁prove	-10.178
▁treated	-10.178
▁england	-10.1788
▁warning	-10.1791
▁bits	-10.1795
▁relate	-10.1801
▁normally	-10.1807
▁irritating	-10.1808
▁drunk	-10.1831
▁eat	-10.1845
▁capture	-10.1866
▁wayne	-10.1869
▁murdered	-10.1873
▁explained	-10.1891
▁north	-10.1892
▁unfunny	-10.1893
▁golden	-10.1897
line	-10.1903
▁cost	-10.1911
▁luck	-10.1915
▁keeping	-10.1917
▁international	-10.1936
▁bright	-10.1945
▁dreadful	-10.1948
▁faith	-10.1956
▁wise	-10.196
▁bank	-10.1979
▁se	-10.1982
▁brian	-10.1986
▁wedding	-10.2001
▁author	-10.2011
▁max	-10.2012
▁grow	-10.2027
▁powers	-10.2028
▁utter	-10.2031
▁empty	-10.2042
ter	-10.2052
▁realism	-10.2053
▁mere	-10.2058
▁hunter	-10.2058
▁sean	-10.2061
▁satire	-10.2064
▁efforts	-10.2072
▁blind	-10.2092
▁protagonist	-10.2095
0'	-10.2098
▁event	-10.2099
▁seat	-10.2101
▁numerous	-10.2106
▁regular	-10.2107
▁commercial	-10.2108
▁lesson	-10.2109
▁scream	-10.2113
▁winning	-10.2119
▁debut	-10.2129
why	-10.2129
how	-10.2129
▁youth	-10.2137
▁dressed	-10.2139
▁france	-10.2143
▁instance	-10.216
▁skills	-10.2168
▁desire	-10.2171
ton	-10.2182
▁fly	-10.2188
▁included	-10.2189
▁consist	-10.2194
▁texas	-10.2194
▁broken	-10.2194
▁dan	-10.2206
▁foreign	-10.2212
▁reviewers	-10.2213
▁corny	-10.2219
▁whenever	-10.2223
ta	-10.2225
▁gangster	-10.223
▁european	-10.2231
▁mini	-10.2238
▁ran	-10.2238
▁crowd	-10.224
▁ha	-10.2251
▁pulled	-10.2252
▁teenagers	-10.2262
▁fill	-10.2265
▁actions	-10.2269
▁stereotypes	-10.227
▁finale	-10.2272
▁travel	-10.2272
▁sheer	-10.2283
▁dated	-10.2283
▁higher	-10.2287
▁remembered	-10.2287
un	-10.229
▁chick	-10.2296
▁site	-10.2306
▁portray	-10.2311
▁gory	-10.2313
▁bomb	-10.2323
▁formula	-10.2323
▁frankly	-10.2323
▁unrealistic	-10.2324
ia	-10.2327
▁alex	-10.2329
▁insane	-10.2337
▁ill	-10.2343
▁pretentious	-10.2346
▁study	-10.2355
▁visit	-10.2358
▁****	-10.2359
▁african	-10.2362
▁screaming	-10.2364
▁heck	-10.2369
▁practical	-10.2369
▁psycho	-10.2373
▁occasionally	-10.2377
▁round	-10.2385
▁loss	-10.2391
▁disgusting	-10.2395
▁wit	-10.2395
▁gary	-10.2401
▁psychological	-10.2405
▁terror	-10.241
▁guns	-10.2418
▁parody	-10.2443
▁fights	-10.2454
▁paper	-10.2455
▁joan	-10.2465
▁aware	-10.2472
▁australian	-10.2478
▁/	-10.2479
▁context	-10.248
▁universal	-10.2481
▁spanish	-10.2482
▁grown	-10.2486
▁concerned	-10.2488
▁saved	-10.2488
▁awkward	-10.2491
▁discovered	-10.2493
▁steal	-10.2495
▁fu	-10.2501
▁fault	-10.2514
▁cameo	-10.2515
7	-10.2519
▁shallow	-10.2523
▁teenager	-10.2525
▁sell	-10.253
▁blonde	-10.2533
▁lucky	-10.2536
▁originally	-10.2537
▁according	-10.2545
▁combination	-10.2547
▁18	-10.2568
▁heads	-10.2569
▁ladies	-10.2571
▁feet	-10.2577
▁flesh	-10.2583
▁spectacular	-10.2584
▁deals	-10.2584
▁perform	-10.2587
▁talents	-10.2589
▁hits	-10.2591
▁nightmare	-10.2591
▁sheriff	-10.2592
▁football	-10.2594
▁skin	-10.2598
▁unexpected	-10.2606
rs	-10.2608
land	-10.2609
▁vampires	-10.261
▁villains	-10.2612
▁chan	-10.2624
▁frame	-10.2631
!!!!	-10.2632
??	-10.2633
▁featuring	-10.2641
▁received	-10.2645
▁model	-10.2646
ous	-10.2649
▁lewis	-10.2669
ul	-10.2683
▁cars	-10.2683
▁grew	-10.2684
▁tedious	-10.2684
ne	-10.2699
▁miles	-10.2705
▁reaction	-10.2707
▁contrived	-10.2707
▁drag	-10.2712
▁rental	-10.2713
▁contain	-10.272
▁asian	-10.2731
▁underrated	-10.2731
▁sake	-10.2734
▁angel	-10.2737
▁adam	-10.2742
▁display	-10.2746
▁test	-10.2746
star	-10.2749
▁choose	-10.2752
▁attitude	-10.2752
▁evidence	-10.2753
▁hunt	-10.2753
▁join	-10.2757
▁decade	-10.277
▁strength	-10.2777
▁hitler	-10.2778
▁laughter	-10.278
ry	-10.278
▁ann	-10.2784
▁sun	-10.2794
▁gonna	-10.2798
ey	-10.2798
▁perspective	-10.2799
▁douglas	-10.28
▁per	-10.2804
▁genuinely	-10.2809
▁toward	-10.2811
▁gross	-10.2812
▁fred	-10.2813
▁failure	-10.2822
▁results	-10.2825
▁bbc	-10.2869
▁forces	-10.2883
▁network	-10.2894
▁revealed	-10.29
▁reach	-10.2909
▁correct	-10.2913
bad	-10.2916
▁beach	-10.2917
▁promise	-10.2929
▁11	-10.2937
▁essentially	-10.2946
▁fish	-10.2954
▁overly	-10.2955
▁involves	-10.2971
▁eric	-10.2976
▁individual	-10.298
▁rob	-10.2982
▁naturally	-10.2984
▁send	-10.2985
▁turkey	-10.2986
▁hopes	-10.299
▁edited	-10.2994
▁reviewer	-10.3001
▁ultimate	-10.3003
8	-10.3007
▁europe	-10.3008
▁anthony	-10.3013
▁dick	-10.3016
▁develop	-10.3026
▁cuts	-10.3033
▁decision	-10.3038
▁native	-10.304
another	-10.3048
▁hill	-10.305
▁spoil	-10.306
▁product	-10.3063
▁graphic	-10.3064
▁met	-10.3066
▁described	-10.3074
▁candy	-10.3076
▁cage	-10.3094
▁hang	-10.3098
▁ho	-10.3101
▁japan	-10.3104
▁existence	-10.3105
▁visuals	-10.3106
▁handsome	-10.3108
▁executed	-10.3108
▁julie	-10.3109
▁costs	-10.312
▁sharp	-10.3121
his	-10.3127
▁families	-10.3127
▁breaks	-10.3142
age	-10.3143
▁blow	-10.3143
▁assume	-10.3146
▁humans	-10.3146
▁flashbacks	-10.3147
▁provided	-10.3151
▁relief	-10.3153
▁jesus	-10.3154
▁bo	-10.3165
▁steven	-10.3169
▁freedom	-10.3175
▁depressing	-10.3177
▁seagal	-10.3179
▁streets	-10.3183
▁dry	-10.319
▁unable	-10.3203
ley	-10.3203
▁mrs	-10.3208
▁logic	-10.3222
▁horribly	-10.3223
▁gratuitous	-10.3224
▁lousy	-10.3225
▁alice	-10.3231
▁lake	-10.3233
▁warm	-10.3236
ine	-10.3237
▁crash	-10.3244
▁center	-10.3249
first	-10.3254
▁eating	-10.3281
▁delivered	-10.3287
▁treatment	-10.3297
▁chief	-10.3297
▁gordon	-10.3299
▁keaton	-10.3299
maybe	-10.3312
▁amateurish	-10.3314
▁matt	-10.3318
▁continues	-10.333
▁jennifer	-10.333
▁rescue	-10.3343
▁creatures	-10.3351
???	-10.3352
ce	-10.3352
▁pity	-10.3356
▁sympathetic	-10.337
▁jimmy	-10.3376
▁bear	-10.3385
▁kong	-10.3394
▁brilliantly	-10.3396
▁levels	-10.3399
▁foot	-10.3403
ar	-10.3409
▁walked	-10.3417
▁prince	-10.3419
▁clue	-10.3424
▁recognize	-10.3433
▁viewed	-10.3439
▁ruin	-10.3439
▁capable	-10.3443
▁meeting	-10.3453
▁robot	-10.3463
▁rules	-10.3468
▁excited	-10.3469
▁refreshing	-10.3469
▁endless	-10.3472
▁entertained	-10.3476
▁jeff	-10.3477
screen	-10.3485
▁embarrassing	-10.3485
▁rose	-10.3486
▁driver	-10.3486
▁sky	-10.3487
nd	-10.3492
▁identity	-10.3492
▁court	-10.3496
▁discovers	-10.3496
▁surreal	-10.3513
▁strongly	-10.3515
▁twisted	-10.352
▁till	-10.352
▁fool	-10.3522
▁built	-10.3544
▁mask	-10.355
▁insult	-10.3555
▁bringing	-10.3555
▁rise	-10.3563
▁slapstick	-10.3567
▁theaters	-10.3568
▁stopped	-10.3568
▁halloween	-10.3572
▁aliens	-10.3575
▁mountain	-10.3579
▁subtitles	-10.3584
▁evening	-10.3589
▁promising	-10.3594
▁tiny	-10.3597
▁remain	-10.3607
▁lesbian	-10.361
john	-10.3611
▁surface	-10.3618
▁visually	-10.3618
▁religion	-10.3618
▁larry	-10.3621
▁hearing	-10.3624
▁gene	-10.3629
▁prime	-10.3633
▁substance	-10.3643
very	-10.3645
▁exploitation	-10.3646
▁dollars	-10.3647
▁pile	-10.3648
▁cares	-10.365
▁ages	-10.3662
lo	-10.3663
▁bodies	-10.367
▁research	-10.3671
ized	-10.3684
▁semi	-10.37
▁portrays	-10.3701
▁sudden	-10.3709
▁costume	-10.3712
▁standing	-10.3713
▁harris	-10.3716
▁majority	-10.372
▁proved	-10.3733
▁service	-10.3739
▁shocked	-10.3739
▁barbara	-10.3753
▁target	-10.3754
▁rough	-10.3759
▁sisters	-10.3763
▁enemy	-10.3771
▁steals	-10.3773
▁prefer	-10.3778
▁scare	-10.3778
▁germany	-10.3784
▁ancient	-10.3795
▁kung	-10.3796
side	-10.3797
▁produce	-10.3799
▁dubbed	-10.38
▁jackie	-10.3828
▁pleasant	-10.3837
▁truck	-10.3855
▁regret	-10.3858
▁routine	-10.3867
▁sequels	-10.3869
▁qualities	-10.3871
▁loses	-10.3878
▁proper	-10.389
▁awards	-10.3892
▁circumstances	-10.3896
▁chaplin	-10.39
▁asking	-10.39
▁pro	-10.3903
▁hat	-10.3909
▁appealing	-10.3909
▁root	-10.392
▁saturday	-10.3925
▁ruined	-10.3934
▁da	-10.3941
▁portraying	-10.3943
▁core	-10.3951
▁types	-10.3957
▁classics	-10.3959
▁hide	-10.3959
▁scale	-10.396
▁asleep	-10.3966
▁painfully	-10.3967
▁traditional	-10.3969
▁uk	-10.3973
▁haunting	-10.3979
▁speech	-10.3998
▁vehicle	-10.4
▁universe	-10.4001
▁werewolf	-10.4003
▁amateur	-10.4024
▁morgan	-10.4024
▁professor	-10.4028
▁emotionally	-10.4029
▁cartoons	-10.4039
▁grave	-10.4043
▁highlight	-10.405
▁jungle	-10.4051
▁idiot	-10.4054
**	-10.408
▁sports	-10.4081
me	-10.4098
▁louis	-10.4102
▁naive	-10.4105
▁suck	-10.4116
▁table	-10.4117
9	-10.4123
▁propaganda	-10.4133
▁lower	-10.4134
▁drop	-10.4136
▁teens	-10.4146
▁creates	-10.4151
▁rain	-10.4155
▁weeks	-10.4158
▁market	-10.4161
▁passed	-10.4182
▁junk	-10.4184
▁friday	-10.4187
um	-10.4187
am	-10.419
▁demon	-10.419
▁nominated	-10.4192
▁source	-10.4214
▁caused	-10.4214
▁satisfying	-10.4219
▁ignore	-10.423
▁contrast	-10.424
?!	-10.4255
▁extras	-10.4259
▁sympathy	-10.4266
▁chosen	-10.4269
▁worthwhile	-10.427
▁regard	-10.4274
▁theatrical	-10.4284
▁east	-10.4297
ge	-10.4304
▁knock	-10.4307
▁suffering	-10.4313
▁washington	-10.432
▁department	-10.4323
▁marry	-10.4329
▁kate	-10.4333
▁factor	-10.4337
ok	-10.4342
made	-10.4347
▁peace	-10.4349
watch	-10.4353
▁united	-10.4353
▁enter	-10.4358
▁tight	-10.4361
▁excitement	-10.4373
can	-10.4377
american	-10.4377
▁suspenseful	-10.4377
▁abuse	-10.4386
▁experienced	-10.4387
▁encounter	-10.4395
▁eight	-10.4399
▁simon	-10.44
▁broadway	-10.4402
▁guilty	-10.4404
▁angles	-10.4406
let	-10.4409
▁losing	-10.4412
▁training	-10.4418
▁contemporary	-10.4427
!).	-10.4446
▁safe	-10.445
▁holmes	-10.4456
▁urban	-10.4457
▁depicted	-10.4457
▁bus	-10.4462
▁opens	-10.4466
▁makeup	-10.4469
▁cruel	-10.4474
work	-10.4476
▁path	-10.4476
▁technology	-10.4482
▁wear	-10.4489
▁hopefully	-10.4491
▁winner	-10.4495
▁dean	-10.4498
▁unfortunate	-10.45
▁roger	-10.4514
▁wolf	-10.4524
▁false	-10.4537
▁committed	-10.4538
▁dogs	-10.4538
▁canadian	-10.4546
▁darkness	-10.4549
▁irish	-10.455
▁weekend	-10.4564
▁mexican	-10.4566
▁talks	-10.457
▁mob	-10.457
▁crying	-10.4571
▁mst	-10.4575
▁figured	-10.4582
▁cell	-10.4583
▁appropriate	-10.4586
▁influence	-10.4588
▁jail	-10.4594
▁albert	-10.4598
▁veteran	-10.4603
▁bothered	-10.4618
▁gas	-10.4623
▁renting	-10.4631
da	-10.4642
▁exact	-10.465
▁virtually	-10.4652
▁lane	-10.4656
▁spoof	-10.466
▁1980	-10.4664
▁offensive	-10.4667
▁account	-10.467
▁anime	-10.4675
▁melodrama	-10.4676
▁joseph	-10.468
ho	-10.4681
▁conversation	-10.4686
▁edward	-10.4691
ri	-10.4692
▁allows	-10.4718
▁claim	-10.4719
▁fits	-10.4723
▁grant	-10.4728
▁wilson	-10.4731
▁russell	-10.4733
▁tarzan	-10.4734
▁performed	-10.4744
▁print	-10.4767
▁dennis	-10.4767
▁parker	-10.4771
▁dude	-10.4773
▁treasure	-10.4774
▁harsh	-10.4776
▁believed	-10.4785
▁praise	-10.4786
ner	-10.4788
▁obsessed	-10.4794
▁danger	-10.4801
▁anger	-10.4802
▁welcome	-10.4805
anyway	-10.4811
▁atrocious	-10.4815
▁convince	-10.4816
▁supernatural	-10.4817
▁flight	-10.482
▁interview	-10.4825
▁commit	-10.4826
▁degree	-10.483
where	-10.4839
back	-10.484
day	-10.4841
▁bore	-10.4845
▁jewish	-10.4845
▁continuity	-10.4845
▁haunted	-10.4847
▁previously	-10.4847
▁witness	-10.4848
▁concern	-10.4849
▁cutting	-10.4854
▁execution	-10.4856
▁captures	-10.4864
▁featured	-10.4864
mo	-10.4868
▁anderson	-10.4875
▁latest	-10.4879
▁v	-10.489
▁structure	-10.489
▁reputation	-10.4901
▁variety	-10.4902
▁fare	-10.4905
▁johnson	-10.4906
▁nevertheless	-10.4907
per	-10.4907
▁studios	-10.4913
▁experiment	-10.4914
▁murphy	-10.4931
▁kim	-10.494
▁arm	-10.4941
▁calling	-10.4947
▁reporter	-10.4948
▁inner	-10.4948
▁indie	-10.4952
▁california	-10.4956
▁accents	-10.4956
▁anna	-10.4957
▁category	-10.4958
▁vietnam	-10.496
▁mc	-10.4963
war	-10.4965
▁patient	-10.4967
▁walks	-10.4969
▁movement	-10.4978
▁voices	-10.4982
▁chose	-10.4984
▁wake	-10.4988
▁largely	-10.4988
▁frightening	-10.4989
most	-10.5003
▁proud	-10.5007
▁speaks	-10.501
▁unlikely	-10.5011
▁extraordinary	-10.5015
▁touches	-10.5019
ka	-10.5028
▁nurse	-10.5034
▁segment	-10.5034
▁ludicrous	-10.5045
▁drew	-10.5046
▁patrick	-10.505
▁raw	-10.5051
▁punch	-10.5059
▁25	-10.5063
▁profound	-10.5073
▁remotely	-10.5082
▁belief	-10.5093
▁blockbuster	-10.5094
▁holding	-10.5098
▁suffers	-10.5098
▁deadly	-10.5101
▁massacre	-10.5103
▁eastwood	-10.5104
▁san	-10.5105
▁sir	-10.5107
▁screening	-10.5113
▁shut	-10.5117
house	-10.5117
▁handled	-10.5119
▁santa	-10.512
▁forest	-10.5121
▁brooks	-10.5125
▁vacation	-10.5131
▁forgettable	-10.5132
▁accidentally	-10.5134
▁kiss	-10.5135
▁china	-10.5136
▁sensitive	-10.5141
▁shadow	-10.5151
▁hanging	-10.5152
▁breath	-10.5153
▁stereotypical	-10.5153
including	-10.5163
▁usa	-10.5172
▁).	-10.5173
▁meanwhile	-10.5178
▁quirky	-10.5192
▁league	-10.5192
▁birth	-10.5194
way	-10.5199
▁politics	-10.5201
▁bat	-10.5213
▁india	-10.5215
▁amazingly	-10.5225
▁roy	-10.5231
▁insight	-10.5238
ler	-10.5242
▁demons	-10.5249
***	-10.5255
▁crude	-10.527
▁scenario	-10.5272
▁reveal	-10.5275
se	-10.5275
▁trilogy	-10.5279
▁expression	-10.5282
▁term	-10.5286
▁forgot	-10.5289
▁paced	-10.5294
ier	-10.5303
▁plans	-10.5311
▁everywhere	-10.5314
▁ted	-10.5315
▁donald	-10.5316
▁breaking	-10.5318
▁learns	-10.5325
▁curse	-10.5327
▁africa	-10.5336
▁prior	-10.5338
▁gritty	-10.534
▁amazed	-10.5341
▁erotic	-10.5342
▁covered	-10.5348
▁code	-10.5359
▁section	-10.5367
▁tree	-10.5367
▁required	-10.5374
ary	-10.5374
▁elizabeth	-10.5374
▁lie	-10.5383
▁host	-10.5387
▁lifetime	-10.5393
▁inept	-10.5396
▁dracula	-10.54
▁mainstream	-10.5401
▁stranger	-10.5403
▁ma	-10.5411
▁initial	-10.5418
ant	-10.5425
▁concert	-10.5428
▁security	-10.5429
▁summary	-10.5431
▁hip	-10.5447
▁beast	-10.5449
▁killers	-10.5454
▁repeated	-10.5457
▁narration	-10.5458
▁southern	-10.5462
rd	-10.5467
▁base	-10.5468
▁surprises	-10.5486
▁cheese	-10.549
▁fulci	-10.5491
▁depiction	-10.5516
▁statement	-10.5517
▁funnier	-10.5519
▁stolen	-10.552
▁format	-10.5527
▁westerns	-10.5527
▁prepared	-10.5529
ah	-10.5529
▁combined	-10.5529
▁stayed	-10.5534
▁seasons	-10.5535
▁sum	-10.5537
down	-10.554
▁z	-10.5543
ful	-10.5546
▁multiple	-10.5548
▁stomach	-10.5549
▁focused	-10.5553
▁abandoned	-10.5554
▁rule	-10.556
▁buying	-10.5563
▁destroyed	-10.5565
▁directly	-10.5568
ty	-10.5569
▁experiences	-10.5571
▁pet	-10.5573
▁teeth	-10.558
▁afternoon	-10.558
▁mildly	-10.5585
▁blown	-10.5586
▁warned	-10.5591
▁interviews	-10.5594
▁mature	-10.5597
▁occasional	-10.5601
▁entertain	-10.5608
▁sword	-10.5609
rate	-10.5613
▁adventures	-10.5614
▁convinced	-10.5623
▁hood	-10.5625
ro	-10.5634
▁listening	-10.564
▁trapped	-10.5641
▁uninteresting	-10.5642
▁warn	-10.5652
▁daniel	-10.5653
▁spy	-10.5657
tv	-10.5657
▁matters	-10.566
▁task	-10.5671
▁express	-10.5672
▁blah	-10.5674
▁alright	-10.5674
▁julia	-10.5681
ur	-10.5682
▁kane	-10.5682
▁closer	-10.5684
▁pretend	-10.5685
▁campy	-10.5688
▁sh	-10.5689
▁rolling	-10.5702
▁underground	-10.5704
except	-10.5708
▁massive	-10.5724
▁obnoxious	-10.5734
▁environment	-10.5737
▁seek	-10.574
▁favorites	-10.5755
▁baseball	-10.5764
▁goofy	-10.5766
▁sunday	-10.5766
still	-10.5766
▁mickey	-10.5769
▁originality	-10.5774
▁metal	-10.5776
▁magical	-10.5791
▁hire	-10.5791
▁bag	-10.5794
▁mistakes	-10.5803
ups	-10.5803
▁protect	-10.5806
▁separate	-10.5807
▁whoever	-10.5815
▁serve	-10.5822
▁presents	-10.5822
relatively	-10.583
▁chuck	-10.5833
▁dozen	-10.5837
▁suffer	-10.5842
▁unconvincing	-10.5849
▁remote	-10.5849
▁skill	-10.5853
▁risk	-10.5856
▁row	-10.5862
▁weapons	-10.5881
▁paint	-10.5885
▁understood	-10.5889
▁imagery	-10.589
▁focuses	-10.5895
dimensional	-10.5896
▁flash	-10.5902
▁murderer	-10.5913
▁ron	-10.5923
▁downright	-10.5924
▁buck	-10.5926
▁luke	-10.5927
▁flashback	-10.5927
▁changing	-10.5929
▁susan	-10.5929
▁en	-10.5932
▁guide	-10.5933
ga	-10.5933
▁balance	-10.594
▁disagree	-10.5951
▁heavily	-10.5953
▁complicated	-10.5954
▁tommy	-10.596
ba	-10.5961
▁position	-10.5964
▁via	-10.5966
▁flow	-10.5976
▁snow	-10.5979
▁halfway	-10.5988
▁rival	-10.5993
▁charge	-10.6005
▁critical	-10.601
▁facial	-10.6016
▁legendary	-10.6017
▁paying	-10.6017
▁device	-10.6025
▁roberts	-10.6026
▁deeper	-10.6028
▁hired	-10.6029
▁claims	-10.6034
▁mel	-10.6049
▁status	-10.6053
only	-10.6057
▁brave	-10.6066
▁pulls	-10.6066
▁plague	-10.6067
▁10/10	-10.6068
▁forth	-10.6075
▁ya	-10.6081
▁fbi	-10.6081
▁timing	-10.6081
▁ocean	-10.6082
▁choices	-10.6086
▁farm	-10.6087
▁lawyer	-10.609
▁sitcom	-10.6091
▁walter	-10.6099
▁driven	-10.6104
▁mass	-10.6112
▁struggling	-10.6114
▁:)	-10.6115
▁civil	-10.6115
too	-10.6119
▁guest	-10.6124
▁handle	-10.6125
▁appreciated	-10.6129
▁granted	-10.6133
▁gruesome	-10.6135
▁internet	-10.6145
▁nude	-10.6147
▁scares	-10.6152
rated	-10.6154
▁hal	-10.6157
par	-10.6161
▁nazi	-10.6165
▁tear	-10.6173
▁carpenter	-10.6178
▁columbo	-10.6179
▁miller	-10.6182
▁assistant	-10.6187
▁contact	-10.6188
▁hole	-10.619
▁theory	-10.6196
▁tour	-10.6202
▁colors	-10.6206
▁drink	-10.6208
▁closing	-10.6209
▁li	-10.6216
▁dress	-10.6216
▁raised	-10.622
▁mindless	-10.6224
▁honor	-10.6233
▁serves	-10.6237
▁spin	-10.6243
▁racist	-10.6244
▁blair	-10.6244
▁pat	-10.6244
▁cooper	-10.6253
▁touched	-10.6271
▁dinner	-10.6275
▁spite	-10.6275
▁designed	-10.6298
▁victor	-10.6308
▁hoffman	-10.6311
▁decades	-10.6315
▁upset	-10.6319
▁passing	-10.632
▁placed	-10.6323
▁inspiration	-10.6325
▁offered	-10.6333
▁believes	-10.6335
▁comical	-10.6338
▁everyday	-10.6347
▁silence	-10.6354
▁revolution	-10.6356
▁sin	-10.6359
▁nuclear	-10.6376
▁lonely	-10.638
▁17	-10.6385
▁desperately	-10.6389
▁tongue	-10.6394
▁lights	-10.6411
▁wwii	-10.6412
called	-10.6414
▁carried	-10.6415
▁throwing	-10.6418
▁delivery	-10.6418
▁comedian	-10.6424
▁prevent	-10.6429
▁helen	-10.6436
▁pregnant	-10.644
▁princess	-10.6443
▁text	-10.645
▁description	-10.6454
▁criticism	-10.6457
▁effectively	-10.6465
▁daily	-10.6473
hearted	-10.6476
▁14	-10.6477
▁learning	-10.6479
▁stupidity	-10.6479
more	-10.6487
con	-10.649
▁drinking	-10.6492
▁introduction	-10.6506
▁pie	-10.6507
▁greater	-10.6511
▁quest	-10.6512
):	-10.6512
written	-10.6513
▁sarah	-10.6514
▁storm	-10.6521
▁fabulous	-10.6532
▁rush	-10.6534
▁starred	-10.6549
▁disbelief	-10.6574
▁plastic	-10.6575
▁sides	-10.6575
▁succeeds	-10.6577
▁reminiscen	-10.6579
▁expressions	-10.658
▁woody	-10.6587
▁coach	-10.6591
▁arms	-10.6591
▁bound	-10.6595
▁delight	-10.6596
▁warner	-10.6598
▁ashamed	-10.6608
▁hong	-10.6608
▁wanna	-10.661
▁explains	-10.6612
▁beloved	-10.6617
▁medical	-10.6642
▁sleeping	-10.6644
▁superman	-10.665
▁versions	-10.665
▁fourth	-10.6655
▁hint	-10.6655
▁guard	-10.6661
style	-10.6665
▁barry	-10.6682
▁achieve	-10.6683
▁topic	-10.6697
▁realizes	-10.6699
▁connect	-10.6702
▁screenwriter	-10.6705
▁multi	-10.6709
▁storytelling	-10.6714
▁plots	-10.6714
▁laura	-10.6725
▁el	-10.6727
▁trick	-10.6727
▁silver	-10.6732
▁dislike	-10.6733
▁arrives	-10.6734
▁bollywood	-10.6746
▁intellectual	-10.6762
here	-10.6765
▁dear	-10.6771
▁cant	-10.6772
▁cultural	-10.6775
▁retarded	-10.6783
great	-10.6791
class	-10.6792
characterization	-10.6793
▁betty	-10.6793
▁pitt	-10.6799
film	-10.68
▁solve	-10.6802
▁cousin	-10.6803
▁dragon	-10.6807
ted	-10.6814
▁karen	-10.6818
▁nonetheless	-10.6818
▁na	-10.6832
ca	-10.6842
▁manager	-10.6845
▁clark	-10.6846
▁extent	-10.6847
▁lazy	-10.6847
▁entry	-10.6848
▁greek	-10.6849
▁oliver	-10.6853
lin	-10.6856
▁tense	-10.6858
▁broke	-10.6865
▁basis	-10.6882
▁mgm	-10.6885
▁related	-10.6885
▁overcome	-10.6886
▁thankfully	-10.6893
▁mentally	-10.6898
▁tune	-10.6903
▁monkey	-10.6909
▁exceptional	-10.6911
▁glass	-10.6921
▁200	-10.6921
▁madness	-10.6922
▁dare	-10.6925
despite	-10.693
▁shape	-10.693
▁weight	-10.6943
▁faithful	-10.6945
▁racism	-10.6953
▁presentation	-10.6954
▁soviet	-10.6955
▁catherine	-10.6958
▁jerk	-10.6958
▁zone	-10.6959
▁angle	-10.6964
▁adding	-10.6966
▁flaw	-10.6966
▁served	-10.6969
▁gain	-10.6971
▁shark	-10.6976
▁significant	-10.6977
▁advantage	-10.6987
▁breathtaking	-10.6987
▁artists	-10.6987
▁letter	-10.6987
▁embarrassed	-10.6989
▁authentic	-10.6989
▁union	-10.6996
▁sold	-10.6998
▁rings	-10.7011
▁cowboy	-10.7016
ring	-10.7017
▁enjoying	-10.7018
▁corrupt	-10.7024
▁freddy	-10.7027
▁italy	-10.7027
▁caine	-10.7028
▁mirror	-10.704
▁revolves	-10.7045
ni	-10.7052
▁dollar	-10.7055
▁throws	-10.7055
▁necessarily	-10.7057
▁credible	-10.7058
▁foster	-10.7059
▁sutherland	-10.706
▁flawed	-10.7068
iness	-10.7068
▁stan	-10.7078
▁reference	-10.7078
▁horrific	-10.7092
▁gripping	-10.7093
▁countries	-10.7093
▁pacino	-10.7095
▁caring	-10.7099
▁properly	-10.7106
spoilers	-10.7112
▁walker	-10.7114
▁/>*	-10.7114
▁helping	-10.7115
▁bugs	-10.7123
▁australia	-10.7123
▁hundred	-10.7125
▁striking	-10.7128
▁credibility	-10.7128
▁franchise	-10.7128
▁stunt	-10.713
spoiler	-10.7139
▁minds	-10.7145
ke	-10.7152
▁hardy	-10.7158
▁chain	-10.716
▁attraction	-10.7165
▁lloyd	-10.7167
▁sinatra	-10.7167
▁attempting	-10.7169
▁guessing	-10.7172
▁brand	-10.7174
▁aunt	-10.7175
▁gag	-10.7177
▁ironic	-10.7177
der	-10.7181
▁fairy	-10.7182
▁shower	-10.7186
end	-10.7189
▁chair	-10.7196
▁ninja	-10.7197
▁sinister	-10.72
▁bergman	-10.7201
▁obsession	-10.7201
▁1940	-10.7201
▁specific	-10.7202
▁reveals	-10.7207
▁grim	-10.7214
unfortunately	-10.7216
▁carries	-10.7221
▁graphics	-10.7227
▁stylish	-10.7228
▁mo	-10.7233
▁lion	-10.7233
▁purely	-10.7234
▁stanwyck	-10.7239
▁bridge	-10.7239
▁succeed	-10.7241
▁nine	-10.7243
▁pg	-10.7243
▁answers	-10.7269
▁bitter	-10.7269
▁lovable	-10.7272
▁marie	-10.7273
▁confusion	-10.7273
▁repeat	-10.7283
▁fictional	-10.7283
les	-10.7291
▁accepted	-10.7293
▁stays	-10.7307
▁innocence	-10.7308
▁sleazy	-10.7309
▁stunts	-10.7314
▁convey	-10.7314
▁sorts	-10.7315
▁cook	-10.732
▁wears	-10.7335
▁slight	-10.7337
▁controversial	-10.7346
▁causes	-10.735
michael	-10.7361
▁lessons	-10.7364
▁settings	-10.7364
▁dig	-10.7369
▁useless	-10.737
▁poignant	-10.7372
▁criminals	-10.7372
▁nation	-10.7373
▁jon	-10.7381
▁thief	-10.7381
▁chilling	-10.7382
▁happiness	-10.7382
▁wins	-10.7382
▁challenge	-10.74
▁views	-10.74
▁los	-10.7407
▁thousands	-10.7414
▁boredom	-10.7419
▁cynical	-10.742
▁nowadays	-10.742
▁determined	-10.7424
▁inter	-10.7426
▁bare	-10.7428
▁initially	-10.7433
something	-10.7433
because	-10.7435
▁object	-10.7454
▁idiotic	-10.7455
▁blade	-10.7464
▁pool	-10.7472
▁jay	-10.7474
▁clips	-10.7479
▁equal	-10.7491
▁burton	-10.7493
▁creation	-10.7495
hard	-10.7495
▁combine	-10.7516
▁attacked	-10.7519
▁argue	-10.7528
▁holiday	-10.7529
▁searching	-10.753
di	-10.7532
▁lay	-10.7538
ive	-10.7553
ize	-10.7557
▁angels	-10.7566
▁ultra	-10.7566
▁wealthy	-10.7569
▁hooked	-10.7575
▁condition	-10.7598
▁push	-10.7601
▁atmospheric	-10.7603
▁fortune	-10.7603
▁tribute	-10.7605
▁interpretation	-10.7605
▁facts	-10.7605
▁***	-10.7611
perhaps	-10.7621
▁nose	-10.7633
▁expert	-10.7636
▁rank	-10.7639
▁exercise	-10.764
▁thousand	-10.7646
▁proof	-10.765
▁thoughts	-10.7657
▁oil	-10.7661
mi	-10.7664
mon	-10.767
▁tradition	-10.768
▁matrix	-10.768
▁hbo	-10.7681
▁struggles	-10.7685
▁aired	-10.7691
▁opened	-10.7691
▁bush	-10.7692
▁oz	-10.7696
horror	-10.7697
▁strangely	-10.7702
▁burns	-10.7714
▁stiff	-10.7716
▁toilet	-10.7717
▁worry	-10.7737
▁che	-10.7751
action	-10.7752
▁kennedy	-10.7754
▁mexico	-10.7756
▁1990	-10.7756
▁smoke	-10.7757
▁fallen	-10.7759
▁ratings	-10.7763
▁welles	-10.7764
▁raise	-10.7765
mer	-10.7775
▁cave	-10.7782
led	-10.7782
▁steam	-10.7784
▁notable	-10.7793
▁flynn	-10.7795
▁cameron	-10.7796
▁attacks	-10.7796
▁replaced	-10.78
▁vincent	-10.78
▁freeman	-10.7802
▁meaningful	-10.7805
▁perfection	-10.7805
grade	-10.781
▁shorts	-10.7818
▁homage	-10.7832
▁sexuality	-10.7835
▁spoken	-10.784
▁string	-10.7845
▁resort	-10.7846
▁intensity	-10.7868
▁ripped	-10.7869
▁sings	-10.7872
▁laid	-10.7874
▁productions	-10.7878
▁lisa	-10.7878
▁deaths	-10.7883
▁admire	-10.7892
▁drives	-10.7893
▁marvelous	-10.7899
▁trail	-10.7903
▁restaurant	-10.7907
▁carrying	-10.7908
▁khan	-10.7909
▁sentimental	-10.7911
▁checking	-10.7919
▁shy	-10.7921
law	-10.7921
▁shines	-10.7935
▁exists	-10.7948
▁bobby	-10.7951
▁michelle	-10.7953
▁technique	-10.7955
▁neighbor	-10.7956
▁weapon	-10.7957
▁bird	-10.7964
▁picks	-10.7966
▁greatly	-10.7973
▁pan	-10.7975
▁competent	-10.7976
▁uninspired	-10.7984
▁quote	-10.7988
▁dawn	-10.7989
▁philip	-10.799
▁reynolds	-10.7993
▁meat	-10.7997
▁thrilling	-10.7999
▁month	-10.7999
▁miscast	-10.8006
bo	-10.801
▁christ	-10.8012
▁courage	-10.8022
▁britain	-10.8023
▁examples	-10.8024
▁ghosts	-10.803
▁jamie	-10.803
▁mouse	-10.8031
▁figures	-10.8034
▁wave	-10.8035
▁consequences	-10.8039
▁su	-10.8043
▁upper	-10.8052
▁miserably	-10.8062
▁competition	-10.8062
▁wicked	-10.8062
▁mummy	-10.8062
▁grey	-10.8063
▁lacked	-10.8064
▁heist	-10.8067
▁attempted	-10.8076
▁satan	-10.8076
▁surrounding	-10.8078
...)	-10.8079
▁snakes	-10.8083
▁web	-10.809
▁stealing	-10.8096
▁cure	-10.8098
its	-10.81
▁thirty	-10.8101
▁tarantino	-10.8103
▁matthau	-10.8104
▁enjoyment	-10.8107
▁escapes	-10.811
▁trial	-10.8114
▁burn	-10.8131
▁blend	-10.8135
▁seeking	-10.8142
series	-10.8143
▁nancy	-10.8145
▁rachel	-10.8146
▁instantly	-10.8147
▁0	-10.8148
▁colour	-10.815
ated	-10.8165
sh	-10.8178
▁birthday	-10.818
▁melodramatic	-10.8181
▁colorful	-10.8191
▁suffered	-10.8193
▁tales	-10.8195
▁bucks	-10.8199
known	-10.8201
▁uncomfortable	-10.822
▁intent	-10.822
▁sally	-10.8225
▁frequently	-10.8226
▁regardless	-10.8227
▁beer	-10.8235
movies	-10.8242
▁notch	-10.8248
▁friendly	-10.825
que	-10.8254
▁novels	-10.8255
lu	-10.8259
▁pack	-10.8259
boy	-10.826
▁bible	-10.8261
▁catholic	-10.8262
▁annoyed	-10.8262
▁liberal	-10.8263
▁1.	-10.8263
▁lying	-10.8264
both	-10.8282
izing	-10.8286
▁lesser	-10.8298
▁invisible	-10.8301
im	-10.8303
▁jessica	-10.8305
▁troubled	-10.8307
▁gotta	-10.8316
▁ham	-10.8317
▁neat	-10.8317
▁andy	-10.8338
▁notorious	-10.834
▁chasing	-10.8343
▁owen	-10.8344
▁von	-10.8355
▁intentions	-10.8357
nt	-10.8358
et	-10.8361
▁90'	-10.8369
writer	-10.8371
▁outrageous	-10.8372
▁appearing	-10.8375
▁alas	-10.8379
▁neighborhood	-10.838
▁pulp	-10.8382
▁navy	-10.8382
▁2.	-10.8383
▁/>(	-10.8384
▁hundreds	-10.8386
▁stretch	-10.8391
▁rid	-10.8392
▁whereas	-10.8395
▁tied	-10.8396
▁magazine	-10.8398
▁card	-10.8403
▁performers	-10.8403
▁ken	-10.8404
▁techniques	-10.841
▁trade	-10.841
▁maker	-10.8419
▁ka	-10.842
▁unforgettable	-10.8421
▁personalities	-10.8421
▁acceptable	-10.8422
▁midnight	-10.8424
▁basement	-10.8425
▁glimpse	-10.8426
▁millions	-10.8427
▁busy	-10.8431
▁size	-10.8433
▁relie	-10.8433
▁brad	-10.8434
▁45	-10.8442
▁protagonists	-10.8442
▁riding	-10.8446
such	-10.8451
▁imaginative	-10.8453
ville	-10.8455
▁investigation	-10.8461
▁frankenstein	-10.8463
▁hiding	-10.8463
plot	-10.8465
▁block	-10.8465
iest	-10.8477
fest	-10.8478
▁teach	-10.848
bu	-10.8485
▁successfully	-10.8495
▁essential	-10.8495
▁dancer	-10.8497
▁spiritual	-10.8502
▁connery	-10.8504
▁belongs	-10.8516
▁andrews	-10.8518
▁dave	-10.8522
▁merit	-10.8528
▁craft	-10.8533
▁corner	-10.854
▁tea	-10.854
ja	-10.8542
▁ensemble	-10.8543
▁library	-10.8543
▁**	-10.8544
▁aged	-10.8547
▁press	-10.855
▁farce	-10.8552
▁connected	-10.8556
▁bull	-10.8559
▁loser	-10.8573
▁kidnapped	-10.8584
▁knife	-10.8585
▁legs	-10.8586
▁korean	-10.8587
▁torn	-10.8589
acting	-10.859
▁spending	-10.859
bi	-10.8602
▁scientists	-10.8603
▁drags	-10.8605
▁physically	-10.8605
▁border	-10.8608
▁cringe	-10.8613
▁finger	-10.8615
▁hammer	-10.8619
▁poster	-10.8621
▁curiosity	-10.8625
▁closely	-10.8629
▁adapted	-10.8633
▁broadcast	-10.8634
fu	-10.864
ities	-10.8645
▁identify	-10.865
please	-10.8652
▁strip	-10.8653
▁technically	-10.8661
▁2001	-10.8662
▁baker	-10.8665
▁guts	-10.8666
▁intention	-10.8666
▁ourselves	-10.8667
▁cardboard	-10.8667
▁arnold	-10.867
▁gray	-10.8674
▁incident	-10.8692
▁outer	-10.8693
robert	-10.8694
▁blows	-10.8695
story	-10.8699
▁steps	-10.8705
▁trite	-10.8709
▁piano	-10.8709
▁beating	-10.871
▁laurel	-10.8711
▁struck	-10.8717
▁burt	-10.8729
▁forgive	-10.8733
▁crafted	-10.8733
▁bride	-10.8734
▁critic	-10.8736
▁dealt	-10.8739
type	-10.8741
▁coast	-10.8746
▁fianc	-10.8747
▁mitchell	-10.875
▁eerie	-10.8751
▁dragged	-10.8751
▁24	-10.876
▁pitch	-10.876
▁2000	-10.8767
▁minimal	-10.8779
ad	-10.8783
▁horrendous	-10.8784
jo	-10.879
▁afford	-10.8792
▁powell	-10.8793
▁split	-10.8794
▁mi	-10.8797
▁irony	-10.8798
▁lou	-10.8801
▁jumps	-10.8805
▁tall	-10.8809
▁concerns	-10.8812
▁ward	-10.8818
▁benefit	-10.8819
▁virgin	-10.8826
▁repetitive	-10.8835
▁cried	-10.8835
▁titles	-10.8835
▁jo	-10.8835
▁happily	-10.8836
▁eve	-10.8843
▁chases	-10.8844
▁portrait	-10.8862
▁freak	-10.8862
▁hype	-10.8866
▁load	-10.8866
▁appalling	-10.8868
▁punk	-10.8876
▁nelson	-10.8877
▁redemption	-10.8877
▁lugosi	-10.8881
▁dubbing	-10.8881
▁appearances	-10.8888
other	-10.8893
ber	-10.8893
ak	-10.89
▁swear	-10.8903
▁broad	-10.8906
▁health	-10.8916
▁stole	-10.8918
▁glory	-10.892
▁gothic	-10.892
▁incoherent	-10.8924
▁trap	-10.8931
ably	-10.8934
▁lab	-10.8936
▁sand	-10.8941
▁talked	-10.8946
video	-10.8949
▁hills	-10.8952
▁char	-10.8953
▁hence	-10.8954
▁bin	-10.8959
---	-10.896
▁charisma	-10.8962
▁essence	-10.8962
▁sexually	-10.8966
▁cameos	-10.8973
▁packed	-10.8991
vi	-10.8993
▁musicals	-10.8995
▁needless	-10.8996
▁sends	-10.8997
▁endearing	-10.8998
▁breasts	-10.9002
▁1930	-10.9002
▁precious	-10.9005
▁virus	-10.9008
▁twin	-10.902
lan	-10.9025
ir	-10.9027
▁backdrop	-10.9036
▁jobs	-10.9038
▁persona	-10.9038
finally	-10.9039
▁roman	-10.9043
▁suits	-10.9043
▁chicago	-10.9048
▁airplane	-10.9051
▁cabin	-10.9054
▁fx	-10.9057
▁min	-10.9057
▁established	-10.9057
▁achieved	-10.9064
▁faced	-10.9068
▁tons	-10.9074
▁hoped	-10.9075
existent	-10.9077
▁develops	-10.9081
ee	-10.9087
▁easier	-10.9092
▁expensive	-10.9096
▁tricks	-10.91
▁rushed	-10.9105
▁typically	-10.9107
▁snake	-10.9112
▁march	-10.9114
▁subplot	-10.9126
two	-10.9133
▁funeral	-10.9135
▁medium	-10.9135
▁elsewhere	-10.914
liners	-10.9141
▁holly	-10.9143
▁fortunately	-10.915
▁horses	-10.9154
▁emma	-10.916
▁savage	-10.9169
▁definite	-10.917
▁showcase	-10.9172
head	-10.9177
▁godfather	-10.9181
▁opposed	-10.9182
▁larger	-10.9188
▁outcome	-10.9191
▁repeatedly	-10.9192
▁motivation	-10.9197
▁bell	-10.9198
▁importantly	-10.9201
▁heat	-10.9206
▁crack	-10.9208
▁stood	-10.9223
▁mansion	-10.9223
▁cinderella	-10.9224
ol	-10.9226
▁jonathan	-10.9228
▁locked	-10.9235
▁heroic	-10.9247
▁creators	-10.9247
school	-10.9251
▁insist	-10.9253
▁confront	-10.9255
▁relative	-10.9256
▁hysterical	-10.9259
▁suggests	-10.9259
▁pointed	-10.926
ff	-10.9262
▁relevant	-10.9267
▁threw	-10.9267
▁germans	-10.9268
▁sophisticated	-10.9269
▁accused	-10.927
▁sidney	-10.9271
▁carefully	-10.9274
▁refuses	-10.9275
▁wishes	-10.9281
ut	-10.9284
▁wing	-10.9285
▁tremendous	-10.9302
▁hunting	-10.9303
▁handful	-10.9304
▁jazz	-10.9308
aka	-10.9309
▁winter	-10.931
▁rogers	-10.931
▁audio	-10.9311
▁guilt	-10.9312
▁sneak	-10.9313
▁grows	-10.9314
▁kicks	-10.9314
▁souls	-10.9315
▁clint	-10.9315
▁emily	-10.9319
▁carol	-10.9327
▁spoiled	-10.9331
▁wreck	-10.9342
▁hook	-10.9344
▁cia	-10.9344
▁wine	-10.9346
▁thrills	-10.9347
▁fifteen	-10.9355
▁resolution	-10.9355
▁horrid	-10.9355
▁neck	-10.9363
▁daughters	-10.9364
▁engaged	-10.9366
▁sole	-10.9367
▁shoes	-10.9375
▁commercials	-10.9378
▁dialogs	-10.938
▁maintain	-10.9384
▁clown	-10.9394
▁selling	-10.9399
▁swedish	-10.94
▁duke	-10.94
▁hamlet	-10.94
ver	-10.9402
▁ambitious	-10.9403
▁drunken	-10.9404
▁complaint	-10.9412
che	-10.9419
▁suspects	-10.942
▁timeless	-10.9422
▁requires	-10.9424
▁rap	-10.9425
▁di	-10.9429
▁pink	-10.943
▁spare	-10.9436
▁jumping	-10.9439
▁landscape	-10.9441
▁wondered	-10.9449
▁possessed	-10.9454
▁smoking	-10.9458
▁infamous	-10.9466
▁penn	-10.947
▁sport	-10.947
▁response	-10.9484
▁jealous	-10.9485
▁q	-10.9487
red	-10.9489
▁pride	-10.949
▁puppet	-10.9491
▁terrifying	-10.9491
▁spike	-10.9492
▁hopper	-10.9492
▁increasingly	-10.9493
▁reasonably	-10.9493
▁shall	-10.9494
▁ralph	-10.9495
▁fitting	-10.9501
▁linda	-10.9502
▁fonda	-10.9503
▁shadows	-10.9503
▁noble	-10.9504
ran	-10.9507
▁burning	-10.9509
ating	-10.9512
▁loosely	-10.9513
▁indians	-10.9515
▁mild	-10.9515
▁rat	-10.9529
▁parent	-10.953
▁stinker	-10.9531
▁brilliance	-10.9535
ise	-10.9536
▁inspector	-10.9537
▁fancy	-10.9538
▁stooges	-10.9538
▁photographer	-10.9538
▁thumbs	-10.9542
▁sandra	-10.9542
▁daring	-10.9543
▁stated	-10.9545
▁leslie	-10.9547
▁leg	-10.9548
▁goal	-10.9549
▁saves	-10.9551
▁stops	-10.9553
▁carl	-10.9558
▁briefly	-10.9568
▁tortured	-10.9571
wise	-10.9571
mm	-10.9573
▁lo	-10.9573
dy	-10.9574
▁buff	-10.9579
▁frustrated	-10.9582
▁norman	-10.9582
▁fi	-10.9582
▁grandfather	-10.9583
letting	-10.9585
▁madonna	-10.9585
▁hudson	-10.9585
was	-10.9587
▁spots	-10.9588
▁destruction	-10.9588
▁attracted	-10.9591
yn	-10.9592
▁jet	-10.9595
regarding	-10.9595
▁noise	-10.9597
▁pleasantly	-10.9597
long	-10.9607
▁hitch	-10.9614
▁disc	-10.9616
▁realise	-10.9618
▁documentaries	-10.9626
▁highlights	-10.9627
▁beaten	-10.9631
▁videos	-10.9631
▁explosions	-10.9644
▁cole	-10.9646
▁cup	-10.9646
▁du	-10.9655
▁dropped	-10.9672
▁hideous	-10.9673
▁corpse	-10.9673
▁poverty	-10.9674
▁thrillers	-10.9674
▁staff	-10.9678
rating	-10.9693
▁insulting	-10.9694
ance	-10.9696
▁kinds	-10.9701
about	-10.9709
girl	-10.9709
▁boot	-10.971
▁bone	-10.9713
▁raped	-10.9714
ten	-10.9714
▁menacing	-10.9718
▁believing	-10.9718
▁altman	-10.9718
▁russia	-10.9719
▁assassin	-10.972
▁altogether	-10.9721
▁angeles	-10.9722
▁translation	-10.9722
▁drivel	-10.9722
▁watches	-10.9732
▁discovery	-10.9737
▁doll	-10.974
▁button	-10.9741
ster	-10.9746
▁remaining	-10.9749
▁eccentric	-10.9764
▁cliff	-10.9764
▁austen	-10.9765
▁idiots	-10.9765
▁crisis	-10.9766
▁interaction	-10.9767
▁lone	-10.9767
▁walken	-10.9768
▁editor	-10.9769
ger	-10.977
▁jake	-10.9772
▁lucy	-10.9772
▁pleased	-10.9776
ko	-10.9779
hour	-10.978
▁ignored	-10.979
▁porno	-10.9804
▁flawless	-10.9806
▁threat	-10.981
▁victoria	-10.9811
▁cusack	-10.9811
▁valley	-10.9812
▁nights	-10.9812
▁countless	-10.9813
▁accompanie	-10.9813
▁cases	-10.9814
os	-10.9815
▁21	-10.9815
▁associated	-10.9817
▁tie	-10.9827
▁citizen	-10.9841
▁mile	-10.9841
bar	-10.9845
▁encounters	-10.9847
▁evident	-10.9848
▁vague	-10.985
▁explicit	-10.985
▁disjointed	-10.9858
▁dentist	-10.9858
▁symbolism	-10.9858
▁attached	-10.986
▁celluloid	-10.986
▁occur	-10.9861
▁elderly	-10.9862
▁importance	-10.9862
▁photographed	-10.9863
▁predator	-10.9865
▁pulling	-10.9865
▁aimed	-10.9865
▁1/2	-10.9867
▁accomplished	-10.9867
▁unintentionally	-10.9869
▁spell	-10.988
▁returning	-10.989
▁rick	-10.9891
▁disease	-10.9893
▁generous	-10.9897
▁lend	-10.9897
our	-10.9898
paced	-10.99
▁bleak	-10.9904
▁giallo	-10.9905
▁popcorn	-10.9905
▁distance	-10.9906
▁pseudo	-10.9906
▁ear	-10.9907
▁carrey	-10.9907
▁surrounded	-10.9908
▁revelation	-10.9908
▁iron	-10.9912
▁strike	-10.9912
▁blake	-10.9912
▁killings	-10.9914
▁canada	-10.9916
▁reasonable	-10.9919
▁travels	-10.9922
▁dinosaurs	-10.9924
▁angela	-10.9927
▁terrorist	-10.9934
note	-10.9937
▁ca	-10.9938
▁obscure	-10.994
▁willis	-10.9941
gi	-10.9944
▁inevitable	-10.9952
▁territory	-10.9952
▁charismatic	-10.9953
▁combat	-10.9954
▁hi	-10.9958
▁depend	-10.996
▁picking	-10.9977
▁contract	-10.9986
▁meaningless	-10.9993
▁reflect	-10.9993
▁mario	-10.9994
cing	-10.9995
yet	-10.9996
minded	-10.9997
▁wax	-10.9998
▁goodness	-10.9998
▁liking	-10.9999
▁antics	-11
▁vicious	-11
▁narrator	-11.0002
▁rely	-11.0003
▁preview	-11.0006
▁uniform	-11.0007
▁woo	-11.0011
▁bold	-11.0015
▁revealing	-11.0026
▁fond	-11.0027
▁individuals	-11.0038
comedy	-11.0038
▁intrigue	-11.0038
▁cared	-11.0039
▁homosexual	-11.0046
▁chest	-11.0047
▁francis	-11.0047
▁unwatchable	-11.0047
▁reactions	-11.0048
▁buried	-11.005
▁duo	-11.005
set	-11.0053
▁albe	-11.0053
▁complain	-11.0054
▁tender	-11.0057
▁(19	-11.0058
▁carter	-11.0058
▁lust	-11.006
▁dire	-11.0067
▁mis	-11.0069
▁abc	-11.0077
▁bug	-11.0078
▁detailed	-11.0081
ru	-11.0082
▁shoots	-11.0084
▁rights	-11.0084
▁demands	-11.0088
▁university	-11.0095
▁spring	-11.0097
▁alexander	-11.0098
▁listed	-11.0098
▁spooky	-11.0099
▁sidekick	-11.0101
▁diamond	-11.0104
han	-11.0105
paul	-11.0133
ization	-11.0133
▁inspiring	-11.0134
▁ranks	-11.0138
▁receive	-11.0139
▁8/10	-11.014
▁franco	-11.0142
▁conspiracy	-11.0143
▁rural	-11.0143
▁generic	-11.0143
▁kitchen	-11.0145
▁eva	-11.0146
▁pal	-11.0148
tion	-11.0148
▁offended	-11.015
▁overdone	-11.0152
▁childish	-11.0153
▁blank	-11.0154
▁hanks	-11.016
▁thrill	-11.0169
▁ridiculously	-11.0173
▁50'	-11.0177
▁continued	-11.0178
▁cruise	-11.0189
▁gift	-11.0189
▁unpleasant	-11.019
▁abysmal	-11.0191
▁grandmother	-11.0191
▁argento	-11.0192
▁randy	-11.0196
▁chicken	-11.0196
▁directorial	-11.0196
▁murray	-11.0196
▁dis	-11.0196
▁arrested	-11.0197
▁oddly	-11.0198
po	-11.0199
▁worthless	-11.0199
▁kudos	-11.02
▁discussion	-11.02
▁ticket	-11.0201
▁burned	-11.0204
▁todd	-11.0215
▁hearts	-11.0229
▁painting	-11.023
ac	-11.0236
▁causing	-11.024
▁reunion	-11.024
▁juvenile	-11.024
▁hatred	-11.024
▁involvement	-11.024
▁hamilton	-11.0241
▁sandler	-11.0243
▁lawrence	-11.0244
▁argument	-11.025
▁tunes	-11.0253
▁sadistic	-11.0257
▁mac	-11.0257
▁segments	-11.0257
▁lit	-11.0261
▁provid	-11.0265
ney	-11.0277
▁cd	-11.0277
▁digital	-11.0282
▁displays	-11.0286
▁measure	-11.0286
▁scripted	-11.0288
▁comfortable	-11.0289
▁depression	-11.0289
wood	-11.0299
▁ko	-11.03
▁achievement	-11.0301
▁hitting	-11.0306
▁crimes	-11.0315
▁mate	-11.032
▁maria	-11.0322
▁2005	-11.0322
▁purchase	-11.0325
▁slick	-11.0327
▁subsequent	-11.0328
ised	-11.0328
▁oscars	-11.0336
▁allowing	-11.0337
▁unbelievably	-11.0337
▁damme	-11.0338
▁yesterday	-11.0339
▁illegal	-11.034
▁lincoln	-11.034
▁spielberg	-11.034
▁wrestling	-11.0341
▁hardcore	-11.0341
▁afterwards	-11.0342
▁distant	-11.0342
▁duty	-11.0343
cut	-11.0343
va	-11.0344
▁shine	-11.0363
▁iii	-11.0365
▁solo	-11.0375
▁traveling	-11.0375
done	-11.0377
▁mar	-11.0377
probably	-11.038
▁smooth	-11.038
▁2)	-11.0383
▁devoid	-11.0387
▁arrive	-11.0388
▁abilities	-11.0389
▁returned	-11.039
▁overwhelming	-11.039
▁extended	-11.0392
▁dorothy	-11.0393
▁escaped	-11.0399
▁factory	-11.04
▁alternate	-11.0404
▁slap	-11.0406
▁bears	-11.0413
▁dramas	-11.0421
▁performing	-11.0424
tom	-11.0424
▁widow	-11.0425
▁defeat	-11.0429
▁gentle	-11.0435
▁investigate	-11.0436
▁chaos	-11.0436
king	-11.0439
li	-11.0439
▁bullet	-11.0448
▁thick	-11.045
▁newspaper	-11.045
▁ideal	-11.045
▁bang	-11.0451
▁glenn	-11.0457
▁shortly	-11.046
ious	-11.046
▁pot	-11.0463
▁advise	-11.0468
▁plant	-11.0471
▁implausible	-11.0486
▁glover	-11.0487
▁unbearable	-11.0487
▁temple	-11.0489
▁wallace	-11.0489
▁tracy	-11.049
▁quinn	-11.049
id	-11.0494
▁sadness	-11.0499
▁fix	-11.0502
▁clues	-11.0509
cha	-11.0519
▁gi	-11.0525
▁del	-11.0526
▁worried	-11.0536
▁bathroom	-11.0536
▁estate	-11.0536
▁kidding	-11.0536
▁crystal	-11.0538
eyed	-11.0538
▁campbell	-11.0539
▁derek	-11.0541
▁sentence	-11.0543
▁thoughtful	-11.0543
▁logical	-11.0544
▁amanda	-11.0544
▁overlooked	-11.0544
▁superbly	-11.0546
▁installment	-11.055
▁nazis	-11.0559
▁resist	-11.0569
▁slice	-11.0573
?).	-11.0579
▁splatter	-11.0579
▁strikes	-11.0581
▁survival	-11.0586
▁ireland	-11.0586
▁secretary	-11.0588
▁pa	-11.0588
▁trio	-11.0588
▁devoted	-11.0588
▁resembles	-11.0588
▁grasp	-11.0589
▁neil	-11.0597
▁commented	-11.0603
▁pushed	-11.0607
▁fired	-11.061
▁lyrics	-11.0615
▁invite	-11.0624
love	-11.0624
▁ned	-11.0629
david	-11.0631
▁user	-11.0631
▁corn	-11.0632
▁miserable	-11.0637
▁planning	-11.0637
▁synopsis	-11.0638
▁delivering	-11.0638
ya	-11.0639
▁alternative	-11.0639
▁streep	-11.064
▁selfish	-11.0641
▁cats	-11.0648
▁matthew	-11.0649
▁improved	-11.065
▁misses	-11.0651
▁highest	-11.0655
▁represents	-11.0656
▁principal	-11.0657
▁staying	-11.0657
▁waters	-11.0668
io	-11.0677
▁politically	-11.0683
▁builds	-11.0684
▁website	-11.0688
▁psychiatrist	-11.0688
▁dedicated	-11.0689
▁ego	-11.069
▁disturbed	-11.0691
▁kirk	-11.0691
▁brando	-11.0694
▁luckily	-11.0697
ble	-11.0699
▁affected	-11.07
▁lol	-11.07
▁boll	-11.07
▁intrigued	-11.0701
dr	-11.0705
▁beats	-11.0706
▁teaching	-11.0709
▁prostitute	-11.0716
▁grab	-11.0728
▁superficial	-11.0729
▁square	-11.0732
▁clumsy	-11.0738
▁captivating	-11.0739
▁exotic	-11.074
did	-11.0742
ball	-11.0744
▁strictly	-11.0745
▁7/10	-11.0752
▁knight	-11.0753
minute	-11.0753
▁link	-11.0765
▁prisoner	-11.0773
than	-11.0776
▁occurs	-11.0786
▁absence	-11.079
▁sloppy	-11.079
▁notably	-11.079
▁psychotic	-11.079
▁slightest	-11.0791
▁emperor	-11.0791
▁craig	-11.0798
ana	-11.0799
▁claire	-11.0799
▁removed	-11.0801
▁carrie	-11.0801
▁pearl	-11.0802
▁rage	-11.0804
▁screw	-11.0806
ped	-11.081
▁noted	-11.0811
▁elaborate	-11.0829
▁battles	-11.0831
▁endure	-11.0832
▁provoking	-11.0832
▁buddies	-11.0841
▁elvis	-11.0841
▁racial	-11.0843
▁fears	-11.0844
▁calm	-11.0846
▁scientific	-11.0847
▁diane	-11.085
▁stereotype	-11.0852
▁walls	-11.0858
▁4/10	-11.0865
pa	-11.0871
car	-11.0873
▁assault	-11.0883
▁turner	-11.0883
▁masters	-11.0888
jack	-11.0891
▁explore	-11.0892
▁squad	-11.0893
▁junior	-11.0893
▁mixture	-11.0893
▁troma	-11.0893
▁choreography	-11.0894
▁philosophy	-11.0894
▁producing	-11.0895
▁rendition	-11.0895
▁vice	-11.0897
▁yellow	-11.0897
!!!!!	-11.0897
▁exaggerated	-11.0897
title	-11.0898
▁margaret	-11.0899
▁stanley	-11.0899
▁foul	-11.0901
▁admittedly	-11.0908
▁fatal	-11.0912
▁ja	-11.0914
▁firm	-11.0915
ex	-11.0915
▁bottle	-11.0916
▁folk	-11.0921
▁performer	-11.0925
▁offering	-11.0928
▁blues	-11.093
aged	-11.093
are	-11.0931
▁y	-11.0932
▁settle	-11.0932
▁engage	-11.0932
▁pants	-11.0933
▁enters	-11.0935
field	-11.0936
▁bath	-11.094
▁inventive	-11.0944
▁possibility	-11.0945
▁simplistic	-11.0945
▁poetry	-11.0945
▁eighties	-11.0946
▁coffee	-11.0947
▁nearby	-11.0954
▁classical	-11.0962
▁harder	-11.097
▁stronger	-11.0978
▁damage	-11.0985
▁vast	-11.0991
▁wannabe	-11.0993
▁gal	-11.0997
▁curtis	-11.0998
▁resemblance	-11.0998
▁cox	-11.1
▁fighter	-11.1013
▁ruthless	-11.1019
▁vegas	-11.1019
▁urge	-11.1023
▁scheme	-11.1023
▁parallel	-11.1024
▁photo	-11.1028
▁recorded	-11.1031
▁val	-11.1039
▁splendid	-11.1041
▁headed	-11.1046
based	-11.1048
▁hollow	-11.105
▁mtv	-11.1051
▁punishment	-11.1051
▁shining	-11.1056
▁clothing	-11.1058
▁sacrifice	-11.1068
▁rocks	-11.1072
▁explaining	-11.1073
▁garden	-11.1074
▁reached	-11.1074
▁executive	-11.1083
▁staged	-11.1084
▁leonard	-11.1101
▁innovative	-11.1103
▁mafia	-11.1103
▁fed	-11.1112
▁doors	-11.112
▁reed	-11.1127
▁wont	-11.1154
▁terrorists	-11.1154
▁errors	-11.1155
ron	-11.1156
▁arrogant	-11.1156
▁bargain	-11.1156
▁occurred	-11.1157
▁convoluted	-11.1157
tic	-11.1157
▁depressed	-11.1157
▁homeless	-11.1158
hi	-11.116
▁kubrick	-11.116
▁murderous	-11.116
▁distracting	-11.1164
awful	-11.1165
▁cliche	-11.1173
▁notes	-11.1175
▁aging	-11.118
▁triumph	-11.118
▁screams	-11.1184
▁warrior	-11.1188
▁cards	-11.1188
▁winds	-11.1192
▁guarantee	-11.1197
▁additional	-11.1199
town	-11.1199
▁blatant	-11.12
▁conventional	-11.1203
▁frost	-11.1204
▁prepare	-11.1208
▁recognition	-11.121
▁museum	-11.121
▁population	-11.121
▁norris	-11.121
▁baldwin	-11.1212
▁mistaken	-11.1212
den	-11.1219
pre	-11.1223
▁proceedings	-11.1226
▁involve	-11.1228
▁buster	-11.123
▁aka	-11.123
▁agreed	-11.1233
▁bette	-11.1235
▁existed	-11.1238
ny	-11.1243
▁dinosaur	-11.1243
▁scarecrow	-11.1244
stop	-11.1248
▁tad	-11.1251
▁differences	-11.1252
ily	-11.1257
▁stellar	-11.1265
▁falk	-11.1265
▁colonel	-11.1265
▁projects	-11.1266
▁tag	-11.1267
▁copies	-11.1267
▁alert	-11.1267
▁bates	-11.1268
▁command	-11.1271
many	-11.1272
▁motives	-11.1272
▁coherent	-11.1277
▁ought	-11.1279
ence	-11.128
▁1/10	-11.1282
▁nail	-11.1286
▁influenced	-11.129
▁recognized	-11.1292
▁mars	-11.1294
▁explosion	-11.1298
▁andrew	-11.1308
▁lifestyle	-11.1308
▁rubber	-11.1315
▁justify	-11.1317
▁suspicious	-11.1318
▁manhattan	-11.1318
▁branagh	-11.1318
▁isolated	-11.1318
▁beneath	-11.1319
▁versus	-11.132
▁gradually	-11.132
▁disappoint	-11.1322
▁eaten	-11.1322
▁wonders	-11.1328
▁succeeded	-11.1334
▁witnessed	-11.1338
▁fooled	-11.1341
▁official	-11.1342
▁tonight	-11.1345
▁et	-11.1345
▁holy	-11.1346
▁mayor	-11.1348
▁conversations	-11.1349
▁messages	-11.1352
▁throat	-11.1357
▁enormous	-11.1363
ps	-11.1364
▁divorce	-11.1365
avoid	-11.137
▁secrets	-11.1372
▁frustrating	-11.1372
▁pe	-11.1372
▁subtlety	-11.1373
▁robinson	-11.1373
much	-11.1374
▁dignity	-11.1374
▁robbery	-11.1374
coming	-11.1375
▁judging	-11.1376
▁represent	-11.1378
▁kurt	-11.1379
▁cheating	-11.1381
▁jeremy	-11.1381
▁lips	-11.1383
going	-11.1388
▁exposed	-11.1389
▁areas	-11.1392
sen	-11.1394
ship	-11.1398
▁scarlett	-11.1401
▁darker	-11.1415
▁depicts	-11.1417
▁closed	-11.1419
night	-11.1419
▁myers	-11.1424
▁enemies	-11.1427
▁unoriginal	-11.1427
▁edition	-11.1427
▁countryside	-11.1429
▁report	-11.1431
▁reaches	-11.1431
▁consistently	-11.1435
▁bay	-11.1437
▁doc	-11.144
▁sheen	-11.1445
istic	-11.1446
▁brains	-11.1449
▁failing	-11.145
▁props	-11.1454
▁bi	-11.1455
......	-11.1458
▁aid	-11.1459
▁album	-11.1461
▁contribute	-11.1467
▁vivid	-11.1472
▁unintentional	-11.1475
▁awake	-11.1477
again	-11.148
white	-11.148
▁feed	-11.148
▁blew	-11.1483
▁shirley	-11.1485
really	-11.1496
▁agents	-11.1496
▁stark	-11.1507
▁titled	-11.1508
any	-11.1512
▁phil	-11.1515
▁duck	-11.1518
▁signs	-11.1527
▁adequate	-11.1529
▁comics	-11.1531
▁belong	-11.1539
▁lemmon	-11.1539
▁morality	-11.1542
▁contrary	-11.1542
▁passes	-11.1545
ki	-11.1548
▁classes	-11.155
▁dust	-11.1553
▁forty	-11.1555
▁threatening	-11.156
▁honesty	-11.1565
▁astonishing	-11.1579
su	-11.1579
▁decisions	-11.1579
▁mann	-11.158
▁circle	-11.1587
▁sons	-11.159
▁education	-11.1591
▁loyal	-11.1591
james	-11.1592
▁morris	-11.1594
▁downhill	-11.1594
▁primarily	-11.1594
▁blast	-11.1594
▁shelf	-11.1595
▁undoubtedly	-11.1595
▁doomed	-11.1602
▁closet	-11.161
▁gear	-11.161
▁huh	-11.1611
▁loads	-11.1611
▁gangsters	-11.1616
▁sue	-11.1616
▁impress	-11.1618
▁bud	-11.1618
▁tank	-11.1619
▁flop	-11.1621
▁35	-11.1623
▁unfolds	-11.1624
▁prisoners	-11.163
▁montage	-11.1631
ud	-11.1633
▁prize	-11.1639
▁comparing	-11.1648
▁excruciating	-11.1648
▁sleaze	-11.1648
▁garfield	-11.1648
▁contest	-11.1649
▁bonus	-11.1649
unless	-11.1649
richard	-11.165
▁planned	-11.1653
▁immensely	-11.1653
▁3/10	-11.1653
▁runner	-11.1655
ck	-11.1656
▁covers	-11.1667
ric	-11.1668
▁toy	-11.1669
▁nicole	-11.1671
ford	-11.1694
gu	-11.1701
▁aforementioned	-11.1704
▁formulaic	-11.1706
▁models	-11.1709
▁frankie	-11.1713
▁notion	-11.1716
▁eastern	-11.1716
▁keith	-11.1718
▁trained	-11.1719
▁overrated	-11.172
▁marks	-11.1721
art	-11.1726
▁fingers	-11.173
▁limits	-11.1738
▁josh	-11.174
▁partly	-11.1745
▁companion	-11.1747
▁menace	-11.1749
▁spread	-11.1751
▁instant	-11.1752
▁masterful	-11.1753
▁fest	-11.1753
▁smaller	-11.1754
sorry	-11.1761
▁grotesque	-11.1762
▁rabbit	-11.1762
▁philosophical	-11.1765
op	-11.1767
ham	-11.1767
comprehensible	-11.1768
▁ruins	-11.1787
▁displayed	-11.1788
▁ga	-11.1789
▁scripts	-11.1791
▁bullets	-11.1801
▁progress	-11.1804
▁journalist	-11.1805
▁switch	-11.1812
▁mill	-11.1812
▁officers	-11.1813
▁describes	-11.1816
▁adorable	-11.1818
▁equipment	-11.1818
▁airport	-11.1818
▁karate	-11.1818
▁guitar	-11.1819
▁satisfied	-11.1821
▁bourne	-11.1822
▁reduced	-11.1823
▁nightmares	-11.1824
▁trees	-11.1826
▁cake	-11.1828
▁ease	-11.183
▁bon	-11.1831
▁tripe	-11.1842
▁pushing	-11.1843
▁tame	-11.1846
▁alfred	-11.1846
ci	-11.1855
▁helicopter	-11.1855
▁dynamic	-11.1863
▁dee	-11.1866
▁slave	-11.1869
▁horrifying	-11.1875
▁pitiful	-11.1875
▁primary	-11.1875
▁wrapped	-11.1875
▁bruno	-11.1876
▁defend	-11.1876
▁empire	-11.1877
▁cheated	-11.1881
▁macy	-11.1882
▁wore	-11.1883
▁tracks	-11.1888
▁romp	-11.1889
▁method	-11.1891
▁rocket	-11.1893
shot	-11.1894
▁hack	-11.1905
▁trashy	-11.1906
▁ears	-11.1908
▁transformation	-11.1919
▁imagined	-11.1921
▁hilariously	-11.1922
▁workers	-11.1923
▁rebel	-11.1925
▁legal	-11.1925
▁graham	-11.193
▁shake	-11.1932
▁edgar	-11.1933
▁sappy	-11.1933
▁lucas	-11.1934
▁composer	-11.1934
▁flies	-11.1935
▁cinematographer	-11.1936
▁terry	-11.194
▁subplots	-11.1946
▁similarly	-11.1954
core	-11.1956
▁beg	-11.1964
▁peak	-11.1974
▁consistent	-11.1981
▁careers	-11.1984
▁dutch	-11.1987
▁crawford	-11.199
▁creativity	-11.199
▁stilted	-11.199
▁florida	-11.1991
▁rotten	-11.1992
▁cagney	-11.1992
▁seventies	-11.1993
▁borrowed	-11.2
▁uneven	-11.2
▁counter	-11.2007
▁steel	-11.2012
▁movements	-11.2013
will	-11.2016
▁mode	-11.2017
▁kicked	-11.2021
▁creep	-11.2022
▁advance	-11.2026
▁comfort	-11.203
▁nerd	-11.2033
▁je	-11.2034
▁stinks	-11.2036
▁chances	-11.2041
▁pig	-11.2047
▁swimming	-11.2048
▁embarrassment	-11.2048
▁riveting	-11.2049
▁scooby	-11.205
▁sticks	-11.2052
▁odds	-11.2059
▁inane	-11.206
▁solely	-11.2061
▁blond	-11.2075
▁improve	-11.2084
▁unit	-11.209
▁crush	-11.2091
▁aussie	-11.2107
▁huston	-11.2107
▁feast	-11.2107
▁illogical	-11.2107
▁nostalgia	-11.2107
▁similarities	-11.2108
▁2004	-11.2109
▁bronson	-11.211
▁titanic	-11.2111
▁specifically	-11.2112
handed	-11.2112
▁cannon	-11.212
having	-11.2127
▁parties	-11.213
▁mentioning	-11.2137
▁fields	-11.2139
esque	-11.2139
▁desired	-11.2142
▁ross	-11.2143
low	-11.2145
▁recording	-11.2149
▁poison	-11.2151
▁cg	-11.2153
kin	-11.2155
▁dozens	-11.2158
ard	-11.2161
part	-11.2161
▁hung	-11.2164
▁absent	-11.2166
▁felix	-11.2166
▁em	-11.2167
▁priceless	-11.2167
hand	-11.2167
▁plausible	-11.2168
▁dating	-11.2169
▁mankind	-11.2169
▁considerable	-11.217
since	-11.217
▁suitable	-11.217
▁cream	-11.2175
▁presumably	-11.2176
▁poetic	-11.2186
▁gen	-11.2188
▁pretending	-11.2198
▁historically	-11.2205
▁passionate	-11.2218
▁gut	-11.2219
▁dimensional	-11.2223
▁frequent	-11.2223
▁fought	-11.2225
▁progresses	-11.2227
▁chased	-11.2228
people	-11.2228
▁corman	-11.2228
▁glasses	-11.2228
▁transfer	-11.2229
once	-11.2232
▁topless	-11.2235
▁pen	-11.2237
▁pin	-11.224
▁moody	-11.2254
get	-11.2256
▁survived	-11.2261
▁psychic	-11.2265
▁practice	-11.2265
▁suited	-11.2265
face	-11.2268
▁developing	-11.2268
▁define	-11.2272
▁introduces	-11.2277
▁favour	-11.2283
▁vengeance	-11.2284
▁rude	-11.2285
▁griffith	-11.2286
▁gentleman	-11.2286
▁tyler	-11.2288
q	-11.2288
▁martha	-11.229
▁panic	-11.2293
▁constructed	-11.2296
▁rita	-11.2297
▁cow	-11.2301
ending	-11.2305
▁nut	-11.2307
▁emphasis	-11.2313
▁thru	-11.2318
▁ingredients	-11.2326
▁drawing	-11.2338
▁trend	-11.2339
▁gate	-11.2339
▁portion	-11.234
▁elephant	-11.2341
▁ke	-11.2342
▁wound	-11.2342
▁advertising	-11.2344
▁barney	-11.2345
▁nostalgic	-11.2345
▁twelve	-11.2346
▁composed	-11.2347
▁turkish	-11.2347
▁incompetent	-11.235
▁ranger	-11.2351
▁catches	-11.2353
▁disappeared	-11.2354
▁sullivan	-11.2357
▁explored	-11.2359
▁survivors	-11.2361
▁shirt	-11.2367
▁discuss	-11.2374
▁contained	-11.2379
these	-11.2384
▁chuckle	-11.2395
▁transform	-11.2395
▁nervous	-11.2395
▁financial	-11.2395
za	-11.2397
▁convincingly	-11.2397
▁lately	-11.2402
▁butler	-11.2403
▁pressure	-11.2403
▁address	-11.2404
pe	-11.2404
▁challenging	-11.2404
▁circus	-11.2404
▁chainsaw	-11.2404
▁safety	-11.2405
▁perry	-11.2405
▁nomination	-11.2406
▁mason	-11.2406
▁doom	-11.2413
▁saga	-11.2416
bb	-11.2416
▁earned	-11.2422
▁subjects	-11.2424
▁brutally	-11.2435
▁mountains	-11.2439
▁guessed	-11.2444
actually	-11.2449
▁reflection	-11.2462
▁wished	-11.2463
▁mysteries	-11.2465
▁garbo	-11.2465
▁royal	-11.2466
▁spider	-11.2466
▁resemble	-11.2466
▁ol	-11.2466
▁centre	-11.2468
thriller	-11.2469
▁ruth	-11.247
▁harvey	-11.2471
▁dolls	-11.2473
▁vi	-11.2474
acted	-11.2474
▁alike	-11.2475
▁pays	-11.2476
▁mail	-11.2477
▁strangers	-11.2477
▁ironically	-11.2478
▁boom	-11.2478
look	-11.2487
laughably	-11.2491
▁ties	-11.2493
▁sincere	-11.2495
▁annie	-11.25
chi	-11.2503
tch	-11.2504
ette	-11.2505
▁prey	-11.2505
▁groups	-11.2509
▁suggested	-11.251
key	-11.2511
▁replace	-11.2514
▁confess	-11.2515
▁rocky	-11.2516
▁rave	-11.2518
▁adams	-11.2524
▁capturing	-11.2526
▁crucial	-11.2526
▁nicholson	-11.2527
▁ignorant	-11.2527
▁relation	-11.2528
▁operation	-11.2528
nothing	-11.2532
▁doug	-11.2532
▁3000	-11.2532
▁leigh	-11.2533
▁las	-11.2538
▁furthermore	-11.2539
▁avoided	-11.2549
▁underly	-11.2555
▁faster	-11.2555
▁dame	-11.2565
▁damned	-11.2567
▁bite	-11.2569
▁senseless	-11.2575
▁useful	-11.2576
▁intimate	-11.2578
▁newman	-11.2582
▁careful	-11.2584
▁leo	-11.2587
▁despair	-11.2587
▁understated	-11.2587
▁banned	-11.2587
▁mistress	-11.2588
▁relations	-11.2588
▁crisp	-11.2588
▁bullock	-11.259
directed	-11.2595
without	-11.2599
ent	-11.2601
▁purchased	-11.2603
ray	-11.2609
▁painted	-11.2613
▁gus	-11.2615
▁attend	-11.2622
▁pun	-11.2625
▁chi	-11.2636
▁exchange	-11.2636
▁wealth	-11.2644
ng	-11.2647
climactic	-11.2648
ever	-11.2649
▁occasion	-11.2649
▁dreary	-11.2649
▁taught	-11.2649
▁destiny	-11.2649
▁corruption	-11.265
▁confrontation	-11.2651
▁sixties	-11.2652
▁grudge	-11.2652
▁twilight	-11.2652
▁warmth	-11.2654
wa	-11.2654
▁pi	-11.2655
▁dread	-11.2655
▁quaid	-11.2656
ate	-11.2656
▁alcoholic	-11.2659
real	-11.2665
▁quit	-11.2668
▁lowest	-11.2669
▁opinions	-11.2674
▁4.	-11.2675
▁jaw	-11.2677
▁lock	-11.2682
▁thugs	-11.2682
pi	-11.2683
▁ne	-11.2688
cy	-11.2696
take	-11.2699
along	-11.2701
▁dimension	-11.2702
▁label	-11.2703
▁elegant	-11.2704
▁spoke	-11.2709
▁amazon	-11.2711
▁asylum	-11.2711
▁campaign	-11.2711
▁obtain	-11.2711
▁samurai	-11.2713
ph	-11.2716
▁puppets	-11.2716
▁transition	-11.2717
▁conservative	-11.2717
▁inappropriate	-11.272
drama	-11.272
▁phrase	-11.2721
▁deny	-11.2721
right	-11.273
▁harm	-11.2736
▁waited	-11.2737
▁bam	-11.2741
▁handed	-11.2745
▁ram	-11.2748
▁borrow	-11.2748
▁react	-11.2752
▁disappear	-11.2752
▁electric	-11.2753
▁burst	-11.2761
▁awe	-11.2762
▁staring	-11.2768
▁jaws	-11.2771
▁region	-11.2772
▁valuable	-11.2774
▁responsibility	-11.2774
▁appreciation	-11.2774
▁frustration	-11.2775
▁illness	-11.2777
▁harold	-11.2779
▁karloff	-11.278
au	-11.2782
▁tap	-11.2786
▁davies	-11.2786
▁trailers	-11.2788
mr	-11.2789
ial	-11.2789
▁remained	-11.28
▁rolled	-11.281
▁hart	-11.2819
▁spacey	-11.2829
▁greed	-11.2834
▁seeks	-11.2836
▁belt	-11.2836
▁irrelevant	-11.2837
gen	-11.2837
▁unsettling	-11.2837
▁improvement	-11.2837
▁phony	-11.2837
▁cassavetes	-11.284
▁wrap	-11.284
▁passable	-11.284
▁futuristic	-11.284
▁deliberately	-11.2842
▁revolutionary	-11.2842
▁muppet	-11.2842
▁coat	-11.2843
▁floating	-11.2843
makers	-11.2864
▁justin	-11.2865
▁rod	-11.287
ened	-11.2876
▁marty	-11.2876
▁channels	-11.2882
▁concentrate	-11.2887
▁polish	-11.289
▁superhero	-11.2893
▁ali	-11.2894
▁global	-11.29
▁minimum	-11.29
▁pursuit	-11.29
▁traffic	-11.29
▁9/10	-11.2901
▁watson	-11.2902
▁kingdom	-11.2902
make	-11.2903
▁phantom	-11.2903
▁reel	-11.2904
▁cancer	-11.2904
▁jeffrey	-11.2904
▁solution	-11.2904
▁bridges	-11.2907
▁communist	-11.2911
▁ba	-11.2912
▁wandering	-11.2913
▁arrived	-11.2916
▁twins	-11.2917
guy	-11.2919
▁unreal	-11.2932
▁1)	-11.2935
▁milk	-11.2945
▁anyways	-11.2946
▁debate	-11.2951
▁package	-11.2951
▁affection	-11.2963
▁desperation	-11.2964
▁carradine	-11.2964
▁bumbling	-11.2964
▁hokey	-11.2964
▁tiresome	-11.2964
▁miniseries	-11.2964
▁wacky	-11.2964
▁nyc	-11.2965
▁soccer	-11.2965
▁marshall	-11.2965
▁crocodile	-11.2968
▁wire	-11.2971
▁wishing	-11.2972
▁yelling	-11.2973
▁wounded	-11.2975
▁motivations	-11.2976
gh	-11.2979
▁amounts	-11.2981
▁checked	-11.2993
▁ian	-11.3006
▁pit	-11.301
▁directs	-11.301
▁demand	-11.3015
▁outfit	-11.302
mar	-11.3023
▁blowing	-11.3027
▁introduce	-11.3028
▁possibilities	-11.3028
▁humble	-11.3028
▁weather	-11.3028
▁misery	-11.3028
▁civilization	-11.3028
▁angst	-11.3028
▁fever	-11.3028
▁educational	-11.3031
▁christie	-11.3033
▁secondary	-11.3033
▁access	-11.3036
ze	-11.3038
▁rising	-11.3041
▁understandable	-11.3045
▁overacting	-11.3047
▁conceived	-11.3049
▁proceeds	-11.3053
▁buildings	-11.3054
sure	-11.3058
▁cheek	-11.3058
min	-11.3063
▁redeem	-11.3064
-13	-11.3064
▁pete	-11.3064
god	-11.3071
▁mute	-11.308
▁eager	-11.3082
▁premiere	-11.3082
▁excessive	-11.3083
second	-11.3091
▁hartley	-11.3093
ou	-11.3093
▁1999	-11.3095
▁wizard	-11.3097
faced	-11.3098
brazil	-11.31
▁stress	-11.3101
▁nuts	-11.3108
▁beliefs	-11.3113
hero	-11.3114
▁correctly	-11.3118
▁hints	-11.3119
cast	-11.312
▁behave	-11.3121
▁armed	-11.3133
▁threaten	-11.3135
▁dim	-11.3142
▁spark	-11.3145
▁objective	-11.3149
▁owe	-11.3149
▁drops	-11.3155
▁cleverly	-11.3155
▁gabriel	-11.3155
▁spock	-11.3157
▁descent	-11.3157
▁facing	-11.3157
▁romero	-11.3157
▁niro	-11.3157
▁addiction	-11.3158
▁betrayal	-11.3158
▁buffs	-11.316
▁scope	-11.3165
▁vaguely	-11.317
▁lily	-11.3184
list	-11.3191
▁tourist	-11.3192
▁dancers	-11.3193
▁stevens	-11.3199
▁*****	-11.3201
▁musician	-11.3201
▁remove	-11.3214
▁artificial	-11.3214
▁inferior	-11.3222
▁paranoia	-11.3222
▁patience	-11.3222
▁remarkably	-11.3223
▁agenda	-11.3223
▁francisco	-11.3223
▁stale	-11.3223
▁glorious	-11.3226
▁prejudice	-11.3226
▁underworld	-11.3226
▁defense	-11.3227
▁carmen	-11.3229
okay	-11.3231
▁boxing	-11.3231
▁charlotte	-11.3231
▁realizing	-11.3234
▁species	-11.3236
▁gifted	-11.3237
▁marion	-11.324
▁exceptionally	-11.3242
ker	-11.3256
▁promised	-11.3258
▁dialogues	-11.3265
▁guests	-11.3269
▁affect	-11.3271
▁satisfy	-11.3271
▁ny	-11.3278
▁jordan	-11.3284
▁tramp	-11.3288
▁behaviour	-11.3288
▁enthusiasm	-11.3288
▁mundane	-11.3288
▁smiling	-11.3288
▁travesty	-11.3288
▁nbc	-11.3288
▁bedroom	-11.3289
▁edgy	-11.3289
▁kitty	-11.329
▁celebrity	-11.329
▁2/10	-11.3291
▁invasion	-11.3291
▁teaches	-11.3291
▁forms	-11.3292
▁shaw	-11.3292
▁heartbreaking	-11.3293
▁weakest	-11.3296
▁mighty	-11.3296
▁commander	-11.3296
before	-11.3298
worthy	-11.3302
▁clock	-11.331
▁patients	-11.3315
▁treats	-11.3316
▁joined	-11.3319
▁catching	-11.3319
▁catchy	-11.3319
▁acid	-11.3326
▁hoot	-11.3327
▁musicians	-11.333
▁lasted	-11.3331
▁map	-11.334
▁predict	-11.3342
▁expose	-11.3342
ping	-11.3344
▁equivalent	-11.3354
▁arrival	-11.3354
▁velvet	-11.3354
▁roof	-11.3355
▁craven	-11.3355
▁widmark	-11.3357
▁orange	-11.3358
▁cannibal	-11.336
▁aaron	-11.336
▁experimental	-11.3361
▁daddy	-11.3361
▁taxi	-11.3361
▁warren	-11.3362
▁represented	-11.3367
▁awhile	-11.3369
▁bust	-11.3378
▁greatness	-11.3383
▁jews	-11.3383
▁roller	-11.3384
▁gather	-11.3395
▁marketing	-11.3397
▁interact	-11.3398
▁ensues	-11.3398
▁quotes	-11.3404
▁kar	-11.3407
▁suspend	-11.341
▁alcohol	-11.3412
▁nolan	-11.3413
▁donna	-11.3416
▁belushi	-11.3421
▁exorcist	-11.3421
▁sarandon	-11.3421
▁definition	-11.3422
▁holocaust	-11.3422
▁literature	-11.3422
▁authority	-11.3423
▁spaghetti	-11.3423
▁2007	-11.3423
▁uplifting	-11.3424
▁popularity	-11.3424
▁vulnerable	-11.3424
▁gere	-11.3427
▁ah	-11.3428
▁relatives	-11.3432
▁trademark	-11.3437
▁neo	-11.3442
▁expressed	-11.3444
▁chicks	-11.3446
▁filler	-11.3447
▁clueless	-11.3458
ass	-11.346
big	-11.3464
▁cap	-11.3469
▁sink	-11.3477
▁wagon	-11.3478
fire	-11.348
▁span	-11.3481
▁conditions	-11.3483
tra	-11.3483
▁tomorrow	-11.3488
▁triangle	-11.3488
▁loneliness	-11.3488
▁ritter	-11.3489
▁plight	-11.3489
▁maid	-11.3491
▁lift	-11.3491
▁exposure	-11.3493
▁crossing	-11.3494
▁berlin	-11.3497
▁depicting	-11.35
▁severe	-11.3506
▁online	-11.3508
▁landing	-11.3509
▁complaining	-11.3512
▁claimed	-11.3514
read	-11.3522
▁boris	-11.3534
▁sucker	-11.3534
▁crawl	-11.3539
under	-11.3549
world	-11.3555
▁attitudes	-11.3555
▁deranged	-11.3556
▁exploration	-11.3556
▁testament	-11.3556
▁wisdom	-11.3556
▁household	-11.3557
▁champion	-11.3557
▁foxx	-11.3557
▁biography	-11.356
ab	-11.3568
motion	-11.3568
az	-11.3572
▁imitation	-11.3574
▁tribe	-11.3574
▁maniac	-11.3582
▁jan	-11.3592
▁comedians	-11.3592
▁generations	-11.3597
▁sp	-11.3603
▁eats	-11.3607
▁tasteless	-11.3608
▁discovering	-11.3613
▁dirt	-11.3614
▁unfair	-11.3615
(..	-11.3617
▁worker	-11.3622
▁psychopath	-11.3623
▁thompson	-11.3624
▁compelled	-11.3624
▁flair	-11.3624
▁barrymore	-11.3624
▁property	-11.3625
▁unhappy	-11.3625
▁austin	-11.3626
▁'70	-11.3627
▁forbidden	-11.3628
▁questionable	-11.363
provoking	-11.3636
▁willie	-11.364
▁messed	-11.3642
▁refer	-11.3643
best	-11.3659
▁mock	-11.3665
▁jewel	-11.3671
▁pray	-11.3673
▁agrees	-11.3683
▁pale	-11.3684
▁riot	-11.369
▁profanity	-11.3692
▁mayhem	-11.3692
▁wives	-11.3692
▁stack	-11.3693
▁simultaneously	-11.3693
▁astounding	-11.3693
▁assigned	-11.3694
▁scottish	-11.3696
▁conrad	-11.3696
▁june	-11.3699
never	-11.3699
particularly	-11.3705
▁overlook	-11.3707
peter	-11.3709
▁programme	-11.371
har	-11.3715
▁hates	-11.3716
▁drove	-11.3718
▁meg	-11.372
▁clip	-11.3722
▁citizens	-11.3723
▁rome	-11.3724
▁jackass	-11.3725
▁bones	-11.3726
▁climb	-11.3727
wing	-11.3733
▁wildly	-11.3745
zz	-11.3752
tro	-11.3753
▁awfully	-11.3754
▁kicking	-11.3755
▁respected	-11.3757
▁realm	-11.376
▁flag	-11.3761
▁integrity	-11.3761
▁purple	-11.3761
▁construction	-11.3762
▁petty	-11.3762
▁representation	-11.3762
▁muddled	-11.3763
▁divine	-11.3764
▁enterprise	-11.3764
▁bow	-11.3765
▁joel	-11.3765
▁'80	-11.3768
▁chess	-11.3768
▁ernest	-11.3768
▁washed	-11.377
wife	-11.3771
▁matches	-11.3772
funny	-11.3773
stars	-11.3776
▁closest	-11.3779
▁fashioned	-11.378
▁chapter	-11.3788
▁robots	-11.3792
ible	-11.3793
headed	-11.3795
▁hippie	-11.3795
▁slaughter	-11.3803
▁centers	-11.3804
every	-11.3806
miss	-11.3815
▁trivial	-11.3817
▁virginia	-11.3825
▁sale	-11.3826
▁secretly	-11.3828
▁swim	-11.3831
▁simplicity	-11.3831
▁abusive	-11.3831
▁corporate	-11.3831
▁bunny	-11.3831
▁egyptian	-11.3831
▁unaware	-11.3831
▁cruelty	-11.3831
▁april	-11.3833
▁ape	-11.3836
▁gender	-11.3837
▁detract	-11.3837
▁sch	-11.3837
hara	-11.3838
▁faults	-11.3844
▁hank	-11.3844
▁mall	-11.3848
▁loaded	-11.3848
▁showdown	-11.3853
▁miracle	-11.3855
▁bands	-11.3855
▁bu	-11.3856
▁challenged	-11.3862
▁heap	-11.3868
▁yard	-11.3871
▁relax	-11.3873
▁backgrounds	-11.3876
▁neighbors	-11.3883
▁birds	-11.3883
▁icon	-11.3893
▁hopeless	-11.39
▁manipulative	-11.3901
▁femme	-11.3901
▁nonsensical	-11.3901
▁aim	-11.3901
▁assassination	-11.3902
▁spain	-11.3903
▁fascinated	-11.3903
▁masses	-11.3905
▁retired	-11.3905
20	-11.3906
▁kyle	-11.3906
worth	-11.3906
▁poem	-11.3908
▁dylan	-11.3908
▁fisher	-11.391
▁complaints	-11.391
▁patricia	-11.3914
▁letters	-11.3919
▁dump	-11.3926
▁scores	-11.3929
▁disliked	-11.3929
▁cube	-11.3931
▁aids	-11.3933
▁les	-11.3934
▁genres	-11.3946
▁waves	-11.3951
▁writes	-11.3952
▁namely	-11.3958
mp	-11.3959
▁spit	-11.396
▁julian	-11.3961
▁virtual	-11.3962
▁bela	-11.3962
▁bean	-11.3965
tz	-11.397
▁marvel	-11.3971
▁surviving	-11.3971
▁1995	-11.3972
▁heartwarming	-11.3972
▁complexity	-11.3974
▁stranded	-11.3975
▁ginger	-11.3975
▁maggie	-11.3976
▁timothy	-11.3977
▁greedy	-11.3978
▁jacket	-11.3979
▁prom	-11.3981
▁shell	-11.3981
▁sho	-11.3983
▁colin	-11.3985
▁ellen	-11.3987
▁advanced	-11.3989
▁moron	-11.3993
play	-11.3996
▁sara	-11.4003
/10	-11.4003
gar	-11.4003
▁heston	-11.4006
▁reader	-11.4012
▁orders	-11.4017
▁mu	-11.4018
notch	-11.402
▁hop	-11.4021
bel	-11.4027
▁raises	-11.4031
▁promises	-11.4031
▁cope	-11.4038
▁capital	-11.4038
▁voyage	-11.404
▁parade	-11.4041
▁institution	-11.4042
▁silliness	-11.4042
▁prequel	-11.4042
▁unpredictable	-11.4042
▁wretched	-11.4043
▁minister	-11.4043
▁visible	-11.4043
▁harmless	-11.4045
▁suffice	-11.4046
▁witnesses	-11.4046
▁samuel	-11.4047
▁conan	-11.4047
▁arguably	-11.4047
▁meryl	-11.4048
▁intentionally	-11.405
ned	-11.4055
dead	-11.4055
▁domestic	-11.4056
▁stumbled	-11.4056
▁ww	-11.4056
▁methods	-11.4057
william	-11.4057
▁refused	-11.4059
almost	-11.4061
▁enhance	-11.4066
▁coincidence	-11.4071
▁widely	-11.4076
▁jumped	-11.4081
▁balls	-11.4083
vo	-11.4086
air	-11.409
▁seed	-11.4091
▁doo	-11.4092
▁reaching	-11.4094
▁dud	-11.4094
▁wong	-11.4099
▁distinct	-11.4103
oo	-11.4108
▁sa	-11.4108
▁juliet	-11.4112
think	-11.4113
▁lackluster	-11.4113
▁motorcycle	-11.4113
▁stunned	-11.4113
▁conviction	-11.4114
▁straightforward	-11.4115
▁grainy	-11.4116
▁dresses	-11.4117
▁unfold	-11.4117
▁bernard	-11.4119
▁cuba	-11.4123
▁beware	-11.4124
ji	-11.4126
▁standout	-11.4127
george	-11.4129
▁ju	-11.4129
▁vera	-11.4133
▁worn	-11.4142
light	-11.4142
▁simpson	-11.4145
▁flee	-11.4151
▁creator	-11.4152
▁babe	-11.4153
▁iraq	-11.4154
▁golf	-11.4158
▁monk	-11.4165
▁cha	-11.4171
▁heading	-11.4181
▁lip	-11.4182
du	-11.4183
▁accuracy	-11.4185
▁nephew	-11.4185
▁hughes	-11.4187
▁steer	-11.4194
▁diana	-11.4195
▁metaphor	-11.4195
▁hyde	-11.4195
▁cookie	-11.4196
point	-11.4197
▁polished	-11.4198
▁surfing	-11.4199
mouth	-11.4201
book	-11.4201
everything	-11.4201
▁marine	-11.4205
▁require	-11.4206
▁realised	-11.4215
▁spirits	-11.4216
▁imp	-11.4218
▁sometime	-11.4219
room	-11.4219
▁abused	-11.4221
ek	-11.4224
▁recommendation	-11.4228
▁lively	-11.4228
▁alter	-11.4229
currently	-11.4238
▁schlock	-11.4252
▁keen	-11.4256
▁objects	-11.4258
▁miyazaki	-11.4258
▁rooney	-11.4258
▁fantasies	-11.4258
▁venice	-11.4258
▁toys	-11.4259
▁cities	-11.426
▁seldom	-11.4261
▁whale	-11.4261
▁couch	-11.4262
▁static	-11.4264
▁harrison	-11.4267
▁molly	-11.427
▁shore	-11.4275
▁resources	-11.4278
▁limit	-11.4281
ky	-11.4292
▁internal	-11.4295
▁pursue	-11.4306
▁likewise	-11.4309
▁venture	-11.431
▁3.	-11.431
▁gap	-11.4325
▁disappears	-11.4327
▁ensure	-11.4328
▁occasions	-11.4329
▁vulgar	-11.433
▁drake	-11.4331
▁accompany	-11.4331
▁activities	-11.4331
▁brooklyn	-11.4331
▁sunshine	-11.4331
▁ignorance	-11.4331
▁kapoor	-11.4331
▁dysfunctional	-11.4331
▁distribution	-11.4332
▁noises	-11.4334
▁2003	-11.4334
show	-11.4336
▁kenneth	-11.4337
▁raymond	-11.4339
▁natalie	-11.4339
▁jesse	-11.4341
▁rooms	-11.4341
▁stiller	-11.4347
▁invited	-11.4349
▁hurts	-11.435
▁cameras	-11.4352
▁sung	-11.4353
▁encourage	-11.4355
▁addict	-11.4358
mark	-11.4358
van	-11.436
▁mal	-11.436
▁origin	-11.4363
▁moronic	-11.4367
▁net	-11.4379
▁apes	-11.4384
▁leon	-11.4388
▁lands	-11.4388
▁casual	-11.4395
ino	-11.4404
▁attorney	-11.4404
▁robbins	-11.4404
▁amy	-11.4404
▁banal	-11.4404
▁northern	-11.4405
▁dickens	-11.4405
▁corpses	-11.4405
▁barker	-11.4406
▁tacky	-11.4407
▁2002	-11.4408
▁sunny	-11.4408
▁fifth	-11.441
ugh	-11.4413
▁auto	-11.4417
▁conflicts	-11.4418
production	-11.442
▁pops	-11.4421
▁boo	-11.4428
sky	-11.4431
▁shoulder	-11.4432
ising	-11.4435
▁spirited	-11.444
▁exit	-11.4442
▁rex	-11.4442
▁23	-11.4444
▁wig	-11.4445
▁hunters	-11.445
▁collect	-11.4454
▁/>***	-11.446
▁lang	-11.446
▁ordered	-11.4466
▁adore	-11.4467
era	-11.447
▁posted	-11.4474
▁remarks	-11.4475
▁darn	-11.4478
▁globe	-11.4478
▁companies	-11.4478
▁insipid	-11.4478
▁investigating	-11.4478
▁supply	-11.4479
▁dreck	-11.4479
▁snl	-11.4479
▁wardrobe	-11.448
▁nemesis	-11.4482
▁misleading	-11.4483
▁babies	-11.4484
▁sounding	-11.4486
▁choreographed	-11.4488
▁biased	-11.4489
▁businessman	-11.4492
▁rear	-11.4495
woman	-11.4495
besides	-11.4497
new	-11.4499
▁claude	-11.4501
nic	-11.4501
▁policeman	-11.4501
▁troops	-11.4505
▁document	-11.4507
▁rope	-11.4511
ice	-11.4512
▁alley	-11.4514
▁vein	-11.4518
▁carey	-11.4521
vin	-11.4528
▁jar	-11.4537
▁sweat	-11.4538
▁labor	-11.4545
▁butcher	-11.4549
▁buffalo	-11.4553
▁describing	-11.4553
▁godzilla	-11.4553
▁preposterous	-11.4553
▁technicolor	-11.4553
▁feat	-11.4553
ell	-11.4553
▁pimp	-11.4554
▁deaf	-11.4554
▁bogart	-11.4557
uk	-11.4559
▁antonio	-11.4559
ward	-11.4562
▁hungry	-11.4564
▁boxer	-11.4565
▁1980'	-11.4583
▁uh	-11.4585
▁warriors	-11.4586
▁repeating	-11.4588
▁accurately	-11.4591
▁secondly	-11.4591
▁losers	-11.4592
▁mil	-11.4597
▁assure	-11.4615
▁positively	-11.4616
▁compassion	-11.4627
▁compete	-11.4628
▁ambiguous	-11.4628
▁niece	-11.4628
▁primitive	-11.4628
▁shoddy	-11.4628
▁miike	-11.4628
▁ingenious	-11.4628
▁astaire	-11.4628
▁demise	-11.4629
▁idol	-11.4629
▁1972	-11.4629
▁walt	-11.463
▁hindi	-11.463
▁elvira	-11.4634
▁sid	-11.4637
▁nicholas	-11.464
plus	-11.4648
▁beard	-11.4652
▁guards	-11.466
check	-11.4661
▁purposes	-11.4667
▁statue	-11.467
▁spiral	-11.467
▁tail	-11.4672
▁outline	-11.4678
▁col	-11.4679
▁promote	-11.4685
▁visiting	-11.4686
▁carlos	-11.4691
▁sketch	-11.4696
away	-11.4698
▁euro	-11.4698
▁resulting	-11.47
▁inconsistent	-11.4704
▁faint	-11.4704
▁fifty	-11.4704
▁choppy	-11.4704
▁lunch	-11.4705
▁widescreen	-11.4705
▁preachy	-11.4707
▁affairs	-11.4707
▁kramer	-11.4708
▁unlikeable	-11.4709
▁stuart	-11.471
▁suggestion	-11.4712
▁bravo	-11.4712
▁shouting	-11.4713
▁severely	-11.4714
▁dances	-11.4718
▁tube	-11.4721
▁wilder	-11.4723
bottom	-11.4724
cu	-11.4724
▁reeves	-11.4729
▁---	-11.4736
▁setup	-11.4737
▁photos	-11.474
▁tastes	-11.4744
▁cons	-11.475
▁sen	-11.4763
▁referr	-11.4765
▁exceptions	-11.4767
die	-11.4769
▁blunt	-11.4771
▁filth	-11.4775
▁nun	-11.4776
▁newly	-11.4777
▁empathy	-11.478
▁fifties	-11.478
▁bettie	-11.478
▁dalton	-11.4781
▁biblical	-11.4783
▁travolta	-11.4785
▁voight	-11.4785
▁snipes	-11.4785
▁ethnic	-11.4787
▁rusty	-11.4787
▁passengers	-11.4791
▁amused	-11.4792
▁lifted	-11.4792
maker	-11.4794
▁liners	-11.4795
▁lengthy	-11.4802
unlike	-11.4804
▁salt	-11.4811
▁knocked	-11.4811
▁defined	-11.4811
quite	-11.4811
▁rhythm	-11.4813
▁sim	-11.4837
▁pole	-11.4837
▁sits	-11.4838
▁supported	-11.484
▁cary	-11.4844
▁/>1.	-11.4844
▁communicate	-11.4844
▁differently	-11.4853
▁profession	-11.4856
▁fluff	-11.4856
▁insanity	-11.4857
▁unlikable	-11.4857
▁loyalty	-11.4858
▁goldberg	-11.4858
▁underwater	-11.4859
▁monty	-11.4859
▁beatty	-11.4859
▁analysis	-11.4861
▁uwe	-11.4863
▁mum	-11.4866
▁gr	-11.4867
▁landscapes	-11.4867
gged	-11.4877
dan	-11.488
▁visits	-11.4882
speaking	-11.4882
▁dropping	-11.4883
▁myth	-11.4888
▁experiments	-11.4891
▁explores	-11.4899
box	-11.4901
▁doctors	-11.4901
▁ta	-11.4904
▁tunnel	-11.4904
▁thread	-11.4906
ov	-11.491
▁hearted	-11.4912
ju	-11.4913
▁shoe	-11.4915
▁clone	-11.4916
▁receives	-11.4921
▁bla	-11.4924
▁narrow	-11.4925
run	-11.493
▁yo	-11.493
▁derivative	-11.4935
▁demented	-11.4935
▁conscience	-11.4935
▁nightclub	-11.4936
▁undead	-11.4937
▁brosnan	-11.4938
▁invented	-11.494
▁poker	-11.4942
▁feminist	-11.4943
▁insightful	-11.4945
▁ballet	-11.4948
▁def	-11.4954
▁generated	-11.4955
www	-11.4957
▁jill	-11.496
▁active	-11.4965
▁desires	-11.4972
▁saint	-11.4976
▁simpsons	-11.4978
▁randomly	-11.4981
▁tiger	-11.4983
▁someday	-11.4996
▁modest	-11.5
being	-11.5001
▁bitch	-11.5004
nick	-11.5004
▁literary	-11.5013
▁pierce	-11.5013
▁elevator	-11.5013
▁steady	-11.5014
▁historic	-11.5015
▁route	-11.5015
og	-11.5016
▁9/11	-11.5017
▁ruby	-11.5018
▁difficulties	-11.5018
▁acclaimed	-11.5018
▁inaccurate	-11.5019
▁roots	-11.5022
▁playboy	-11.5022
▁sandy	-11.5024
▁scifi	-11.5026
▁crazed	-11.5027
▁fog	-11.5028
▁overlong	-11.5029
▁bump	-11.5037
spiring	-11.5038
▁lifeless	-11.504
▁inject	-11.5043
▁completed	-11.5044
have	-11.505
▁puzzle	-11.5051
▁inspire	-11.5051
mostly	-11.506
▁accomplish	-11.5063
▁drinks	-11.5065
▁/>2.	-11.5066
▁5.	-11.5073
▁vomit	-11.5074
▁disgrace	-11.5076
anne	-11.5079
▁delicate	-11.5082
▁pour	-11.5084
▁entitled	-11.5092
▁surgery	-11.5092
▁dawson	-11.5092
▁1983	-11.5092
▁reign	-11.5092
▁caricature	-11.5094
▁dunne	-11.5094
▁syndrome	-11.5094
▁recycled	-11.5094
▁fist	-11.5096
▁breed	-11.5097
▁teachers	-11.5097
▁precisely	-11.5097
▁tin	-11.5098
▁witches	-11.51
▁kathy	-11.5101
▁stream	-11.5102
▁salman	-11.5104
▁wholly	-11.5109
▁kay	-11.5121
▁painter	-11.5127
▁er	-11.5128
▁evolution	-11.5129
▁signed	-11.5132
▁ambition	-11.5145
used	-11.515
▁viewings	-11.5158
▁rates	-11.5159
bill	-11.516
▁destroying	-11.516
▁egg	-11.5162
zo	-11.5165
your	-11.5165
▁sugar	-11.5165
▁interactions	-11.5168
▁chooses	-11.5171
▁fascination	-11.5171
▁gibson	-11.5171
▁grief	-11.5171
▁hackneyed	-11.5171
▁hilarity	-11.5171
▁morbid	-11.5171
▁shaky	-11.5171
▁buzz	-11.5171
▁dismal	-11.5171
▁lush	-11.5172
▁possession	-11.5172
▁judy	-11.5173
▁gentlemen	-11.5173
rock	-11.5173
▁olivier	-11.5174
▁sums	-11.5176
▁crashes	-11.5177
▁counts	-11.5179
▁restored	-11.5179
▁consideration	-11.5179
▁hopelessly	-11.5182
▁controlled	-11.5183
▁winters	-11.5184
▁fay	-11.5184
▁damon	-11.5188
▁hugh	-11.5188
▁lauren	-11.5189
lar	-11.5191
om	-11.5192
dvd	-11.5195
yeah	-11.5195
ben	-11.5207
▁merits	-11.521
▁ra	-11.5211
▁hello	-11.5212
▁cab	-11.5217
▁adolescent	-11.5224
▁rifle	-11.5225
▁alec	-11.5226
▁demonstrates	-11.5228
▁styles	-11.5229
▁sending	-11.523
▁resident	-11.5231
▁audition	-11.5234
▁chills	-11.5236
▁outfits	-11.524
▁retain	-11.5241
▁mama	-11.5241
▁tu	-11.5246
gg	-11.5249
▁columbia	-11.5251
▁imaginable	-11.5251
▁montgomery	-11.5251
▁simmons	-11.5251
▁mildred	-11.5251
▁fruit	-11.5252
▁snowman	-11.5255
▁beverly	-11.5256
▁sympathize	-11.5256
▁apply	-11.5256
▁modesty	-11.5257
▁adaptations	-11.526
▁apocalypse	-11.5261
▁kumar	-11.5262
▁marked	-11.5264
▁behold	-11.5265
▁minus	-11.5267
-1	-11.5273
black	-11.5275
▁appropriately	-11.5278
ning	-11.5281
▁quietly	-11.5287
moving	-11.5287
▁lean	-11.5288
▁machines	-11.5289
▁voted	-11.5301
▁pages	-11.5304
▁skull	-11.5307
▁predecessor	-11.5308
watching	-11.5309
ku	-11.5309
▁survivor	-11.5309
▁earl	-11.5312
▁muslim	-11.5312
▁phillips	-11.5316
▁shared	-11.5317
▁danes	-11.532
▁swallow	-11.5321
▁strain	-11.5325
▁opportunities	-11.5332
▁quentin	-11.5332
▁voodoo	-11.5332
▁basketball	-11.5332
▁mitchum	-11.5332
▁hallmark	-11.5332
▁busey	-11.5333
▁macho	-11.5333
▁credited	-11.5333
▁orleans	-11.5334
▁engineer	-11.5335
▁adopted	-11.5337
▁located	-11.5341
▁startling	-11.5345
▁lure	-11.5346
▁cue	-11.5346
▁loy	-11.5352
▁homer	-11.5355
fetched	-11.5356
length	-11.5356
▁eh	-11.536
rr	-11.5362
▁prop	-11.5372
▁suspens	-11.5373
▁har	-11.5377
▁shift	-11.5377
▁option	-11.539
▁selection	-11.539
▁dealer	-11.539
▁items	-11.5393
▁latin	-11.5393
▁translate	-11.5405
▁muppets	-11.5406
▁farmer	-11.5408
val	-11.5411
▁pirate	-11.5411
▁shed	-11.5413
▁costello	-11.5413
▁exploring	-11.5413
▁inevitably	-11.5413
▁legacy	-11.5413
▁paxton	-11.5413
▁significance	-11.5413
▁dillon	-11.5413
▁scotland	-11.5413
▁kidnapping	-11.5413
▁exposition	-11.5413
cher	-11.5414
▁russo	-11.5414
▁hulk	-11.5417
▁unseen	-11.5418
▁leather	-11.5418
▁shaking	-11.5419
▁releases	-11.5419
forward	-11.5421
gy	-11.5423
held	-11.5429
▁pad	-11.543
▁demanding	-11.5435
je	-11.544
rent	-11.544
▁kidman	-11.5444
▁unexpectedly	-11.5446
nie	-11.5447
▁swing	-11.5447
10	-11.5452
▁designs	-11.5453
mel	-11.547
ists	-11.5471
human	-11.5474
▁vocal	-11.5474
▁mutant	-11.5474
▁instinct	-11.5474
▁hum	-11.5475
▁sang	-11.5476
▁grass	-11.5482
▁previews	-11.5484
▁showtime	-11.5485
▁sublime	-11.5485
▁abrupt	-11.5486
▁yawn	-11.5488
▁agency	-11.5495
▁obligatory	-11.5495
▁sergeant	-11.5495
▁assignment	-11.5495
▁walsh	-11.5495
▁snuff	-11.5495
▁skits	-11.5496
▁clooney	-11.5497
▁odyssey	-11.5497
▁challenges	-11.5497
▁inexplicably	-11.5497
▁wagner	-11.5498
▁jaded	-11.5498
▁deceased	-11.5498
▁vain	-11.55
▁richardson	-11.5502
▁rejected	-11.5504
▁wings	-11.5511
▁screwed	-11.5512
▁monkeys	-11.5518
▁ni	-11.5525
▁shoulders	-11.5527
▁regarded	-11.5528
▁greg	-11.5529
▁troubles	-11.5531
▁cor	-11.5536
▁inability	-11.5538
▁ranch	-11.554
▁kissing	-11.5543
▁des	-11.5545
▁delve	-11.556
▁pattern	-11.556
▁gems	-11.5563
▁heroin	-11.5563
▁quarter	-11.5564
▁edit	-11.557
▁info	-11.5572
elli	-11.5575
▁camcorder	-11.5578
▁cemetery	-11.5578
▁devastating	-11.5578
▁bounty	-11.5578
▁submarine	-11.5578
▁boston	-11.5578
▁commitment	-11.5579
▁frightened	-11.5581
ttp	-11.5582
▁flashes	-11.5582
▁debbie	-11.5583
▁caliber	-11.5584
hy	-11.5585
▁worship	-11.5586
▁shorter	-11.5586
▁din	-11.5589
▁august	-11.5592
▁guaranteed	-11.5597
▁function	-11.56
▁penny	-11.56
▁spine	-11.561
▁sellers	-11.5622
▁compliment	-11.5642
▁hostage	-11.5643
fully	-11.5643
▁eternal	-11.5651
▁exquisite	-11.5652
▁immature	-11.5661
▁psychology	-11.5661
▁disorder	-11.5661
▁jenny	-11.5661
▁unexplained	-11.5661
▁jarring	-11.5661
▁heartfelt	-11.5661
▁deleted	-11.5662
▁injured	-11.5662
▁ku	-11.5663
▁flavor	-11.5663
▁terminator	-11.5663
▁biopic	-11.5663
▁brutality	-11.5663
▁heights	-11.5664
▁ri	-11.5665
▁matched	-11.5667
▁canceled	-11.5668
▁1979	-11.5668
▁vince	-11.5668
▁highway	-11.567
▁disgusted	-11.5671
▁mor	-11.5674
▁vastly	-11.5676
ren	-11.5683
thank	-11.5689
▁crown	-11.5692
▁7.	-11.5697
▁freaks	-11.5697
▁th	-11.5705
▁assumed	-11.5705
▁youngest	-11.5709
▁joey	-11.5718
▁refuse	-11.572
stone	-11.5727
▁decline	-11.5734
▁va	-11.5735
▁reluctant	-11.5736
▁immediate	-11.5736
▁elevate	-11.5736
▁fa	-11.5738
come	-11.5744
▁provocative	-11.5745
▁chorus	-11.5745
▁suburban	-11.5745
://	-11.5746
▁industrial	-11.5746
▁furious	-11.5746
▁danish	-11.5747
▁olivia	-11.575
▁sydney	-11.575
▁respectable	-11.575
▁remade	-11.5751
▁rangers	-11.5753
▁rendered	-11.5754
▁racing	-11.5755
▁lin	-11.5755
▁demonic	-11.5757
▁melting	-11.5758
▁transformed	-11.576
hop	-11.576
fer	-11.5763
▁abound	-11.5763
▁thrilled	-11.5764
▁mins	-11.5772
▁artsy	-11.5773
▁22	-11.5775
▁sincerely	-11.5776
seriously	-11.5776
▁pc	-11.5781
▁wander	-11.5787
ig	-11.5789
▁sooner	-11.5797
▁avid	-11.5801
▁messy	-11.5804
gan	-11.5806
▁elm	-11.5807
▁presenting	-11.5807
▁specially	-11.5808
▁studying	-11.581
▁strings	-11.5814
▁glance	-11.5814
▁frog	-11.5815
▁motive	-11.582
▁wheel	-11.5822
▁bully	-11.5825
▁3-	-11.5826
▁designer	-11.5828
▁expense	-11.583
▁glaring	-11.583
▁identical	-11.583
▁investigator	-11.583
▁perception	-11.583
▁senior	-11.583
▁deniro	-11.583
▁toronto	-11.583
▁ripping	-11.5831
▁hilton	-11.5831
▁abraham	-11.5832
▁continually	-11.5832
▁harbor	-11.5832
▁seymour	-11.5832
▁preferred	-11.5833
▁paradise	-11.5833
▁confidence	-11.5835
▁millionaire	-11.5838
▁hay	-11.584
▁stopping	-11.5841
▁raj	-11.5841
▁rupert	-11.5842
▁1930'	-11.5842
▁morals	-11.5843
ow	-11.5847
▁norm	-11.5847
▁99	-11.5847
▁filmmaking	-11.5854
▁independence	-11.5854
those	-11.5859
lie	-11.5863
pol	-11.5864
▁topics	-11.5865
▁bros	-11.5871
▁ro	-11.5875
▁bra	-11.5878
▁disgust	-11.5888
▁ver	-11.5889
lee	-11.5897
▁po	-11.5897
ina	-11.5899
▁skeleton	-11.59
▁mormon	-11.5905
▁der	-11.5905
▁helpful	-11.5907
▁earn	-11.5908
▁embrace	-11.5908
▁judgment	-11.5914
▁verhoeven	-11.5915
▁eagle	-11.5915
▁resume	-11.5915
▁gorilla	-11.5915
▁hopkins	-11.5915
▁lambert	-11.5915
bal	-11.5915
▁taboo	-11.5916
▁subtly	-11.5916
▁sensational	-11.5916
▁unrelated	-11.5916
▁energetic	-11.5916
▁considerably	-11.5917
▁september	-11.5917
▁kline	-11.5918
▁hayes	-11.5919
▁piper	-11.5919
▁ronald	-11.5919
▁frozen	-11.5919
▁akin	-11.5919
▁partially	-11.592
▁hyper	-11.592
▁rats	-11.592
cause	-11.5922
▁populate	-11.5923
last	-11.5924
▁respectively	-11.5924
▁glowing	-11.5926
▁weakness	-11.593
cho	-11.5931
ide	-11.5931
▁bread	-11.5931
▁symbolic	-11.5934
▁ships	-11.5934
▁critique	-11.5935
rk	-11.5938
▁port	-11.5938
▁arab	-11.5939
master	-11.5942
▁beatles	-11.5943
proving	-11.5944
▁jam	-11.5947
▁poke	-11.5951
▁attract	-11.5959
▁....	-11.5969
name	-11.5977
▁symbol	-11.5985
ability	-11.5986
▁centered	-11.5986
▁contribution	-11.5989
▁roommate	-11.599
▁deer	-11.5991
▁prominent	-11.5992
▁clan	-11.5995
▁199	-11.5996
▁stumbles	-11.5998
lock	-11.5998
▁gambling	-11.6001
▁paramount	-11.6001
▁underneath	-11.6002
▁examination	-11.6002
▁celebration	-11.6002
▁misguided	-11.6002
▁rambo	-11.6002
▁waitress	-11.6002
▁habit	-11.6003
▁penguin	-11.6004
▁thrust	-11.6004
▁helpless	-11.6006
▁tit	-11.6008
▁assuming	-11.6009
▁rapidly	-11.601
▁denzel	-11.601
▁logan	-11.6011
▁edie	-11.6011
▁resolved	-11.6013
▁translated	-11.6017
▁leno	-11.6018
▁downey	-11.6021
▁reported	-11.6021
▁stroke	-11.6022
pr	-11.6022
▁hats	-11.6029
▁tip	-11.6036
▁bars	-11.6036
▁christians	-11.6042
▁stare	-11.6043
▁posters	-11.6047
▁soup	-11.605
rie	-11.6054
▁scratch	-11.6054
▁dose	-11.6054
▁flood	-11.606
▁devices	-11.6068
▁filling	-11.6068
▁gadget	-11.6078
▁volume	-11.6078
▁concepts	-11.6078
▁fright	-11.6079
▁sailor	-11.6079
▁respective	-11.6081
▁marrie	-11.6084
▁belle	-11.6085
▁destination	-11.6088
▁eternity	-11.6088
▁gypsy	-11.6088
▁receiving	-11.6088
▁mercy	-11.6088
▁ollie	-11.6088
▁automatically	-11.6089
▁acceptance	-11.6089
▁1997	-11.6089
▁elite	-11.6089
▁barrel	-11.609
▁hammy	-11.6091
▁sharing	-11.6091
▁pleasing	-11.6091
▁devito	-11.6091
▁polanski	-11.6092
▁communication	-11.6095
▁raising	-11.6099
▁befriends	-11.6103
▁cheer	-11.6103
▁victory	-11.6104
mann	-11.6108
▁stretched	-11.6111
▁minded	-11.6114
child	-11.6119
▁rises	-11.6122
▁separated	-11.6126
use	-11.6126
▁ace	-11.6127
▁slip	-11.613
dar	-11.6137
▁ch	-11.614
ach	-11.6141
30	-11.6146
▁dressing	-11.6155
▁smell	-11.616
tempted	-11.6161
▁liv	-11.6161
▁descend	-11.6165
▁sustain	-11.6165
▁click	-11.6165
▁jacob	-11.6167
▁palm	-11.6173
ged	-11.6176
▁cohen	-11.6176
▁disastrous	-11.6176
▁embark	-11.6176
▁engrossing	-11.6176
▁misfortune	-11.6176
▁peculiar	-11.6176
▁python	-11.6176
▁sanders	-11.6176
▁montana	-11.6176
▁terrified	-11.6176
▁palace	-11.6176
▁duvall	-11.6176
▁amusement	-11.6176
▁razor	-11.6176
▁studies	-11.6176
▁bacon	-11.6176
▁shopping	-11.6177
▁1984	-11.6177
▁authorities	-11.6177
▁grinch	-11.6177
▁afterward	-11.618
▁stallone	-11.6181
cap	-11.6183
▁turd	-11.6183
▁vital	-11.6183
▁youtube	-11.6184
▁gris	-11.6186
▁altered	-11.6192
▁attacking	-11.6195
▁boyle	-11.6198
▁serving	-11.6199
may	-11.6212
ular	-11.6216
▁irene	-11.6218
▁visited	-11.6219
▁charged	-11.622
▁fade	-11.6221
nce	-11.6224
▁deserted	-11.6229
▁grabs	-11.623
▁arrest	-11.6237
▁towers	-11.6237
▁shares	-11.6238
▁upside	-11.6239
actors	-11.6244
▁disguise	-11.6245
▁backwards	-11.6245
▁taped	-11.6249
▁sentiment	-11.625
▁torment	-11.6254
hey	-11.6261
▁cal	-11.6262
▁jess	-11.6264
▁sarcastic	-11.6265
▁swamp	-11.6265
▁spree	-11.6265
▁shortcomings	-11.6265
▁axe	-11.6265
▁wilderness	-11.6266
▁weaknesses	-11.6266
▁spout	-11.6267
▁continuing	-11.6267
▁lethal	-11.6268
▁fence	-11.6268
.......	-11.6268
hu	-11.6276
▁christina	-11.6277
▁disregard	-11.6278
ari	-11.6279
▁addicted	-11.6287
foot	-11.6291
▁billed	-11.6296
▁dub	-11.6303
av	-11.6304
oz	-11.6305
▁nails	-11.631
jean	-11.6317
▁goat	-11.6318
berg	-11.632
▁enjoys	-11.6326
▁planes	-11.633
▁dictator	-11.6336
▁foolish	-11.6345
teen	-11.6347
▁han	-11.6347
▁tire	-11.6348
▁principle	-11.6348
pro	-11.635
▁intentional	-11.6354
▁phenomenon	-11.6354
▁thieves	-11.6354
▁headache	-11.6354
▁vibrant	-11.6354
▁exterior	-11.6354
▁deserving	-11.6354
▁limp	-11.6355
▁clay	-11.6356
▁claustrophobic	-11.6357
▁macbeth	-11.6357
▁masterpieces	-11.6357
▁aesthetic	-11.6358
▁speeches	-11.636
▁healthy	-11.6366
▁mechanical	-11.6373
▁owned	-11.6377
▁um	-11.638
▁tooth	-11.6386
produced	-11.6386
filled	-11.6387
▁entered	-11.6389
▁bio	-11.6396
▁beside	-11.6399
▁height	-11.6407
▁sales	-11.6412
instead	-11.6417
row	-11.6418
▁pause	-11.6419
ski	-11.6422
▁slim	-11.6426
▁thunder	-11.6427
▁arch	-11.6428
▁wal	-11.6428
▁regards	-11.643
▁foil	-11.6433
▁bike	-11.6437
▁introduc	-11.6438
▁resembl	-11.6439
▁coffin	-11.6444
▁ghetto	-11.6444
▁shatner	-11.6444
▁novak	-11.6444
▁unimaginative	-11.6444
▁bloom	-11.6444
▁rampage	-11.6444
▁eleven	-11.6444
▁wright	-11.6445
▁copied	-11.6445
ris	-11.6445
▁breakdown	-11.6447
▁iv	-11.6447
▁grateful	-11.6447
▁clive	-11.6448
▁glued	-11.645
▁dates	-11.645
ini	-11.645
▁expectation	-11.6451
▁warden	-11.6452
▁abruptly	-11.6454
▁informative	-11.6459
▁coke	-11.6466
▁assured	-11.647
▁101	-11.6472
▁county	-11.6476
▁singers	-11.6476
producer	-11.6478
little	-11.6478
ries	-11.6486
apart	-11.649
▁boost	-11.649
dis	-11.649
aud	-11.6493
▁framed	-11.6494
▁morally	-11.6495
▁roth	-11.6504
▁surroundings	-11.6507
▁difficulty	-11.6508
ens	-11.651
▁karl	-11.6518
▁smack	-11.6524
▁applaud	-11.6524
▁plate	-11.6526
▁surf	-11.6527
▁intro	-11.6528
▁farrell	-11.6529
▁transcend	-11.6535
▁anticipation	-11.6535
▁comprehend	-11.6535
▁czech	-11.6535
▁expedition	-11.6535
▁lavish	-11.6535
▁pacific	-11.6535
▁repulsive	-11.6535
▁dallas	-11.6535
▁departure	-11.6535
▁tcm	-11.6535
▁rainbow	-11.6535
▁swayze	-11.6535
▁unsatisfying	-11.6535
▁rambling	-11.6535
▁indication	-11.6535
▁haines	-11.6535
▁finn	-11.6536
▁potter	-11.6536
▁ethan	-11.6536
▁hooker	-11.6538
▁frontier	-11.6538
▁warming	-11.6538
▁housewife	-11.6539
▁bonnie	-11.6539
▁errol	-11.6539
▁curly	-11.654
▁gerard	-11.6541
▁wesley	-11.6543
▁commenting	-11.6545
▁siblings	-11.6546
▁sopranos	-11.6546
)...	-11.6548
▁brady	-11.6548
▁/>3.	-11.6551
▁flashy	-11.6552
▁enhanced	-11.6557
ay	-11.6568
▁mega	-11.6569
▁dumber	-11.6572
thing	-11.658
▁belly	-11.658
does	-11.658
▁milo	-11.6589
gun	-11.6591
ara	-11.6592
▁visions	-11.6598
▁conventions	-11.6604
▁natives	-11.6606
▁glen	-11.6607
▁paintings	-11.6608
qui	-11.6611
▁confuse	-11.6614
▁criticize	-11.6614
▁nerves	-11.6614
view	-11.6615
▁reflects	-11.6615
▁confirm	-11.6616
▁fortunate	-11.6617
▁ark	-11.662
▁fluid	-11.6626
▁casino	-11.6627
▁mesmerizing	-11.6627
▁netflix	-11.6627
▁rebellious	-11.6627
▁cattle	-11.6627
▁screwball	-11.6627
▁recognizable	-11.6627
▁spectacle	-11.6628
▁underdog	-11.6628
▁spaceship	-11.6629
▁mencia	-11.6629
▁adapt	-11.6629
▁abortion	-11.6629
▁vile	-11.663
▁hayworth	-11.663
▁servant	-11.663
▁punches	-11.6632
lon	-11.6634
▁victorian	-11.6639
▁skit	-11.664
▁gable	-11.6641
▁blatantly	-11.6643
▁peck	-11.6644
▁caper	-11.6647
▁2:	-11.6648
▁asia	-11.665
▁disco	-11.6658
▁masks	-11.6662
fashioned	-11.6664
board	-11.6669
▁forgiven	-11.667
rich	-11.6675
▁lance	-11.6676
▁owners	-11.6678
▁meal	-11.6683
▁orson	-11.6684
▁entering	-11.6685
▁tool	-11.6686
▁!!	-11.6692
▁grip	-11.6694
toole	-11.6699
act	-11.67
▁lampoon	-11.6702
▁israel	-11.6704
▁leap	-11.6706
▁supreme	-11.671
▁phenomenal	-11.671
▁immortal	-11.6713
ions	-11.6714
ura	-11.6718
▁trauma	-11.6719
▁definitive	-11.6719
▁fierce	-11.6719
▁seductive	-11.6719
▁caution	-11.6719
destined	-11.6719
▁telephone	-11.6719
▁neurotic	-11.6719
▁bulk	-11.6719
▁chopped	-11.6719
▁scariest	-11.6719
▁hapless	-11.672
▁promotion	-11.672
▁activity	-11.672
▁scorpion	-11.6722
▁lowe	-11.6722
▁error	-11.6722
▁cushing	-11.6722
▁minority	-11.6723
▁imaginary	-11.6724
▁dexter	-11.6724
▁fury	-11.6726
▁mixing	-11.673
▁jealousy	-11.6731
▁daniels	-11.6732
▁diner	-11.6732
▁employed	-11.6734
▁/>4/10	-11.6734
▁layers	-11.6738
▁evidently	-11.6738
▁tomb	-11.6738
▁fatale	-11.6739
▁brit	-11.6742
▁discussing	-11.6745
▁houses	-11.6746
▁bowl	-11.6747
▁residents	-11.6747
▁sticking	-11.6755
▁ants	-11.6756
▁coup	-11.6761
ada	-11.6772
▁trace	-11.6772
▁portrayals	-11.6773
▁flower	-11.6781
▁oldest	-11.6782
ap	-11.6782
▁evans	-11.6783
▁answered	-11.6784
▁cliches	-11.6786
▁sitcoms	-11.6787
▁reminder	-11.6792
▁rehash	-11.6794
▁arc	-11.6795
▁cleaning	-11.6795
▁conquer	-11.6801
▁radical	-11.6803
▁eventual	-11.6804
▁rapid	-11.6804
▁examine	-11.6806
▁clash	-11.6811
sp	-11.6811
▁connections	-11.6812
▁admirable	-11.6813
▁insurance	-11.6813
▁jersey	-11.6813
▁hybrid	-11.6813
▁1993	-11.6814
▁mentality	-11.6815
▁egypt	-11.6816
00	-11.6817
▁biker	-11.6818
▁christine	-11.682
▁akshay	-11.682
▁convicted	-11.6821
▁remark	-11.6822
▁handling	-11.6823
▁couples	-11.6823
▁cents	-11.6824
▁confident	-11.6825
▁mates	-11.6835
▁females	-11.684
▁caricatures	-11.6844
▁cheerful	-11.6851
▁stumble	-11.6852
high	-11.6858
scene	-11.6859
▁mick	-11.6861
▁launch	-11.6875
▁refers	-11.6878
▁computers	-11.6879
▁drift	-11.6881
▁nu	-11.6886
▁boasts	-11.6892
▁emerges	-11.6895
▁pam	-11.6906
▁cassidy	-11.6907
▁medieval	-11.6907
▁unsuspecting	-11.6907
▁visconti	-11.6907
▁darwin	-11.6907
▁/>7/10	-11.6907
▁custer	-11.6907
▁tolerable	-11.6907
▁palance	-11.6907
▁1939	-11.6908
▁incest	-11.6908
▁undercover	-11.6908
▁disabled	-11.6908
▁rice	-11.6908
▁cobra	-11.6909
▁absurdity	-11.691
▁dilemma	-11.6911
▁goodbye	-11.6914
▁cyborg	-11.6915
▁fuller	-11.6916
▁iq	-11.6917
▁erika	-11.6919
▁yep	-11.6922
▁woeful	-11.6927
▁rainy	-11.6928
▁records	-11.6931
▁rides	-11.6931
▁persons	-11.694
apparently	-11.6946
▁bach	-11.6952
▁lens	-11.6955
highly	-11.6955
50	-11.6957
▁cameraman	-11.6958
hair	-11.6959
15	-11.696
▁longest	-11.6961
▁drill	-11.6965
▁dana	-11.6966
▁trials	-11.6972
▁wi	-11.6973
▁abandon	-11.6974
uck	-11.6977
▁luc	-11.6979
▁betray	-11.6991
▁coward	-11.6994
▁races	-11.6995
▁fundamental	-11.7
game	-11.7002
▁anytime	-11.7002
▁tho	-11.7002
▁pfeiffer	-11.7002
▁armstrong	-11.7002
▁duration	-11.7002
▁despicable	-11.7002
▁banter	-11.7002
▁survives	-11.7003
▁tomatoes	-11.7003
▁preston	-11.7003
▁liar	-11.7003
▁naughty	-11.7003
▁affleck	-11.7004
▁rochester	-11.7004
▁ponyo	-11.7007
▁!!!	-11.7008
▁entirety	-11.7009
▁homicide	-11.701
▁gregory	-11.701
▁tossed	-11.701
▁passage	-11.7011
▁trans	-11.7011
▁romeo	-11.7011
▁eugene	-11.7013
▁tan	-11.7015
▁ritual	-11.7016
ik	-11.7019
▁tech	-11.7021
▁fur	-11.7021
▁breast	-11.7022
▁pushe	-11.7022
▁wa	-11.7023
▁divorced	-11.7027
▁enthusiastic	-11.7035
▁beth	-11.7036
▁foundation	-11.7036
▁outright	-11.704
driven	-11.7042
▁drab	-11.7046
▁com	-11.7053
nia	-11.7055
thanks	-11.706
▁wang	-11.7064
referred	-11.7066
▁fishing	-11.7072
▁carell	-11.7072
ung	-11.708
▁garner	-11.7088
▁intricate	-11.7089
lton	-11.709
▁qualify	-11.7098
▁ricci	-11.7098
▁injustice	-11.7098
▁stairs	-11.7098
▁trigger	-11.7101
▁brooding	-11.7103
▁publicity	-11.7103
▁brainless	-11.7104
▁wash	-11.7104
▁spade	-11.7105
▁spencer	-11.7105
▁conveys	-11.7105
later	-11.7107
▁election	-11.7108
▁ren	-11.7111
cop	-11.7112
▁1000	-11.7113
▁limitations	-11.7116
▁switched	-11.7126
▁poet	-11.713
▁spice	-11.7132
▁bombs	-11.7133
cat	-11.7135
next	-11.7139
▁cracking	-11.7149
ez	-11.7153
bit	-11.7155
▁casey	-11.7155
▁noah	-11.7157
▁bent	-11.7164
▁ash	-11.7184
▁strict	-11.7186
playing	-11.7189
▁shades	-11.719
▁conclude	-11.7193
far	-11.7195
▁echo	-11.7195
▁controversy	-11.7195
▁monroe	-11.7195
▁transplant	-11.7195
▁ustinov	-11.7195
▁isolation	-11.7195
▁mccoy	-11.7195
▁jury	-11.7196
▁1971	-11.7196
▁overbearing	-11.7197
▁license	-11.7197
▁gilbert	-11.7199
▁uncut	-11.7199
▁infected	-11.7199
▁gimmick	-11.72
▁ghoulies	-11.72
▁nominations	-11.72
▁rosemary	-11.7201
▁satirical	-11.7202
▁dam	-11.7203
▁selected	-11.7204
▁traits	-11.7206
▁stalker	-11.7206
▁sixth	-11.7207
▁cycle	-11.7207
▁gu	-11.7209
▁linked	-11.7216
eating	-11.7221
▁gained	-11.7225
▁louise	-11.7226
ola	-11.7231
winning	-11.7237
hr	-11.7239
▁emerge	-11.7247
zer	-11.7251
▁doubts	-11.7254
pping	-11.7255
▁accounts	-11.7255
zi	-11.7256
▁handles	-11.7269
▁tapes	-11.7272
▁inherent	-11.7274
▁exploit	-11.7277
ala	-11.7279
▁reward	-11.7279
▁depends	-11.7284
▁sickening	-11.7285
▁obsessive	-11.7286
net	-11.7289
eye	-11.7289
▁chat	-11.7292
▁prot	-11.7292
▁earnest	-11.7293
▁deputy	-11.7293
▁escaping	-11.7293
▁galaxy	-11.7293
▁istanbul	-11.7293
▁scrooge	-11.7293
▁vcr	-11.7293
▁lunatic	-11.7294
▁sensible	-11.7294
▁moses	-11.7294
▁authenticity	-11.7295
▁diverse	-11.7295
▁cam	-11.7295
▁preminger	-11.7296
▁streisand	-11.7297
▁sherlock	-11.7298
▁samantha	-11.7299
▁wounds	-11.7301
▁brenda	-11.7301
▁ashley	-11.7302
doo	-11.7303
▁explosive	-11.7304
▁gloria	-11.7304
etc	-11.7305
▁fried	-11.7306
▁july	-11.7306
▁palma	-11.7308
▁attended	-11.7311
▁moe	-11.7311
▁wanders	-11.7311
▁wipe	-11.7316
▁nerve	-11.7316
▁justified	-11.7319
▁dj	-11.7325
▁sal	-11.7325
▁endlessly	-11.7331
des	-11.7332
indulgent	-11.7336
▁interestingly	-11.7336
has	-11.7338
▁raid	-11.7338
▁cbs	-11.7339
▁balanced	-11.7341
sadly	-11.7342
hot	-11.735
▁morons	-11.7353
▁claiming	-11.7353
▁colours	-11.7359
▁ty	-11.7364
▁rational	-11.7368
▁legends	-11.7377
▁bald	-11.7377
▁haunt	-11.7378
▁psyche	-11.7379
▁blink	-11.7381
▁register	-11.7382
▁votes	-11.7387
tta	-11.7388
▁sha	-11.7392
▁paranoid	-11.7392
▁ominous	-11.7393
▁medicine	-11.7393
▁bishop	-11.7393
▁mannerisms	-11.7393
▁ingrid	-11.7393
▁championship	-11.7393
▁breakfast	-11.7393
▁invest	-11.7393
▁pathos	-11.7393
▁1981	-11.7394
▁homosexuality	-11.7394
▁valentine	-11.7394
▁1982	-11.7394
▁riff	-11.7395
▁approaching	-11.7395
▁gundam	-11.7395
▁adaption	-11.7395
▁coppola	-11.7396
▁hepburn	-11.7396
▁contempt	-11.7397
▁stefan	-11.7398
▁artwork	-11.7399
▁holm	-11.7403
▁distraction	-11.7405
▁candidate	-11.7406
▁rewarding	-11.741
▁inhabitants	-11.7414
▁doris	-11.7417
▁beau	-11.742
▁delighted	-11.7424
▁gil	-11.7429
▁fools	-11.7433
cheek	-11.7436
▁cooking	-11.7439
▁inspirational	-11.7443
▁hides	-11.745
gra	-11.7456
▁juan	-11.7456
▁stores	-11.7461
code	-11.7461
▁fulfill	-11.7465
▁duel	-11.7465
▁formed	-11.7467
▁readers	-11.7474
▁factors	-11.748
esh	-11.748
▁liz	-11.748
▁depict	-11.7481
fe	-11.7485
▁remakes	-11.7489
▁coupled	-11.7491
ita	-11.7492
▁booth	-11.7492
▁subtext	-11.7493
▁aircraft	-11.7493
▁eyre	-11.7493
▁laurence	-11.7493
mc	-11.7493
▁reagan	-11.7493
▁reliable	-11.7493
▁1973	-11.7494
▁1988	-11.7494
▁madsen	-11.7494
▁malone	-11.7495
▁restrained	-11.7495
▁mag	-11.7496
▁romanian	-11.7496
▁downfall	-11.7496
▁horny	-11.7498
▁swept	-11.75
▁ripoff	-11.75
▁paulie	-11.7502
▁unnatural	-11.7503
▁wider	-11.7503
▁kris	-11.7503
▁lighter	-11.7503
▁funding	-11.7504
▁cannes	-11.7509
▁avoiding	-11.7512
▁disguised	-11.7512
▁israeli	-11.7512
▁coma	-11.7515
▁mentions	-11.752
????	-11.753
ade	-11.7531
▁rang	-11.7532
▁freaking	-11.7533
▁mud	-11.7536
▁tactics	-11.7537
everyone	-11.7539
ston	-11.7546
▁pr	-11.7551
▁queens	-11.7553
▁token	-11.7555
▁likeable	-11.7557
lit	-11.7565
▁possess	-11.7565
▁transport	-11.7565
▁render	-11.7567
▁establish	-11.7569
▁geek	-11.7569
▁bombing	-11.757
▁shi	-11.7573
▁pounds	-11.7573
▁shove	-11.7573
▁programs	-11.7576
▁despise	-11.7581
▁schedule	-11.7581
▁informed	-11.7583
▁chill	-11.7584
▁convenient	-11.7584
anna	-11.7588
▁stella	-11.7592
▁loop	-11.7593
▁horizon	-11.7593
▁inexplicable	-11.7593
▁pedestrian	-11.7593
▁physics	-11.7593
▁paltrow	-11.7594
▁basinger	-11.7594
▁dubious	-11.7594
▁kurtz	-11.7595
▁exploding	-11.7596
▁shepherd	-11.7596
▁grandma	-11.7596
▁(!)	-11.7596
▁firing	-11.7597
▁stray	-11.7597
▁nations	-11.7598
▁depardieu	-11.7599
▁/>10/10	-11.76
▁kansas	-11.7601
▁sf	-11.7601
▁randolph	-11.7602
▁approaches	-11.7604
▁cloud	-11.7607
▁freaky	-11.7607
▁amitabh	-11.7608
▁realities	-11.761
▁debt	-11.7611
▁phillip	-11.7611
▁session	-11.7612
▁immigrant	-11.7612
▁tremendously	-11.7615
▁dish	-11.7616
ong	-11.7616
▁iconic	-11.7617
▁nope	-11.7624
▁frat	-11.7625
hal	-11.7625
rio	-11.7632
▁defie	-11.7641
▁politicians	-11.7644
▁cheaply	-11.7652
▁aboard	-11.7655
▁verge	-11.7656
▁3)	-11.766
▁hippies	-11.766
▁locals	-11.7662
▁firstly	-11.7663
▁file	-11.7664
▁blackmail	-11.7671
▁hans	-11.7674
▁indiana	-11.768
▁nod	-11.7681
▁mount	-11.7685
▁russians	-11.7687
▁accepting	-11.7689
▁stink	-11.769
▁horn	-11.7694
▁aztec	-11.7696
▁creek	-11.7696
▁havoc	-11.7696
▁herzog	-11.7696
▁almighty	-11.7696
▁hesitate	-11.7696
▁adrian	-11.7696
▁pepper	-11.7696
▁garage	-11.7696
▁manipulation	-11.7696
▁dixon	-11.7696
▁ti	-11.7696
▁melville	-11.7696
▁diaz	-11.7696
▁lupino	-11.7696
▁depths	-11.7697
▁youthful	-11.7697
▁overblown	-11.7698
▁studied	-11.7698
▁daylight	-11.7701
▁outdated	-11.7701
▁posing	-11.7701
▁1978	-11.7701
▁slimy	-11.7702
▁realistically	-11.7703
▁alarm	-11.7703
▁freeze	-11.7704
▁pound	-11.7706
▁cobb	-11.7709
▁bennett	-11.7709
▁realization	-11.771
▁pub	-11.7712
▁dolph	-11.7715
▁brat	-11.7717
▁carson	-11.7718
▁corporation	-11.7719
▁sant	-11.7719
▁bash	-11.772
▁sinking	-11.7722
▁pirates	-11.7722
▁anchor	-11.7727
▁lionel	-11.7732
▁educated	-11.7735
▁swearing	-11.7737
▁vignettes	-11.774
ridden	-11.7742
basically	-11.7742
ations	-11.7744
py	-11.7747
▁sane	-11.776
▁ski	-11.777
▁mari	-11.7771
▁claus	-11.7774
ory	-11.7781
▁sparks	-11.7781
lim	-11.7783
▁poe	-11.7785
▁compensate	-11.7786
▁participate	-11.7786
▁acknowledge	-11.7788
▁legitimate	-11.7789
▁delicious	-11.7789
none	-11.779
▁tax	-11.7792
▁observation	-11.7794
▁orchestra	-11.7794
chris	-11.7797
aki	-11.7797
▁afghanistan	-11.7799
▁atlantis	-11.7799
▁choosing	-11.7799
▁flimsy	-11.7799
▁mutual	-11.7799
▁persuade	-11.7799
▁unwilling	-11.7799
▁shelter	-11.7799
▁perverse	-11.7799
▁unconventional	-11.7799
▁motor	-11.78
▁stardom	-11.7801
▁harrowing	-11.7801
▁phase	-11.7801
▁:-)	-11.7802
▁meandering	-11.7802
▁ladder	-11.7802
▁partners	-11.7802
▁cheat	-11.7805
▁filthy	-11.7807
▁published	-11.7809
▁profile	-11.7809
▁pursued	-11.7817
▁bend	-11.782
▁wwe	-11.782
▁invention	-11.782
▁cigarette	-11.7821
▁neatly	-11.7823
iff	-11.7823
▁incidentally	-11.7824
▁indifferent	-11.7826
▁detectives	-11.7836
special	-11.7837
scenes	-11.784
▁screenwriters	-11.7841
▁users	-11.7842
▁sleeper	-11.7846
definitely	-11.7846
▁seedy	-11.7847
whatever	-11.7848
obviously	-11.7849
thin	-11.7849
▁rescued	-11.7852
▁longing	-11.7858
wow	-11.786
▁baron	-11.7861
▁prepar	-11.7872
aside	-11.788
▁affects	-11.7882
▁emphasize	-11.7895
▁korea	-11.79
▁architect	-11.7903
esquire	-11.7903
▁rourke	-11.7903
▁vintage	-11.7903
▁warehouse	-11.7903
▁bacall	-11.7903
▁graveyard	-11.7903
▁collins	-11.7903
▁pornography	-11.7903
▁nauseating	-11.7903
▁ebert	-11.7903
▁1989	-11.7904
▁portman	-11.7905
nice	-11.7906
▁segal	-11.7908
▁stalking	-11.7911
▁campus	-11.7912
▁flock	-11.7916
▁warrant	-11.7916
characterisation	-11.7916
▁growth	-11.7917
▁elder	-11.7918
▁mobile	-11.7918
▁incorrect	-11.7918
▁dumped	-11.7919
▁threatened	-11.792
free	-11.7925
▁dev	-11.7925
▁defeated	-11.7925
▁antagonist	-11.7926
▁convention	-11.7927
▁monologue	-11.7928
▁muscle	-11.7929
city	-11.793
▁kidnap	-11.7933
ett	-11.7934
▁carla	-11.7935
▁comparisons	-11.7938
▁hk	-11.7938
▁rub	-11.7941
▁embarrassingly	-11.7942
five	-11.795
▁endings	-11.7953
▁whit	-11.7953
noir	-11.7953
spirited	-11.7953
files	-11.7953
▁peters	-11.7959
joe	-11.796
▁seeming	-11.7961
▁bikini	-11.7964
▁approached	-11.797
▁crashing	-11.7976
▁dar	-11.7985
▁classy	-11.7987
nal	-11.799
▁everett	-11.7991
▁brazil	-11.7994
try	-11.7996
▁marc	-11.7997
ite	-11.7998
▁chop	-11.7999
▁resolve	-11.8001
▁(?)	-11.8003
▁pairing	-11.8003
▁plotting	-11.8006
▁bachelor	-11.8008
▁implied	-11.8008
▁merchant	-11.8008
▁psychologist	-11.8008
▁incapable	-11.8008
▁tolerance	-11.8008
▁wheelchair	-11.8008
▁begging	-11.8008
▁alvin	-11.8009
▁hogan	-11.8009
▁unsure	-11.8011
▁shotgun	-11.8011
▁daffy	-11.8011
▁satisfaction	-11.8011
▁glamorous	-11.8011
taking	-11.8012
▁arquette	-11.8012
▁novelty	-11.8013
▁advertised	-11.8014
ella	-11.8016
▁goals	-11.8017
▁popping	-11.8024
▁corey	-11.8032
sci	-11.8033
▁suitabl	-11.8035
▁composition	-11.8036
▁damaged	-11.804
▁trivia	-11.8041
▁nicolas	-11.8042
▁interests	-11.8045
▁factual	-11.8048
▁incidents	-11.8053
▁wisely	-11.8055
fiction	-11.8056
▁smiles	-11.8057
▁75	-11.8065
▁reviewed	-11.8076
▁fuel	-11.8086
▁ugh	-11.809
▁95	-11.809
▁chore	-11.8091
▁domino	-11.8093
▁judged	-11.8093
ile	-11.8101
bs	-11.8104
▁thumb	-11.8106
▁198	-11.8111
▁arguing	-11.8114
▁experiencing	-11.8114
▁gigantic	-11.8114
▁improbable	-11.8114
▁macabre	-11.8114
▁nolte	-11.8114
▁tendency	-11.8114
▁travis	-11.8114
▁stabbed	-11.8115
▁granger	-11.8115
▁relevance	-11.8115
▁accessible	-11.8115
▁lizard	-11.8115
▁pokemon	-11.8115
▁unfamiliar	-11.8115
▁flowers	-11.8115
▁underwear	-11.8115
▁skinny	-11.8115
▁weaver	-11.8116
▁cries	-11.8116
▁possesses	-11.8116
▁zane	-11.8117
▁gamera	-11.8119
▁billing	-11.8119
▁celebrate	-11.812
▁blob	-11.8124
▁gein	-11.8126
▁dumbest	-11.8126
▁smash	-11.8127
▁payoff	-11.8127
fight	-11.8129
▁associate	-11.8131
▁reject	-11.8133
▁crow	-11.8137
brien	-11.8138
▁confronted	-11.814
▁aiming	-11.8141
dog	-11.8151
▁safely	-11.8151
ically	-11.8154
▁candle	-11.8155
▁sour	-11.8158
▁pee	-11.8159
final	-11.8159
▁regularly	-11.8161
▁fer	-11.8162
poor	-11.8162
▁mold	-11.8164
adventure	-11.8165
▁weaker	-11.8166
three	-11.8167
▁rider	-11.8168
▁parallels	-11.8168
▁babes	-11.8175
mad	-11.8177
▁ivan	-11.8183
fan	-11.8193
midst	-11.8196
▁blamed	-11.8198
ria	-11.8202
▁windows	-11.8205
▁uniforms	-11.8209
▁extensive	-11.8213
▁relentless	-11.8213
half	-11.8215
▁strengths	-11.822
▁staple	-11.8222
▁meteor	-11.8222
▁regime	-11.8222
▁dazzling	-11.8222
▁redundant	-11.8222
▁inclusion	-11.8222
▁kurosawa	-11.8222
▁mediocrity	-11.8222
▁niven	-11.8222
▁phoenix	-11.8222
▁scorsese	-11.8222
▁undeniably	-11.8222
▁understatement	-11.8222
▁horrified	-11.8222
▁dietrich	-11.8222
▁admission	-11.8222
▁fritz	-11.8222
eg	-11.8223
▁estranged	-11.8223
▁vibe	-11.8223
▁1998	-11.8223
space	-11.8224
▁1994	-11.8224
▁redford	-11.8224
▁malkovich	-11.8224
▁mitch	-11.8224
▁lester	-11.8225
▁christianity	-11.8225
▁spoon	-11.8228
▁porter	-11.8229
▁te	-11.8231
▁isabelle	-11.8231
▁stylized	-11.8231
▁teams	-11.8231
▁conveniently	-11.8232
▁distracted	-11.8232
▁lil	-11.8233
▁rewarded	-11.8234
▁divided	-11.8236
wall	-11.824
▁lena	-11.8241
▁demonstrate	-11.8244
▁croc	-11.8245
▁complications	-11.8245
▁sly	-11.8249
▁organization	-11.8252
▁suspicion	-11.8254
▁employee	-11.8254
▁mul	-11.8254
▁characteristics	-11.8256
▁ps	-11.8258
▁skilled	-11.8259
▁seasoned	-11.8262
▁cartoonish	-11.8263
tech	-11.8268
▁praised	-11.8271
▁convinces	-11.8277
▁flip	-11.8279
▁janet	-11.8279
ches	-11.8279
▁riddle	-11.8281
▁colleagues	-11.8284
true	-11.8286
▁cultures	-11.8289
▁lynn	-11.829
▁richards	-11.8295
ang	-11.8298
▁tr	-11.8301
▁interpret	-11.8311
▁lau	-11.8314
▁exploits	-11.8317
full	-11.8317
▁bleed	-11.8319
▁yu	-11.8319
▁reverse	-11.832
▁anton	-11.8326
▁pose	-11.8328
▁smug	-11.833
firmly	-11.833
▁republic	-11.833
▁chamber	-11.8331
▁cerebral	-11.8331
▁rhett	-11.8331
▁ritchie	-11.8331
▁aftermath	-11.8331
▁harvest	-11.8331
▁whining	-11.8331
▁/>8/10	-11.8331
▁tokyo	-11.8331
▁bloke	-11.8331
▁senator	-11.8331
▁jolie	-11.8331
▁terminal	-11.8331
▁1987	-11.8331
▁replacement	-11.8331
▁1959	-11.8331
▁sought	-11.8332
▁alison	-11.8332
▁schneider	-11.8333
▁werewolves	-11.8333
▁crippled	-11.8335
▁norton	-11.8335
▁shelley	-11.8336
▁canyon	-11.8337
▁miranda	-11.8337
▁chow	-11.8337
▁rory	-11.8338
▁update	-11.8339
▁crooked	-11.8339
ft	-11.8341
▁sweeping	-11.8342
lain	-11.8343
▁sheep	-11.8346
cra	-11.8349
▁gestures	-11.835
mart	-11.835
▁seduce	-11.8351
▁explode	-11.8352
▁kent	-11.8352
▁scenarios	-11.8355
▁bitten	-11.8356
▁yell	-11.8356
▁insights	-11.8357
bound	-11.8358
cur	-11.836
▁variation	-11.8365
▁sync	-11.8368
ot	-11.837
▁spelling	-11.837
give	-11.8373
ane	-11.8381
ology	-11.8381
cus	-11.8384
▁lon	-11.8384
burn	-11.8387
▁chronicles	-11.8388
quality	-11.8392
▁evan	-11.8393
▁intensely	-11.8395
lia	-11.8395
▁midst	-11.8396
▁rot	-11.8399
▁slot	-11.8403
level	-11.8411
▁uncover	-11.8413
▁joyce	-11.8416
rick	-11.8418
▁28	-11.8419
▁slam	-11.8422
▁cher	-11.8425
▁grin	-11.8428
▁expand	-11.8431
▁aggressive	-11.8438
▁questioning	-11.8438
▁villa	-11.844
▁abomination	-11.8441
▁applied	-11.8441
▁fragile	-11.8441
▁pizza	-11.8441
▁plodding	-11.8441
▁lansbury	-11.8441
▁parrot	-11.8441
▁sterling	-11.8441
▁repair	-11.8441
▁unsympathetic	-11.8441
▁feeble	-11.8441
▁hawn	-11.8441
▁theories	-11.8442
▁recover	-11.8442
▁franklin	-11.8443
▁agony	-11.8444
▁believability	-11.8445
▁sabrina	-11.8445
▁luis	-11.8445
▁kermit	-11.8446
▁distract	-11.8447
▁offbeat	-11.8449
▁lois	-11.8451
▁preacher	-11.8451
music	-11.8452
▁letdown	-11.8453
▁tower	-11.8454
▁dashing	-11.8456
▁messing	-11.8457
▁wil	-11.846
▁chucky	-11.8461
****	-11.8463
▁poses	-11.8466
▁laws	-11.8467
▁finishing	-11.8471
▁newer	-11.8471
▁fuss	-11.8472
▁conveyed	-11.8473
ical	-11.8475
offs	-11.8475
▁revolve	-11.8475
▁ensue	-11.8478
▁pocket	-11.8482
same	-11.8495
▁rightly	-11.8495
remember	-11.8498
▁slide	-11.8504
▁shameless	-11.8504
▁decid	-11.8519
▁transferr	-11.8533
▁cape	-11.8535
▁locke	-11.8538
▁amaze	-11.8539
▁imitate	-11.8539
▁hears	-11.8539
▁boarding	-11.8542
▁verbal	-11.8542
▁dodge	-11.8545
▁abstract	-11.8549
eric	-11.8551
▁frantic	-11.8551
▁marx	-11.8552
▁mermaid	-11.8552
▁othello	-11.8552
▁parodies	-11.8552
▁sleeve	-11.8552
▁arriving	-11.8552
▁whiny	-11.8552
▁puppy	-11.8552
▁maximum	-11.8552
▁morph	-11.8552
▁unattractive	-11.8552
▁rodney	-11.8552
▁sweden	-11.8552
▁1974	-11.8553
▁peril	-11.8553
▁protection	-11.8554
▁subway	-11.8555
▁antonioni	-11.8555
▁determination	-11.8555
▁dante	-11.8556
▁sissy	-11.8556
▁sensual	-11.8557
▁vanity	-11.8558
▁300	-11.8558
▁boone	-11.8559
▁gandhi	-11.856
▁omen	-11.856
▁joanna	-11.8561
▁absorbing	-11.8561
▁vanessa	-11.8562
▁stern	-11.8562
▁monica	-11.8563
▁otto	-11.8565
▁whip	-11.8565
▁organized	-11.8565
▁lola	-11.857
▁mon	-11.8572
▁promoted	-11.8573
▁subsequently	-11.8573
wan	-11.8574
▁meantime	-11.8578
▁generate	-11.8579
▁btw	-11.8582
▁abbott	-11.8582
▁offend	-11.8583
▁laser	-11.8583
▁replay	-11.8586
▁bastard	-11.8589
len	-11.859
▁clerk	-11.859
▁redneck	-11.8591
▁reports	-11.8592
▁newcomer	-11.8594
▁tenant	-11.8595
▁encountered	-11.8596
▁elliott	-11.8604
▁wu	-11.8605
cle	-11.8606
numbing	-11.8607
▁comeback	-11.8607
christopher	-11.8607
▁*1/2	-11.8608
smith	-11.8608
sometimes	-11.8608
jones	-11.8609
▁suspected	-11.862
genre	-11.8621
▁judgement	-11.8621
vy	-11.8627
▁joint	-11.8632
▁valid	-11.864
ided	-11.8642
breaking	-11.8644
▁locate	-11.8651
▁neglect	-11.8653
▁inherit	-11.8654
▁heels	-11.8655
11	-11.8662
▁excess	-11.8662
▁chip	-11.8663
▁bakshi	-11.8664
▁ordeal	-11.8664
▁pompous	-11.8664
▁nutshell	-11.8664
▁kahn	-11.8664
▁40'	-11.8664
▁rugby	-11.8664
▁pbs	-11.8665
▁1945	-11.8665
▁coburn	-11.8665
▁patty	-11.8665
▁artistry	-11.8666
▁sniper	-11.8667
▁boogie	-11.867
▁casper	-11.8672
tim	-11.8672
▁wtf	-11.8678
▁clarke	-11.868
▁raging	-11.8681
▁establishing	-11.8683
▁swinging	-11.8687
▁engine	-11.8688
roo	-11.8688
▁farley	-11.8691
▁feeding	-11.8699
▁arty	-11.8699
▁stud	-11.87
▁remembering	-11.87
cons	-11.8704
▁dwarf	-11.8704
▁viewpoint	-11.8707
▁collector	-11.8709
▁goof	-11.8711
witted	-11.8713
▁shootout	-11.8714
ified	-11.8719
death	-11.8721
▁critters	-11.8725
▁leaders	-11.8731
▁principals	-11.8736
▁item	-11.8738
yo	-11.8741
del	-11.8744
▁sensation	-11.8745
▁que	-11.8746
▁polar	-11.8747
▁interior	-11.8748
tan	-11.875
▁tickets	-11.8755
beat	-11.8757
water	-11.8765
their	-11.8765
▁grabbe	-11.8766
▁log	-11.8766
▁graves	-11.8768
▁immense	-11.8768
▁collective	-11.8769
▁literal	-11.8772
bin	-11.8773
sex	-11.8774
▁insomnia	-11.8776
▁manipulate	-11.8777
▁detroit	-11.8778
▁sebastian	-11.8778
▁vigilante	-11.8778
▁battling	-11.8778
▁mclaglen	-11.8778
▁regain	-11.8778
▁kinski	-11.8778
▁lucille	-11.8778
▁madison	-11.8778
▁nathan	-11.8779
▁furniture	-11.8779
▁battlefield	-11.878
▁lightning	-11.878
▁repressed	-11.878
▁emmy	-11.878
▁runaway	-11.878
▁phoebe	-11.8781
▁auteur	-11.8781
▁nest	-11.8784
▁alicia	-11.8785
iv	-11.8785
▁vehicles	-11.8785
▁promptly	-11.8786
qua	-11.8791
▁tormented	-11.8791
▁assist	-11.8794
▁eagerly	-11.8794
dom	-11.8795
▁rack	-11.8795
▁updated	-11.8796
▁routines	-11.8796
*1/2	-11.8797
▁masterfully	-11.8797
▁lighthearted	-11.8798
bell	-11.88
▁sack	-11.8801
▁accepts	-11.8804
whe	-11.8805
▁wholesome	-11.8815
▁cock	-11.8815
▁dragons	-11.8817
▁stages	-11.8817
▁interviewed	-11.8821
▁request	-11.8821
▁rapist	-11.8822
▁paints	-11.8826
▁scored	-11.8828
perfect	-11.8836
around	-11.884
ius	-11.8845
▁gar	-11.8849
save	-11.885
▁bart	-11.8854
▁biting	-11.8857
stein	-11.886
▁stoned	-11.8862
▁ki	-11.8867
▁landed	-11.8872
▁patriot	-11.8873
▁surrender	-11.8882
▁experts	-11.8883
▁peaceful	-11.8884
▁bias	-11.8889
▁balloon	-11.8893
▁rookie	-11.8893
▁sergio	-11.8893
▁shanghai	-11.8893
▁vaughn	-11.8893
▁crosby	-11.8893
▁poirot	-11.8893
▁graduation	-11.8893
▁bittersweet	-11.8893
▁taut	-11.8893
▁replies	-11.8893
▁scarier	-11.8893
▁void	-11.8893
▁roam	-11.8893
▁slapped	-11.8893
▁groundbreaking	-11.8893
▁surgeon	-11.8893
▁instructor	-11.8893
▁sentimentality	-11.8894
▁guardian	-11.8894
▁fuzzy	-11.8894
▁sanity	-11.8895
▁captivated	-11.8896
▁sharon	-11.8897
▁vance	-11.8897
▁contestants	-11.8898
▁exclusively	-11.8898
lew	-11.89
fa	-11.8902
▁hawke	-11.8903
ros	-11.8903
▁pilots	-11.8903
▁sw	-11.8904
young	-11.8905
▁refus	-11.8906
▁respond	-11.8911
▁vividly	-11.8912
▁springer	-11.8912
▁summe	-11.8913
▁baddies	-11.8915
▁rebels	-11.8916
▁hysterically	-11.8917
eb	-11.8918
str	-11.8921
goers	-11.8936
▁charms	-11.8944
▁dove	-11.895
through	-11.8951
▁joker	-11.8951
▁hy	-11.8952
▁lu	-11.8952
▁gaps	-11.8953
▁jude	-11.8957
nor	-11.8958
▁shocker	-11.8961
▁bum	-11.8962
ns	-11.8964
▁mysteriously	-11.8969
▁goodman	-11.897
▁crossed	-11.8978
gr	-11.8982
ock	-11.8984
▁plants	-11.8984
▁apple	-11.8985
▁dern	-11.8989
od	-11.899
▁howling	-11.8996
▁cliched	-11.8996
▁orphan	-11.8998
▁lecture	-11.9004
▁substitute	-11.9006
▁covering	-11.9006
▁boobs	-11.9006
▁deliberate	-11.9007
▁fetish	-11.9007
▁carnival	-11.9009
▁ceiling	-11.9009
▁cronenberg	-11.9009
▁dahmer	-11.9009
▁ghastly	-11.9009
▁releasing	-11.9009
▁lorre	-11.9009
▁decay	-11.9009
▁enigmatic	-11.9009
▁sundance	-11.9009
▁darling	-11.9009
▁email	-11.901
▁intact	-11.901
▁portuguese	-11.9011
▁eisenstein	-11.9011
▁lombard	-11.9011
▁offense	-11.9012
▁salesman	-11.9014
▁atomic	-11.9016
▁statements	-11.9018
▁frames	-11.9022
▁economic	-11.9023
▁apt	-11.9024
▁robertson	-11.9026
▁/>4.	-11.9029
wick	-11.903
▁/>3/10	-11.903
▁sells	-11.9031
▁dock	-11.9032
▁males	-11.9032
▁theatres	-11.9033
▁mirrors	-11.9034
▁vol	-11.9037
▁settled	-11.9037
▁stereotyped	-11.9038
▁conscious	-11.904
▁mouths	-11.904
▁benny	-11.9043
yr	-11.9044
▁tightly	-11.9049
▁30'	-11.905
▁hercules	-11.9052
▁graduate	-11.9052
▁outcast	-11.9053
power	-11.9054
▁triple	-11.9059
▁colleague	-11.9059
▁toni	-11.9064
mu	-11.9064
flick	-11.907
girlfriend	-11.907
actor	-11.9075
bert	-11.9079
glo	-11.9083
▁joining	-11.9095
▁sorrow	-11.9097
amato	-11.9099
▁directions	-11.9101
▁arguments	-11.9101
▁distress	-11.9102
▁clouds	-11.9104
▁playful	-11.9107
▁tolerate	-11.9114
▁declare	-11.9114
sam	-11.9115
▁swift	-11.9117
▁bounce	-11.9119
▁admiration	-11.9127
▁denouement	-11.9127
▁lopez	-11.9127
▁monotonous	-11.9127
▁recipe	-11.9127
▁slept	-11.9127
▁spontaneous	-11.9127
▁turmoil	-11.9127
▁injury	-11.9127
▁lundgren	-11.9127
▁essay	-11.9127
▁hurry	-11.9127
▁miami	-11.9127
▁nanny	-11.9127
▁grier	-11.9127
▁psychedelic	-11.9127
▁boots	-11.9128
▁paycheck	-11.9128
▁noteworthy	-11.9128
▁dandy	-11.9128
quin	-11.9128
▁1991	-11.9128
▁bunuel	-11.9129
▁sketches	-11.9129
▁desk	-11.9129
▁nonexistent	-11.913
▁rebecca	-11.913
▁timberlake	-11.913
word	-11.9131
▁fontaine	-11.9131
▁dramatically	-11.9132
▁sophie	-11.9132
▁chemical	-11.9132
▁melissa	-11.9133
▁posey	-11.9133
▁wendy	-11.9133
▁loan	-11.9134
▁dismiss	-11.9135
▁acquired	-11.9136
▁lurking	-11.9137
▁betrayed	-11.914
▁wonderland	-11.9141
▁patriotic	-11.9146
▁faded	-11.9147
▁severed	-11.9153
▁secure	-11.9153
▁expertly	-11.9156
▁rag	-11.9156
▁gathering	-11.9157
▁affecting	-11.9157
▁grounds	-11.9159
▁stable	-11.916
▁stupidest	-11.9162
lam	-11.9164
▁daytime	-11.9167
▁starters	-11.9167
tal	-11.9167
ery	-11.9176
▁bubble	-11.9177
▁chew	-11.9184
▁unusually	-11.9185
camera	-11.9189
▁lad	-11.9189
killer	-11.92
▁rolls	-11.9205
boat	-11.9211
▁pans	-11.9216
ification	-11.9218
ken	-11.9219
▁flows	-11.9222
itz	-11.9223
▁immigrants	-11.9223
▁enlist	-11.9235
▁fires	-11.9236
ero	-11.9238
bing	-11.9243
▁stereo	-11.9245
▁precede	-11.9245
▁coyote	-11.9246
▁dungeon	-11.9246
▁marvellous	-11.9246
▁seinfeld	-11.9246
▁monkees	-11.9246
▁salvation	-11.9246
▁murky	-11.9246
▁rogue	-11.9246
▁lumet	-11.9246
▁kilmer	-11.9246
▁quasi	-11.9246
▁georgia	-11.9246
▁bodyguard	-11.9246
▁hooper	-11.9247
▁lonesome	-11.9247
▁wayans	-11.925
▁jurassi	-11.9251
▁noticeable	-11.9252
ching	-11.9252
▁marlon	-11.9253
▁reserved	-11.9253
▁assembled	-11.9253
▁goldie	-11.9254
▁nuanced	-11.9254
▁exploited	-11.9259
▁photographs	-11.9263
say	-11.9263
▁slaves	-11.9271
▁discussed	-11.9271
▁reflected	-11.9273
▁trains	-11.9273
▁lange	-11.9273
▁resulted	-11.9273
▁dash	-11.9273
pat	-11.9275
▁shifts	-11.9278
had	-11.9278
▁reno	-11.928
▁lucio	-11.928
▁bait	-11.9283
▁admired	-11.9285
▁stuffed	-11.9289
▁indicate	-11.929
▁sleepy	-11.929
▁thug	-11.9291
ied	-11.9291
▁insults	-11.9292
▁cad	-11.9299
▁parking	-11.9301
12	-11.9308
meanwhile	-11.931
▁hyped	-11.9311
▁steele	-11.9312
▁arrow	-11.9312
▁marines	-11.9313
▁stake	-11.9315
▁excellently	-11.9315
▁rounded	-11.9317
each	-11.9319
▁packs	-11.9321
cia	-11.9324
▁vet	-11.9332
▁rejects	-11.9332
▁lt	-11.9335
fans	-11.9339
pin	-11.9342
▁relat	-11.9344
-19	-11.9347
▁boyer	-11.9348
▁revolt	-11.9349
▁substantial	-11.9357
mill	-11.9365
▁railroad	-11.9366
▁inclined	-11.9366
▁shannon	-11.9366
▁enchanting	-11.9366
▁doyle	-11.9366
▁mythology	-11.9366
▁vault	-11.9366
▁entries	-11.9366
▁cocaine	-11.9366
▁garland	-11.9366
▁sunset	-11.9367
▁rouge	-11.9367
▁clunky	-11.9367
▁costner	-11.9368
▁sassy	-11.9368
▁waist	-11.9368
▁torch	-11.9368
▁chaney	-11.9368
▁gloomy	-11.9368
▁spies	-11.9368
▁zoey	-11.9369
▁association	-11.9369
▁fiend	-11.9369
anti	-11.9369
▁midget	-11.9369
brow	-11.9369
▁hackman	-11.937
▁interrupted	-11.9371
▁magician	-11.9371
▁cody	-11.9372
▁fanatic	-11.9372
coat	-11.9373
▁diary	-11.9374
▁raines	-11.9374
▁neglected	-11.9378
jim	-11.9385
lots	-11.9386
▁heath	-11.9389
▁robbers	-11.939
▁smarter	-11.9396
ering	-11.9396
▁herbert	-11.94
▁observe	-11.9404
▁circles	-11.9405
▁respects	-11.9407
▁si	-11.9408
▁defy	-11.941
▁weep	-11.941
▁benefits	-11.9411
roll	-11.9411
▁fills	-11.9413
▁sap	-11.9414
▁flames	-11.9419
▁convict	-11.9421
▁gra	-11.9422
hole	-11.9425
▁giggle	-11.9426
▁origins	-11.9428
▁camping	-11.9435
▁pegg	-11.9436
stick	-11.9437
▁wee	-11.9438
▁jose	-11.9443
▁veterans	-11.9446
lyn	-11.9458
▁satanic	-11.9458
loud	-11.9462
▁ab	-11.9472
▁barber	-11.9476
▁whine	-11.9477
▁select	-11.9477
▁dealers	-11.9478
▁sources	-11.9478
pan	-11.9479
▁determine	-11.948
ai	-11.9485
▁chaotic	-11.9488
▁oblivious	-11.9488
▁streak	-11.9488
▁sincerity	-11.9488
▁kinnear	-11.9488
▁fraud	-11.9488
▁foremost	-11.9488
▁ebay	-11.9488
▁captive	-11.9488
▁enduring	-11.9488
▁jules	-11.9488
▁compound	-11.9489
▁carnage	-11.9489
▁owl	-11.9489
▁knightley	-11.9489
▁ninety	-11.9489
▁popped	-11.9489
▁underdeveloped	-11.949
▁unclear	-11.949
▁feminine	-11.949
turned	-11.9491
▁2008	-11.9491
▁nuances	-11.9491
▁shuttle	-11.9493
▁85	-11.9495
▁predictably	-11.9495
▁overboard	-11.95
▁awakening	-11.9503
▁squeeze	-11.9503
▁buffy	-11.9504
▁scratching	-11.9512
▁gina	-11.9515
▁climbing	-11.9518
▁shemp	-11.952
▁intend	-11.9524
▁tara	-11.9532
▁employ	-11.9534
▁slob	-11.9536
▁recruit	-11.9538
▁pu	-11.9542
▁hardest	-11.9543
boring	-11.9545
▁wrestler	-11.9549
▁vo	-11.9552
▁switche	-11.9552
▁politician	-11.9554
▁glimpses	-11.9555
sigh	-11.9555
▁sur	-11.9556
aid	-11.9556
▁enable	-11.9557
▁profit	-11.956
▁mae	-11.9561
▁witnessing	-11.9562
▁customers	-11.9564
▁illusion	-11.9565
▁seats	-11.9565
▁astronaut	-11.9569
▁sentences	-11.9572
▁fetched	-11.9576
live	-11.9578
▁/>**	-11.9581
▁travell	-11.9582
▁bass	-11.9583
alan	-11.9585
▁sting	-11.9586
nu	-11.9589
▁shrink	-11.9594
▁eliminate	-11.9599
▁recreate	-11.9599
▁pervert	-11.9601
▁prompt	-11.9602
▁reads	-11.9605
▁slack	-11.9608
▁den	-11.9608
force	-11.961
▁brynner	-11.9611
▁liberty	-11.9611
▁misunderstood	-11.9611
▁unanswered	-11.9611
▁consequently	-11.9611
▁varied	-11.9612
▁nifty	-11.9612
▁carrot	-11.9612
▁witchcraft	-11.9612
▁stir	-11.9612
▁temptation	-11.9612
▁darren	-11.9612
▁distinctive	-11.9612
▁resistance	-11.9612
▁honey	-11.9612
▁ramones	-11.9613
▁pickford	-11.9613
▁dodgy	-11.9613
▁ads	-11.9614
▁tipp	-11.9614
▁chef	-11.9614
▁brendan	-11.9614
▁fodder	-11.9615
▁inaccuracies	-11.9616
▁za	-11.9616
▁corbett	-11.9617
▁reid	-11.9617
▁staging	-11.9617
▁pamela	-11.9618
▁strung	-11.962
▁gates	-11.9622
▁deliciously	-11.9623
▁preaching	-11.9624
▁ricky	-11.9627
▁debra	-11.9627
ien	-11.9629
▁rendering	-11.9632
▁spinal	-11.9635
early	-11.9636
▁brett	-11.9642
▁frontal	-11.9642
▁outing	-11.9648
ub	-11.9649
ack	-11.965
▁wartime	-11.9651
▁evokes	-11.9653
lic	-11.9656
▁sgt	-11.9658
▁achieves	-11.9662
▁increase	-11.9663
▁hunted	-11.9669
office	-11.967
▁marathon	-11.9671
▁client	-11.9676
▁hateful	-11.9678
▁apologize	-11.9679
pretty	-11.968
▁dive	-11.9682
200	-11.9684
▁drum	-11.9688
▁reviewing	-11.9689
▁iran	-11.9689
▁followers	-11.9692
pu	-11.9692
▁cells	-11.9693
▁plug	-11.9693
▁ger	-11.97
tte	-11.9707
port	-11.9709
▁ignor	-11.9715
▁existing	-11.9716
▁drain	-11.9717
▁barn	-11.9719
▁entrance	-11.9724
ec	-11.9725
▁bava	-11.9733
▁avenge	-11.9734
▁romania	-11.9735
▁complement	-11.9736
▁inadvertent	-11.9736
▁capacity	-11.9736
▁excellence	-11.9736
▁facility	-11.9736
▁gravity	-11.9736
▁gulliver	-11.9736
▁inconsistencies	-11.9736
▁kaufman	-11.9736
▁uncanny	-11.9736
▁woven	-11.9736
▁array	-11.9737
▁thurman	-11.9737
▁rousing	-11.9737
▁kingsley	-11.9737
▁grease	-11.9737
▁renaissance	-11.9737
▁courtroom	-11.9737
▁elicit	-11.9737
▁burke	-11.9737
▁liu	-11.9739
▁bondage	-11.9739
▁thirties	-11.9741
▁overweight	-11.9742
▁stalked	-11.9742
▁hunk	-11.9744
▁verdict	-11.9744
▁clara	-11.9744
▁spotlight	-11.9744
▁197	-11.9748
▁establishment	-11.975
▁invested	-11.975
▁fascist	-11.9751
▁maintains	-11.9753
▁consciousness	-11.9753
eur	-11.976
▁wherever	-11.9761
▁crosses	-11.9761
▁abroad	-11.9763
▁complained	-11.9765
▁breathe	-11.9768
▁pow	-11.9769
▁wak	-11.9774
▁rounds	-11.9776
gore	-11.978
alien	-11.9784
▁gee	-11.9786
▁>	-11.9786
form	-11.9788
▁whoopi	-11.9791
▁tuned	-11.9794
▁denis	-11.98
▁forties	-11.98
▁reruns	-11.9803
▁mobster	-11.9806
▁breathing	-11.981
anyone	-11.981
▁flowing	-11.9811
▁employees	-11.9825
ev	-11.9833
▁sleeps	-11.9833
▁ze	-11.9844
▁temper	-11.985
cent	-11.9851
▁webb	-11.9853
working	-11.9861
▁gerald	-11.9863
▁attenborough	-11.9863
▁fishburne	-11.9863
▁identified	-11.9863
▁nielsen	-11.9863
▁obscurity	-11.9863
▁atrocity	-11.9863
▁framing	-11.9863
▁occult	-11.9863
▁incestuous	-11.9863
▁hostile	-11.9863
▁zeta	-11.9863
▁rudy	-11.9864
▁finney	-11.9864
▁mystical	-11.9864
▁bearable	-11.9867
▁godard	-11.9867
▁tailor	-11.9868
ob	-11.9868
▁stretches	-11.9869
▁distributed	-11.9872
gue	-11.9873
▁digging	-11.9873
▁nina	-11.9874
▁micheal	-11.9874
▁sammy	-11.9875
▁math	-11.988
script	-11.9881
▁heather	-11.9884
▁eater	-11.9886
▁cheering	-11.9888
▁bats	-11.989
▁bury	-11.9891
2)	-11.9893
▁wink	-11.9895
▁reform	-11.9897
▁bashing	-11.9898
▁eli	-11.9898
boo	-11.9898
▁attending	-11.9899
▁combs	-11.9905
▁gosh	-11.9917
▁protest	-11.992
▁uma	-11.9923
▁nap	-11.9925
▁senses	-11.9932
jane	-11.9933
▁manic	-11.9933
hn	-11.9933
▁bucket	-11.9934
better	-11.9935
▁superstar	-11.9937
▁alba	-11.9939
▁greene	-11.994
▁jew	-11.9942
whose	-11.9942
▁kat	-11.9952
▁assumes	-11.9953
▁/>1)	-11.9955
▁flame	-11.9958
ann	-11.9961
▁juice	-11.9965
▁rivals	-11.9965
mie	-11.997
▁zu	-11.9971
!).<	-11.9972
▁glow	-11.9976
▁toxic	-11.998
?!?	-11.9983
▁ponder	-11.9987
▁voiced	-11.9987
▁posse	-11.9989
▁ambiguity	-11.9991
▁applause	-11.9991
▁asterix	-11.9991
▁capote	-11.9991
▁demille	-11.9991
▁einstein	-11.9991
▁fugitive	-11.9991
▁influential	-11.9991
▁melancholy	-11.9991
▁melody	-11.9991
▁paranormal	-11.9991
▁tierney	-11.9991
▁representative	-11.9991
▁firth	-11.9992
▁alliance	-11.9992
▁lestat	-11.9992
▁193	-11.9993
▁cassie	-11.9993
▁espionage	-11.9994
▁octopus	-11.9995
▁optimistic	-11.9995
▁villainous	-11.9996
▁guinness	-11.9996
▁buttons	-11.9997
▁govinda	-11.9998
▁readily	-11.9999
▁momentum	-11.9999
▁penis	-11.9999
▁stargate	-12.0001
▁cain	-12.0001
plots	-12.0001
▁vivian	-12.0001
ual	-12.0001
▁inserted	-12.0001
▁dino	-12.0002
neill	-12.0003
▁mole	-12.0004
▁addressed	-12.0014
▁peek	-12.0014
▁outlaw	-12.0015
▁versa	-12.0015
▁progressed	-12.0015
enchant	-12.0016
▁ye	-12.0017
late	-12.0017
▁fable	-12.002
sized	-12.0028
▁forgetting	-12.0029
ula	-12.0033
kind	-12.0034
▁stab	-12.0035
▁sporting	-12.004
▁roughly	-12.0044
▁discipline	-12.0051
kar	-12.0054
▁executives	-12.0054
warning	-12.006
▁chin	-12.0061
happy	-12.0061
▁ariel	-12.0062
modern	-12.0064
charles	-12.0065
during	-12.0065
until	-12.0065
▁consequence	-12.0067
▁screened	-12.0076
▁anyhow	-12.0076
heart	-12.0079
▁cord	-12.0082
▁vega	-12.0084
▁ideals	-12.0085
▁brush	-12.0086
non	-12.0086
ties	-12.0087
▁2-	-12.009
▁vin	-12.0092
▁cos	-12.0094
▁weekly	-12.0096
nn	-12.0097
!!)	-12.0103
▁inform	-12.0103
▁churn	-12.0104
hoo	-12.0106
▁precise	-12.0112
▁alleged	-12.0112
▁comprise	-12.0117
vis	-12.0119
▁zi	-12.012
▁scandal	-12.0121
▁satellite	-12.0121
▁celebrities	-12.0121
▁dynamite	-12.0121
▁groove	-12.0121
▁liberties	-12.0121
▁rathbone	-12.0121
▁klein	-12.0121
▁policy	-12.0121
▁banana	-12.0121
▁programming	-12.0121
▁envy	-12.0121
▁flipping	-12.0121
▁genetic	-12.0122
▁edison	-12.0122
▁1985	-12.0122
▁investment	-12.0122
▁dustin	-12.0122
▁courageous	-12.0122
▁bless	-12.0122
▁1977	-12.0122
▁stating	-12.0123
▁hypnotic	-12.0124
trap	-12.0124
▁counting	-12.0124
▁retro	-12.0125
▁meredith	-12.0126
▁punchline	-12.0126
▁effortlessly	-12.0127
▁improvised	-12.0128
▁sirk	-12.0128
▁tide	-12.0129
▁awareness	-12.013
▁narrated	-12.0131
▁tri	-12.0132
▁anticipated	-12.0132
▁juliette	-12.0133
▁transported	-12.0135
▁fairness	-12.0137
▁nat	-12.0138
▁worms	-12.0139
▁herman	-12.0139
▁peers	-12.0141
▁upbeat	-12.0142
▁celebrated	-12.0144
▁roach	-12.015
▁dynamics	-12.015
lover	-12.0152
▁unfolding	-12.0152
▁gig	-12.0163
ure	-12.0166
▁coaster	-12.0172
▁proceed	-12.0172
turn	-12.0172
▁keeper	-12.0177
▁lam	-12.0181
▁fleshed	-12.0183
telling	-12.0185
heads	-12.0185
▁hug	-12.0186
ue	-12.0186
▁outset	-12.0191
▁scripting	-12.0193
▁shocks	-12.0194
▁scar	-12.0195
inducing	-12.0196
believe	-12.0197
jason	-12.0198
▁esp	-12.02
illa	-12.0201
var	-12.0203
mont	-12.0203
▁mod	-12.0204
▁differ	-12.0204
▁attic	-12.0206
▁article	-12.0207
▁judges	-12.0208
▁explodes	-12.0211
pper	-12.0221
▁products	-12.0222
mail	-12.0223
und	-12.0228
fun	-12.0229
▁insert	-12.023
▁youngsters	-12.0231
▁diamonds	-12.0232
▁melt	-12.0234
▁seal	-12.0235
▁construct	-12.0241
▁restore	-12.0244
▁mortal	-12.0248
▁marlow	-12.0248
▁burge	-12.0248
▁thirst	-12.0252
▁slut	-12.0253
▁centuries	-12.0253
▁deneuve	-12.0253
▁intersperse	-12.0253
▁nightmarish	-12.0253
▁norwegian	-12.0253
▁october	-12.0253
▁stadium	-12.0253
▁subdued	-12.0253
▁suicidal	-12.0253
▁unappealing	-12.0253
▁sensibility	-12.0253
▁vapid	-12.0253
▁merry	-12.0253
▁prostitution	-12.0253
▁snappy	-12.0253
ux	-12.0253
▁macdonald	-12.0253
▁looney	-12.0253
▁robbed	-12.0253
▁servants	-12.0253
▁sidewalk	-12.0253
▁1933	-12.0254
▁teddy	-12.0254
▁zealand	-12.0254
▁chupacabra	-12.0255
▁distinction	-12.0255
▁fido	-12.0255
▁jos	-12.0255
▁skeptical	-12.0255
▁spotted	-12.0255
▁anonymous	-12.0257
waiting	-12.0257
▁chocolate	-12.0257
▁rukh	-12.0258
▁cheadle	-12.0259
▁atlantic	-12.0261
▁basil	-12.0262
▁mindset	-12.0262
▁falcon	-12.0262
hol	-12.0264
los	-12.0268
▁dominated	-12.0273
▁relaxed	-12.0273
▁creeps	-12.0275
▁smoothly	-12.0278
▁hound	-12.0281
▁inmates	-12.0281
▁traitor	-12.0281
four	-12.0282
ika	-12.0282
▁ple	-12.0282
born	-12.0286
▁8.	-12.0291
▁wilde	-12.0291
▁tilly	-12.0292
▁clad	-12.0292
▁pierre	-12.0293
▁magically	-12.0297
▁solved	-12.0301
using	-12.0302
▁threads	-12.0303
▁marketed	-12.0306
▁masked	-12.031
▁bombed	-12.0317
▁fo	-12.0318
▁opt	-12.0319
▁elliot	-12.0323
▁zoom	-12.0325
▁hawk	-12.0327
loving	-12.033
kevin	-12.033
▁boob	-12.033
sub	-12.0335
▁lambs	-12.0337
▁listened	-12.0338
▁attribute	-12.0338
▁weirdo	-12.0339
▁1920	-12.0341
released	-12.0341
▁organ	-12.0342
▁tops	-12.0344
▁nan	-12.0345
▁sinks	-12.0352
ban	-12.0361
▁colored	-12.0366
▁digest	-12.0366
ama	-12.0369
▁coin	-12.0372
▁vamp	-12.0376
▁reunite	-12.0378
▁cancel	-12.0383
▁admirably	-12.0386
▁beethoven	-12.0386
▁gromit	-12.0386
▁mccarthy	-12.0386
▁prologue	-12.0386
▁superfluous	-12.0386
▁anthology	-12.0386
▁gallery	-12.0386
▁closure	-12.0386
▁hungarian	-12.0386
▁awry	-12.0386
▁therapy	-12.0386
▁hellraiser	-12.0386
▁comparable	-12.0386
▁hopeful	-12.0386
▁sweetheart	-12.0387
▁1934	-12.0387
▁shearer	-12.0387
▁edith	-12.0388
▁midler	-12.0388
▁philadelphia	-12.0389
▁zany	-12.0389
▁infant	-12.0389
▁civilians	-12.0389
▁byrne	-12.039
▁elected	-12.0391
▁elmer	-12.0392
▁robocop	-12.0392
▁brent	-12.0392
▁malcolm	-12.0393
▁burden	-12.0393
▁tacked	-12.0393
▁understandably	-12.0394
▁fanny	-12.0394
▁polly	-12.0394
▁funky	-12.0395
▁fran	-12.0399
▁bitchy	-12.0399
▁symbols	-12.0404
▁harp	-12.0404
▁sexist	-12.0407
▁puzzled	-12.0408
▁ranting	-12.0408
▁demonstrated	-12.0408
hum	-12.0409
▁loner	-12.0409
▁officially	-12.0409
ali	-12.0409
▁produces	-12.0415
fall	-12.0417
▁lap	-12.0418
▁sample	-12.0418
▁targets	-12.042
▁allies	-12.0425
▁troopers	-12.0426
elle	-12.043
▁gum	-12.043
▁officials	-12.0439
ched	-12.0443
ano	-12.0444
roy	-12.0449
cc	-12.0451
▁timon	-12.0452
▁/>8	-12.0456
▁scarlet	-12.0459
would	-12.046
▁bryan	-12.046
▁crook	-12.0461
▁obstacles	-12.0463
daughter	-12.0464
▁sober	-12.0466
▁confession	-12.047
▁jock	-12.0471
▁counterpart	-12.0472
▁slower	-12.0473
▁stu	-12.0474
▁sunk	-12.0474
ata	-12.0477
cam	-12.0479
▁fe	-12.0483
bag	-12.0487
▁paths	-12.0487
▁bearing	-12.049
▁goth	-12.049
▁excuses	-12.0494
tty	-12.0497
▁rant	-12.0497
▁/>2)	-12.0497
▁socially	-12.05
▁stations	-12.0502
▁tease	-12.0503
▁whisper	-12.0504
▁punish	-12.0508
▁compromise	-12.0508
▁sufficient	-12.0514
hhh	-12.0515
▁pianist	-12.0516
▁pixar	-12.0521
▁radiation	-12.0521
▁cohesive	-12.0521
▁combining	-12.0521
▁custody	-12.0521
▁economy	-12.0521
▁estevez	-12.0521
▁huppert	-12.0521
▁lieutenant	-12.0521
▁moriarty	-12.0521
▁occupation	-12.0521
▁pursuing	-12.0521
▁redgrave	-12.0521
▁winchester	-12.0521
▁suave	-12.0521
▁overtones	-12.0521
▁beetle	-12.0521
▁laboratory	-12.0521
▁enchanted	-12.0521
▁henson	-12.0521
▁annoyance	-12.0521
▁crass	-12.0521
▁padding	-12.0522
▁hannah	-12.0522
▁brazilian	-12.0522
▁accomplishment	-12.0522
▁gillian	-12.0522
▁mentor	-12.0522
▁transvestite	-12.0523
▁mol	-12.0523
▁distinguish	-12.0525
win	-12.0526
▁sway	-12.0526
▁mice	-12.0528
▁keanu	-12.0528
▁puke	-12.0529
▁/>1	-12.0529
▁giants	-12.0529
▁evolved	-12.0531
▁similarity	-12.0532
▁blacks	-12.0533
▁demi	-12.0533
▁nerdy	-12.0535
▁nero	-12.0537
▁collar	-12.0538
▁crypt	-12.0539
▁sheets	-12.054
▁confirmed	-12.054
▁restraint	-12.0542
▁gathered	-12.0543
▁overnight	-12.0544
▁christy	-12.0544
▁labeled	-12.0544
▁rio	-12.0545
▁handy	-12.0554
▁holland	-12.0554
▁para	-12.056
hall	-12.0564
cl	-12.0566
▁cousins	-12.0568
lost	-12.0577
▁targeted	-12.0578
▁cursed	-12.0579
▁insulted	-12.058
ute	-12.058
▁lili	-12.0584
uff	-12.0584
person	-12.0591
▁professionals	-12.0592
▁flashing	-12.0595
▁snap	-12.0595
▁watcher	-12.0595
tel	-12.06
related	-12.06
cal	-12.0606
packed	-12.061
cru	-12.061
mal	-12.0617
▁alot	-12.0624
▁observations	-12.0628
▁notices	-12.0629
ters	-12.0633
mind	-12.0639
usually	-12.064
▁awaken	-12.0642
▁privilege	-12.0645
▁gangs	-12.0649
▁anxious	-12.0649
▁admitted	-12.0654
dark	-12.0655
▁retrieve	-12.0655
▁reckless	-12.0657
▁cigar	-12.0658
▁succumb	-12.0658
▁confined	-12.0658
▁henchmen	-12.0658
▁hockey	-12.0658
▁impersonation	-12.0658
▁naschy	-12.0658
▁perpetual	-12.0658
▁schizophrenic	-12.0658
▁carlito	-12.0658
▁butterfly	-12.0658
▁devotion	-12.0658
▁irwin	-12.0658
▁reprise	-12.0658
▁exploitative	-12.0658
▁discount	-12.0658
▁mcqueen	-12.0658
▁stomp	-12.0658
▁chevy	-12.0658
▁jacques	-12.0658
▁earliest	-12.0659
▁joking	-12.0659
▁1957	-12.0659
▁pivotal	-12.0659
▁guinea	-12.0659
▁grayson	-12.066
▁biko	-12.0661
▁berkeley	-12.0661
▁deadpan	-12.0661
▁backyard	-12.0662
bie	-12.0662
▁ample	-12.0662
▁forgiveness	-12.0663
▁rickman	-12.0663
▁cuban	-12.0664
▁penelope	-12.0664
▁marilyn	-12.0664
▁myrna	-12.0666
▁faye	-12.0667
▁progression	-12.0668
▁domain	-12.0668
▁terrorism	-12.0668
▁relentlessly	-12.067
▁perceived	-12.0671
▁drawings	-12.0671
▁projection	-12.0672
▁morse	-12.0673
▁milland	-12.0674
14	-12.0675
▁casually	-12.0676
▁bosses	-12.0676
▁chiller	-12.0678
▁criticized	-12.0678
▁filmography	-12.0679
▁billion	-12.0683
tley	-12.0687
▁bandit	-12.0689
▁cheers	-12.0693
▁seriousness	-12.0695
▁hinted	-12.0702
▁lighten	-12.0702
▁dope	-12.0707
▁pointing	-12.0707
▁moran	-12.0716
▁hark	-12.0717
▁awfulness	-12.072
tur	-12.0722
▁laying	-12.0722
▁surround	-12.0723
▁evoke	-12.074
hollywood	-12.0741
ulation	-12.0741
▁cummings	-12.0743
▁spoofs	-12.0745
▁pope	-12.0746
voiced	-12.0746
▁unconscious	-12.0747
meaning	-12.0748
▁brick	-12.0753
▁slashers	-12.0753
fo	-12.0753
rex	-12.0753
▁reeve	-12.0753
▁keys	-12.0756
▁rea	-12.076
▁scam	-12.0771
▁weary	-12.0783
log	-12.0783
▁amuse	-12.0792
▁mcc	-12.0795
▁honour	-12.0796
▁daisy	-12.0797
▁decency	-12.0797
▁district	-12.0797
▁edmund	-12.0797
▁gielgud	-12.0797
▁graffiti	-12.0797
▁lubitsch	-12.0797
▁sasquatch	-12.0797
▁sensitivity	-12.0797
▁federal	-12.0797
▁ramsey	-12.0797
▁escort	-12.0797
▁bicycle	-12.0797
▁brunette	-12.0797
▁outlandish	-12.0797
▁clarity	-12.0797
▁lurid	-12.0797
▁penalty	-12.0797
▁cancelled	-12.0797
▁motel	-12.0797
▁selleck	-12.0797
▁chock	-12.0798
▁jagger	-12.0798
▁chopper	-12.0798
▁faux	-12.0798
▁dragging	-12.0798
▁fabric	-12.0798
▁recite	-12.0798
▁gossip	-12.0798
▁charity	-12.0799
▁preparation	-12.0799
▁passive	-12.08
▁leland	-12.08
▁data	-12.08
▁carr	-12.0801
▁irritated	-12.0802
▁murderers	-12.0803
▁abundance	-12.0805
▁loretta	-12.0805
▁robotic	-12.0805
scott	-12.0807
▁perverted	-12.0809
▁tar	-12.081
nny	-12.0811
▁chops	-12.0813
▁/>9/10	-12.0815
▁glenda	-12.0818
▁rewind	-12.0821
ail	-12.0822
▁suggesting	-12.0823
▁openly	-12.0824
▁frances	-12.0833
▁kerr	-12.0833
rri	-12.0836
thought	-12.0837
▁gripe	-12.0837
piece	-12.0837
▁eggs	-12.0842
kate	-12.0842
▁ambitions	-12.0842
ick	-12.0845
▁pros	-12.0854
▁insanely	-12.0856
▁begun	-12.0859
▁borders	-12.0862
▁puns	-12.0864
▁10/10.	-12.0865
should	-12.0867
▁instances	-12.0867
▁shah	-12.0868
80	-12.0876
▁groan	-12.088
sexual	-12.0881
excellent	-12.0881
literally	-12.0882
▁talkie	-12.0885
▁characteristic	-12.0888
▁claw	-12.0889
▁chapters	-12.089
▁filter	-12.0892
▁rep	-12.0892
▁prank	-12.0894
hl	-12.0896
▁spoiling	-12.0898
▁admirer	-12.09
tell	-12.0902
▁sucking	-12.0904
gary	-12.0905
▁remorse	-12.0911
tier	-12.0924
▁knee	-12.0926
▁wo	-12.0927
▁videotape	-12.0927
▁tam	-12.0928
▁cunning	-12.0928
rit	-12.0931
▁ufo	-12.0936
▁branch	-12.0937
▁retrospect	-12.0938
▁quant	-12.0938
▁applies	-12.0938
▁arizona	-12.0938
▁audrey	-12.0938
▁goldblum	-12.0938
▁hilary	-12.0938
▁predicament	-12.0938
▁puerto	-12.0938
▁puzzling	-12.0938
▁sparse	-12.0938
▁zellweger	-12.0938
▁shelves	-12.0938
▁paragraph	-12.0938
▁raptor	-12.0938
▁patterson	-12.0938
▁shepard	-12.0938
▁granny	-12.0938
▁division	-12.0938
▁helmet	-12.0938
▁mustache	-12.0938
▁shady	-12.0938
▁disappearance	-12.0938
▁stripped	-12.0939
▁raunchy	-12.0939
▁retelling	-12.094
▁elementary	-12.094
▁oddball	-12.094
nik	-12.094
▁compassionate	-12.094
▁straw	-12.0941
▁napoleon	-12.0942
▁swanson	-12.0942
▁pic	-12.0942
▁casablanca	-12.0942
▁infinitely	-12.0942
▁troll	-12.0945
▁stabbing	-12.0946
rid	-12.0946
▁principles	-12.0946
▁hmmm	-12.0948
▁hispanic	-12.0948
ving	-12.095
▁alexandra	-12.095
▁omar	-12.095
▁sarcasm	-12.095
▁expects	-12.0952
▁repeats	-12.0952
scale	-12.0952
dding	-12.0953
▁hmm	-12.0955
▁fleeting	-12.0956
▁distinctly	-12.0956
▁500	-12.0957
▁sail	-12.0957
▁sickness	-12.0958
▁dorm	-12.0959
hell	-12.096
▁predicted	-12.0961
▁pigs	-12.0962
▁madman	-12.0963
▁coolest	-12.0963
▁cracks	-12.0966
▁deed	-12.0966
▁8/10.	-12.0967
▁willard	-12.097
▁cr	-12.0971
▁tent	-12.0976
place	-12.0977
▁switching	-12.098
▁stra	-12.0983
▁astronauts	-12.0986
▁techno	-12.0987
▁crooks	-12.099
▁dien	-12.0991
▁clinic	-12.0996
▁pains	-12.0996
▁crashed	-12.1001
ona	-12.1002
▁dangerously	-12.1009
▁unravel	-12.1009
▁shameful	-12.1012
release	-12.1013
lly	-12.1018
wrenching	-12.1024
possible	-12.1024
average	-12.1024
murder	-12.1024
▁edwards	-12.1024
technically	-12.1025
▁marrying	-12.1028
hood	-12.1032
team	-12.1033
among	-12.1034
ush	-12.1035
▁bimbo	-12.1037
▁revel	-12.1042
gene	-12.1046
▁achievements	-12.1048
▁ob	-12.1052
▁excels	-12.1055
!!!!!!	-12.1056
▁butch	-12.106
▁mixe	-12.1064
▁pod	-12.1064
gle	-12.1065
filmed	-12.1066
▁snatch	-12.1067
dance	-12.1068
self	-12.1071
▁transitions	-12.1075
▁wan	-12.1077
▁contradict	-12.108
▁import	-12.1081
▁fathom	-12.1081
▁flamboyant	-12.1081
▁homicidal	-12.1081
▁psychiatric	-12.1081
▁pulse	-12.1081
▁reckon	-12.1081
▁reiser	-12.1081
▁sprinkle	-12.1081
▁yourselves	-12.1081
▁swiss	-12.1081
▁dedication	-12.1081
▁obscene	-12.1081
▁chamberlain	-12.1081
▁/>2/10	-12.1081
▁raimi	-12.1081
▁serum	-12.1081
▁perkins	-12.1081
▁interplay	-12.1081
▁remainder	-12.1082
▁delay	-12.1082
▁campfire	-12.1082
▁shaggy	-12.1082
▁detached	-12.1083
▁ru	-12.1083
kill	-12.1083
▁infectious	-12.1083
▁sylvester	-12.1084
▁10)	-12.1084
▁grating	-12.1084
▁momma	-12.1085
▁glossy	-12.1085
▁coleman	-12.1086
▁thorn	-12.1086
▁uptight	-12.1087
▁depictions	-12.1093
▁occupied	-12.1094
▁reluctantly	-12.1097
▁noel	-12.1098
▁yearning	-12.1099
▁manipulated	-12.1101
▁ninjas	-12.1101
▁operate	-12.1103
▁martino	-12.1106
▁sparkle	-12.1107
▁placement	-12.1107
nes	-12.1108
▁silverman	-12.1109
worn	-12.111
▁coen	-12.111
ois	-12.1111
▁outrageously	-12.1114
▁watered	-12.1117
▁lara	-12.1117
saw	-12.1119
▁cutter	-12.1121
▁shakes	-12.1122
▁tricked	-12.1126
▁blockbusters	-12.113
▁recurr	-12.1138
lot	-12.1153
▁degrees	-12.1155
▁inhabit	-12.1156
▁imo	-12.1165
jennifer	-12.1169
home	-12.1172
▁mack	-12.1175
▁yells	-12.118
talking	-12.1183
albe	-12.1186
▁monologues	-12.1191
▁hu	-12.1194
▁conduct	-12.1195
▁fleet	-12.1196
tes	-12.1201
▁scriptwriter	-12.1202
▁flirt	-12.1207
▁mastermind	-12.1208
▁overacts	-12.1212
▁accuse	-12.1213
▁permanent	-12.1216
▁increasing	-12.122
▁/>****	-12.1223
▁draft	-12.1224
▁motions	-12.1224
animator	-12.1225
▁adventurous	-12.1226
▁arrogance	-12.1226
▁carriage	-12.1226
▁fiasco	-12.1226
▁impeccable	-12.1226
▁mcdowell	-12.1226
▁neutral	-12.1226
▁overwrought	-12.1226
▁playwright	-12.1226
▁rebellion	-12.1226
▁saloon	-12.1226
▁spectrum	-12.1226
▁unnecessarily	-12.1226
▁unnerving	-12.1226
▁autobiography	-12.1226
▁fairbanks	-12.1226
▁kristofferson	-12.1226
▁houston	-12.1226
▁seattle	-12.1226
▁revolving	-12.1226
▁rumble	-12.1226
▁denver	-12.1226
▁stirring	-12.1226
▁stepmother	-12.1226
▁randall	-12.1226
▁revival	-12.1226
▁attendant	-12.1226
▁patent	-12.1226
▁keyboard	-12.1226
▁skipping	-12.1227
▁electricity	-12.1227
▁fellini	-12.1227
▁exaggeration	-12.1228
▁plantation	-12.1228
ani	-12.1228
▁breathless	-12.1228
▁villagers	-12.1229
▁deception	-12.1229
▁overshadowed	-12.123
▁traumatic	-12.123
▁accidental	-12.123
loved	-12.123
▁deanna	-12.1231
▁dopey	-12.1232
▁sylvia	-12.1232
▁angelina	-12.1233
▁letterman	-12.1233
▁agreement	-12.1233
▁scoop	-12.1234
▁evelyn	-12.1235
▁miner	-12.1235
▁deliverance	-12.1236
▁crane	-12.1238
▁drifter	-12.124
▁derived	-12.124
▁downtown	-12.124
▁27	-12.1242
▁strained	-12.1245
▁advances	-12.1252
▁linear	-12.1253
▁junkie	-12.1253
jan	-12.1254
▁crank	-12.1255
▁rivers	-12.1256
▁indulge	-12.1263
▁halt	-12.1264
ium	-12.1264
▁brass	-12.1271
(!)	-12.1272
ress	-12.1275
100	-12.1279
mary	-12.1285
▁heal	-12.1285
▁carly	-12.1286
▁europeans	-12.1291
▁swords	-12.1294
worker	-12.1295
▁kan	-12.1295
mercifully	-12.1302
original	-12.1305
zy	-12.1308
due	-12.1309
▁marcel	-12.1309
▁shout	-12.1311
▁shawn	-12.1313
▁bout	-12.1315
wrote	-12.1316
▁prostitutes	-12.1317
▁searched	-12.1317
centered	-12.1319
opera	-12.132
▁novelist	-12.1321
zombie	-12.1321
▁dominate	-12.1322
▁banks	-12.1323
oc	-12.1324
cool	-12.1329
seeing	-12.1331
▁understands	-12.1332
▁turtle	-12.1334
▁kidnaps	-12.1337
hold	-12.1343
characters	-12.1348
▁hail	-12.1351
▁traditions	-12.1358
▁proportions	-12.136
▁finance	-12.136
aging	-12.1363
▁signal	-12.1366
▁incidental	-12.1369
semblance	-12.1371
matt	-12.1372
▁academic	-12.1373
▁beowulf	-12.1373
▁fassbinder	-12.1373
▁kazan	-12.1373
▁scheming	-12.1373
▁sentinel	-12.1373
▁vessel	-12.1373
▁rhys	-12.1373
▁tepid	-12.1373
▁transparent	-12.1373
▁galactica	-12.1373
▁sweeney	-12.1373
▁soderbergh	-12.1373
▁miniature	-12.1373
▁gym	-12.1373
▁ernie	-12.1373
▁harlow	-12.1373
▁britney	-12.1373
▁olsen	-12.1373
▁vader	-12.1373
▁dudley	-12.1373
▁idealistic	-12.1373
▁dreaming	-12.1374
▁arnie	-12.1374
▁katie	-12.1374
▁choir	-12.1374
▁kinky	-12.1375
▁blaxploitation	-12.1375
▁suggestive	-12.1375
▁stance	-12.1376
▁borderline	-12.1376
▁schwarzenegger	-12.1376
▁sponsor	-12.1377
▁scattered	-12.1378
▁platoon	-12.1378
▁denied	-12.1378
▁patch	-12.1379
▁consumed	-12.1379
▁forrest	-12.138
▁peggy	-12.138
▁bogus	-12.1381
▁scarface	-12.1381
▁subtitled	-12.1382
▁russ	-12.1382
▁chuckles	-12.1383
▁skateboarding	-12.1383
▁policemen	-12.1384
▁holden	-12.1387
▁distinguished	-12.1387
▁allegedly	-12.1388
▁csi	-12.1392
▁arranged	-12.1392
▁hicks	-12.1393
▁revolting	-12.1394
ple	-12.1395
▁romances	-12.1395
▁adequately	-12.1398
▁crushed	-12.14
▁gam	-12.1407
▁pranks	-12.1417
bling	-12.1417
▁oriented	-12.1417
▁nickname	-12.1423
▁coal	-12.1426
slow	-12.1428
▁app	-12.1431
>	-12.1443
given	-12.1446
▁poop	-12.1446
▁brooke	-12.1451
▁talentless	-12.1453
iko	-12.1457
▁theft	-12.1458
▁annoy	-12.1459
▁shaped	-12.146
could	-12.1463
jeff	-12.1466
bomb	-12.1466
lewis	-12.1467
▁favourites	-12.1471
▁dec	-12.1479
frank	-12.1482
luc	-12.1483
▁collaboration	-12.1485
▁pals	-12.1486
▁stripper	-12.1486
▁virtue	-12.1487
▁shred	-12.1492
▁awarded	-12.1492
▁extend	-12.1494
ished	-12.1498
▁ce	-12.1498
▁bomber	-12.1499
sound	-12.15
fish	-12.1501
▁talky	-12.1505
▁networks	-12.1507
▁propose	-12.1509
▁download	-12.1509
▁texture	-12.1509
▁sabotage	-12.151
mme	-12.1512
▁truthful	-12.1518
ram	-12.1519
▁schools	-12.1519
▁existential	-12.1521
▁ambiance	-12.1522
▁ceremony	-12.1522
▁connecticut	-12.1522
▁diabolical	-12.1522
▁poitier	-12.1522
▁scheider	-12.1522
▁handicapped	-12.1522
▁biological	-12.1522
▁blazing	-12.1522
▁boundaries	-12.1522
▁cedric	-12.1522
▁pornographic	-12.1522
▁diversity	-12.1522
▁tedium	-12.1522
▁supermarket	-12.1522
▁retirement	-12.1522
▁mabel	-12.1523
▁demeanor	-12.1523
▁animators	-12.1523
▁drugged	-12.1523
▁ledger	-12.1523
▁barbra	-12.1524
▁supportive	-12.1524
▁duchovny	-12.1526
▁congo	-12.1526
▁manga	-12.1529
▁cecil	-12.1529
▁gershwin	-12.1529
▁veronica	-12.1529
▁spawned	-12.153
▁condemned	-12.153
▁stephanie	-12.1531
▁bigfoot	-12.1532
▁downward	-12.1533
▁courtesy	-12.1534
▁lingering	-12.1535
▁lindsay	-12.1535
▁bog	-12.1537
▁sheila	-12.1541
▁asset	-12.1542
▁geniuses	-12.1545
earth	-12.155
▁justification	-12.1554
tale	-12.1556
▁subconscious	-12.1556
▁services	-12.1562
▁disappearing	-12.1563
▁mia	-12.1563
▁endured	-12.1563
▁muslims	-12.1565
▁commanding	-12.1569
▁husbands	-12.1571
character	-12.1579
▁advised	-12.1582
▁monumental	-12.1588
▁dreadfully	-12.1588
▁fold	-12.1597
▁eyed	-12.16
nk	-12.1602
writing	-12.1607
▁coincidences	-12.1611
▁splash	-12.1612
▁mat	-12.1613
▁numbing	-12.1613
frame	-12.1614
arm	-12.1614
barbara	-12.1617
stupid	-12.1617
laugh	-12.1618
▁lightly	-12.1618
natured	-12.1618
▁pioneer	-12.1623
▁spears	-12.1623
▁serials	-12.1626
▁tackle	-12.163
omi	-12.1632
▁walters	-12.1637
▁woke	-12.1641
▁soo	-12.1657
▁ongoing	-12.1658
▁hick	-12.1659
▁seth	-12.1659
▁qualifie	-12.1661
▁spray	-12.1663
▁continuous	-12.1664
▁polite	-12.1665
▁swan	-12.1672
▁grandpa	-12.1673
▁submit	-12.1673
▁anatomy	-12.1674
▁competing	-12.1674
▁dafoe	-12.1674
▁elusive	-12.1674
▁external	-12.1674
▁fitzgerald	-12.1674
▁unfinished	-12.1674
▁versatile	-12.1674
▁wrath	-12.1674
▁gilliam	-12.1674
▁implies	-12.1674
▁sociopath	-12.1674
▁seuss	-12.1674
▁cynicism	-12.1674
▁recreation	-12.1674
▁levy	-12.1674
▁naval	-12.1674
▁1955	-12.1674
▁lightweight	-12.1675
▁skipped	-12.1675
▁1975	-12.1675
▁rko	-12.1676
uous	-12.1676
odd	-12.1676
▁hustler	-12.1676
▁hostel	-12.1676
▁disconnected	-12.1677
▁nana	-12.1677
▁voyager	-12.1678
▁drowned	-12.168
camp	-12.168
▁hometown	-12.1681
▁staggering	-12.1682
▁antwone	-12.1682
▁lorenzo	-12.1683
▁portions	-12.1685
▁masterson	-12.1687
▁lex	-12.1687
forget	-12.1689
▁dusty	-12.169
▁mandy	-12.1692
▁ira	-12.1696
▁gaze	-12.1697
kim	-12.1699
▁overused	-12.1699
▁enormously	-12.17
▁lawn	-12.1702
▁environmental	-12.171
▁tits	-12.171
▁cowboys	-12.171
▁significantly	-12.1714
▁defending	-12.1719
▁4)	-12.172
▁knees	-12.172
western	-12.172
▁chic	-12.1726
▁lesbians	-12.1729
▁terrorize	-12.1729
▁counterparts	-12.1729
▁maze	-12.173
▁sy	-12.1737
40	-12.1738
▁ruled	-12.1742
▁fri	-12.1742
▁worrying	-12.1742
▁spur	-12.1747
▁participants	-12.1747
ese	-12.1749
▁cheaper	-12.1753
▁bro	-12.1753
▁crowded	-12.1754
pm	-12.1756
▁criticisms	-12.1756
▁ridden	-12.1759
wait	-12.1759
▁cloth	-12.176
▁atwill	-12.1761
liness	-12.1762
ille	-12.1765
ova	-12.1766
▁stones	-12.1766
stephen	-12.1771
danny	-12.1771
imo	-12.1783
▁collapse	-12.1783
lines	-12.1783
complete	-12.1784
workers	-12.1788
▁kindly	-12.1792
▁innuendo	-12.1794
▁landmark	-12.1796
thus	-12.1798
▁hatch	-12.1801
uh	-12.1805
▁robber	-12.1808
▁risks	-12.1809
effects	-12.181
▁crop	-12.1811
▁paula	-12.1812
met	-12.1813
▁cram	-12.1813
▁outdoor	-12.1813
▁clubs	-12.1814
▁presume	-12.1815
▁gasp	-12.1816
▁acclaim	-12.1817
▁circuit	-12.1827
▁identities	-12.1827
▁innovation	-12.1827
▁komodo	-12.1827
▁minnelli	-12.1827
▁monstrous	-12.1827
▁ounce	-12.1827
▁quintessential	-12.1827
▁roosevelt	-12.1827
▁vaudeville	-12.1827
▁carnosaur	-12.1827
▁goldsworthy	-12.1827
▁whimsical	-12.1827
▁unstable	-12.1827
▁culprit	-12.1827
▁avenue	-12.1827
▁bachchan	-12.1827
▁quaint	-12.1827
▁slumber	-12.1827
▁laurie	-12.1827
▁theodore	-12.1828
▁gruff	-12.1828
▁uncertain	-12.1828
▁yarn	-12.1828
▁perversion	-12.1828
▁cockney	-12.1828
▁assistance	-12.1828
▁tempest	-12.1828
▁cheung	-12.1828
▁gilmore	-12.1828
▁misfire	-12.1828
▁zoo	-12.1828
▁uneasy	-12.1828
▁resurrection	-12.1828
▁voting	-12.1828
▁caroline	-12.1829
▁engagement	-12.1829
▁carpet	-12.1829
▁featurette	-12.1829
▁loony	-12.1829
▁baddie	-12.183
▁sigh	-12.183
▁armageddon	-12.1832
▁capsule	-12.1832
▁farewell	-12.1832
▁spinning	-12.1833
▁ellis	-12.1833
▁miraculously	-12.1834
▁circa	-12.1835
▁marcus	-12.1837
▁arkin	-12.1837
▁genie	-12.1838
rat	-12.1838
▁homo	-12.1838
▁wrongly	-12.1839
▁slips	-12.1844
▁waltz	-12.1846
cum	-12.1847
anger	-12.1851
▁hooks	-12.1851
ax	-12.1857
rip	-12.1863
▁sonny	-12.1865
▁praying	-12.1866
▁papers	-12.1869
▁gods	-12.1874
▁absorbed	-12.1878
▁deeds	-12.188
▁bynes	-12.1887
▁mobsters	-12.1899
▁traps	-12.1904
▁sacrifices	-12.1905
state	-12.1909
blood	-12.191
▁cleaner	-12.1919
developed	-12.1923
*****	-12.1926
daniel	-12.1927
interesting	-12.1927
often	-12.193
▁blur	-12.1931
▁sights	-12.1933
▁til	-12.1941
add	-12.1942
someone	-12.1943
▁winners	-12.1943
bat	-12.1944
▁7/10.	-12.1944
brian	-12.1946
▁epics	-12.1946
▁gor	-12.1949
▁grind	-12.1952
▁instrument	-12.1954
▁ratio	-12.1955
know	-12.1955
bly	-12.1955
▁martian	-12.1956
▁invent	-12.1956
▁gesture	-12.1956
▁missile	-12.1957
▁springs	-12.196
▁telly	-12.1961
▁intelligently	-12.1962
▁manners	-12.1962
▁pleasures	-12.1963
▁fend	-12.1966
▁revelations	-12.1972
▁convert	-12.1973
▁stamp	-12.1973
▁heir	-12.1976
nar	-12.1979
▁layer	-12.198
▁perspectives	-12.1981
▁intellect	-12.1984
▁categories	-12.1984
▁communism	-12.1984
▁floyd	-12.1984
▁gardner	-12.1984
▁harriet	-12.1984
▁maturity	-12.1984
▁millennium	-12.1984
▁necessity	-12.1984
▁schrader	-12.1984
▁switzerland	-12.1984
▁sydow	-12.1984
▁thirteen	-12.1984
▁chavez	-12.1984
▁saddest	-12.1984
▁bloodshed	-12.1984
▁rabid	-12.1984
▁prue	-12.1984
▁grammar	-12.1984
▁rudd	-12.1984
▁aerial	-12.1984
▁predictability	-12.1984
▁chong	-12.1984
▁vulnerability	-12.1984
▁shylock	-12.1984
▁backwoods	-12.1984
▁rampant	-12.1984
▁rehearsal	-12.1984
▁visceral	-12.1984
▁esther	-12.1984
▁throne	-12.1984
▁solomon	-12.1984
▁irresistible	-12.1985
▁breakthrough	-12.1985
▁carlyle	-12.1985
▁dressler	-12.1985
▁grain	-12.1985
▁truman	-12.1985
▁benjamin	-12.1987
▁censorship	-12.1987
▁honorable	-12.1987
▁mathieu	-12.1988
▁carroll	-12.1988
▁katherine	-12.1989
marc	-12.1989
▁ostensibly	-12.1989
▁judd	-12.199
▁eleanor	-12.199
▁downbeat	-12.1991
▁unleashed	-12.1991
▁skating	-12.1992
▁kisses	-12.1993
▁hugo	-12.1995
▁deborah	-12.1996
▁fantastically	-12.1998
outs	-12.1998
▁9/10.	-12.1998
▁motivated	-12.1999
▁flea	-12.1999
▁blessed	-12.2002
▁mona	-12.2005
▁/>1/10	-12.2005
isation	-12.2007
▁lick	-12.2008
starring	-12.2009
▁menu	-12.2012
▁rec	-12.2012
▁lump	-12.2015
eck	-12.2017
▁robe	-12.2021
▁shin	-12.2022
▁chewing	-12.2022
▁ming	-12.2027
▁reduce	-12.2046
▁inducing	-12.2052
evil	-12.2058
ative	-12.2065
▁oriental	-12.2067
▁conflicted	-12.2068
conscious	-12.2072
▁trusted	-12.2074
▁responds	-12.2078
▁burnt	-12.2078
▁viva	-12.2079
present	-12.2084
stay	-12.2085
decent	-12.2087
honestly	-12.2087
candy	-12.2088
▁sl	-12.2091
▁mash	-12.2091
▁gram	-12.2091
ego	-12.2094
▁testing	-12.2101
▁illustrate	-12.2104
▁charges	-12.2107
ep	-12.2107
▁barbarian	-12.2114
either	-12.2115
▁electronic	-12.2121
▁curtain	-12.2122
▁dominic	-12.2126
▁hare	-12.2127
▁entertainer	-12.213
▁helm	-12.2131
▁whack	-12.2132
mus	-12.2132
▁interpretations	-12.2133
pieces	-12.2133
rah	-12.2135
▁refuge	-12.2136
▁failures	-12.2136
▁adjust	-12.2139
▁hawaii	-12.2141
▁mono	-12.2141
▁athletic	-12.2142
▁concentration	-12.2142
▁exorcism	-12.2142
▁fiennes	-12.2142
▁knack	-12.2142
▁phantasm	-12.2142
▁sophistication	-12.2142
▁agonizing	-12.2142
▁bartender	-12.2142
▁sensibilities	-12.2142
▁unremarkable	-12.2142
▁keitel	-12.2142
▁wreak	-12.2142
▁misplaced	-12.2142
▁capshaw	-12.2142
▁goddess	-12.2142
▁placing	-12.2142
▁stride	-12.2142
▁aniston	-12.2142
▁monday	-12.2143
▁drummer	-12.2143
▁singular	-12.2143
▁iranian	-12.2144
▁delta	-12.2144
▁marvin	-12.2144
▁decoration	-12.2144
▁reese	-12.2144
▁confederate	-12.2145
▁chips	-12.2145
▁imprisoned	-12.2146
▁dung	-12.2146
mb	-12.2147
▁jen	-12.2147
▁misty	-12.2148
▁lukas	-12.2148
▁cliffhanger	-12.2148
▁kit	-12.215
▁duff	-12.215
takes	-12.215
▁legion	-12.215
▁expresses	-12.2152
▁announced	-12.2152
▁kathleen	-12.2152
▁drowning	-12.2154
▁shamelessly	-12.2156
▁warped	-12.2159
▁beforehand	-12.2159
▁aspire	-12.2159
ller	-12.2161
aw	-12.2164
put	-12.2166
▁girlfriends	-12.2167
▁output	-12.2167
▁crispin	-12.2168
▁logo	-12.2172
19	-12.2172
misunderstanding	-12.2172
▁nailed	-12.2174
▁tones	-12.2174
sad	-12.2178
▁boxes	-12.2178
▁ala	-12.2179
▁fixed	-12.2179
▁armor	-12.218
▁maintained	-12.2181
▁undergo	-12.2181
(?)	-12.2181
▁mills	-12.2184
▁photograph	-12.2189
nard	-12.2195
▁hol	-12.2197
▁happenings	-12.2198
▁contributes	-12.2202
▁formal	-12.2209
▁wrenching	-12.2212
ening	-12.2212
third	-12.2213
▁sox	-12.2216
sick	-12.2218
▁protecting	-12.223
steve	-12.2237
▁assort	-12.2239
▁hairy	-12.2239
▁counted	-12.2246
enjoy	-12.2246
induced	-12.2247
worst	-12.2247
bruce	-12.2247
actresses	-12.2248
▁sar	-12.225
▁cart	-12.225
▁influences	-12.2251
mis	-12.2256
▁fighters	-12.2258
▁tru	-12.2261
▁exhibit	-12.2268
▁cheats	-12.2268
secondly	-12.227
▁chap	-12.2274
▁ul	-12.2275
formed	-12.2277
▁shield	-12.228
▁passenger	-12.2285
qu	-12.2286
45	-12.2287
▁toned	-12.2288
▁slugs	-12.229
▁anguish	-12.2293
standing	-12.2295
▁violin	-12.2303
▁agatha	-12.2304
▁bathtub	-12.2304
▁conniving	-12.2304
▁desolate	-12.2304
▁dolemite	-12.2304
▁evocative	-12.2304
▁foreboding	-12.2304
▁irrational	-12.2304
▁luxury	-12.2304
▁mishima	-12.2304
▁oblivion	-12.2304
▁sophomoric	-12.2304
▁torturing	-12.2304
▁wynorski	-12.2304
▁caretaker	-12.2304
▁contemplate	-12.2304
▁quigley	-12.2304
▁soylent	-12.2304
▁belgian	-12.2304
▁rowlands	-12.2304
▁solving	-12.2304
▁cotton	-12.2304
▁lennon	-12.2304
▁mockery	-12.2304
▁scarred	-12.2304
▁cocktail	-12.2304
▁sunrise	-12.2304
▁bloodthirsty	-12.2304
▁mumble	-12.2304
▁babysitter	-12.2304
▁irving	-12.2304
▁retreat	-12.2304
fr	-12.2305
▁slavery	-12.2305
▁1947	-12.2305
▁governor	-12.2305
▁classified	-12.2305
▁devious	-12.2306
▁conductor	-12.2307
▁earthquake	-12.2307
▁distorted	-12.2308
▁tenderness	-12.2309
▁mendes	-12.2309
▁trump	-12.2309
▁gel	-12.231
▁pathetically	-12.231
upon	-12.231
▁baffled	-12.231
▁delirious	-12.2311
▁overwhelmed	-12.2311
▁hunky	-12.2311
▁lyrical	-12.2311
▁kathryn	-12.2312
▁vinnie	-12.2312
▁publisher	-12.2312
▁correctness	-12.2314
▁succession	-12.2315
▁varying	-12.2317
▁lament	-12.2317
▁expressive	-12.2317
▁imho	-12.2319
zar	-12.2321
▁dismissed	-12.2322
▁volumes	-12.2323
▁reasoning	-12.2324
▁bergen	-12.2325
oooo	-12.2327
▁lastly	-12.2332
▁tele	-12.2332
▁weirdness	-12.2333
▁snowy	-12.2334
▁destructive	-12.2334
............	-12.2338
▁worm	-12.2339
▁widowed	-12.2339
▁encouraged	-12.2339
ug	-12.234
▁veer	-12.2342
▁steppe	-12.2343
▁poo	-12.2343
▁starlet	-12.2344
oy	-12.2344
▁norma	-12.2347
whom	-12.2348
▁languages	-12.235
▁salvage	-12.235
▁rips	-12.2353
▁representing	-12.2354
isha	-12.2361
rap	-12.2362
uc	-12.2363
▁stoic	-12.2363
▁250	-12.2365
▁darkly	-12.2369
rak	-12.237
ena	-12.2373
jay	-12.2375
▁peer	-12.2375
▁lovingly	-12.2378
▁crowe	-12.238
▁sheet	-12.2385
▁schemes	-12.2387
▁dispose	-12.2387
▁stakes	-12.2392
▁classmates	-12.2395
▁detect	-12.2403
▁sins	-12.2404
▁committ	-12.2404
▁amid	-12.241
educated	-12.2411
husband	-12.2411
thomas	-12.2411
pl	-12.2411
culture	-12.2412
hence	-12.2413
▁harlin	-12.2414
talk	-12.2415
billy	-12.2423
pp	-12.2431
▁capt	-12.2437
▁sweep	-12.2437
arch	-12.2438
pick	-12.2441
▁10!	-12.2442
▁scout	-12.2447
▁soprano	-12.2448
▁sibling	-12.2448
▁unre	-12.2451
▁squirm	-12.2455
▁undermine	-12.2456
?!?!	-12.2462
▁bikers	-12.2463
▁commenter	-12.2465
▁micro	-12.2465
▁appalled	-12.2468
▁colony	-12.2468
▁constraints	-12.2468
▁eclipse	-12.2468
▁greece	-12.2468
▁incompetence	-12.2468
▁monstrosity	-12.2468
▁patriarch	-12.2468
▁piranha	-12.2468
▁saboteur	-12.2468
▁schumacher	-12.2468
▁stalwart	-12.2468
▁superlative	-12.2468
▁cringing	-12.2468
▁oprah	-12.2468
semitism	-12.2468
▁bert	-12.2468
▁percent	-12.2468
▁beaver	-12.2468
▁padded	-12.2468
▁irresponsible	-12.2468
▁bites	-12.2468
▁radar	-12.2468
▁commendable	-12.2468
▁anxiety	-12.2468
▁charley	-12.2469
▁langdon	-12.2469
▁eccleston	-12.247
▁bullies	-12.247
▁worldwide	-12.247
▁prolonged	-12.247
▁stunk	-12.2471
▁continent	-12.2471
mac	-12.2471
▁botched	-12.2472
▁entertains	-12.2473
▁cent	-12.2473
dir	-12.2473
▁diesel	-12.2473
▁controlling	-12.2475
▁robbing	-12.2475
▁rockne	-12.2476
▁dial	-12.2477
▁timmy	-12.2477
▁amateurs	-12.2478
▁shakespearean	-12.2479
▁flare	-12.248
▁grit	-12.248
▁bigot	-12.248
▁fades	-12.2483
▁expanded	-12.2484
▁007	-12.2486
??)	-12.2486
▁observed	-12.2486
▁bridget	-12.2487
▁dug	-12.2488
▁kor	-12.2489
▁festivals	-12.2489
▁healing	-12.2489
▁blessing	-12.2489
▁slaughtered	-12.2493
▁earns	-12.2494
▁jerky	-12.2495
ying	-12.2495
▁hosts	-12.2496
▁amok	-12.2496
▁adored	-12.2496
▁nerds	-12.2496
▁sections	-12.2498
marisa	-12.2498
▁stalin	-12.2498
▁kin	-12.2499
▁peaks	-12.25
wash	-12.25
budding	-12.2501
▁usage	-12.2505
thical	-12.251
▁smallest	-12.2511
▁intellectually	-12.2513
▁(199	-12.2517
▁beam	-12.2517
▁dialect	-12.2519
edge	-12.252
▁anita	-12.2522
▁yul	-12.2526
▁saints	-12.2528
▁backed	-12.2529
▁hor	-12.2533
▁pipe	-12.2534
▁scarecrows	-12.254
▁structured	-12.2541
▁amoral	-12.2545
▁badness	-12.2545
▁ada	-12.2549
▁punks	-12.2549
political	-12.2549
▁aura	-12.255
▁encourages	-12.2555
table	-12.2556
▁professionally	-12.2557
aking	-12.2557
▁dangers	-12.2557
▁rene	-12.2559
shirt	-12.256
▁riches	-12.2562
▁authors	-12.2564
▁outlook	-12.2572
burg	-12.2572
▁thereafter	-12.2572
▁plunge	-12.2575
father	-12.2577
social	-12.2579
themed	-12.2582
▁preach	-12.2584
▁trait	-12.2586
▁dale	-12.2588
▁ghostly	-12.2588
▁leak	-12.2593
▁vu	-12.2594
found	-12.2599
▁sg	-12.2602
bed	-12.2603
▁choke	-12.2608
▁/>2	-12.261
▁float	-12.2611
▁monitor	-12.2614
!?	-12.2615
ison	-12.262
▁contend	-12.262
▁preserve	-12.2621
▁bor	-12.2625
▁revive	-12.2625
▁missions	-12.2627
▁thankful	-12.2628
▁potent	-12.2629
▁erik	-12.2632
▁cyber	-12.2634
▁automatic	-12.2634
▁anniversary	-12.2634
▁baffling	-12.2634
▁beckinsale	-12.2634
▁bloodbath	-12.2634
▁constitute	-12.2634
▁idiocy	-12.2634
▁infidelity	-12.2634
▁january	-12.2634
▁liotta	-12.2634
▁upstairs	-12.2634
▁wolves	-12.2634
▁krueger	-12.2634
▁suzanne	-12.2634
▁talbot	-12.2634
▁zhang	-12.2634
▁raving	-12.2634
▁cursing	-12.2634
▁colbert	-12.2634
▁gently	-12.2634
▁conquest	-12.2634
▁signature	-12.2634
▁scum	-12.2634
▁ploy	-12.2635
▁hutton	-12.2635
▁stitches	-12.2635
▁0/10	-12.2635
▁uninspiring	-12.2635
▁judith	-12.2635
▁dirk	-12.2635
▁duckling	-12.2636
▁rivalry	-12.2636
▁tucker	-12.2636
▁ravishing	-12.2636
▁litter	-12.2637
▁slayer	-12.2637
▁surrealism	-12.2637
▁sammo	-12.2638
▁klaus	-12.2638
▁platform	-12.2639
▁prone	-12.2639
▁diva	-12.2639
▁gusto	-12.264
▁grandson	-12.264
▁emilio	-12.2641
▁fre	-12.2642
▁sock	-12.2642
▁della	-12.2642
▁realises	-12.2642
▁rotting	-12.2642
▁saddle	-12.2643
▁starship	-12.2644
▁shiny	-12.2644
▁continuously	-12.2645
gon	-12.2645
▁dukes	-12.2647
▁jedi	-12.2649
▁contender	-12.2649
▁ros	-12.2651
▁eliminated	-12.2651
▁searches	-12.2652
▁liam	-12.2652
▁fulfilled	-12.2652
▁tools	-12.2652
wich	-12.2654
▁inch	-12.2656
▁finishes	-12.2656
▁habits	-12.2657
▁butchered	-12.2658
▁phones	-12.266
▁instruments	-12.2664
▁locker	-12.2665
▁downside	-12.2669
▁meek	-12.2671
▁functions	-12.2672
▁connor	-12.2674
jun	-12.2676
▁instincts	-12.2676
▁sentenced	-12.2677
hat	-12.268
▁sacrificed	-12.2681
▁sc	-12.2681
fiery	-12.2682
▁italians	-12.2685
▁chen	-12.2686
▁barbie	-12.269
4)	-12.2696
sister	-12.2699
▁explanations	-12.27
uri	-12.2702
▁pressed	-12.2704
▁yea	-12.2706
▁deservedly	-12.271
▁northwest	-12.2711
▁spi	-12.2712
▁conveying	-12.2713
▁divide	-12.2718
▁fund	-12.2718
▁pok	-12.2723
promoting	-12.2725
▁manson	-12.2729
▁rad	-12.273
▁monks	-12.273
ain	-12.2738
▁loos	-12.2744
-80	-12.2746
▁capitalize	-12.2746
apocalyptic	-12.2747
between	-12.2747
boyfriend	-12.2748
!!!)	-12.2749
til	-12.2749
▁42	-12.2753
▁leone	-12.2755
direction	-12.2755
trip	-12.2757
8)	-12.2759
▁kindness	-12.2759
▁tub	-12.2766
▁daft	-12.277
▁violently	-12.2774
▁evolve	-12.2776
▁disturb	-12.2776
uel	-12.2781
▁mannered	-12.2785
sort	-12.2786
▁snail	-12.2787
▁reels	-12.2789
▁tattoo	-12.2793
▁kiddie	-12.2793
▁extract	-12.2793
▁unsuccessful	-12.2795
▁mm	-12.2801
▁feared	-12.2803
▁creations	-12.2803
▁adept	-12.2804
▁baxter	-12.2804
▁englund	-12.2804
▁extraordinari	-12.2804
▁librarian	-12.2804
▁marijuana	-12.2804
▁november	-12.2804
▁prevalent	-12.2804
▁seduction	-12.2804
▁vertigo	-12.2804
▁wahlberg	-12.2804
▁sordid	-12.2804
▁stimulating	-12.2804
▁muscular	-12.2804
▁overseas	-12.2804
▁interrogation	-12.2804
▁garcia	-12.2804
▁duncan	-12.2804
▁forehead	-12.2804
▁minnie	-12.2804
▁textbook	-12.2804
▁unforgivable	-12.2804
▁freddie	-12.2805
▁cement	-12.2805
▁unlucky	-12.2805
▁ironside	-12.2805
▁tables	-12.2805
▁rejection	-12.2805
▁surpasses	-12.2805
▁emergency	-12.2806
▁luther	-12.2806
▁powerfully	-12.2806
▁standpoint	-12.2806
▁moss	-12.2808
▁imply	-12.2809
▁artistically	-12.2809
▁canvas	-12.2809
▁wildlife	-12.281
▁battlestar	-12.281
uch	-12.2812
▁trier	-12.2812
▁unrated	-12.2813
▁jodie	-12.2816
▁elijah	-12.2816
▁ar	-12.2816
▁inhabited	-12.2816
▁punished	-12.2817
▁aptly	-12.2817
▁exceeding	-12.2819
▁interpreted	-12.2821
▁'50	-12.2822
▁reunited	-12.2823
▁hunger	-12.2823
numbers	-12.2823
▁wimp	-12.2824
▁inventor	-12.2824
▁airing	-12.2827
▁carrier	-12.2828
▁freely	-12.2828
ida	-12.2831
▁archive	-12.2831
........	-12.2835
▁strangest	-12.2836
▁swank	-12.2837
▁dreamed	-12.2849
tron	-12.285
▁predecessors	-12.2853
▁billie	-12.2857
▁patrol	-12.2864
▁fart	-12.2864
▁attributes	-12.287
▁throats	-12.2872
tie	-12.2872
pen	-12.2873
▁stumbl	-12.2876
▁cru	-12.2882
▁clients	-12.2886
▁convicts	-12.2893
▁corridors	-12.2896
▁dia	-12.2896
▁cy	-12.2897
▁expressing	-12.2898
▁ooze	-12.2899
▁emotionless	-12.2902
▁indulgent	-12.2903
▁brits	-12.2905
▁cater	-12.291
▁bliss	-12.2914
load	-12.2914
▁muni	-12.2915
▁goofs	-12.2915
dream	-12.2916
▁hadley	-12.2919
dropping	-12.2919
english	-12.292
holland	-12.292
classic	-12.292
otherwise	-12.292
▁dreamy	-12.2922
▁afro	-12.2925
▁locale	-12.2925
sic	-12.2925
ew	-12.2928
▁censors	-12.2929
▁cassel	-12.2935
mate	-12.294
sided	-12.2941
▁tourists	-12.2947
▁limbs	-12.2947
▁relates	-12.2948
▁numb	-12.2955
▁pas	-12.2956
warming	-12.2958
▁tur	-12.2962
▁cheerleader	-12.2963
▁moan	-12.2965
▁stooge	-12.2966
▁perceive	-12.2966
dad	-12.2967
▁refugee	-12.2969
▁deck	-12.297
▁pond	-12.297
▁disrespect	-12.2971
▁organic	-12.2973
▁plea	-12.2973
▁honeymoon	-12.2975
▁tart	-12.2975
▁achieving	-12.2976
▁cheesiness	-12.2976
▁climate	-12.2976
▁concrete	-12.2976
▁crummy	-12.2976
▁democracy	-12.2976
▁epitome	-12.2976
▁intimacy	-12.2976
▁janitor	-12.2976
▁kutcher	-12.2976
▁pryor	-12.2976
▁requisite	-12.2976
▁vengeful	-12.2976
▁haggard	-12.2976
▁shrek	-12.2976
▁jigsaw	-12.2976
▁glamour	-12.2976
▁memento	-12.2976
▁enforcement	-12.2976
▁dassin	-12.2976
▁administration	-12.2976
▁shaft	-12.2976
▁shrill	-12.2976
▁vienna	-12.2976
▁committee	-12.2976
▁jolly	-12.2976
▁tiring	-12.2977
▁wanda	-12.2977
▁guru	-12.2977
▁dario	-12.2977
▁diversion	-12.2977
▁nutty	-12.2977
zzzz	-12.2977
▁adultery	-12.2977
▁stoop	-12.2977
▁presidential	-12.2977
▁1944	-12.2977
▁bsg	-12.2977
▁noticing	-12.2978
▁renowned	-12.2978
▁massey	-12.2978
▁undeveloped	-12.2978
▁tomei	-12.2978
▁ventura	-12.2978
▁midway	-12.2979
▁rugged	-12.2979
▁siege	-12.298
▁henchman	-12.298
▁tragically	-12.298
▁gwyne	-12.2981
▁underused	-12.2981
▁panel	-12.2983
▁relieved	-12.2983
▁neighbours	-12.2983
▁visitor	-12.2986
▁cocky	-12.2986
▁erratic	-12.2988
▁observer	-12.2988
▁supremely	-12.2994
▁socks	-12.2996
▁/>5.	-12.2997
▁nell	-12.2998
▁fling	-12.2998
ira	-12.2998
▁systems	-12.3
▁declared	-12.3001
▁brandon	-12.3008
▁9.	-12.3009
suit	-12.3012
▁fewer	-12.3013
▁collecting	-12.3016
▁penned	-12.3018
ended	-12.3018
▁mocking	-12.3019
▁premiered	-12.302
▁refund	-12.3022
▁jerks	-12.3023
▁roar	-12.3027
ifying	-12.3033
▁files	-12.3038
▁locales	-12.3038
ered	-12.3039
▁simpler	-12.304
▁loot	-12.3041
?????	-12.3049
▁restless	-12.3051
neck	-12.3051
▁informs	-12.3052
▁dunn	-12.3053
▁monte	-12.3057
fact	-12.3058
vic	-12.306
▁shack	-12.3064
▁tess	-12.3075
seen	-12.308
▁nit	-12.3085
cro	-12.3087
kov	-12.3087
▁/>3)	-12.309
▁terr	-12.3091
sensitive	-12.3095
rou	-12.3096
clock	-12.3098
▁lilli	-12.3099
blue	-12.31
crafted	-12.31
▁thereof	-12.3101
▁stares	-12.3106
nz	-12.3108
▁sr	-12.3112
oid	-12.3114
ates	-12.3117
▁prejudices	-12.312
▁icons	-12.312
▁buys	-12.3132
▁wage	-12.3134
pity	-12.3136
▁recognise	-12.3142
▁summarize	-12.3143
▁opponent	-12.3143
▁/>10	-12.3145
▁contestant	-12.3145
▁irons	-12.3147
▁sandwich	-12.315
▁stubborn	-12.315
▁stylistic	-12.3151
track	-12.3152
▁caribbean	-12.3152
▁debacle	-12.3152
▁gypo	-12.3152
▁nevsky	-12.3152
▁optimism	-12.3152
▁replacing	-12.3152
▁rodriguez	-12.3152
▁stereotyping	-12.3152
▁turgid	-12.3152
▁allegory	-12.3152
▁smarmy	-12.3152
▁discernible	-12.3152
▁prehistoric	-12.3152
▁snoop	-12.3152
▁plummer	-12.3152
▁bauer	-12.3152
▁denial	-12.3152
▁digress	-12.3152
▁triad	-12.3152
▁venus	-12.3152
▁picnic	-12.3152
▁unemployed	-12.3152
▁conroy	-12.3152
▁hitchhiker	-12.3152
▁sorority	-12.3152
▁waterfront	-12.3152
▁monotone	-12.3153
▁josie	-12.3153
▁warfare	-12.3153
▁slew	-12.3153
▁jessie	-12.3153
▁enthralling	-12.3154
▁pawn	-12.3154
ado	-12.3155
▁gladiator	-12.3155
▁blurred	-12.3155
▁speechless	-12.3155
▁dakota	-12.3156
▁daphne	-12.3156
▁maureen	-12.3156
post	-12.3156
▁richly	-12.3157
▁efficient	-12.3158
▁heartily	-12.3158
▁uber	-12.3159
▁cro	-12.3159
▁'90	-12.316
▁heterosexual	-12.3161
▁195	-12.3161
▁eloquent	-12.3162
▁farscape	-12.3163
▁shudder	-12.3164
▁peterson	-12.3167
▁homework	-12.317
▁lung	-12.3171
▁loren	-12.3172
▁deepest	-12.3172
mother	-12.3174
▁jared	-12.3178
▁bleeding	-12.3179
▁mormons	-12.318
▁jacobi	-12.318
▁becky	-12.318
▁colourful	-12.3184
▁muted	-12.3187
▁allison	-12.3188
▁laden	-12.3193
aked	-12.3197
▁sharks	-12.3199
▁ry	-12.3201
▁adopt	-12.3202
................	-12.3205
ea	-12.3205
▁farmers	-12.3205
col	-12.3212
super	-12.3214
▁quirks	-12.3217
phone	-12.3218
75	-12.3224
▁psychologically	-12.3226
care	-12.3227
▁welcomed	-12.3231
▁magnificently	-12.3234
▁caron	-12.3239
bridge	-12.3241
▁bothering	-12.3242
ix	-12.3244
▁rocked	-12.3247
▁tested	-12.3248
▁prints	-12.3252
▁magazines	-12.3252
▁raiders	-12.3259
mes	-12.3262
▁nash	-12.3273
guard	-12.3273
connor	-12.3273
▁heartless	-12.3274
angelo	-12.3275
▁believer	-12.3275
porn	-12.3278
▁grounded	-12.3279
▁mug	-12.3284
▁inc	-12.3295
▁pill	-12.3295
25	-12.3295
▁arrange	-12.33
▁dc	-12.3301
▁misfits	-12.3301
▁revisit	-12.3303
▁controls	-12.3304
▁insects	-12.3305
▁hating	-12.3305
chan	-12.3312
▁smirk	-12.3313
▁nuance	-12.3313
▁slash	-12.3316
▁surpass	-12.3318
▁zombi	-12.3318
▁mur	-12.3321
▁spectator	-12.3324
▁pistol	-12.3325
▁neighbour	-12.3325
▁barrier	-12.3326
▁inflict	-12.3326
▁civilian	-12.3328
▁feud	-12.3329
▁convent	-12.3329
▁knox	-12.333
▁compilation	-12.333
▁costuming	-12.333
▁disdain	-12.333
▁fictitious	-12.333
▁frenetic	-12.333
▁hasselhoff	-12.333
▁kieslowski	-12.333
▁maverick	-12.333
▁notwithstanding	-12.333
▁astonished	-12.333
▁cinematographic	-12.333
▁demographic	-12.333
▁dyke	-12.333
▁thwart	-12.333
▁troupe	-12.333
▁uncompromising	-12.333
▁helsing	-12.333
▁farcical	-12.333
▁geisha	-12.333
▁slang	-12.333
▁architecture	-12.333
▁execute	-12.333
▁dross	-12.333
▁milligan	-12.333
▁somber	-12.333
▁grandparents	-12.333
▁diving	-12.333
▁braveheart	-12.333
▁tenacious	-12.3331
▁alluring	-12.3331
▁relish	-12.3331
▁hiring	-12.3331
▁sfx	-12.3331
▁longoria	-12.3331
▁exhausted	-12.3332
▁housekeeper	-12.3332
fair	-12.3333
▁raft	-12.3333
▁dunno	-12.3334
▁cleopatra	-12.3334
▁truffaut	-12.3334
▁tropical	-12.3334
▁1992	-12.3334
▁harper	-12.3335
▁mister	-12.3335
▁lava	-12.3335
▁aimless	-12.3336
▁illuminated	-12.3336
▁gambler	-12.3336
▁disk	-12.3336
tony	-12.3337
▁partial	-12.3338
▁nineties	-12.3338
▁dime	-12.3338
▁moderately	-12.3338
▁scrap	-12.334
▁surpassed	-12.3341
igan	-12.3345
▁dependent	-12.3346
▁trendy	-12.3348
▁tra	-12.3349
vol	-12.3349
▁launched	-12.3351
▁dogma	-12.3351
▁freshman	-12.3351
▁wwi	-12.3352
ator	-12.3353
▁dork	-12.3353
▁berry	-12.3354
▁cleverness	-12.3357
▁meyer	-12.3361
▁conclusions	-12.3363
▁bonding	-12.3363
fed	-12.3366
▁concentrated	-12.3366
▁renee	-12.3367
▁impressions	-12.3368
pack	-12.3368
▁needlessly	-12.337
holes	-12.3372
▁quarters	-12.3372
▁booze	-12.3374
▁cracked	-12.3374
▁freaked	-12.3376
▁spared	-12.3381
▁shifting	-12.3385
▁allied	-12.3393
ington	-12.3394
body	-12.3397
▁pitched	-12.3399
▁raping	-12.3399
▁spectacularly	-12.3405
▁gre	-12.3406
kee	-12.3415
▁duh	-12.3415
▁guise	-12.3418
▁muster	-12.3418
▁democratic	-12.3419
▁custom	-12.3421
▁campers	-12.3423
fighting	-12.3423
ryan	-12.3424
▁/>3	-12.3428
chuck	-12.3439
▁teamed	-12.3441
▁interiors	-12.3444
olo	-12.3454
fin	-12.3454
▁rapes	-12.3455
▁blends	-12.3455
christian	-12.3456
monster	-12.3456
▁blo	-12.3457
recommended	-12.3457
▁hardships	-12.3458
ultimately	-12.346
▁goo	-12.346
running	-12.3467
▁ilk	-12.3468
cinema	-12.3479
▁positions	-12.348
▁denise	-12.3485
▁locks	-12.3486
▁gimmicks	-12.3493
▁figur	-12.3495
▁pap	-12.3499
got	-12.3501
▁ott	-12.3507
▁winston	-12.351
▁grips	-12.3511
▁buffoon	-12.3511
▁dublin	-12.3511
humphrey	-12.3512
▁atrocities	-12.3512
▁cypher	-12.3512
▁eminent	-12.3512
▁feisty	-12.3512
▁glimmer	-12.3512
▁knives	-12.3512
▁mcdermott	-12.3512
▁pretense	-12.3512
▁smuggling	-12.3512
▁twenties	-12.3512
▁footsteps	-12.3512
▁zucco	-12.3512
▁damsel	-12.3512
▁abbey	-12.3512
▁takashi	-12.3512
▁snack	-12.3512
▁android	-12.3512
▁bernsen	-12.3512
▁scantily	-12.3512
▁guidance	-12.3512
▁upbringing	-12.3512
▁cheech	-12.3512
▁calvin	-12.3512
▁thailand	-12.3512
▁inheritance	-12.3512
▁marlene	-12.3512
▁formidable	-12.3512
▁ponderous	-12.3512
▁opus	-12.3513
▁landlord	-12.3513
▁happier	-12.3513
▁patriotism	-12.3513
▁assassins	-12.3513
▁delusional	-12.3513
▁occurring	-12.3513
▁demonstration	-12.3513
▁jewelry	-12.3513
▁dangerfield	-12.3513
▁untalented	-12.3513
▁enthralled	-12.3513
▁sparkling	-12.3513
▁artful	-12.3513
▁sacred	-12.3514
▁gosling	-12.3514
▁tasty	-12.3514
▁1942	-12.3514
▁virginity	-12.3514
▁approximately	-12.3515
▁comp	-12.3515
▁customs	-12.3515
▁echoes	-12.3515
▁fee	-12.3516
▁nuke	-12.3516
▁witless	-12.3517
▁vh	-12.3517
▁bickering	-12.3518
▁rachael	-12.3518
▁skate	-12.3518
▁coverage	-12.3519
▁cindy	-12.352
deemed	-12.352
▁vanishing	-12.3521
▁marginally	-12.3521
▁uncredited	-12.3521
▁cynthia	-12.3521
▁dripping	-12.3521
▁stepping	-12.3521
shi	-12.3522
▁chloe	-12.3522
▁wip	-12.3522
▁defining	-12.3523
▁rumor	-12.3523
▁nigel	-12.3523
▁rae	-12.3524
waving	-12.3525
▁novella	-12.3525
▁utilize	-12.3527
▁kristin	-12.3528
▁stoner	-12.3529
▁inherited	-12.3529
▁ramon	-12.353
▁moviegoers	-12.3531
▁articulate	-12.3531
▁gaming	-12.3533
▁leary	-12.3533
pot	-12.3535
▁flu	-12.3538
▁towns	-12.3538
▁lions	-12.3538
soon	-12.3539
▁forgiving	-12.3539
ip	-12.3547
▁earning	-12.3549
▁carole	-12.3549
▁outta	-12.355
▁tangle	-12.3553
rim	-12.3554
▁befriend	-12.3554
▁wade	-12.3554
▁relaxing	-12.3557
chy	-12.3558
▁amber	-12.356
front	-12.3563
eu	-12.3567
▁dreyfuss	-12.3569
▁existent	-12.3571
atic	-12.3571
▁spelled	-12.3572
▁bathing	-12.3572
▁om	-12.3573
▁gall	-12.3574
org	-12.3578
▁fashions	-12.3582
empt	-12.3587
▁plotline	-12.3588
▁haha	-12.3595
▁bothers	-12.36
▁documents	-12.3601
▁drivers	-12.3602
▁screamed	-12.3603
▁grocer	-12.3606
01	-12.3607
tig	-12.361
rather	-12.3613
▁fry	-12.3613
▁camps	-12.3615
east	-12.3617
▁offerings	-12.3617
rose	-12.3619
eth	-12.3619
7)	-12.3623
▁incomplete	-12.3626
▁freed	-12.3626
beautiful	-12.3631
normal	-12.3631
▁nuns	-12.3633
▁annoyingly	-12.3634
ign	-12.3637
▁loudly	-12.364
family	-12.3641
baked	-12.3641
▁budgets	-12.3642
nazi	-12.3645
▁associates	-12.3647
things	-12.3648
3)	-12.3649
gli	-12.3653
▁outbreak	-12.3654
▁len	-12.3669
▁embarrass	-12.3669
▁behaves	-12.3671
rod	-12.3676
▁premier	-12.3679
▁gloss	-12.3681
▁shaun	-12.3684
▁bags	-12.3684
inda	-12.3685
▁resurrect	-12.3686
▁retard	-12.3687
▁cherish	-12.3688
▁cynic	-12.3688
▁edges	-12.3688
▁jab	-12.3688
mul	-12.3692
▁prospect	-12.3694
▁nausea	-12.3696
▁concoct	-12.3696
▁adversity	-12.3697
▁appetite	-12.3697
▁caesar	-12.3697
▁cavalry	-12.3697
▁chandler	-12.3697
▁confines	-12.3697
▁glorified	-12.3697
▁insecure	-12.3697
▁mischievous	-12.3697
▁moustache	-12.3697
▁procedure	-12.3697
▁repertoire	-12.3697
▁schtick	-12.3697
▁sheridan	-12.3697
▁staircase	-12.3697
▁temporarily	-12.3697
▁tragedies	-12.3697
▁empathize	-12.3697
▁mandatory	-12.3697
▁cardinal	-12.3697
▁intimidating	-12.3697
▁clarence	-12.3697
▁oppressive	-12.3697
▁facade	-12.3697
▁trunk	-12.3697
▁kruger	-12.3697
▁amiable	-12.3697
▁reincarnation	-12.3697
▁chord	-12.3697
▁duties	-12.3697
▁separation	-12.3697
▁attachment	-12.3698
▁advertisement	-12.3698
▁hypocrisy	-12.3698
▁dummy	-12.3698
▁palette	-12.3698
▁rohmer	-12.3698
▁volcano	-12.3698
▁trey	-12.3698
▁creepiness	-12.3698
▁chiba	-12.3698
▁ashton	-12.3698
▁1951	-12.3698
▁1943	-12.3698
▁cannibalism	-12.3698
▁vanilla	-12.3698
▁rewrite	-12.3698
▁stature	-12.3699
▁patton	-12.3699
▁northam	-12.37
▁archie	-12.37
▁renoir	-12.3701
▁starving	-12.3701
▁sixty	-12.3701
▁wry	-12.3701
▁lemon	-12.3701
▁trent	-12.3702
▁clunker	-12.3702
▁distasteful	-12.3702
▁uniquely	-12.3703
▁palestinian	-12.3703
▁2009	-12.3703
▁inexperienced	-12.3703
▁rail	-12.3704
▁skillfully	-12.3704
▁december	-12.3706
▁babette	-12.3706
▁lengths	-12.3707
▁thelma	-12.3708
▁widower	-12.3709
▁upsetting	-12.3711
sses	-12.3715
▁feather	-12.3716
▁seventh	-12.3717
▁chalk	-12.3717
▁protective	-12.3718
▁seduced	-12.3719
▁dense	-12.3719
▁bernie	-12.372
▁wielding	-12.3722
▁adviser	-12.3724
▁examined	-12.3728
lier	-12.3732
▁doses	-12.3733
▁mish	-12.3734
ye	-12.3736
scary	-12.3737
lessness	-12.3737
▁thunderbirds	-12.3737
▁orbit	-12.3739
▁manos	-12.374
▁blondell	-12.3741
▁archer	-12.3742
hill	-12.3744
▁merk	-12.3746
▁successor	-12.3748
▁options	-12.3748
:00	-12.3751
garde	-12.3752
▁meadows	-12.3756
▁demme	-12.3756
▁meanders	-12.3756
▁proudly	-12.3758
▁apocalyptic	-12.376
joan	-12.3764
▁melv	-12.3766
▁spunk	-12.3766
kk	-12.3767
.5/10	-12.3767
▁/>--	-12.3767
▁ida	-12.3773
trust	-12.3775
eau	-12.3775
▁operatic	-12.3776
▁48	-12.3779
aime	-12.3783
possibly	-12.3783
▁heighten	-12.3784
lando	-12.3786
▁lamp	-12.3787
▁yeti	-12.3787
fisted	-12.3787
▁traveled	-12.3789
▁specialist	-12.3797
▁tick	-12.3798
rob	-12.38
95	-12.3802
doing	-12.3802
▁monument	-12.3803
▁swat	-12.3803
gger	-12.3805
shoot	-12.3806
gal	-12.3807
▁knights	-12.3812
nuff	-12.3813
boys	-12.3813
▁bel	-12.3821
together	-12.3827
claude	-12.3829
imdb	-12.3829
violence	-12.3829
strong	-12.3829
▁20-	-12.3832
▁jeep	-12.3833
buster	-12.3834
▁minimalist	-12.3835
mainly	-12.3838
▁lawyers	-12.3839
▁aims	-12.384
▁cooler	-12.3841
aunt	-12.3841
▁pastor	-12.3842
▁cannibals	-12.3845
hate	-12.3846
pic	-12.3847
fast	-12.385
dramatic	-12.3855
ude	-12.3857
arious	-12.3863
▁commentators	-12.3867
▁spook	-12.3869
▁glue	-12.3873
▁devour	-12.3875
▁suppress	-12.3878
nell	-12.3879
▁holidays	-12.3883
▁finch	-12.3883
dling	-12.3883
ace	-12.3884
▁beef	-12.3885
▁fleischer	-12.3886
▁catastrophe	-12.3886
▁episodic	-12.3886
▁imitating	-12.3886
▁insignificant	-12.3886
▁invincible	-12.3886
▁leguizamo	-12.3886
▁nickelodeon	-12.3886
▁shenanigans	-12.3886
▁stiles	-12.3886
▁tycoon	-12.3886
▁dispute	-12.3886
▁galore	-12.3886
▁opposition	-12.3886
▁spliced	-12.3886
▁microphone	-12.3886
▁valiant	-12.3886
▁zorro	-12.3886
▁burial	-12.3886
▁gospel	-12.3886
▁heiress	-12.3886
▁vijay	-12.3886
▁bloated	-12.3886
▁avail	-12.3886
▁rarity	-12.3886
▁hubby	-12.3886
▁annual	-12.3886
▁parole	-12.3887
▁clayton	-12.3887
▁evie	-12.3887
▁grandeur	-12.3887
▁paz	-12.3887
▁condescending	-12.3887
▁medal	-12.3887
▁forsythe	-12.3888
▁catwoman	-12.3888
▁brash	-12.3888
▁ripper	-12.389
▁pepe	-12.3891
▁addresses	-12.3891
▁drawback	-12.3892
▁seamlessly	-12.3892
▁distributor	-12.3892
▁dwight	-12.3893
▁michel	-12.3896
▁exceeded	-12.3896
▁pauses	-12.3896
▁marital	-12.3898
▁visitors	-12.3898
▁dna	-12.39
▁cough	-12.39
▁diego	-12.3901
▁das	-12.3901
▁goers	-12.3904
▁avant	-12.3904
ctic	-12.3905
▁cloak	-12.3905
▁recovered	-12.3905
▁tagline	-12.3905
▁loathe	-12.3907
▁garnered	-12.3907
▁gadgets	-12.3909
▁franc	-12.391
[...]
